<pad>	0
<s>	0
</s>	0
<unk>	0
in	-0
▁-	-1
▁t	-2
▁a	-3
he	-4
▁s	-5
re	-6
▁f	-7
on	-8
er	-9
me	-10
▁w	-11
at	-12
▁the	-13
▁c	-14
or	-15
nd	-16
le	-17
ou	-18
▁d	-19
it	-20
is	-21
ar	-22
el	-23
▁b	-24
ind	-25
▁o	-26
ed	-27
▁m	-28
▁find	-29
st	-30
ing	-31
▁h	-32
▁"	-33
en	-34
▁'	-35
▁|	-36
▁and	-37
▁to	-38
al	-39
ec	-40
ex	-41
ame	-42
▁p	-43
▁n	-44
as	-45
elf	-46
an	-47
ot	-48
▁of	-49
▁in	-50
▁re	-51
pe	-52
▁l	-53
name	-54
▁g	-55
▁I	-56
▁th	-57
ion	-58
ad	-59
et	-60
▁=	-61
ce	-62
▁he	-63
▁.	-64
ty	-65
▁i	-66
ut	-67
es	-68
▁/	-69
ro	-70
type	-71
mp	-72
ll	-73
▁self	-74
ur	-75
int	-76
de	-77
ho	-78
ir	-79
se	-80
pr	-81
▁be	-82
▁r	-83
ile	-84
._	-85
▁y	-86
ver	-87
ch	-88
ld	-89
ow	-90
▁if	-91
▁\	-92
nt	-93
{}	-94
▁u	-95
▁is	-96
one	-97
▁#	-98
▁de	-99
▁it	-100
▁was	-101
ve	-102
ig	-103
ct	-104
▁for	-105
▁_	-106
▁“	-107
ck	-108
ly	-109
id	-110
ay	-111
▁not	-112
pt	-113
print	-114
▁e	-115
▁1	-116
exec	-117
*.	-118
arg	-119
ort	-120
self	-121
▁you	-122
▁that	-123
▁T	-124
im	-125
lo	-126
od	-127
▁{}	-128
):	-129
▁$	-130
her	-131
urn	-132
▁so	-133
ent	-134
▁as	-135
▁st	-136
ime	-137
args	-138
ab	-139
ith	-140
co	-141
▁x	-142
▁her	-143
ht	-144
▁my	-145
▁ret	-146
▁an	-147
ke	-148
▁\;	-149
▁co	-150
▁me	-151
ss	-152
rep	-153
▁return	-154
▁con	-155
▁with	-156
ext	-157
▁+	-158
ter	-159
▁wh	-160
ould	-161
▁on	-162
out	-163
▁def	-164
and	-165
un	-166
ue	-167
()	-168
li	-169
▁N	-170
▁su	-171
▁M	-172
▁xargs	-173
ri	-174
ra	-175
us	-176
ff	-177
ation	-178
00	-179
""	-180
▁ex	-181
th	-182
ul	-183
ate	-184
▁A	-185
oo	-186
▁grep	-187
▁we	-188
our	-189
▁she	-190
▁had	-191
▁his	-192
ect	-193
xt	-194
▁ha	-195
▁S	-196
ath	-197
ag	-198
pp	-199
▁v	-200
▁(	-201
to	-202
__	-203
▁at	-204
rom	-205
il	-206
dir	-207
▁le	-208
ill	-209
ore	-210
file	-211
▁all	-212
ma	-213
te	-214
▁ch	-215
▁se	-216
▁file	-217
▁but	-218
▁--	-219
▁B	-220
▁D	-221
▁"$	-222
red	-223
ment	-224
ror	-225
txt	-226
um	-227
ight	-228
▁The	-229
▁by	-230
▁None	-231
all	-232
▁"*.	-233
▁E	-234
▁sh	-235
so	-236
▁k	-237
▁do	-238
",	-239
▁or	-240
ass	-241
▁C	-242
ic	-243
iz	-244
path	-245
▁tr	-246
ew	-247
▁sa	-248
▁W	-249
per	-250
ust	-251
':	-252
.”	-253
')	-254
ich	-255
▁no	-256
am	-257
▁0	-258
ine	-259
text	-260
if	-261
ist	-262
ain	-263
▁from	-264
▁aw	-265
qu	-266
art	-267
able	-268
▁H	-269
▁him	-270
ure	-271
▁whe	-272
ard	-273
ise	-274
sh	-275
▁"""	-276
os	-277
time	-278
con	-279
▁have	-280
sp	-281
▁2	-282
▁>	-283
',	-284
ction	-285
ther	-286
ite	-287
▁el	-288
very	-289
▁un	-290
▁ra	-291
cl	-292
▁ar	-293
str	-294
ound	-295
ult	-296
ack	-297
▁<	-298
oug	-299
ell	-300
op	-301
echo	-302
ize	-303
ast	-304
▁F	-305
read	-306
▁j	-307
▁which	-308
▁'*.	-309
▁this	-310
pth	-311
▁rm	-312
ive	-313
('	-314
iv	-315
▁they	-316
▁said	-317
ance	-318
▁up	-319
ption	-320
ser	-321
▁sort	-322
▁al	-323
▁other	-324
ory	-325
rror	-326
ant	-327
Error	-328
▁L	-329
ess	-330
▁imp	-331
▁lo	-332
mod	-333
▁*	-334
mm	-335
▁sed	-336
imal	-337
▁would	-338
ip	-339
==	-340
▁go	-341
▁-0	-342
ong	-343
▁time	-344
▁could	-345
che	-346
ount	-347
▁Mr	-348
▁pr	-349
▁%	-350
ire	-351
▁ab	-352
ecimal	-353
led	-354
▁str	-355
▁en	-356
wn	-357
get	-358
▁ne	-359
▁when	-360
ers	-361
▁out	-362
end	-363
▁can	-364
av	-365
▁who	-366
alue	-367
")	-368
▁some	-369
ata	-370
own	-371
▁read	-372
▁them	-373
▁echo	-374
for	-375
▁pro	-376
▁sp	-377
▁awk	-378
}'	-379
--	-380
ak	-381
depth	-382
▁man	-383
▁ls	-384
other	-385
.*	-386
su	-387
max	-388
▁see	-389
▁your	-390
ake	-391
ace	-392
age	-393
ap	-394
▁pre	-395
ays	-396
▁raise	-397
▁te	-398
,”	-399
are	-400
▁else	-401
HA	-402
▁there	-403
set	-404
▁any	-405
▁were	-406
ink	-407
▁ad	-408
ity	-409
▁are	-410
▁kn	-411
▁[	-412
size	-413
▁mo	-414
ase	-415
mple	-416
▁one	-417
no	-418
▁R	-419
ous	-420
py	-421
▁P	-422
pre	-423
mat	-424
▁ag	-425
▁loo	-426
▁-1	-427
ings	-428
up	-429
do	-430
ER	-431
ign	-432
▁__	-433
▁`	-434
[0	-435
▁been	-436
IN	-437
▁will	-438
fo	-439
col	-440
bu	-441
yn	-442
ond	-443
key	-444
▁{	-445
ge	-446
ject	-447
("	-448
not	-449
▁cl	-450
▁get	-451
iname	-452
tr	-453
au	-454
))	-455
mtime	-456
LE	-457
▁more	-458
tmp	-459
▁J	-460
ait	-461
maxdepth	-462
▁O	-463
home	-464
▁==	-465
ix	-466
.__	-467
ord	-468
▁what	-469
itt	-470
ough	-471
▁!	-472
eth	-473
▁wc	-474
▁their	-475
ib	-476
▁$(	-477
▁exce	-478
▁us	-479
▁chmod	-480
ull	-481
▁ev	-482
▁did	-483
ule	-484
▁di	-485
pro	-486
▁then	-487
▁am	-488
ync	-489
▁cat	-490
▁head	-491
▁set	-492
fore	-493
▁'{	-494
▁ob	-495
log	-496
liz	-497
ail	-498
▁import	-499
ice	-500
▁po	-501
dev	-502
ST	-503
▁Eliz	-504
om	-505
act	-506
▁very	-507
ng	-508
ry	-509
ated	-510
?”	-511
▁arg	-512
abeth	-513
cal	-514
▁know	-515
▁ro	-516
▁Elizabeth	-517
$(	-518
ence	-519
rite	-520
usr	-521
▁off	-522
ffer	-523
cy	-524
▁cut	-525
mo	-526
arn	-527
▁comp	-528
▁per	-529
▁fe	-530
perm	-531
▁sc	-532
▁ho	-533
▁must	-534
di	-535
▁Decimal	-536
10	-537
ars	-538
ree	-539
▁li	-540
ls	-541
▁than	-542
iss	-543
▁He	-544
ked	-545
VE	-546
ype	-547
une	-548
▁ac	-549
▁context	-550
new	-551
put	-552
rue	-553
..	-554
▁./	-555
ME	-556
ww	-557
ally	-558
None	-559
RE	-560
printf	-561
\.	-562
▁too	-563
▁dir	-564
ep	-565
▁exp	-566
error	-567
ml	-568
oto	-569
▁pl	-570
data	-571
ection	-572
▁over	-573
▁~	-574
alse	-575
▁print	-576
▁should	-577
ph	-578
sult	-579
▁has	-580
XX	-581
▁dis	-582
my	-583
▁Th	-584
user	-585
▁<(	-586
/'	-587
__(	-588
*'	-589
reat	-590
ather	-591
pend	-592
▁new	-593
▁again	-594
ish	-595
irst	-596
pos	-597
ved	-598
fter	-599
▁add	-600
▁down	-601
▁every	-602
*"	-603
▁name	-604
-9	-605
▁cp	-606
▁fo	-607
ms	-608
thing	-609
▁only	-610
zip	-611
ought	-612
ument	-613
▁such	-614
stance	-615
▁about	-616
AT	-617
ault	-618
irect	-619
string	-620
back	-621
Con	-622
▁before	-623
▁now	-624
##	-625
ac	-626
bin	-627
▁int	-628
ask	-629
▁G	-630
uch	-631
ide	-632
ies	-633
▁But	-634
ely	-635
▁how	-636
▁op	-637
ress	-638
▁qu	-639
▁cho	-640
ne	-641
ary	-642
▁1,	-643
line	-644
ON	-645
oup	-646
ily	-647
min	-648
▁7	-649
▁\(	-650
▁>>	-651
ittle	-652
),	-653
add	-654
▁'{}	-655
ft	-656
▁bu	-657
▁class	-658
uture	-659
▁done	-660
otocol	-661
▁tw	-662
com	-663
▁while	-664
▁It	-665
prune	-666
▁ind	-667
HAVE	-668
ude	-669
find	-670
vers	-671
▁little	-672
▁try	-673
▁\)	-674
▁first	-675
class	-676
gr	-677
ick	-678
▁->	-679
64	-680
▁3	-681
-9]	-682
▁much	-683
ward	-684
▁into	-685
▁'{}'	-686
ud	-687
val	-688
ber	-689
mpty	-690
ansp	-691
▁hand	-692
▁sho	-693
▁ap	-694
▁call	-695
fl	-696
io	-697
ody	-698
▁day	-699
ND	-700
em	-701
▁after	-702
▁got	-703
sc	-704
▁may	-705
var	-706
=$(	-707
▁"*	-708
▁She	-709
OR	-710
▁pass	-711
▁gr	-712
/\	-713
▁Y	-714
ang	-715
gz	-716
ness	-717
▁cont	-718
====	-719
code	-720
econd	-721
mmand	-722
▁except	-723
!”	-724
some	-725
▁>>>	-726
▁diff	-727
▁good	-728
▁des	-729
▁like	-730
ash	-731
▁value	-732
▁wor	-733
we	-734
ys	-735
▁list	-736
ial	-737
▁*.	-738
write	-739
ade	-740
[0-9]	-741
atter	-742
▁come	-743
ansport	-744
▁V	-745
ute	-746
▁'\	-747
ource	-748
▁never	-749
ition	-750
./	-751
▁cal	-752
▁long	-753
ister	-754
odule	-755
pl	-756
▁part	-757
▁~/	-758
ning	-759
▁len	-760
▁sudo	-761
conf	-762
▁say	-763
local	-764
▁$1	-765
▁)	-766
arch	-767
html	-768
vent	-769
ol	-770
="	-771
▁10	-772
▁result	-773
ie	-774
▁think	-775
loop	-776
▁mv	-777
ched	-778
▁most	-779
format	-780
"""	-781
ced	-782
rent	-783
thon	-784
ert	-785
cess	-786
ful	-787
its	-788
null	-789
ause	-790
▁cur	-791
▁sub	-792
sync	-793
▁col	-794
▁end	-795
reg	-796
▁ans	-797
-1	-798
▁bec	-799
ations	-800
hing	-801
arcy	-802
▁&	-803
sent	-804
que	-805
▁If	-806
▁True	-807
▁Darcy	-808
▁object	-809
aw	-810
▁key	-811
//	-812
ub	-813
iel	-814
▁own	-815
▁two	-816
irectory	-817
tar	-818
lice	-819
lin	-820
par	-821
sub	-822
▁This	-823
000	-824
ose	-825
ible	-826
ek	-827
▁tail	-828
ener	-829
ach	-830
▁pos	-831
▁happ	-832
lock	-833
ingle	-834
▁might	-835
▁sock	-836
host	-837
clude	-838
":	-839
ave	-840
pg	-841
foo	-842
hen	-843
▁br	-844
body	-845
cur	-846
elt	-847
▁mk	-848
context	-849
▁old	-850
▁make	-851
In	-852
ild	-853
IT	-854
ield	-855
▁par	-856
▁soon	-857
AR	-858
ans	-859
app	-860
instance	-861
hed	-862
sum	-863
▁chown	-864
wh	-865
ane	-866
▁uni	-867
net	-868
▁'*	-869
nder	-870
med	-871
php	-872
▁says	-873
ca	-874
sort	-875
ious	-876
▁data	-877
▁Alice	-878
▁z	-879
▁feel	-880
oin	-881
atch	-882
▁bet	-883
/*	-884
lit	-885
▁foo	-886
▁its	-887
▁let	-888
▁way	-889
ens	-890
▁just	-891
▁back	-892
▁thought	-893
exp	-894
nce	-895
▁ever	-896
temp	-897
ear	-898
empty	-899
ended	-900
link	-901
▁type	-902
.1	-903
by	-904
▁went	-905
ception	-906
als	-907
▁tar	-908
▁mkdir	-909
ins	-910
▁count	-911
DI	-912
king	-913
▁ent	-914
▁ext	-915
TI	-916
ions	-917
▁elif	-918
ctions	-919
OU	-920
hod	-921
▁'/	-922
▁Miss	-923
▁isinstance	-924
ats	-925
▁dec	-926
▁node	-927
node	-928
▁False	-929
▁rsync	-930
():	-931
ied	-932
▁"%	-933
riend	-934
ner	-935
▁bel	-936
▁being	-937
SE	-938
▁beg	-939
▁com	-940
▁where	-941
Context	-942
99	-943
lic	-944
test	-945
ried	-946
sed	-947
comp	-948
▁made	-949
▁Ben	-950
wd	-951
tra	-952
thod	-953
[0]	-954
files	-955
▁wait	-956
grep	-957
lete	-958
▁want	-959
ILE	-960
ote	-961
▁friend	-962
tes	-963
ger	-964
▁bl	-965
▁ssh	-966
cel	-967
date	-968
▁last	-969
▁line	-970
▁supp	-971
lp	-972
▁ple	-973
buffer	-974
55	-975
ark	-976
▁min	-977
▁argument	-978
ator	-979
sock	-980
▁Mrs	-981
Decimal	-982
▁uniq	-983
▁In	-984
OD	-985
lob	-986
ared	-987
start	-988
▁test	-989
▁K	-990
▁fl	-991
sign	-992
▁Bennet	-993
▁nothing	-994
rit	-995
▁du	-996
▁Jane	-997
▁here	-998
day	-999
▁+=	-1000
▁even	-1001
▁loop	-1002
▁option	-1003
jpg	-1004
lder	-1005
▁well	-1006
▁herself	-1007
ived	-1008
ered	-1009
ouse	-1010
▁log	-1011
delete	-1012
from	-1013
▁sister	-1014
).	-1015
rc	-1016
▁away	-1017
append	-1018
AL	-1019
▁great	-1020
est	-1021
fin	-1022
etc	-1023
count	-1024
tri	-1025
directory	-1026
igh	-1027
▁inte	-1028
▁string	-1029
cat	-1030
▁2>	-1031
▁Ext	-1032
:]	-1033
ps	-1034
err	-1035
yes	-1036
config	-1037
LO	-1038
▁We	-1039
info	-1040
▁user	-1041
cod	-1042
▁im	-1043
▁del	-1044
▁warn	-1045
12	-1046
less	-1047
▁rep	-1048
amily	-1049
endedContext	-1050
1,	-1051
."""	-1052
clo	-1053
alueError	-1054
▁ExtendedContext	-1055
▁]	-1056
air	-1057
▁app	-1058
1.	-1059
'))	-1060
▁without	-1061
▁under	-1062
▁fun	-1063
▁ValueError	-1064
value	-1065
▁found	-1066
ways	-1067
▁Bingle	-1068
bar	-1069
dest	-1070
fix	-1071
uck	-1072
▁So	-1073
▁don	-1074
▁ser	-1075
▁right	-1076
def	-1077
▁our	-1078
wards	-1079
▁5	-1080
hat	-1081
▁'%	-1082
row	-1083
ript	-1084
▁use	-1085
[^	-1086
▁4	-1087
mind	-1088
▁same	-1089
▁Bingley	-1090
▁clo	-1091
group	-1092
▁kind	-1093
▁action	-1094
▁num	-1095
▁start	-1096
ange	-1097
main	-1098
onth	-1099
1)	-1100
CE	-1101
len	-1102
unt	-1103
init	-1104
reen	-1105
of	-1106
▁U	-1107
ving	-1108
"\	-1109
??	-1110
vert	-1111
**	-1112
▁And	-1113
▁tra	-1114
eturn	-1115
aug	-1116
bo	-1117
▁cor	-1118
sl	-1119
GE	-1120
ok	-1121
ower	-1122
▁event	-1123
ife	-1124
newer	-1125
▁appe	-1126
▁format	-1127
du	-1128
can	-1129
▁pe	-1130
▁reg	-1131
▁father	-1132
ead	-1133
▁"\	-1134
▁Co	-1135
ened	-1136
}"	-1137
▁@	-1138
ret	-1139
isit	-1140
▁comm	-1141
ream	-1142
▁place	-1143
2.	-1144
ood	-1145
▁char	-1146
▁next	-1147
▁these	-1148
▁bre	-1149
dirname	-1150
here	-1151
▁tee	-1152
regex	-1153
▁pleas	-1154
▁myself	-1155
20	-1156
▁0:	-1157
▁You	-1158
ors	-1159
lect	-1160
▁&&	-1161
FILE	-1162
dec	-1163
▁ln	-1164
epth	-1165
▁aff	-1166
ample	-1167
▁tell	-1168
mindepth	-1169
call	-1170
hand	-1171
▁shall	-1172
▁sign	-1173
DIR	-1174
ative	-1175
ename	-1176
▁spec	-1177
▁word	-1178
ever	-1179
▁inter	-1180
▁always	-1181
)"	-1182
gn	-1183
ux	-1184
ired	-1185
▁less	-1186
std	-1187
spec	-1188
odules	-1189
pd	-1190
lib	-1191
▁+1	-1192
version	-1193
ob	-1194
uple	-1195
▁mar	-1196
ngth	-1197
www	-1198
▁run	-1199
ected	-1200
attern	-1201
▁round	-1202
▁though	-1203
▁tal	-1204
▁default	-1205
1/	-1206
ady	-1207
▁"$(	-1208
cc	-1209
ks	-1210
▁rev	-1211
ished	-1212
LA	-1213
'),	-1214
PT	-1215
sv	-1216
sol	-1217
▁dear	-1218
▁because	-1219
▁sm	-1220
asename	-1221
module	-1222
▁family	-1223
$/	-1224
LD	-1225
ipe	-1226
▁does	-1227
▁0,	-1228
[:	-1229
▁exc	-1230
▁They	-1231
▁didn	-1232
MOD	-1233
ater	-1234
▁Not	-1235
SS	-1236
ags	-1237
▁poss	-1238
▁$2	-1239
▁'.	-1240
second	-1241
▁mount	-1242
word	-1243
▁yet	-1244
ither	-1245
▁many	-1246
source	-1247
▁dig	-1248
which	-1249
▁take	-1250
fe	-1251
▁cons	-1252
▁young	-1253
▁buffer	-1254
▁md	-1255
0000	-1256
▁oper	-1257
11	-1258
bug	-1259
{}"	-1260
move	-1261
SI	-1262
sert	-1263
▁\*.	-1264
▁mis	-1265
reate	-1266
▁still	-1267
default	-1268
filename	-1269
ava	-1270
ble	-1271
ler	-1272
▁async	-1273
prec	-1274
▁belie	-1275
▁called	-1276
rf	-1277
space	-1278
valid	-1279
dia	-1280
who	-1281
sole	-1282
▁night	-1283
DE	-1284
HO	-1285
\)	-1286
the	-1287
action	-1288
MA	-1289
vel	-1290
▁cd	-1291
ract	-1292
iness	-1293
mented	-1294
0,	-1295
ING	-1296
####	-1297
▁att	-1298
▁turn	-1299
▁protocol	-1300
ting	-1301
▁give	-1302
▁exception	-1303
/^	-1304
man	-1305
root	-1306
▁hope	-1307
▁root	-1308
▁took	-1309
▁allow	-1310
MODU	-1311
part	-1312
▁"${	-1313
▁When	-1314
▁around	-1315
fd	-1316
▁spe	-1317
press	-1318
nection	-1319
UT	-1320
cle	-1321
umn	-1322
▁Ch	-1323
True	-1324
ern	-1325
▁visit	-1326
Ex	-1327
▁rest	-1328
ceived	-1329
▁’	-1330
attr	-1331
future	-1332
▁filename	-1333
▁fin	-1334
▁hour	-1335
▁contin	-1336
LI	-1337
oy	-1338
AD	-1339
ron	-1340
▁dest	-1341
MODULE	-1342
python	-1343
ef	-1344
gra	-1345
▁ke	-1346
down	-1347
▁yes	-1348
▁error	-1349
60	-1350
ank	-1351
▁My	-1352
ised	-1353
lied	-1354
▁felt	-1355
run	-1356
llow	-1357
▁saw	-1358
▁conf	-1359
▁enough	-1360
md	-1361
sg	-1362
▁inst	-1363
▁size	-1364
ertain	-1365
▁heard	-1366
exception	-1367
ax	-1368
▁;	-1369
The	-1370
imit	-1371
▁755	-1372
ssage	-1373
exclude	-1374
TE	-1375
be	-1376
folder	-1377
▁}'	-1378
▁Jim	-1379
▁bot	-1380
▁put	-1381
▁dist	-1382
▁task	-1383
▁house	-1384
:/	-1385
=`	-1386
▁<=	-1387
rence	-1388
▁left	-1389
option	-1390
644	-1391
▁hist	-1392
▁going	-1393
pattern	-1394
orm	-1395
▁sys	-1396
▁val	-1397
▁looked	-1398
NA	-1399
mt	-1400
ged	-1401
ues	-1402
wait	-1403
▁eyes	-1404
▁help	-1405
;'	-1406
off	-1407
yst	-1408
java	-1409
▁need	-1410
alf	-1411
check	-1412
event	-1413
▁"{}"	-1414
hist	-1415
▁write	-1416
1"	-1417
ush	-1418
▁${	-1419
▁sat	-1420
ython	-1421
reader	-1422
▁gener	-1423
task	-1424
arget	-1425
▁text	-1426
▁upon	-1427
Return	-1428
▁-2	-1429
▁For	-1430
▁giv	-1431
▁mind	-1432
▁another	-1433
raw	-1434
▁!=	-1435
ages	-1436
ments	-1437
ination	-1438
=1	-1439
ham	-1440
list	-1441
▁pers	-1442
▁used	-1443
77	-1444
Co	-1445
]*	-1446
▁msg	-1447
▁hear	-1448
▁join	-1449
▁himself	-1450
▁towards	-1451
transport	-1452
ery	-1453
aste	-1454
▁life	-1455
▁break	-1456
rem	-1457
ople	-1458
▁boo	-1459
▁che	-1460
aught	-1461
'\	-1462
']	-1463
▁cannot	-1464
js	-1465
used	-1466
▁room	-1467
========	-1468
[1	-1469
ey	-1470
▁wal	-1471
▁look	-1472
▁along	-1473
▁sl	-1474
▁lin	-1475
atime	-1476
state	-1477
stats	-1478
▁split	-1479
▁history	-1480
▁case	-1481
▁sure	-1482
▁number	-1483
▁source	-1484
/_	-1485
map	-1486
tty	-1487
▁det	-1488
rough	-1489
▁path	-1490
▁input	-1491
▁something	-1492
.0	-1493
mplemented	-1494
ale	-1495
src	-1496
ted	-1497
aint	-1498
▁ref	-1499
ickham	-1500
history	-1501
Implemented	-1502
['	-1503
glob	-1504
quest	-1505
▁till	-1506
▁week	-1507
▁watch	-1508
▁second	-1509
▁transport	-1510
vf	-1511
iet	-1512
fort	-1513
ility	-1514
ystem	-1515
▁better	-1516
▁NotImplemented	-1517
dig	-1518
▁ssl	-1519
▁Coll	-1520
2,	-1521
\(	-1522
head	-1523
▁Collins	-1524
eed	-1525
ten	-1526
▁---	-1527
▁ain	-1528
index	-1529
verse	-1530
▁Wickham	-1531
▁ter	-1532
xargs	-1533
▁follow	-1534
GS	-1535
hy	-1536
aut	-1537
ince	-1538
▁gent	-1539
▁told	-1540
▁bytes	-1541
▁method	-1542
▁}	-1543
----	-1544
debug	-1545
▁thing	-1546
▁letter	-1547
coding	-1548
▁future	-1549
doc	-1550
form	-1551
aking	-1552
30	-1553
TR	-1554
▁:	-1555
pdf	-1556
NAME	-1557
▁mor	-1558
▁gzip	-1559
▁town	-1560
▁world	-1561
▁column	-1562
"'	-1563
og	-1564
You	-1565
arly	-1566
▁open	-1567
execut	-1568
▁month	-1569
▁charact	-1570
86	-1571
\|	-1572
▁cour	-1573
▁temp	-1574
▁[]	-1575
with	-1576
▁rem	-1577
";	-1578
that	-1579
▁dat	-1580
ready	-1581
▁people	-1582
PE	-1583
msg	-1584
Name	-1585
ature	-1586
right	-1587
▁three	-1588
command	-1589
▁gentle	-1590
CK	-1591
sq	-1592
▁('	-1593
▁beh	-1594
▁came	-1595
▁half	-1596
but	-1597
ken	-1598
▁$0	-1599
HOME	-1600
XXXX	-1601
▁express	-1602
ssl	-1603
▁644	-1604
▁perl	-1605
ration	-1606
▁certain	-1607
▁through	-1608
56	-1609
mk	-1610
▁wish	-1611
cancel	-1612
▁diffe	-1613
▁passed	-1614
='	-1615
men	-1616
uff	-1617
▁gl	-1618
curs	-1619
▁args	-1620
▁date	-1621
strings	-1622
▁mother	-1623
protocol	-1624
readlink	-1625
▁current	-1626
US	-1627
▁'^	-1628
▁Lady	-1629
▁both	-1630
comple	-1631
▁There	-1632
timeout	-1633
▁present	-1634
▁those	-1635
▁anything	-1636
,--	-1637
amp	-1638
▁Ly	-1639
dict	-1640
ient	-1641
tt	-1642
ager	-1643
ical	-1644
▁sur	-1645
offset	-1646
server	-1647
(_	-1648
22	-1649
▁>=	-1650
llust	-1651
▁seen	-1652
▁Lydia	-1653
▁offset	-1654
AN	-1655
git	-1656
ows	-1657
copy	-1658
iled	-1659
▁rel	-1660
▁hard	-1661
▁once	-1662
/.	-1663
dd	-1664
mmin	-1665
▁var	-1666
lines	-1667
▁also	-1668
▁love	-1669
▁heart	-1670
▁feelings	-1671
pwd	-1672
pped	-1673
▁ide	-1674
ately	-1675
▁os	-1676
rest	-1677
stru	-1678
▁days	-1679
▁screen	-1680
MP	-1681
po	-1682
repl	-1683
▁Then	-1684
▁Type	-1685
▁whom	-1686
▁year	-1687
method	-1688
▁appear	-1689
▁comple	-1690
NT	-1691
▁';'	-1692
ision	-1693
script	-1694
▁super	-1695
▁however	-1696
St	-1697
▁"/	-1698
ason	-1699
▁pur	-1700
▁things	-1701
ug	-1702
ling	-1703
False	-1704
pport	-1705
▁form	-1706
ATE	-1707
ami	-1708
apt	-1709
ict	-1710
▁CHA	-1711
▁group	-1712
abc	-1713
File	-1714
▁mean	-1715
result	-1716
▁quite	-1717
llustration	-1718
FLA	-1719
cept	-1720
idth	-1721
arent	-1722
▁each	-1723
▁whole	-1724
▁module	-1725
Illustration	-1726
])	-1727
().	-1728
▁'-	-1729
▁wr	-1730
ache	-1731
proc	-1732
▁...	-1733
▁few	-1734
▁show	-1735
▁assert	-1736
▁couldn	-1737
TH	-1738
://	-1739
ider	-1740
▁100	-1741
▁gir	-1742
OF	-1743
aN	-1744
eno	-1745
unk	-1746
ves	-1747
▁df	-1748
FLAGS	-1749
color	-1750
spect	-1751
▁bash	-1752
▁true	-1753
▁point	-1754
/$	-1755
ID	-1756
'):	-1757
icro	-1758
qual	-1759
year	-1760
▁acqu	-1761
▁since	-1762
▁command	-1763
▁replied	-1764
▁TypeError	-1765
ene	-1766
svn	-1767
sys	-1768
▁St	-1769
Well	-1770
▁".*	-1771
▁top	-1772
field	-1773
times	-1774
▁pretty	-1775
vo	-1776
bour	-1777
▁child	-1778
special	-1779
-3	-1780
HE	-1781
TO	-1782
ero	-1783
▁ri	-1784
most	-1785
▁far	-1786
▁men	-1787
▁mod	-1788
avour	-1789
▁home	-1790
▁daught	-1791
]'	-1792
▁sk	-1793
PTER	-1794
ween	-1795
▁'.*	-1796
▁unt	-1797
▁kill	-1798
▁close	-1799
▁often	-1800
▁CHAPTER	-1801
upt	-1802
▁bo	-1803
▁reck	-1804
▁moment	-1805
($	-1806
▁6	-1807
ven	-1808
ating	-1809
prefix	-1810
▁await	-1811
▁support	-1812
IO	-1813
▁+2	-1814
iter	-1815
▁side	-1816
finity	-1817
▁extra	-1818
▁local	-1819
reading	-1820
▁socket	-1821
▁dirname	-1822
cor	-1823
▁es	-1824
ront	-1825
▁git	-1826
▁indeed	-1827
▁morning	-1828
aps	-1829
cls	-1830
num	-1831
medi	-1832
cache	-1833
onder	-1834
▁larg	-1835
stract	-1836
target	-1837
▁either	-1838
▁function	-1839
14	-1840
hes	-1841
▁gu	-1842
inter	-1843
▁output	-1844
▁between	-1845
▁returned	-1846
▁8	-1847
/.*	-1848
iew	-1849
ures	-1850
writ	-1851
ified	-1852
▁paste	-1853
example	-1854
hostname	-1855
▁believe	-1856
2)	-1857
mem	-1858
ock	-1859
rame	-1860
uring	-1861
▁high	-1862
▁keep	-1863
▁began	-1864
▁minute	-1865
24	-1866
())	-1867
fut	-1868
icul	-1869
oice	-1870
convert	-1871
▁consider	-1872
icrosecond	-1873
/"	-1874
It	-1875
\\	-1876
use	-1877
ense	-1878
gram	-1879
pipe	-1880
▁gone	-1881
▁prec	-1882
utdown	-1883
▁imple	-1884
▁server	-1885
▁affection	-1886
tz	-1887
▁ps	-1888
▁act	-1889
etime	-1890
▁happy	-1891
NR	-1892
ons	-1893
sql	-1894
▁1;	-1895
ublic	-1896
▁best	-1897
▁fold	-1898
▁creat	-1899
▁seemed	-1900
$'	-1901
OUR	-1902
▁As	-1903
▁od	-1904
▁tz	-1905
leep	-1906
▁acc	-1907
▁nor	-1908
▁tri	-1909
▁Well	-1910
CT	-1911
NF	-1912
],	-1913
item	-1914
your	-1915
▁END	-1916
▁cle	-1917
▁occ	-1918
wargs	-1919
▁door	-1920
▁light	-1921
▁attent	-1922
▁address	-1923
▁brother	-1924
}')	-1925
▁At	-1926
____	-1927
▁adv	-1928
▁ast	-1929
bytes	-1930
extra	-1931
▁cpio	-1932
▁work	-1933
▁cried	-1934
▁given	-1935
▁match	-1936
▁power	-1937
▁reason	-1938
▁position	-1939
=$	-1940
"),	-1941
▁''	-1942
land	-1943
▁wind	-1944
▁writ	-1945
outine	-1946
▁until	-1947
▁subject	-1948
:%	-1949
Pr	-1950
zy	-1951
▁‘	-1952
inal	-1953
input	-1954
▁mode	-1955
ceback	-1956
▁exact	-1957
▁voice	-1958
▁reckon	-1959
▁possible	-1960
▁arguments	-1961
▁connection	-1962
CO	-1963
ove	-1964
addr	-1965
join	-1966
nded	-1967
▁fut	-1968
▁tou	-1969
raise	-1970
▁having	-1971
▁continu	-1972
▁character	-1973
.—	-1974
No	-1975
ift	-1976
oud	-1977
illi	-1978
miss	-1979
▁2>/	-1980
▁car	-1981
▁div	-1982
parse	-1983
▁king	-1984
▁river	-1985
basename	-1986
50	-1987
=/	-1988
sd	-1989
isf	-1990
wer	-1991
ents	-1992
ured	-1993
▁inc	-1994
▁base	-1995
▁dict	-1996
▁poor	-1997
illiam	-1998
▁tuple	-1999
▁pleasure	-2000
SO	-2001
ah	-2002
ilt	-2003
▁nec	-2004
▁host	-2005
▁info	-2006
gative	-2007
▁shopt	-2008
▁delight	-2009
Oh	-2010
Que	-2011
exc	-2012
fun	-2013
rew	-2014
top	-2015
ump	-2016
ably	-2017
▁std	-2018
close	-2019
traverse	-2020
ier	-2021
▁ye	-2022
aken	-2023
base	-2024
ices	-2025
▁hum	-2026
▁copy	-2027
▁Cather	-2028
▁manner	-2029
▁Catherine	-2030
UP	-2031
64-	-2032
▁1)	-2033
▁Do	-2034
done	-2035
▁ign	-2036
▁$1}'	-2037
▁state	-2038
▁already	-2039
2-	-2040
2/	-2041
(),	-2042
(1)	-2043
loc	-2044
xml	-2045
full	-2046
▁'./	-2047
▁eas	-2048
mktemp	-2049
▁among	-2050
▁egrep	-2051
▁rename	-2052
▁wouldn	-2053
▁country	-2054
▁integer	-2055
▁whether	-2056
.]	-2057
0'	-2058
rb	-2059
uc	-2060
imp	-2061
haps	-2062
ided	-2063
warn	-2064
riage	-2065
▁resol	-2066
▁words	-2067
▁digits	-2068
▁direct	-2069
▁ifconfig	-2070
idd	-2071
oub	-2072
ited	-2073
actory	-2074
gether	-2075
process	-2076
▁answer	-2077
▁course	-2078
▁immedi	-2079
RO	-2080
aid	-2081
▁**	-2082
elta	-2083
otal	-2084
repr	-2085
▁ass	-2086
▁htt	-2087
▁seq	-2088
▁addr	-2089
▁full	-2090
▁requ	-2091
▁waiter	-2092
▁message	-2093
▁different	-2094
('0	-2095
ural	-2096
▁bar	-2097
▁eng	-2098
▁flo	-2099
▁lib	-2100
▁spir	-2101
▁wood	-2102
▁leave	-2103
▁using	-2104
cedence	-2105
▁length	-2106
rm	-2107
old	-2108
ome	-2109
akes	-2110
▁How	-2111
▁gun	-2112
▁jud	-2113
▁tot	-2114
flags	-2115
▁glob	-2116
▁appro	-2117
▁basename	-2118
▁X	-2119
ased	-2120
▁stat	-2121
▁tree	-2122
search	-2123
socket	-2124
▁short	-2125
▁satisf	-2126
▁Modules	-2127
SC	-2128
rw	-2129
('1	-2130
arm	-2131
ode	-2132
▁nl	-2133
▁ph	-2134
stri	-2135
▁raw	-2136
▁care	-2137
▁idea	-2138
whoami	-2139
▁least	-2140
▁rather	-2141
▁really	-2142
▁friends	-2143
xx	-2144
mpt	-2145
▁20	-2146
▁\!	-2147
????	-2148
oman	-2149
pper	-2150
ters	-2151
usic	-2152
▁cro	-2153
▁fre	-2154
▁pri	-2155
STR	-2156
les	-2157
oke	-2158
ants	-2159
ific	-2160
▁hor	-2161
lease	-2162
▁whose	-2163
ots	-2164
pid	-2165
oney	-2166
stat	-2167
wise	-2168
▁ill	-2169
andom	-2170
width	-2171
▁mile	-2172
length	-2173
▁added	-2174
▁files	-2175
▁happiness	-2176
fs	-2177
iec	-2178
now	-2179
TION	-2180
bute	-2181
flow	-2182
▁+10	-2183
▁His	-2184
▁adm	-2185
▁suc	-2186
itted	-2187
round	-2188
▁"$1"	-2189
▁What	-2190
peration	-2191
EN	-2192
II	-2193
My	-2194
you	-2195
▁+7	-2196
ined	-2197
sume	-2198
▁sile	-2199
closed	-2200
▁empty	-2201
Command	-2202
▁encoding	-2203
pm	-2204
der	-2205
Read	-2206
tain	-2207
▁non	-2208
delta	-2209
▁sens	-2210
▁sent	-2211
▁field	-2212
present	-2213
▁remain	-2214
▁wonder	-2215
shutdown	-2216
▁received	-2217
▁everything	-2218
bl	-2219
FOR	-2220
What	-2221
▁env	-2222
▁bzip	-2223
▁fort	-2224
▁ping	-2225
FS	-2226
stack	-2227
▁means	-2228
replace	-2229
▁values	-2230
);	-2231
33	-2232
cale	-2233
ized	-2234
iable	-2235
month	-2236
create	-2237
ousand	-2238
▁speak	-2239
▁total	-2240
▁touch	-2241
▁almost	-2242
lections	-2243
▁underst	-2244
YS	-2245
ee	-2246
rt	-2247
ATH	-2248
Pro	-2249
load	-2250
▁'',	-2251
▁Con	-2252
▁{}.	-2253
names	-2254
ouble	-2255
▁face	-2256
▁zcat	-2257
▁woman	-2258
▁stream	-2259
Operation	-2260
▁acquaint	-2261
34	-2262
dat	-2263
ify	-2264
non	-2265
ple	-2266
ren	-2267
help	-2268
ster	-2269
▁bus	-2270
ctime	-2271
ormal	-2272
▁Char	-2273
▁Long	-2274
▁duke	-2275
▁talk	-2276
▁disco	-2277
Protocol	-2278
▁operand	-2279
▁together	-2280
▁therefore	-2281
destination	-2282
xy	-2283
LIB	-2284
und	-2285
▁OR	-2286
▁sy	-2287
ixed	-2288
like	-2289
port	-2290
prog	-2291
▁low	-2292
OURCE	-2293
▁+100	-2294
▁real	-2295
ignore	-2296
▁hands	-2297
▁stand	-2298
▁surpr	-2299
execdir	-2300
▁convers	-2301
▁represent	-2302
((	-2303
3,	-2304
nr	-2305
cri	-2306
▁ut	-2307
fect	-2308
▁eff	-2309
ience	-2310
iment	-2311
linux	-2312
▁conc	-2313
position	-2314
VER	-2315
any	-2316
awk	-2317
▁On	-2318
▁sw	-2319
▁cre	-2320
▁That	-2321
▁stay	-2322
remove	-2323
▁sound	-2324
Invalid	-2325
▁turned	-2326
'.	-2327
,-	-2328
kf	-2329
__,	-2330
fra	-2331
just	-2332
State	-2333
aused	-2334
▁fell	-2335
▁prov	-2336
▁bound	-2337
▁handle	-2338
▁looking	-2339
▁sometimes	-2340
BU	-2341
\}	-2342
tle	-2343
▁'$	-2344
USER	-2345
ases	-2346
ateg	-2347
make	-2348
prot	-2349
▁inv	-2350
▁max	-2351
onent	-2352
queue	-2353
total	-2354
▁gave	-2355
SOURCE	-2356
quence	-2357
▁flags	-2358
▁index	-2359
▁lines	-2360
▁others	-2361
########	-2362
FO	-2363
▁12	-2364
clud	-2365
iety	-2366
itle	-2367
▁cir	-2368
ached	-2369
▁knew	-2370
waiter	-2371
▁quest	-2372
▁Python	-2373
▁myfile	-2374
IL	-2375
\*	-2376
('-	-2377
And	-2378
ray	-2379
▁AN	-2380
▁Ar	-2381
utes	-2382
▁"./	-2383
▁Her	-2384
▁Que	-2385
▁pop	-2386
▁sec	-2387
annot	-2388
▁arri	-2389
rontab	-2390
untime	-2391
▁check	-2392
ization	-2393
▁coming	-2394
▁contain	-2395
▁daughter	-2396
▁immediately	-2397
0"	-2398
CH	-2399
FA	-2400
But	-2401
ssh	-2402
cape	-2403
next	-2404
▁big	-2405
▁cls	-2406
▁lay	-2407
▁met	-2408
STATE	-2409
shake	-2410
▁deter	-2411
▁money	-2412
▁remem	-2413
▁table	-2414
▁years	-2415
Modules	-2416
▁necess	-2417
▁reader	-2418
▁against	-2419
▁instance	-2420
▁particul	-2421
▁implement	-2422
0)	-2423
UL	-2424
cp	-2425
mv	-2426
86_	-2427
mnt	-2428
nan	-2429
▁oc	-2430
▁hur	-2431
ardin	-2432
items	-2433
▁Mary	-2434
▁code	-2435
▁dark	-2436
errupt	-2437
▁death	-2438
▁large	-2439
▁Gardin	-2440
▁hardly	-2441
callback	-2442
▁perfect	-2443
▁thousand	-2444
ES	-2445
]:	-2446
png	-2447
sel	-2448
▁No	-2449
TIME	-2450
▁Key	-2451
▁bit	-2452
▁$2}'	-2453
▁dead	-2454
▁doub	-2455
factory	-2456
modules	-2457
newermt	-2458
▁during	-2459
▁execut	-2460
▁person	-2461
ian	-2462
ref	-2463
ton	-2464
▁+5	-2465
▁-60	-2466
▁doc	-2467
▁tmp	-2468
▁tre	-2469
anger	-2470
perty	-2471
tuple	-2472
atever	-2473
backup	-2474
▁uncle	-2475
ategory	-2476
▁closed	-2477
▁perhaps	-2478
▁callback	-2479
▁yourself	-2480
▁everybody	-2481
.8	-2482
/\.	-2483
Yes	-2484
anc	-2485
grp	-2486
lot	-2487
▁cr	-2488
xdev	-2489
▁Col	-2490
▁bro	-2491
▁won	-2492
anged	-2493
▁conv	-2494
▁ende	-2495
db	-2496
uz	-2497
GET	-2498
buf	-2499
fil	-2500
umb	-2501
▁OS	-2502
izzy	-2503
only	-2504
ools	-2505
▁den	-2506
▁nig	-2507
▁sor	-2508
licit	-2509
tempt	-2510
▁near	-2511
struct	-2512
▁times	-2513
ference	-2514
message	-2515
${	-2516
ia	-2517
CON	-2518
[[:	-2519
wra	-2520
ides	-2521
side	-2522
▁777	-2523
▁aunt	-2524
▁four	-2525
▁prom	-2526
domain	-2527
remote	-2528
▁asked	-2529
▁exist	-2530
▁sleep	-2531
▁interest	-2532
NE	-2533
Wl	-2534
_,	-2535
dc	-2536
-1]	-2537
avi	-2538
bak	-2539
ork	-2540
ually	-2541
▁limit	-2542
▁obser	-2543
tribute	-2544
▁account	-2545
▁appeared	-2546
$"	-2547
/,	-2548
PY	-2549
=1;	-2550
gnu	-2551
uth	-2552
OUND	-2553
ceed	-2554
ines	-2555
inum	-2556
ship	-2557
▁dev	-2558
▁liv	-2559
▁sit	-2560
fully	-2561
gener	-2562
level	-2563
ultip	-2564
vered	-2565
▁decl	-2566
▁prev	-2567
screen	-2568
▁alone	-2569
▁chgrp	-2570
▁const	-2571
▁water	-2572
actions	-2573
▁change	-2574
▁longer	-2575
▁certainly	-2576
BA	-2577
PA	-2578
14-	-2579
ALL	-2580
Dir	-2581
ches	-2582
pair	-2583
▁circ	-2584
▁lock	-2585
erable	-2586
▁trace	-2587
▁expect	-2588
precated	-2589
▁William	-2590
▁evening	-2591
▁continued	-2592
)'	-2593
++	-2594
EG	-2595
da	-2596
Int	-2597
env	-2598
eof	-2599
▁""	-2600
▁".	-2601
ailed	-2602
block	-2603
decod	-2604
▁live	-2605
▁play	-2606
lineno	-2607
▁above	-2608
▁hours	-2609
▁rmdir	-2610
support	-2611
▁printf	-2612
▁convert	-2613
traceback	-2614
▁Gardiner	-2615
-%	-2616
bz	-2617
cd	-2618
▁IN	-2619
▁ele	-2620
▁raft	-2621
▁small	-2622
▁spoke	-2623
project	-2624
▁wanted	-2625
▁running	-2626
▁exceptions	-2627
SH	-2628
ios	-2629
usb	-2630
▁-3	-2631
▁Al	-2632
comm	-2633
fold	-2634
lent	-2635
▁dro	-2636
▁gra	-2637
▁swe	-2638
inary	-2639
split	-2640
tered	-2641
whole	-2642
▁10**	-2643
▁yield	-2644
cpython	-2645
▁notice	-2646
▁opcode	-2647
▁continue	-2648
▁rounding	-2649
▁attention	-2650
microsecond	-2651
EX	-2652
UN	-2653
az	-2654
/*"	-2655
bit	-2656
pec	-2657
▁id	-2658
dden	-2659
ford	-2660
▁air	-2661
▁ask	-2662
▁cot	-2663
▁mem	-2664
▁mur	-2665
ernal	-2666
inner	-2667
ities	-2668
tring	-2669
▁fear	-2670
iginal	-2671
object	-2672
output	-2673
current	-2674
▁process	-2675
OP	-2676
Tr	-2677
ye	-2678
LIN	-2679
▁"^	-2680
▁'_	-2681
▁1:	-2682
lost	-2683
▁200	-2684
▁yum	-2685
async	-2686
lotte	-2687
celled	-2688
▁begin	-2689
▁sight	-2690
▁favour	-2691
▁sudden	-2692
▁allowed	-2693
▁comfort	-2694
▁crontab	-2695
▁finally	-2696
Exception	-2697
▁Charlotte	-2698
AB	-2699
PI	-2700
cf	-2701
kg	-2702
dis	-2703
eff	-2704
▁*,	-2705
▁sn	-2706
alle	-2707
▁lad	-2708
▁arch	-2709
▁girl	-2710
▁imag	-2711
kwargs	-2712
include	-2713
▁inform	-2714
▁saying	-2715
▁conversation	-2716
ns	-2717
Bar	-2718
del	-2719
opt	-2720
sem	-2721
ual	-2722
▁Ex	-2723
conn	-2724
exit	-2725
iece	-2726
▁Luc	-2727
▁nat	-2728
▁sun	-2729
bourn	-2730
place	-2731
▁bool	-2732
▁cous	-2733
digits	-2734
▁names	-2735
▁datetime	-2736
protection	-2737
▁Longbourn	-2738
▁timedelta	-2739
13	-2740
90	-2741
][	-2742
csv	-2743
uni	-2744
▁em	-2745
9999	-2746
LOAD	-2747
PATH	-2748
orth	-2749
▁ear	-2750
shire	-2751
types	-2752
▁ment	-2753
▁repe	-2754
arning	-2755
▁separ	-2756
▁ladies	-2757
▁parser	-2758
▁Runtime	-2759
▁exactly	-2760
▁returns	-2761
handshake	-2762
▁exponent	-2763
ZE	-2764
cs	-2765
=*.	-2766
TER	-2767
▁fd	-2768
$//'	-2769
iful	-2770
ners	-2771
apter	-2772
asion	-2773
chars	-2774
itten	-2775
ledge	-2776
swith	-2777
[0-9]*	-2778
selves	-2779
▁sever	-2780
▁Return	-2781
SL	-2782
gs	-2783
▁^	-2784
ITH	-2785
PUT	-2786
Why	-2787
amb	-2788
how	-2789
auto	-2790
mark	-2791
vars	-2792
▁All	-2793
▁lik	-2794
antly	-2795
match	-2796
stree	-2797
▁glad	-2798
▁item	-2799
▁pain	-2800
86_64-	-2801
system	-2802
▁block	-2803
▁equal	-2804
▁became	-2805
▁mention	-2806
wholename	-2807
2"	-2808
UM	-2809
▁("	-2810
cent	-2811
▁abs	-2812
Event	-2813
board	-2814
share	-2815
▁fast	-2816
▁laug	-2817
▁meet	-2818
▁opin	-2819
[0-9]+	-2820
enance	-2821
▁Lizzy	-2822
▁tried	-2823
▁events	-2824
▁folder	-2825
▁raised	-2826
▁Chapter	-2827
▁feeling	-2828
▁getattr	-2829
▁instead	-2830
▁minutes	-2831
▁objects	-2832
▁trouble	-2833
▁understand	-2834
(1	-2835
02	-2836
44	-2837
div	-2838
his	-2839
ney	-2840
▁):	-2841
hook	-2842
▁obj	-2843
▁ten	-2844
▁calc	-2845
▁deep	-2846
icient	-2847
▁ought	-2848
▁range	-2849
▁sense	-2850
▁anybody	-2851
▁entered	-2852
▁sisters	-2853
▁expected	-2854
▁RuntimeError	-2855
IS	-2856
KE	-2857
mn	-2858
—”	-2859
For	-2860
▁XX	-2861
▁ed	-2862
Base	-2863
sing	-2864
▁ago	-2865
▁bad	-2866
imple	-2867
▁Some	-2868
▁fall	-2869
▁lost	-2870
▁send	-2871
▁suff	-2872
lected	-2873
▁accept	-2874
▁itself	-2875
▁script	-2876
▁methods	-2877
▁respect	-2878
▁success	-2879
▁subclass	-2880
`"	-2881
gh	-2882
ATI	-2883
eor	-2884
▁",	-2885
▁+%	-2886
▁-=	-2887
▁An	-2888
ates	-2889
licy	-2890
nown	-2891
void	-2892
▁NaN	-2893
▁fur	-2894
▁inf	-2895
ingly	-2896
minal	-2897
▁body	-2898
▁cott	-2899
handle	-2900
parent	-2901
▁build	-2902
▁doubt	-2903
▁regard	-2904
▁several	-2905
▁talking	-2906
▁marriage	-2907
88	-2908
BO	-2909
WD	-2910
...	-2911
1/'	-2912
cpp	-2913
fno	-2914
ley	-2915
opy	-2916
rel	-2917
▁'1	-2918
▁'[	-2919
▁By	-2920
come	-2921
gers	-2922
▁+30	-2923
▁2>&	-2924
▁buf	-2925
▁cap	-2926
▁inqu	-2927
▁thus	-2928
ressed	-2929
stderr	-2930
▁taken	-2931
ibility	-2932
▁escape	-2933
▁within	-2934
register	-2935
▁asyncio	-2936
▁console	-2937
▁newline	-2938
▁raiseit	-2939
▁business	-2940
CL	-2941
LL	-2942
NaN	-2943
abs	-2944
inc	-2945
ook	-2946
▁+3	-2947
▁0)	-2948
▁OF	-2949
inte	-2950
send	-2951
▁Why	-2952
▁fet	-2953
▁why	-2954
-314-	-2955
ained	-2956
andle	-2957
ently	-2958
oured	-2959
▁King	-2960
▁lady	-2961
▁pipe	-2962
▁serv	-2963
▁zero	-2964
▁incre	-2965
▁produ	-2966
console	-2967
▁behavi	-2968
▁gunzip	-2969
▁nature	-2970
argument	-2971
subclass	-2972
▁required	-2973
Sh	-2974
oe	-2975
sa	-2976
tp	-2977
bed	-2978
box	-2979
cap	-2980
oop	-2981
pop	-2982
son	-2983
{1,	-2984
▁',	-2985
▁To	-2986
airs	-2987
aris	-2988
cket	-2989
oura	-2990
▁anx	-2991
arest	-2992
global	-2993
public	-2994
stdout	-2995
▁quick	-2996
compare	-2997
▁behind	-2998
Infinity	-2999
abstract	-3000
▁necessary	-3001
▁countenance	-3002
3"	-3003
flto	-3004
▁ang	-3005
▁hon	-3006
CTION	-3007
▁rece	-3008
opcode	-3009
▁beaut	-3010
address	-3011
▁become	-3012
▁prefix	-3013
▁walked	-3014
▁OSError	-3015
▁general	-3016
connection	-3017
▁otherwise	-3018
NO	-3019
cv	-3020
.*'	-3021
PRE	-3022
gle	-3023
met	-3024
pkg	-3025
="$(	-3026
bash	-3027
over	-3028
▁SSL	-3029
▁civ	-3030
▁sum	-3031
▁und	-3032
▁www	-3033
ether	-3034
table	-3035
▁File	-3036
▁atte	-3037
▁fire	-3038
▁mist	-3039
▁walk	-3040
normal	-3041
▁human	-3042
▁persu	-3043
mission	-3044
▁circum	-3045
▁cousin	-3046
▁ignore	-3047
▁matter	-3048
▁pstree	-3049
property	-3050
▁brought	-3051
▁determin	-3052
▁optional	-3053
▁miserable	-3054
▁perfectly	-3055
RA	-3056
oc	-3057
sr	-3058
}:	-3059
▁,	-3060
SHA	-3061
}")	-3062
(1);	-3063
cell	-3064
char	-3065
fast	-3066
▁'\\	-3067
▁lab	-3068
await	-3069
ighty	-3070
stdin	-3071
strip	-3072
▁Geor	-3073
▁wret	-3074
▁Queen	-3075
▁compl	-3076
▁marry	-3077
itation	-3078
running	-3079
▁errors	-3080
▁seeing	-3081
▁version	-3082
▁occasion	-3083
▁gentleman	-3084
▁operation	-3085
'|	-3086
Re	-3087
lt	-3088
"):	-3089
('2	-3090
CHA	-3091
gen	-3092
irt	-3093
ool	-3094
oss	-3095
▁":	-3096
inet	-3097
pose	-3098
▁Tur	-3099
▁ben	-3100
▁usu	-3101
ifier	-3102
limit	-3103
▁able	-3104
▁five	-3105
▁foot	-3106
▁annot	-3107
▁frame	-3108
▁types	-3109
lection	-3110
pending	-3111
▁nobody	-3112
▁thread	-3113
▁wished	-3114
▁opinion	-3115
▁possess	-3116
▁spirits	-3117
▁warnings	-3118
▁precision	-3119
={	-3120
iff	-3121
orn	-3122
ung	-3123
/*/*	-3124
LDER	-3125
coro	-3126
itty	-3127
late	-3128
▁ste	-3129
▁sto	-3130
where	-3131
▁2>&1	-3132
▁Just	-3133
▁hast	-3134
▁view	-3135
indent	-3136
▁comes	-3137
▁false	-3138
▁known	-3139
LDFLAGS	-3140
handler	-3141
▁Nether	-3142
▁descri	-3143
▁effect	-3144
▁ground	-3145
▁months	-3146
▁natural	-3147
▁coroutine	-3148
▁Netherfield	-3149
/{	-3150
15	-3151
3}	-3152
IG	-3153
sk	-3154
mux	-3155
tom	-3156
▁")	-3157
ross	-3158
week	-3159
▁ali	-3160
exact	-3161
lower	-3162
▁deal	-3163
▁expl	-3164
▁stri	-3165
String	-3166
triple	-3167
▁After	-3168
▁agree	-3169
▁eager	-3170
cancelled	-3171
▁information	-3172
"|	-3173
-2	-3174
:'	-3175
He	-3176
hi	-3177
▁q	-3178
//'	-3179
Sub	-3180
[1]	-3181
obj	-3182
oun	-3183
sor	-3184
ury	-3185
▁Un	-3186
hour	-3187
lict	-3188
lish	-3189
mode	-3190
ntax	-3191
onel	-3192
owed	-3193
pack	-3194
zone	-3195
▁row	-3196
actor	-3197
illed	-3198
maind	-3199
ondon	-3200
▁Base	-3201
▁cold	-3202
▁easy	-3203
▁exit	-3204
▁hadn	-3205
▁prob	-3206
idence	-3207
▁Lucas	-3208
▁avoid	-3209
▁girls	-3210
▁party	-3211
▁woods	-3212
▁London	-3213
▁listen	-3214
▁python	-3215
username	-3216
▁example	-3217
▁hasattr	-3218
▁followed	-3219
▁circumstance	-3220
/(	-3221
80	-3222
();	-3223
(0,	-3224
ARD	-3225
PWD	-3226
cmp	-3227
lig	-3228
win	-3229
▁'(	-3230
▁-5	-3231
▁\\	-3232
aced	-3233
amin	-3234
osed	-3235
pass	-3236
▁Eng	-3237
itude	-3238
▁".*"	-3239
▁heav	-3240
▁main	-3241
▁seem	-3242
▁wife	-3243
though	-3244
tribut	-3245
▁Kitty	-3246
▁fixed	-3247
▁neigh	-3248
▁tasks	-3249
▁memory	-3250
▁misery	-3251
▁attempt	-3252
▁suppose	-3253
▁written	-3254
subdomain	-3255
▁resolved	-3256
exceptions	-3257
▁implementation	-3258
/%	-3259
89	-3260
rn	-3261
peg	-3262
way	-3263
▁'+	-3264
▁fi	-3265
aged	-3266
cmin	-3267
hash	-3268
play	-3269
▁../	-3270
▁src	-3271
dered	-3272
itive	-3273
oogle	-3274
▁jour	-3275
▁kept	-3276
▁laid	-3277
▁port	-3278
▁summ	-3279
▁cause	-3280
▁ready	-3281
▁smile	-3282
▁Future	-3283
▁compan	-3284
▁opened	-3285
▁single	-3286
▁talked	-3287
▁keyword	-3288
▁manners	-3289
▁strings	-3290
abstractmethod	-3291
"$	-3292
FF	-3293
["	-3294
ULT	-3295
ecs	-3296
sec	-3297
▁-7	-3298
▁av	-3299
▁||	-3300
avar	-3301
iron	-3302
rely	-3303
▁"*"	-3304
digit	-3305
ident	-3306
uname	-3307
▁fing	-3308
thread	-3309
tzinfo	-3310
▁decod	-3311
mainder	-3312
writing	-3313
▁logger	-3314
encoding	-3315
▁Colonel	-3316
▁globals	-3317
▁married	-3318
▁original	-3319
UE	-3320
Un	-3321
af	-3322
go	-3323
wm	-3324
}{	-3325
How	-3326
ITE	-3327
ORD	-3328
cut	-3329
joy	-3330
yed	-3331
▁$5	-3332
▁De	-3333
That	-3334
User	-3335
▁joy	-3336
▁tac	-3337
▁wid	-3338
ering	-3339
▁assu	-3340
▁prog	-3341
idered	-3342
parser	-3343
▁aston	-3344
▁begun	-3345
▁former	-3346
▁mighty	-3347
▁signal	-3348
▁thoughts	-3349
▁considered	-3350
-8	-3351
;"	-3352
\"	-3353
cb	-3354
)):	-3355
256	-3356
OUT	-3357
arc	-3358
rwx	-3359
▁"-	-3360
▁Oh	-3361
▁FILE	-3362
▁fail	-3363
▁remo	-3364
▁seek	-3365
▁stre	-3366
gument	-3367
import	-3368
▁oblig	-3369
▁occur	-3370
▁honour	-3371
▁likely	-3372
▁lineno	-3373
received	-3374
▁question	-3375
▁whatever	-3376
▁following	-3377
▁appearance	-3378
UR	-3379
cu	-3380
pi	-3381
cmd	-3382
hel	-3383
ost	-3384
▁Wh	-3385
....	-3386
ATTR	-3387
SIZE	-3388
aves	-3389
bout	-3390
room	-3391
▁mad	-3392
ading	-3393
ember	-3394
iddle	-3395
light	-3396
▁Huck	-3397
▁Your	-3398
▁none	-3399
▁situ	-3400
▁tmux	-3401
▁Every	-3402
▁recol	-3403
ossible	-3404
--------	-3405
________	-3406
▁forward	-3407
▁timeout	-3408
▁acquaintance	-3409
InvalidOperation	-3410
3'	-3411
=3	-3412
IP	-3413
IX	-3414
If	-3415
PS	-3416
TY	-3417
]+	-3418
Hel	-3419
ird	-3420
ogg	-3421
hood	-3422
iler	-3423
soon	-3424
▁bed	-3425
▁fan	-3426
ATION	-3427
▁coro	-3428
▁husb	-3429
▁land	-3430
Reader	-3431
▁doesn	-3432
▁dread	-3433
▁quiet	-3434
▁title	-3435
Console	-3436
Returns	-3437
▁nigger	-3438
▁remote	-3439
nonlocal	-3440
▁decimal	-3441
▁greater	-3442
▁husband	-3443
▁journey	-3444
▁options	-3445
▁beautiful	-3446
▁behaviour	-3447
▁namespace	-3448
▁neighbour	-3449
DA	-3450
▁–	-3451
Col	-3452
got	-3453
atal	-3454
func	-3455
oint	-3456
open	-3457
rary	-3458
▁mon	-3459
▁res	-3460
ution	-3461
▁book	-3462
▁sick	-3463
▁step	-3464
ically	-3465
▁black	-3466
▁chars	-3467
▁enjoy	-3468
▁stood	-3469
▁trans	-3470
▁white	-3471
▁multip	-3472
▁remove	-3473
▁getting	-3474
▁children	-3475
▁readlink	-3476
"]	-3477
4,	-3478
75	-3479
\/	-3480
")"	-3481
.*"	-3482
/\(	-3483
Not	-3484
[.]	-3485
rol	-3486
she	-3487
▁-9	-3488
▁“_	-3489
10**	-3490
days	-3491
kens	-3492
need	-3493
▁-10	-3494
build	-3495
fraid	-3496
media	-3497
mount	-3498
▁dare	-3499
▁grat	-3500
▁hold	-3501
▁http	-3502
▁prep	-3503
elling	-3504
iously	-3505
itting	-3506
▁conce	-3507
▁scene	-3508
keyword	-3509
▁depend	-3510
▁strong	-3511
▁target	-3512
▁creature	-3513
▁provided	-3514
▁remember	-3515
================	-3516
$1	-3517
.’	-3518
SU	-3519
To	-3520
UU	-3521
BEG	-3522
ils	-3523
▁()	-3524
Exit	-3525
ises	-3526
last	-3527
tled	-3528
▁'/^	-3529
▁THE	-3530
▁Tom	-3531
▁deg	-3532
▁fra	-3533
▁gri	-3534
▁pow	-3535
▁cond	-3536
apache	-3537
▁doing	-3538
▁stack	-3539
▁tears	-3540
▁token	-3541
invalid	-3542
▁create	-3543
▁public	-3544
opyright	-3545
▁prevent	-3546
▁seconds	-3547
supported	-3548
▁believed	-3549
▁happened	-3550
▁mountain	-3551
precedence	-3552
startswith	-3553
▁directory	-3554
▁satisfied	-3555
,%	-3556
DO	-3557
ET	-3558
]]	-3559
=0,	-3560
PID	-3561
SET	-3562
css	-3563
▁*/	-3564
▁//	-3565
▁ce	-3566
('-1	-3567
.8.8	-3568
CALL	-3569
[0];	-3570
ging	-3571
into	-3572
uled	-3573
▁CON	-3574
▁One	-3575
▁equ	-3576
▁opt	-3577
▁sir	-3578
▁~/.	-3579
BEGIN	-3580
aring	-3581
aster	-3582
iling	-3583
pping	-3584
▁Cler	-3585
▁excl	-3586
▁mark	-3587
▁tone	-3588
[0]=1;	-3589
common	-3590
justed	-3591
▁learn	-3592
▁maybe	-3593
▁George	-3594
▁afraid	-3595
▁chance	-3596
▁struck	-3597
negative	-3598
▁directly	-3599
Pre	-3600
cho	-3601
ony	-3602
unc	-3603
▁<<	-3604
.0.0	-3605
Type	-3606
angu	-3607
bers	-3608
rier	-3609
ular	-3610
▁eye	-3611
▁pat	-3612
allel	-3613
nding	-3614
stuff	-3615
▁conn	-3616
▁late	-3617
▁miss	-3618
▁pict	-3619
apping	-3620
indows	-3621
values	-3622
▁below	-3623
myfiles	-3624
▁Turtle	-3625
▁cursor	-3626
▁destro	-3627
▁indent	-3628
▁nearly	-3629
complete	-3630
daystart	-3631
▁Clerval	-3632
▁created	-3633
▁silence	-3634
Transport	-3635
▁category	-3636
▁endeavour	-3637
(?	-3638
.3	-3639
\+	-3640
gi	-3641
wp	-3642
yp	-3643
("%	-3644
LOG	-3645
nou	-3646
res	-3647
yer	-3648
▁"`	-3649
▁$3	-3650
▁AB	-3651
▁RE	-3652
acle	-3653
aded	-3654
atio	-3655
coff	-3656
docs	-3657
work	-3658
▁"__	-3659
▁Let	-3660
night	-3661
▁beau	-3662
▁draw	-3663
▁free	-3664
▁reco	-3665
Werror	-3666
arcely	-3667
insert	-3668
ourage	-3669
▁corre	-3670
▁dance	-3671
▁sweet	-3672
▁across	-3673
▁advant	-3674
▁common	-3675
▁disapp	-3676
▁divmod	-3677
▁entire	-3678
▁knowed	-3679
▁prompt	-3680
▁silent	-3681
tributes	-3682
▁complet	-3683
▁concern	-3684
▁negative	-3685
▁parallel	-3686
▁positive	-3687
▁remained	-3688
▁expressed	-3689
▁knowledge	-3690
▁surprised	-3691
▁determined	-3692
▁themselves	-3693
▁collections	-3694
``	-3695
ev	-3696
})	-3697
('3	-3698
999	-3699
gex	-3700
▁\+	-3701
▁er	-3702
ards	-3703
cont	-3704
fail	-3705
long	-3706
what	-3707
ying	-3708
▁Now	-3709
▁err	-3710
▁opp	-3711
▁scp	-3712
▁wis	-3713
cript	-3714
frame	-3715
ially	-3716
lying	-3717
usion	-3718
▁Mery	-3719
▁Mock	-3720
▁doll	-3721
▁fine	-3722
▁gard	-3723
▁stop	-3724
STRING	-3725
coming	-3726
family	-3727
iregex	-3728
paused	-3729
trials	-3730
▁clear	-3731
▁impro	-3732
▁sorry	-3733
▁beauty	-3734
▁finger	-3735
▁making	-3736
▁parent	-3737
▁Meryton	-3738
▁compute	-3739
▁pleased	-3740
▁started	-3741
▁waiting	-3742
▁kindness	-3743
▁afterwards	-3744
▁impossible	-3745
"`	-3746
GR	-3747
_.	-3748
cr	-3749
-1)	-3750
/*/	-3751
1",	-3752
Key	-3753
[^/	-3754
ips	-3755
{\}	-3756
▁19	-3757
▁pa	-3758
▁xc	-3759
alth	-3760
amed	-3761
gest	-3762
http	-3763
phon	-3764
ries	-3765
▁";"	-3766
▁dri	-3767
▁emp	-3768
▁est	-3769
▁lot	-3770
▁sea	-3771
clear	-3772
slots	-3773
urity	-3774
ustom	-3775
▁curl	-3776
▁prof	-3777
▁repr	-3778
▁slow	-3779
CFLAGS	-3780
codecs	-3781
locale	-3782
update	-3783
▁'\\',	-3784
▁avail	-3785
▁intro	-3786
▁nargs	-3787
seconds	-3788
uffered	-3789
▁horror	-3790
????????	-3791
cheduled	-3792
▁actions	-3793
▁neither	-3794
▁proceed	-3795
▁reading	-3796
▁reckoned	-3797
▁scarcely	-3798
){	-3799
16	-3800
EL	-3801
ci	-3802
rx	-3803
ts	-3804
Foo	-3805
ech	-3806
ems	-3807
flo	-3808
dump	-3809
fill	-3810
▁"$@	-3811
▁Gry	-3812
▁dey	-3813
▁mot	-3814
▁six	-3815
▁son	-3816
▁vio	-3817
abbit	-3818
eness	-3819
flush	-3820
ising	-3821
param	-3822
▁ANSI	-3823
▁fair	-3824
▁mine	-3825
▁proc	-3826
▁push	-3827
▁sole	-3828
▁whis	-3829
active	-3830
isible	-3831
▁dream	-3832
▁early	-3833
▁ignor	-3834
▁lived	-3835
▁order	-3836
▁parse	-3837
▁posix	-3838
asyncio	-3839
▁Hatter	-3840
▁Pember	-3841
▁desire	-3842
▁tzinfo	-3843
lication	-3844
▁Gryphon	-3845
▁engaged	-3846
▁settled	-3847
something	-3848
Precedence	-3849
▁Pemberley	-3850
ProtocolState	-3851
OM	-3852
br	-3853
200	-3854
ARY	-3855
Des	-3856
ief	-3857
itz	-3858
lly	-3859
▁Du	-3860
▁``	-3861
▁bc	-3862
.*\)	-3863
Path	-3864
duct	-3865
iced	-3866
outh	-3867
▁'__	-3868
▁Res	-3869
▁aut	-3870
▁fif	-3871
▁pap	-3872
().__	-3873
iding	-3874
ively	-3875
mydir	-3876
tasks	-3877
▁With	-3878
▁ball	-3879
▁jump	-3880
▁padd	-3881
▁shut	-3882
Action	-3883
fortun	-3884
recurs	-3885
▁float	-3886
▁https	-3887
▁makes	-3888
▁usual	-3889
▁accomp	-3890
▁depart	-3891
▁needed	-3892
▁remark	-3893
▁suffer	-3894
▁trying	-3895
▁window	-3896
▁calling	-3897
▁purpose	-3898
▁writing	-3899
▁agreeable	-3900
▁specified	-3901
▁microsecond	-3902
2]	-3903
6,	-3904
>'	-3905
LC	-3906
WA	-3907
.14	-3908
/{}	-3909
SCR	-3910
SYS	-3911
uli	-3912
▁UT	-3913
▁ca	-3914
▁wo	-3915
DAYS	-3916
Iter	-3917
Mode	-3918
READ	-3919
ites	-3920
mine	-3921
▁eth	-3922
▁rec	-3923
▁soc	-3924
FAULT	-3925
ambda	-3926
aving	-3927
erver	-3928
reset	-3929
▁reli	-3930
▁tale	-3931
anging	-3932
events	-3933
lector	-3934
locked	-3935
▁These	-3936
▁conse	-3937
▁langu	-3938
▁offic	-3939
▁parts	-3940
▁truth	-3941
closing	-3942
contain	-3943
▁fellow	-3944
▁middle	-3945
expected	-3946
▁Justine	-3947
▁fortune	-3948
▁hostname	-3949
▁breakfast	-3950
▁difference	-3951
-*	-3952
=0	-3953
AS	-3954
Do	-3955
jk	-3956
sy	-3957
/*.	-3958
CUR	-3959
LOC	-3960
Call	-3961
SION	-3962
This	-3963
keys	-3964
seek	-3965
▁EOF	-3966
*10**	-3967
range	-3968
▁'.*'	-3969
▁earn	-3970
▁hund	-3971
▁pack	-3972
▁soft	-3973
▁color	-3974
▁pride	-3975
▁shore	-3976
▁usage	-3977
decimal	-3978
▁attach	-3979
▁garden	-3980
▁kwargs	-3981
▁spirit	-3982
▁unless	-3983
rounding	-3984
▁changed	-3985
▁despair	-3986
coroutine	-3987
regextype	-3988
▁although	-3989
▁complete	-3990
▁repeated	-3991
▁instantly	-3992
▁expression	-3993
microseconds	-3994
tributeError	-3995
'`	-3996
OT	-3997
},	-3998
END	-3999
iny	-4000
jar	-4001
mov	-4002
seq	-4003
▁$4	-4004
.*/\	-4005
WITH	-4006
heck	-4007
ives	-4008
▁ABC	-4009
▁Int	-4010
▁Ros	-4011
▁Set	-4012
▁dra	-4013
▁ins	-4014
▁mag	-4015
Music	-4016
built	-4017
inced	-4018
istry	-4019
known	-4020
▁hair	-4021
▁loss	-4022
▁skip	-4023
nouser	-4024
number	-4025
tokens	-4026
▁owner	-4027
▁queue	-4028
▁trees	-4029
waiters	-4030
▁choice	-4031
▁dinner	-4032
▁interr	-4033
▁judged	-4034
▁master	-4035
location	-4036
▁cottage	-4037
▁introdu	-4038
▁explicit	-4039
▁suddenly	-4040
▁surprise	-4041
▁wretched	-4042
▁daughters	-4043
▁separator	-4044
▁situation	-4045
▁characters	-4046
▁BaseException	-4047
5,	-4048
CS	-4049
IR	-4050
tx	-4051
vm	-4052
ze	-4053
/..	-4054
inf	-4055
iod	-4056
mon	-4057
▁1.	-4058
elix	-4059
eval	-4060
recv	-4061
toff	-4062
vely	-4063
will	-4064
wrap	-4065
zcat	-4066
▁-23	-4067
▁Sir	-4068
▁eat	-4069
▁law	-4070
▁wit	-4071
iving	-4072
parts	-4073
▁\{\}	-4074
▁died	-4075
▁quar	-4076
▁susp	-4077
▁term	-4078
▁warm	-4079
▁wild	-4080
XXXXXX	-4081
▁admir	-4082
▁occup	-4083
▁plain	-4084
Warning	-4085
decoded	-4086
environ	-4087
generic	-4088
reatest	-4089
▁compat	-4090
commands	-4091
function	-4092
▁amiable	-4093
▁earnest	-4094
▁special	-4095
Interrupt	-4096
▁document	-4097
▁entirely	-4098
▁greatest	-4099
▁handsome	-4100
▁companion	-4101
▁disappoint	-4102
▁getcontext	-4103
32	-4104
7,	-4105
ED	-4106
OL	-4107
WN	-4108
aa	-4109
wc	-4110
}.	-4111
▁9	-4112
AGE	-4113
App	-4114
ORT	-4115
She	-4116
ics	-4117
ior	-4118
lab	-4119
nal	-4120
oul	-4121
uid	-4122
▁]*	-4123
ARCH	-4124
[-1]	-4125
inst	-4126
ktop	-4127
mail	-4128
ming	-4129
roll	-4130
same	-4131
view	-4132
yond	-4133
▁See	-4134
▁dot	-4135
▁hop	-4136
▁wra	-4137
__.__	-4138
▁-100	-4139
▁clot	-4140
▁func	-4141
▁luck	-4142
Future	-4143
cluded	-4144
fields	-4145
▁canoe	-4146
▁coeff	-4147
▁crowd	-4148
▁enter	-4149
▁level	-4150
▁throw	-4151
▁widow	-4152
Program	-4153
awaited	-4154
ishment	-4155
logical	-4156
section	-4157
▁broken	-4158
▁forget	-4159
▁taking	-4160
datetime	-4161
▁Rosings	-4162
▁observed	-4163
▁somebody	-4164
▁advantage	-4165
▁cancelled	-4166
▁convinced	-4167
boardInterrupt	-4168
*/	-4169
/2	-4170
23	-4171
QU	-4172
We	-4173
ha	-4174
xc	-4175
)))	-4176
100	-4177
SSL	-4178
\//	-4179
zen	-4180
▁24	-4181
▁dt	-4182
▁ir	-4183
Loop	-4184
mpeg	-4185
urst	-4186
when	-4187
zero	-4188
▁'\.	-4189
▁boy	-4190
▁pwd	-4191
▁typ	-4192
▁wat	-4193
▁“*.	-4194
orrow	-4195
shift	-4196
short	-4197
▁"$@"	-4198
▁Note	-4199
▁exec	-4200
▁symp	-4201
Colors	-4202
▁bring	-4203
▁built	-4204
▁fetch	-4205
▁peace	-4206
▁pursu	-4207
isearch	-4208
locking	-4209
pportun	-4210
▁degree	-4211
▁easily	-4212
▁groups	-4213
▁island	-4214
annotate	-4215
infinity	-4216
▁further	-4217
▁hundred	-4218
▁removed	-4219
▁strange	-4220
▁various	-4221
ystemExit	-4222
▁listened	-4223
▁opportun	-4224
▁thinking	-4225
▁gentlemen	-4226
+1	-4227
/`	-4228
>"	-4229
Ar	-4230
Se	-4231
$//	-4232
/$(	-4233
Par	-4234
avz	-4235
hup	-4236
rer	-4237
web	-4238
wyn	-4239
▁]]	-4240
MAGE	-4241
THON	-4242
reme	-4243
resh	-4244
rown	-4245
term	-4246
uish	-4247
▁'--	-4248
▁XXX	-4249
▁Yet	-4250
▁cmd	-4251
▁unh	-4252
stamp	-4253
wered	-4254
▁1000	-4255
▁Read	-4256
▁Task	-4257
▁byte	-4258
▁iter	-4259
▁plan	-4260
FOLDER	-4261
Handle	-4262
atform	-4263
formed	-4264
minute	-4265
stream	-4266
▁absol	-4267
▁calls	-4268
▁cross	-4269
▁debug	-4270
▁meant	-4271
▁spent	-4272
▁women	-4273
▁worth	-4274
Desktop	-4275
IOError	-4276
archive	-4277
forward	-4278
▁Rabbit	-4279
▁exceed	-4280
▁forgot	-4281
▁height	-4282
▁report	-4283
▁slight	-4284
▁system	-4285
security	-4286
▁conduct	-4287
▁dollars	-4288
▁extreme	-4289
▁modules	-4290
▁pattern	-4291
▁Argument	-4292
▁carriage	-4293
▁defaults	-4294
▁AttributeError	-4295
''	-4296
)]	-4297
DS	-4298
MM	-4299
]"	-4300
sn	-4301
.]*	-4302
BIN	-4303
TIF	-4304
ien	-4305
▁'0	-4306
▁>(	-4307
▁NR	-4308
▁\*	-4309
enge	-4310
enty	-4311
unic	-4312
urch	-4313
wyne	-4314
▁+60	-4315
▁ban	-4316
▁ice	-4317
array	-4318
const	-4319
pgrep	-4320
▁news	-4321
▁past	-4322
000000	-4323
accept	-4324
fileno	-4325
ounded	-4326
signal	-4327
▁Event	-4328
▁fancy	-4329
▁hopes	-4330
▁inner	-4331
▁pause	-4332
Include	-4333
▁assure	-4334
▁beyond	-4335
▁design	-4336
▁inquir	-4337
▁latter	-4338
▁secret	-4339
internal	-4340
▁arrived	-4341
▁meaning	-4342
▁answered	-4343
classmethod	-4344
▁connections	-4345
lockingIOError	-4346
-\	-4347
1'	-4348
PL	-4349
Py	-4350
\{	-4351
fn	-4352
lh	-4353
("\	-4354
PRO	-4355
Set	-4356
ims	-4357
may	-4358
rpm	-4359
▁*"	-4360
▁30	-4361
▁Be	-4362
▁cy	-4363
ibly	-4364
ring	-4365
ummy	-4366
unix	-4367
ware	-4368
▁$'\	-4369
▁IFS	-4370
▁gen	-4371
▁ran	-4372
7.0.0	-4373
abled	-4374
anced	-4375
nargs	-4376
ounds	-4377
▁auto	-4378
▁drew	-4379
▁eval	-4380
▁stud	-4381
Format	-4382
filter	-4383
▁Felix	-4384
▁frequ	-4385
▁liked	-4386
▁seems	-4387
▁shift	-4388
7.0.0.1	-4389
futures	-4390
gettext	-4391
parents	-4392
▁accord	-4393
▁bitter	-4394
▁danger	-4395
▁happen	-4396
▁places	-4397
▁proper	-4398
▁search	-4399
adjusted	-4400
▁rawdata	-4401
▁receive	-4402
▁society	-4403
▁abstract	-4404
▁discover	-4405
▁beginning	-4406
▁condition	-4407
▁reference	-4408
▁acquainted	-4409
################	-4410
"{	-4411
1_	-4412
9,	-4413
=2	-4414
Wp	-4415
};	-4416
(",	-4417
86-	-4418
>",	-4419
Met	-4420
__.	-4421
alt	-4422
fcf	-4423
hor	-4424
llo	-4425
plt	-4426
ume	-4427
▁"+	-4428
▁2,	-4429
▁Ag	-4430
▁Sh	-4431
).__	-4432
DEPS	-4433
TIFY	-4434
arge	-4435
core	-4436
imed	-4437
rank	-4438
▁-12	-4439
▁bes	-4440
▁une	-4441
[^/]*	-4442
clash	-4443
ffile	-4444
float	-4445
march	-4446
mtune	-4447
theme	-4448
trans	-4449
▁disc	-4450
▁inno	-4451
▁quit	-4452
▁safe	-4453
86-64-	-4454
ctools	-4455
errors	-4456
ession	-4457
ffered	-4458
fstack	-4459
iosity	-4460
ssages	-4461
▁earth	-4462
▁loved	-4463
▁proto	-4464
▁unset	-4465
FORTIFY	-4466
VERSION	-4467
Wformat	-4468
decoder	-4469
urandom	-4470
▁binary	-4471
▁engage	-4472
▁stderr	-4473
▁clothes	-4474
▁content	-4475
▁decoder	-4476
▁desired	-4477
▁obliged	-4478
completer	-4479
▁civility	-4480
isinfinity	-4481
fexceptions	-4482
▁ANSIColors	-4483
▁annotations	-4484
▁disposition	-4485
."	-4486
/[	-4487
1:	-4488
>/	-4489
Bu	-4490
EE	-4491
}/	-4492
/*'	-4493
Def	-4494
RED	-4495
SES	-4496
Sto	-4497
iso	-4498
ram	-4499
ulo	-4500
▁"<	-4501
Cont	-4502
Your	-4503
held	-4504
ills	-4505
requ	-4506
shot	-4507
skip	-4508
▁glo	-4509
▁sha	-4510
FTIME	-4511
chess	-4512
egrep	-4513
minfo	-4514
ports	-4515
rying	-4516
▁"$0"	-4517
▁bank	-4518
▁bene	-4519
▁dire	-4520
▁fact	-4521
▁flag	-4522
▁soul	-4523
▁virt	-4524
cursor	-4525
keymap	-4526
▁March	-4527
▁Their	-4528
▁delay	-4529
▁emplo	-4530
▁judge	-4531
▁speed	-4532
▁toler	-4533
ability	-4534
aration	-4535
▁append	-4536
▁backup	-4537
▁giving	-4538
▁health	-4539
▁merely	-4540
▁waited	-4541
▁archive	-4542
▁assured	-4543
▁reached	-4544
▁restore	-4545
▁compliment	-4546
▁particular	-4547
▁opportunity	-4548
▁considerable	-4549
([	-4550
.2	-4551
36	-4552
Hn	-4553
PP	-4554
].	-4555
nl	-4556
:]]	-4557
Can	-4558
INT	-4559
ORE	-4560
ann	-4561
ica	-4562
odo	-4563
~",	-4564
▁16	-4565
WORD	-4566
lass	-4567
mbox	-4568
mend	-4569
▁+20	-4570
▁aux	-4571
▁die	-4572
▁led	-4573
▁mut	-4574
ators	-4575
found	-4576
ining	-4577
mport	-4578
point	-4579
redit	-4580
▁Make	-4581
▁goes	-4582
▁grow	-4583
▁incl	-4584
▁trem	-4585
apshot	-4586
▁paper	-4587
serving	-4588
▁detail	-4589
▁images	-4590
▁locale	-4591
▁lovely	-4592
▁placed	-4593
▁wishes	-4594
category	-4595
▁Duchess	-4596
▁Returns	-4597
▁amongst	-4598
▁install	-4599
▁promise	-4600
struction	-4601
▁Ladyship	-4602
[0-9][0-9]	-4603
iwholename	-4604
▁curiosity	-4605
▁circumstances	-4606
-4	-4607
19	-4608
LIM	-4609
fst	-4610
pan	-4611
was	-4612
▁ug	-4613
('1.	-4614
boat	-4615
boot	-4616
igin	-4617
imum	-4618
kind	-4619
lies	-4620
more	-4621
nans	-4622
ones	-4623
suff	-4624
▁"$1	-4625
▁775	-4626
▁Don	-4627
▁bra	-4628
▁loc	-4629
▁sli	-4630
ester	-4631
going	-4632
idden	-4633
lient	-4634
ourgh	-4635
power	-4636
▁Hert	-4637
▁hung	-4638
▁priv	-4639
▁rows	-4640
groups	-4641
policy	-4642
strict	-4643
▁blame	-4644
▁clean	-4645
▁court	-4646
▁excel	-4647
▁miles	-4648
▁piece	-4649
▁store	-4650
▁wrote	-4651
▁youth	-4652
coffset	-4653
complet	-4654
newline	-4655
objects	-4656
▁Bourgh	-4657
▁stdout	-4658
▁unhapp	-4659
▁update	-4660
▁England	-4661
▁section	-4662
fordshire	-4663
localhost	-4664
namespace	-4665
▁comparis	-4666
▁distance	-4667
▁finished	-4668
▁stranger	-4669
deprecated	-4670
▁available	-4671
▁functions	-4672
▁mentioned	-4673
▁threading	-4674
▁discovered	-4675
▁Hertfordshire	-4676
"%	-4677
'{	-4678
(*	-4679
,$	-4680
.)	-4681
.4	-4682
`;	-4683
~'	-4684
10(	-4685
777	-4686
=""	-4687
SUB	-4688
exe	-4689
sep	-4690
sue	-4691
uct	-4692
▁Re	-4693
('10	-4694
SOCK	-4695
TEST	-4696
ctxt	-4697
eral	-4698
this	-4699
▁"$0	-4700
▁189	-4701
▁enc	-4702
▁isn	-4703
▁mer	-4704
▁pay	-4705
Users	-4706
aimed	-4707
token	-4708
▁2009	-4709
▁Buck	-4710
▁Dorm	-4711
▁Iter	-4712
▁blah	-4713
▁bran	-4714
▁enum	-4715
▁keys	-4716
▁vill	-4717
▁weak	-4718
ancing	-4719
marker	-4720
▁cloud	-4721
▁stats	-4722
▁trunc	-4723
avoured	-4724
weekday	-4725
▁assist	-4726
▁custom	-4727
▁google	-4728
▁joined	-4729
▁showed	-4730
▁solemn	-4731
▁temper	-4732
progress	-4733
▁arrival	-4734
▁feature	-4735
▁futures	-4736
▁letters	-4737
▁related	-4738
▁release	-4739
▁request	-4740
imization	-4741
▁Dormouse	-4742
▁communic	-4743
▁speaking	-4744
▁mountains	-4745
celledError	-4746
▁admiration	-4747
2:	-4748
70	-4749
De	-4750
LF	-4751
aj	-4752
CLE	-4753
MAX	-4754
TRA	-4755
pha	-4756
vey	-4757
▁$'	-4758
▁Is	-4759
▁TI	-4760
▁ff	-4761
▁py	-4762
ALUE	-4763
VENT	-4764
__",	-4765
ctor	-4766
hore	-4767
iffe	-4768
json	-4769
mint	-4770
ride	-4771
site	-4772
they	-4773
▁'*/	-4774
▁'+'	-4775
▁arm	-4776
▁blo	-4777
▁fix	-4778
▁hat	-4779
▁tim	-4780
▁zip	-4781
Store	-4782
incip	-4783
msgid	-4784
music	-4785
title	-4786
▁1024	-4787
▁Text	-4788
▁desp	-4789
▁hide	-4790
▁rich	-4791
▁sing	-4792
▁uses	-4793
▁wand	-4794
Buffer	-4795
counts	-4796
extend	-4797
▁ROUND	-4798
▁terms	-4799
▁thank	-4800
▁width	-4801
▁afford	-4802
▁credit	-4803
▁ffmpeg	-4804
▁formed	-4805
▁killed	-4806
▁modulo	-4807
▁please	-4808
blocking	-4809
incoming	-4810
▁Forster	-4811
▁sympath	-4812
▁callable	-4813
▁comments	-4814
▁pleasant	-4815
▁sequence	-4816
executable	-4817
▁Exception	-4818
▁formatter	-4819
▁interrupt	-4820
▁supported	-4821
▁deprecated	-4822
▁destination	-4823
2'	-4824
;/	-4825
=-	-4826
AX	-4827
An	-4828
oh	-4829
ov	-4830
zf	-4831
GEN	-4832
Per	-4833
TED	-4834
aff	-4835
dri	-4836
oth	-4837
pow	-4838
ras	-4839
rif	-4840
uce	-4841
xxx	-4842
▁'<	-4843
▁Sc	-4844
▁\"	-4845
▁],	-4846
▁hi	-4847
Down	-4848
Emax	-4849
decl	-4850
expr	-4851
lips	-4852
odes	-4853
oken	-4854
rate	-4855
▁'*'	-4856
▁ack	-4857
▁fro	-4858
▁spr	-4859
('1')	-4860
Gener	-4861
alent	-4862
posxy	-4863
water	-4864
▁'*.[	-4865
▁auth	-4866
▁bear	-4867
▁bind	-4868
▁feet	-4869
▁fish	-4870
▁fool	-4871
▁moon	-4872
▁pars	-4873
▁rain	-4874
▁repl	-4875
▁road	-4876
▁ways	-4877
FooBar	-4878
ecmint	-4879
finite	-4880
header	-4881
keygen	-4882
versal	-4883
writer	-4884
▁books	-4885
▁cheer	-4886
▁chief	-4887
▁fiend	-4888
▁floor	-4889
▁gwyne	-4890
▁impat	-4891
▁msgid	-4892
▁mysql	-4893
▁nohup	-4894
▁trust	-4895
▁twice	-4896
▁uname	-4897
imation	-4898
integer	-4899
outines	-4900
▁acknow	-4901
▁config	-4902
▁resume	-4903
▁sorrow	-4904
▁whence	-4905
terminal	-4906
▁princip	-4907
▁walking	-4908
▁younger	-4909
Copyright	-4910
▁actually	-4911
▁compress	-4912
▁internal	-4913
▁officers	-4914
▁Sometimes	-4915
▁perceived	-4916
▁returning	-4917
▁consequence	-4918
▁endeavoured	-4919
▁particularly	-4920
!_	-4921
04	-4922
2_	-4923
=%	-4924
rl	-4925
||	-4926
$/\	-4927
033	-4928
:00	-4929
:]'	-4930
IPT	-4931
ets	-4932
ksh	-4933
pet	-4934
udi	-4935
▁$9	-4936
▁2)	-4937
▁60	-4938
▁[[	-4939
▁dr	-4940
4000	-4941
Spec	-4942
They	-4943
[^.]	-4944
bind	-4945
enev	-4946
gral	-4947
lanc	-4948
show	-4949
tern	-4950
▁###	-4951
▁'.'	-4952
▁+90	-4953
▁700	-4954
▁Pro	-4955
▁bin	-4956
▁hid	-4957
▁ord	-4958
Count	-4959
[^.]*	-4960
alled	-4961
ftime	-4962
ggest	-4963
graph	-4964
▁Join	-4965
▁boat	-4966
▁calm	-4967
▁fore	-4968
▁loud	-4969
▁move	-4970
ameter	-4971
ending	-4972
params	-4973
▁hurry	-4974
▁looks	-4975
▁recom	-4976
▁thick	-4977
compile	-4978
ilities	-4979
ivalent	-4980
metavar	-4981
program	-4982
▁Stream	-4983
▁anyway	-4984
▁export	-4985
▁failed	-4986
▁infile	-4987
▁living	-4988
▁occurs	-4989
▁period	-4990
▁simple	-4991
▁speech	-4992
esterday	-4993
warnings	-4994
▁Section	-4995
▁classes	-4996
▁compare	-4997
▁confess	-4998
▁invalid	-4999
▁picture	-5000
▁program	-5001
▁stopped	-5002
▁succeed	-5003
▁addition	-5004
▁intended	-5005
▁probably	-5006
▁whenever	-5007
▁possessed	-5008
▁invitation	-5009
▁comfortable	-5010
specialization	-5011
1\	-5012
25	-5013
66	-5014
68	-5015
8,	-5016
PO	-5017
TM	-5018
VS	-5019
wo	-5020
(1,	-5021
One	-5022
ROM	-5023
SER	-5024
bra	-5025
cvf	-5026
dst	-5027
lto	-5028
mag	-5029
ued	-5030
▁50	-5031
▁IO	-5032
▁TH	-5033
▁cv	-5034
▁{'	-5035
('12	-5036
:]]*	-5037
abit	-5038
arse	-5039
diff	-5040
dirs	-5041
inux	-5042
itzw	-5043
oper	-5044
step	-5045
teen	-5046
▁','	-5047
▁Per	-5048
▁Phi	-5049
▁UTC	-5050
▁ard	-5051
▁ctx	-5052
▁van	-5053
('0')	-5054
There	-5055
binop	-5056
dirty	-5057
eneva	-5058
quant	-5059
ushed	-5060
using	-5061
▁'\0'	-5062
▁1894	-5063
▁Call	-5064
▁From	-5065
▁Hare	-5066
▁Here	-5067
▁evil	-5068
▁rand	-5069
BINARY	-5070
helper	-5071
▁Allen	-5072
▁Fitzw	-5073
▁Other	-5074
▁Stats	-5075
▁front	-5076
▁steam	-5077
▁story	-5078
▁utter	-5079
globals	-5080
▁belong	-5081
▁global	-5082
▁unable	-5083
relative	-5084
▁Philips	-5085
▁comment	-5086
▁courage	-5087
▁hearing	-5088
▁indiffe	-5089
▁weekday	-5090
EventLoop	-5091
[0-9]*[.]	-5092
▁compiler	-5093
▁conflict	-5094
▁integers	-5095
▁language	-5096
▁supposed	-5097
▁terminal	-5098
▁favourite	-5099
▁sufficient	-5100
▁Fitzwilliam	-5101
▁astonishment	-5102
[0-9][0-9]*[.]	-5103
▁neighbourhood	-5104
-6	-5105
/1	-5106
?"	-5107
SY	-5108
[$	-5109
ba	-5110
bb	-5111
eq	-5112
Are	-5113
COD	-5114
Clo	-5115
HOR	-5116
OTE	-5117
RAN	-5118
asy	-5119
gif	-5120
org	-5121
sho	-5122
▁+$	-5123
▁0.	-5124
▁FO	-5125
▁[_	-5126
BACK	-5127
Meta	-5128
STRU	-5129
WARD	-5130
bled	-5131
case	-5132
ison	-5133
itor	-5134
llib	-5135
prev	-5136
▁'0'	-5137
▁AST	-5138
▁\{}	-5139
▁age	-5140
▁fig	-5141
▁inh	-5142
▁php	-5143
▁sep	-5144
▁wel	-5145
('2.1	-5146
antic	-5147
first	-5148
label	-5149
links	-5150
ously	-5151
ptime	-5152
▁coup	-5153
▁hain	-5154
▁init	-5155
▁null	-5156
▁rose	-5157
▁vain	-5158
decode	-5159
foobar	-5160
pyrepl	-5161
urllib	-5162
▁bless	-5163
▁catch	-5164
▁guard	-5165
▁hoped	-5166
▁indic	-5167
▁items	-5168
▁spite	-5169
▁stret	-5170
▁takes	-5171
▁wrong	-5172
changed	-5173
release	-5174
▁fright	-5175
▁writer	-5176
defaults	-5177
keywords	-5178
projects	-5179
▁absence	-5180
▁library	-5181
▁niggers	-5182
▁require	-5183
▁promised	-5184
▁timezone	-5185
▁variable	-5186
subdomainA	-5187
subdomainB	-5188
▁existence	-5189
▁sensations	-5190
▁documentation	-5191
%.	-5192
-0	-5193
Gr	-5194
Po	-5195
WR	-5196
dt	-5197
la	-5198
(0)	-5199
.")	-5200
.')	-5201
1..	-5202
10,	-5203
:",	-5204
=$1	-5205
Ali	-5206
cjk	-5207
ilo	-5208
lrt	-5209
}",	-5210
▁"(	-5211
▁17	-5212
._]]	-5213
1024	-5214
2009	-5215
DOWN	-5216
Send	-5217
aved	-5218
card	-5219
nter	-5220
rase	-5221
rehe	-5222
runk	-5223
sure	-5224
ynch	-5225
▁"*/	-5226
▁ALL	-5227
▁Get	-5228
▁abc	-5229
▁fil	-5230
▁hig	-5231
▁neg	-5232
▁sad	-5233
▁sky	-5234
▁sty	-5235
▁vim	-5236
PRESS	-5237
ality	-5238
ardon	-5239
leave	-5240
lence	-5241
lname	-5242
maybe	-5243
osing	-5244
ourse	-5245
owner	-5246
scale	-5247
▁0777	-5248
▁Stop	-5249
▁cast	-5250
▁cell	-5251
▁dece	-5252
▁lose	-5253
▁mach	-5254
▁mort	-5255
▁prot	-5256
▁rend	-5257
▁stra	-5258
CURSES	-5259
aching	-5260
height	-5261
mitted	-5262
▁Hurst	-5263
▁deser	-5264
▁final	-5265
▁guess	-5266
▁numer	-5267
▁regex	-5268
▁reply	-5269
▁shook	-5270
▁stdin	-5271
▁stuff	-5272
wrapper	-5273
▁access	-5274
▁finish	-5275
▁highly	-5276
▁marked	-5277
▁native	-5278
▁oracle	-5279
▁regret	-5280
▁summer	-5281
▁twenty	-5282
LOCATION	-5283
builtins	-5284
▁company	-5285
▁consent	-5286
▁handler	-5287
▁knowing	-5288
▁numbers	-5289
▁passing	-5290
▁violent	-5291
cjkcodecs	-5292
▁Buffered	-5293
▁attended	-5294
▁standard	-5295
▁superior	-5296
SystemExit	-5297
subprocess	-5298
▁creatures	-5299
▁excellent	-5300
▁generally	-5301
▁relations	-5302
▁remainder	-5303
:\	-5304
<=	-5305
Is	-5306
MS	-5307
vn	-5308
AVE	-5309
PLA	-5310
Rep	-5311
att	-5312
ltn	-5313
phe	-5314
▁DA	-5315
▁cf	-5316
▁dw	-5317
Comp	-5318
HACL	-5319
Info	-5320
LINE	-5321
cher	-5322
enry	-5323
ffat	-5324
hool	-5325
imil	-5326
ixin	-5327
safe	-5328
tail	-5329
tree	-5330
▁-50	-5331
▁400	-5332
▁664	-5333
▁AUT	-5334
▁Can	-5335
▁Sub	-5336
▁dst	-5337
▁mat	-5338
atory	-5339
ellig	-5340
force	-5341
imate	-5342
mtoff	-5343
resol	-5344
separ	-5345
there	-5346
utely	-5347
uther	-5348
visit	-5349
▁Sund	-5350
▁coff	-5351
▁fami	-5352
▁hash	-5353
▁hunt	-5354
▁sake	-5355
ertion	-5356
tofind	-5357
▁Henry	-5358
▁alias	-5359
▁dared	-5360
▁grief	-5361
▁laugh	-5362
▁offer	-5363
▁press	-5364
▁proud	-5365
▁solit	-5366
▁wants	-5367
▁weeks	-5368
DEFAULT	-5369
UPPRESS	-5370
indices	-5371
▁AUTHOR	-5372
▁Geneva	-5373
▁beheld	-5374
▁bright	-5375
▁consol	-5376
▁intent	-5377
▁labour	-5378
▁locals	-5379
errupted	-5380
finished	-5381
readable	-5382
snapshot	-5383
▁anxious	-5384
▁applied	-5385
▁dropped	-5386
▁partial	-5387
▁sitting	-5388
▁village	-5389
Iteration	-5390
remainder	-5391
▁previous	-5392
▁produced	-5393
▁prospect	-5394
▁sensible	-5395
▁watching	-5396
▁attribute	-5397
▁exclaimed	-5398
▁questions	-5399
▁operations	-5400
▁subprocess	-5401
65	-5402
As	-5403
Eo	-5404
Of	-5405
dm	-5406
",$	-5407
0-9	-5408
CHE	-5409
Div	-5410
MIN	-5411
awn	-5412
ces	-5413
cks	-5414
irm	-5415
lst	-5416
mut	-5417
nat	-5418
utc	-5419
▁(_	-5420
▁11	-5421
▁Ra	-5422
▁ip	-5423
BUFF	-5424
COMP	-5425
Mess	-5426
RECT	-5427
anqu	-5428
arer	-5429
eter	-5430
iate	-5431
kill	-5432
lime	-5433
ooks	-5434
pher	-5435
wake	-5436
▁-20	-5437
▁Har	-5438
▁USE	-5439
▁Wal	-5440
▁ann	-5441
▁ant	-5442
▁art	-5443
▁cop	-5444
▁fer	-5445
▁oct	-5446
▁pen	-5447
▁smo	-5448
▁tea	-5449
Alias	-5450
Group	-5451
agram	-5452
cheme	-5453
earch	-5454
erate	-5455
fined	-5456
gment	-5457
iloso	-5458
loads	-5459
pager	-5460
posed	-5461
rible	-5462
ulate	-5463
under	-5464
▁Aust	-5465
▁THIS	-5466
▁arms	-5467
▁camp	-5468
▁capt	-5469
▁core	-5470
▁pair	-5471
▁park	-5472
BUFFER	-5473
OUTPUT	-5474
PYTHON	-5475
myfile	-5476
needle	-5477
plural	-5478
return	-5479
▁'.*\.	-5480
▁mouth	-5481
▁moved	-5482
▁murde	-5483
▁pushd	-5484
comment	-5485
osition	-5486
partial	-5487
unction	-5488
▁asleep	-5489
▁author	-5490
▁church	-5491
▁couple	-5492
▁leaves	-5493
▁murder	-5494
▁resent	-5495
▁tranqu	-5496
▁trials	-5497
colorize	-5498
template	-5499
▁capable	-5500
▁compass	-5501
▁curious	-5502
▁eagerly	-5503
▁philoso	-5504
▁quickly	-5505
▁replace	-5506
▁setting	-5507
▁unhappy	-5508
▁warning	-5509
▁witness	-5510
[^.][^.]*	-5511
ification	-5512
scheduled	-5513
▁mistaken	-5514
▁username	-5515
▁addressed	-5516
▁delighted	-5517
▁yesterday	-5518
▁attachment	-5519
({	-5520
)}	-5521
0|	-5522
By	-5523
XT	-5524
eb	-5525
('7	-5526
()`	-5527
2.1	-5528
ART	-5529
__)	-5530
let	-5531
tex	-5532
url	-5533
uzz	-5534
▁+0	-5535
▁14	-5536
▁tb	-5537
Come	-5538
Host	-5539
THER	-5540
atty	-5541
cked	-5542
ency	-5543
left	-5544
macs	-5545
made	-5546
perl	-5547
star	-5548
verb	-5549
▁"{}	-5550
▁-1:	-5551
▁ANY	-5552
▁Doc	-5553
▁Saw	-5554
▁WAR	-5555
▁cow	-5556
▁etc	-5557
CLEAN	-5558
ROUND	-5559
alloc	-5560
arily	-5561
cking	-5562
exist	-5563
ieces	-5564
older	-5565
onday	-5566
trace	-5567
while	-5568
▁2000	-5569
▁Bill	-5570
▁Find	-5571
▁attr	-5572
▁fond	-5573
▁held	-5574
▁lips	-5575
▁mult	-5576
▁post	-5577
▁vent	-5578
Parser	-5579
SCRIPT	-5580
access	-5581
ecause	-5582
ension	-5583
erning	-5584
fstype	-5585
random	-5586
▁Count	-5587
▁chunk	-5588
▁consc	-5589
▁drunk	-5590
▁espec	-5591
▁exper	-5592
▁fresh	-5593
▁studi	-5594
▁style	-5595
LIBHACL	-5596
choices	-5597
delimit	-5598
filters	-5599
fulness	-5600
▁excess	-5601
▁paused	-5602
▁suspic	-5603
[0-9]{1,	-5604
integral	-5605
samefile	-5606
▁Invalid	-5607
▁besides	-5608
▁dearest	-5609
▁defined	-5610
▁entreat	-5611
▁hanging	-5612
▁imagine	-5613
▁noticed	-5614
▁perform	-5615
▁quitted	-5616
▁regular	-5617
▁servant	-5618
▁turning	-5619
dataclass	-5620
▁KeyError	-5621
▁creation	-5622
▁ignorant	-5623
▁intellig	-5624
▁murderer	-5625
▁connected	-5626
▁copyright	-5627
▁gratitude	-5628
▁persuaded	-5629
▁traceback	-5630
▁attentions	-5631
▁coroutines	-5632
▁sslcontext	-5633
)/	-5634
DB	-5635
JS	-5636
MD	-5637
OB	-5638
TA	-5639
Th	-5640
rv	-5641
"/'	-5642
-10	-5643
-2.	-5644
.",	-5645
1":	-5646
567	-5647
="\	-5648
ABC	-5649
CLU	-5650
Get	-5651
NGE	-5652
OFT	-5653
SIG	-5654
SPA	-5655
UMP	-5656
YPE	-5657
cyg	-5658
fer	-5659
him	-5660
▁$$	-5661
▁25	-5662
▁AR	-5663
▁fp	-5664
▁io	-5665
▁ss	-5666
▁xe	-5667
/[[:	-5668
HAND	-5669
HOST	-5670
TIES	-5671
WARE	-5672
bits	-5673
calc	-5674
eved	-5675
frac	-5676
hens	-5677
holy	-5678
iest	-5679
mach	-5680
oted	-5681
reed	-5682
uses	-5683
▁":"	-5684
▁$1}	-5685
▁+50	-5686
▁256	-5687
▁SUM	-5688
▁inj	-5689
▁nar	-5690
▁pid	-5691
▁rid	-5692
▁rot	-5693
▁sol	-5694
MAGES	-5695
START	-5696
anges	-5697
asing	-5698
bered	-5699
bject	-5700
clock	-5701
orses	-5702
usted	-5703
▁SOFT	-5704
▁WITH	-5705
▁fill	-5706
▁game	-5707
▁harm	-5708
▁java	-5709
▁spot	-5710
▁stir	-5711
-*2009	-5712
.8.8.8	-5713
Python	-5714
[0-9]{	-5715
before	-5716
column	-5717
ensure	-5718
resume	-5719
▁abhor	-5720
▁alive	-5721
▁benef	-5722
▁cases	-5723
▁cycle	-5724
▁digit	-5725
▁gloom	-5726
▁horse	-5727
▁knows	-5728
▁rapid	-5729
▁study	-5730
RANTIES	-5731
content	-5732
verbose	-5733
warning	-5734
▁ACTION	-5735
▁deeply	-5736
▁fields	-5737
▁horses	-5738
▁lambda	-5739
▁larger	-5740
▁laying	-5741
▁select	-5742
▁winter	-5743
ctionary	-5744
executor	-5745
iterator	-5746
overflow	-5747
platform	-5748
▁DAMAGES	-5749
▁carried	-5750
▁hastily	-5751
▁hurried	-5752
▁mapping	-5753
▁meeting	-5754
▁monster	-5755
▁passion	-5756
▁private	-5757
▁project	-5758
▁science	-5759
cellation	-5760
recursion	-5761
▁JoinMode	-5762
▁SOFTWARE	-5763
▁daylight	-5764
▁dreadful	-5765
▁multiple	-5766
▁progress	-5767
▁unfortun	-5768
▁constants	-5769
▁execution	-5770
▁functools	-5771
▁WARRANTIES	-5772
▁understood	-5773
▁interesting	-5774
________________	-5775
'"	-5776
AF	-5777
Mr	-5778
On	-5779
ds	-5780
lm	-5781
ln	-5782
mb	-5783
vt	-5784
xe	-5785
▁—	-5786
222	-5787
BUG	-5788
ITS	-5789
Opt	-5790
Ref	-5791
TEN	-5792
Wno	-5793
aws	-5794
cgi	-5795
cii	-5796
cre	-5797
els	-5798
erm	-5799
htm	-5800
imb	-5801
ixt	-5802
ses	-5803
ste	-5804
try	-5805
uss	-5806
▁"_	-5807
▁2:	-5808
▁:=	-5809
▁Se	-5810
▁VK	-5811
▁“‘	-5812
('2.	-5813
3.14	-5814
CONF	-5815
HALF	-5816
QUEN	-5817
cing	-5818
conv	-5819
erby	-5820
grat	-5821
oved	-5822
peek	-5823
pill	-5824
▁Yes	-5825
▁arr	-5826
▁dog	-5827
▁fat	-5828
▁hot	-5829
▁pun	-5830
▁rob	-5831
▁rub	-5832
▁wre	-5833
acher	-5834
agers	-5835
ictor	-5836
plist	-5837
tract	-5838
usage	-5839
users	-5840
usive	-5841
▁0644	-5842
▁Comp	-5843
▁blue	-5844
▁cook	-5845
▁duty	-5846
▁flow	-5847
▁lake	-5848
▁lead	-5849
▁mour	-5850
▁sold	-5851
▁wasn	-5852
IOBase	-5853
encode	-5854
lished	-5855
multip	-5856
pillar	-5857
▁Mouse	-5858
▁amuse	-5859
▁awful	-5860
▁crime	-5861
▁gives	-5862
▁instr	-5863
▁later	-5864
▁mater	-5865
▁polit	-5866
▁share	-5867
▁steps	-5868
▁worse	-5869
Default	-5870
cluding	-5871
company	-5872
install	-5873
scripts	-5874
▁Austen	-5875
▁Sawyer	-5876
▁Sunday	-5877
▁admire	-5878
▁anyone	-5879
▁forced	-5880
▁melanc	-5881
▁obtain	-5882
▁preced	-5883
▁scheme	-5884
▁smiled	-5885
▁sorted	-5886
▁status	-5887
▁undert	-5888
........	-5889
optional	-5890
whatever	-5891
▁Heading	-5892
▁However	-5893
▁complex	-5894
▁enabled	-5895
▁include	-5896
▁laughed	-5897
▁metavar	-5898
▁moments	-5899
▁serious	-5900
▁suggest	-5901
▁visitor	-5902
connected	-5903
lications	-5904
utcoffset	-5905
▁occupied	-5906
▁persuade	-5907
▁pleasing	-5908
▁suffered	-5909
attributes	-5910
▁container	-5911
▁destroyed	-5912
▁inquiries	-5913
▁compassion	-5914
▁especially	-5915
▁frequently	-5916
▁melancholy	-5917
▁resolution	-5918
▁consolation	-5919
▁exceedingly	-5920
)\	-5921
28	-5922
At	-5923
PR	-5924
zz	-5925
'/'	-5926
/$/	-5927
111	-5928
:--	-5929
==1	-5930
COM	-5931
JBO	-5932
aud	-5933
den	-5934
dom	-5935
gor	-5936
low	-5937
ntu	-5938
srv	-5939
tgz	-5940
uns	-5941
▁"[	-5942
▁+6	-5943
▁Po	-5944
▁RS	-5945
){3}	-5946
:"),	-5947
Help	-5948
Pipe	-5949
SAVE	-5950
When	-5951
Work	-5952
demo	-5953
eros	-5954
face	-5955
hold	-5956
icon	-5957
mand	-5958
ndar	-5959
plug	-5960
todo	-5961
▁"",	-5962
▁'[:	-5963
▁-30	-5964
▁500	-5965
▁API	-5966
▁Ass	-5967
▁OUT	-5968
▁Use	-5969
▁deb	-5970
▁due	-5971
▁har	-5972
▁job	-5973
▁lit	-5974
▁mid	-5975
▁pec	-5976
▁scr	-5977
▁sle	-5978
▁tor	-5979
▁tow	-5980
ARGET	-5981
FILES	-5982
INPUT	-5983
JBOSS	-5984
Mixin	-5985
Queue	-5986
STORE	-5987
admin	-5988
buntu	-5989
fatal	-5990
hosts	-5991
infos	-5992
pered	-5993
▁$0}'	-5994
▁bird	-5995
▁hint	-5996
▁nice	-5997
▁paid	-5998
▁pray	-5999
▁redu	-6000
▁suit	-6001
▁tend	-6002
('0'))	-6003
SEQUEN	-6004
cludes	-6005
curses	-6006
divide	-6007
export	-6008
gorith	-6009
imilar	-6010
itated	-6011
onical	-6012
signed	-6013
vation	-6014
▁Cater	-6015
▁Queue	-6016
▁Table	-6017
▁While	-6018
▁agony	-6019
▁blind	-6020
▁broke	-6021
▁quote	-6022
▁valid	-6023
Barrier	-6024
Example	-6025
▁Import	-6026
▁Victor	-6027
▁attemp	-6028
▁corner	-6029
▁explan	-6030
▁preser	-6031
▁wholly	-6032
password	-6033
▁correct	-6034
▁disting	-6035
▁drawing	-6036
▁fetched	-6037
▁initial	-6038
▁justice	-6039
▁outside	-6040
▁reflect	-6041
▁visible	-6042
▁watched	-6043
127.0.0.1	-6044
formatter	-6045
▁accident	-6046
▁comprehe	-6047
▁constant	-6048
▁executed	-6049
▁relation	-6050
▁rendered	-6051
▁according	-6052
▁acknowled	-6053
▁buffering	-6054
▁bytearray	-6055
▁fortnight	-6056
▁listening	-6057
▁proceeded	-6058
▁receiving	-6059
▁steamboat	-6060
▁concerning	-6061
▁delightful	-6062
▁remembered	-6063
▁Caterpillar	-6064
▁description	-6065
▁positionals	-6066
▁satisfaction	-6067
#'	-6068
/:	-6069
03	-6070
29	-6071
40	-6072
59	-6073
Ab	-6074
IF	-6075
[3	-6076
pc	-6077
tk	-6078
('%	-6079
.*/	-6080
1,1	-6081
All	-6082
IND	-6083
KEY	-6084
Lib	-6085
Now	-6086
PPE	-6087
VAR	-6088
asp	-6089
deb	-6090
idx	-6091
lse	-6092
mer	-6093
mit	-6094
vol	-6095
|\.	-6096
}:{	-6097
▁),	-6098
▁18	-6099
▁80	-6100
▁DE	-6101
▁xx	-6102
()):	-6103
/../	-6104
=0):	-6105
ABLE	-6106
CODE	-6107
DEST	-6108
Zero	-6109
\([^	-6110
__',	-6111
eper	-6112
look	-6113
rect	-6114
roid	-6115
subl	-6116
ules	-6117
uted	-6118
▁"-"	-6119
▁Any	-6120
▁Cat	-6121
▁Had	-6122
▁Who	-6123
▁cvf	-6124
▁fit	-6125
▁imm	-6126
▁{}'	-6127
Check	-6128
ajest	-6129
armed	-6130
chunk	-6131
drive	-6132
enste	-6133
iline	-6134
rance	-6135
▁"$2"	-6136
▁"${0	-6137
▁'*~'	-6138
▁Rows	-6139
▁Such	-6140
▁rage	-6141
▁shot	-6142
▁wall	-6143
▁wide	-6144
CHANGE	-6145
SEARCH	-6146
SHARED	-6147
ainted	-6148
cmpltn	-6149
getstr	-6150
google	-6151
images	-6152
prompt	-6153
urance	-6154
widths	-6155
▁Frank	-6156
▁alarm	-6157
▁array	-6158
▁dress	-6159
▁heads	-6160
▁ideas	-6161
▁invol	-6162
▁niece	-6163
▁noble	-6164
▁renew	-6165
▁shout	-6166
▁sides	-6167
▁space	-6168
▁stead	-6169
▁trial	-6170
criptor	-6171
discard	-6172
enstein	-6173
nearest	-6174
profile	-6175
verflow	-6176
▁100000	-6177
▁bottom	-6178
▁compos	-6179
▁distin	-6180
▁figure	-6181
▁filled	-6182
▁fortun	-6183
▁lively	-6184
▁powers	-6185
▁raises	-6186
▁random	-6187
▁spread	-6188
▁supper	-6189
▁syntax	-6190
▁transp	-6191
▁triump	-6192
Proactor	-6193
required	-6194
writable	-6195
▁anxiety	-6196
▁beloved	-6197
▁dancing	-6198
▁decided	-6199
▁display	-6200
▁endured	-6201
▁equally	-6202
▁excited	-6203
▁finding	-6204
▁instant	-6205
▁leaving	-6206
▁termios	-6207
Formatter	-6208
▁Iterator	-6209
▁affected	-6210
▁algorith	-6211
▁attempts	-6212
▁fallback	-6213
▁occurred	-6214
▁overcome	-6215
▁readline	-6216
▁regiment	-6217
▁standing	-6218
▁starting	-6219
▁determine	-6220
▁sentiment	-6221
▁wonderful	-6222
▁comparison	-6223
▁completion	-6224
▁concurrent	-6225
▁instrument	-6226
▁permission	-6227
▁positional	-6228
▁underlying	-6229
▁imagination	-6230
▁affectionate	-6231
$2	-6232
(-	-6233
.,	-6234
18	-6235
3_	-6236
:"	-6237
:3	-6238
BY	-6239
CA	-6240
\-	-6241
_/	-6242
df	-6243
gu	-6244
nj	-6245
xB	-6246
$'\	-6247
)$'	-6248
++)	-6249
-*.	-6250
ADD	-6251
BLE	-6252
III	-6253
ILD	-6254
INF	-6255
Log	-6256
ONE	-6257
OUP	-6258
Res	-6259
STD	-6260
Who	-6261
_.”	-6262
aim	-6263
cud	-6264
dbm	-6265
has	-6266
hum	-6267
jud	-6268
lip	-6269
ohn	-6270
swp	-6271
utf	-6272
▁..	-6273
('-0	-6274
Emin	-6275
ITER	-6276
MENT	-6277
SCII	-6278
TYPE	-6279
Test	-6280
Writ	-6281
__()	-6282
acon	-6283
aked	-6284
cast	-6285
flag	-6286
half	-6287
iers	-6288
keep	-6289
mult	-6290
page	-6291
rain	-6292
sted	-6293
true	-6294
uate	-6295
well	-6296
{1,2	-6297
{1..	-6298
▁/_/	-6299
▁God	-6300
▁Ind	-6301
▁ash	-6302
▁cab	-6303
▁der	-6304
▁gcc	-6305
▁iso	-6306
▁lie	-6307
▁squ	-6308
▁ttt	-6309
▁wnj	-6310
Hello	-6311
Linux	-6312
VALUE	-6313
after	-6314
ascii	-6315
colon	-6316
false	-6317
ickle	-6318
mains	-6319
mence	-6320
oking	-6321
paste	-6322
proto	-6323
sence	-6324
showw	-6325
umber	-6326
yntax	-6327
▁'/^\	-6328
▁Only	-6329
▁blow	-6330
▁cand	-6331
▁food	-6332
▁hurt	-6333
▁infl	-6334
▁jury	-6335
▁neck	-6336
▁pred	-6337
▁rate	-6338
▁save	-6339
▁shad	-6340
Object	-6341
Shared	-6342
ifying	-6343
locals	-6344
memory	-6345
rehens	-6346
stairs	-6347
suffix	-6348
tzname	-6349
▁Derby	-6350
▁blood	-6351
▁forth	-6352
▁image	-6353
▁music	-6354
▁reach	-6355
▁saved	-6356
▁threw	-6357
attered	-6358
nogroup	-6359
refresh	-6360
unsford	-6361
wardRef	-6362
ynchron	-6363
▁attend	-6364
▁benevo	-6365
▁colors	-6366
▁device	-6367
▁doctor	-6368
▁gained	-6369
▁indign	-6370
▁passwd	-6371
▁pounds	-6372
▁proved	-6373
▁school	-6374
comments	-6375
getstate	-6376
readline	-6377
selector	-6378
▁English	-6379
▁anguish	-6380
▁bufsize	-6381
▁conject	-6382
▁consist	-6383
▁consume	-6384
▁counter	-6385
▁explain	-6386
▁extract	-6387
▁greatly	-6388
▁leading	-6389
▁someone	-6390
▁unknown	-6391
docstring	-6392
▁absolute	-6393
▁distress	-6394
▁executor	-6395
▁interpre	-6396
▁marrying	-6397
▁operands	-6398
▁sentence	-6399
▁straight	-6400
▁direction	-6401
▁important	-6402
Applications	-6403
stringtofind	-6404
▁Interrupted	-6405
▁implemented	-6406
▁Frankenstein	-6407
▁StreamReader	-6408
▁microseconds	-6409
▁understanding	-6410
▁representation	-6411
)?	-6412
1(	-6413
3.	-6414
6/	-6415
?_	-6416
CP	-6417
EP	-6418
YY	-6419
gt	-6420
ky	-6421
ru	-6422
"}'	-6423
.00	-6424
/^\	-6425
:02	-6426
FLO	-6427
FNR	-6428
Gra	-6429
IAL	-6430
PAT	-6431
UTF	-6432
\)'	-6433
arp	-6434
baz	-6435
big	-6436
cub	-6437
cuf	-6438
cuu	-6439
dch	-6440
did	-6441
emy	-6442
jul	-6443
pol	-6444
▁>/	-6445
▁ht	-6446
"'"'	-6447
INET	-6448
Task	-6449
[0-9	-6450
afie	-6451
apps	-6452
feed	-6453
grif	-6454
junk	-6455
menu	-6456
pace	-6457
rows	-6458
tell	-6459
than	-6460
▁"\.	-6461
▁$1;	-6462
▁':'	-6463
▁'^\	-6464
▁+"%	-6465
▁AND	-6466
▁cra	-6467
▁dos	-6468
▁lan	-6469
▁mac	-6470
▁rvf	-6471
▁vol	-6472
INTER	-6473
PTION	-6474
Trans	-6475
aning	-6476
grify	-6477
lated	-6478
ories	-6479
ouses	-6480
roken	-6481
spond	-6482
▁agin	-6483
▁educ	-6484
▁eleg	-6485
▁hall	-6486
▁mask	-6487
▁objc	-6488
▁pron	-6489
▁prop	-6490
▁rank	-6491
▁snow	-6492
('-1')	-6493
TARGET	-6494
device	-6495
icolon	-6496
iculty	-6497
uished	-6498
utable	-6499
▁".*\.	-6500
▁align	-6501
▁blank	-6502
▁desce	-6503
▁desir	-6504
▁eight	-6505
▁enemy	-6506
▁force	-6507
▁grand	-6508
▁indul	-6509
▁label	-6510
▁lower	-6511
▁perce	-6512
▁treat	-6513
▁works	-6514
WorkRep	-6515
counter	-6516
ertools	-6517
forever	-6518
fortune	-6519
ignored	-6520
▁apache	-6521
▁bestow	-6522
▁breath	-6523
▁feared	-6524
▁gmtoff	-6525
▁heaven	-6526
▁jumped	-6527
▁mktemp	-6528
▁nights	-6529
▁worked	-6530
endswith	-6531
hashcode	-6532
itespace	-6533
qualname	-6534
sendfile	-6535
startpos	-6536
timezone	-6537
▁ashamed	-6538
▁barrier	-6539
▁congrat	-6540
▁control	-6541
▁learned	-6542
▁machine	-6543
▁profess	-6544
▁revenge	-6545
▁tecmint	-6546
▁windows	-6547
container	-6548
timestamp	-6549
▁Makefile	-6550
▁division	-6551
▁innocent	-6552
▁overflow	-6553
▁property	-6554
▁strength	-6555
▁assurance	-6556
▁dataclass	-6557
▁discovery	-6558
▁impatient	-6559
▁performed	-6560
▁prevented	-6561
▁remaining	-6562
▁tolerable	-6563
unsupported	-6564
▁Derbyshire	-6565
▁approached	-6566
▁descriptor	-6567
▁dictionary	-6568
▁difficulty	-6569
▁equivalent	-6570
▁unexpected	-6571
▁interrupted	-6572
▁reflections	-6573
▁unfortunate	-6574
CancelledError	-6575
▁representable	-6576
▁disappointment	-6577
".	-6578
*(	-6579
,)	-6580
?'	-6581
HT	-6582
\;	-6583
_1	-6584
kw	-6585
sf	-6586
sm	-6587
’,	-6588
/"&	-6589
/${	-6590
/./	-6591
ATA	-6592
Add	-6593
New	-6594
PEC	-6595
TMP	-6596
URE	-6597
USE	-6598
\./	-6599
]*'	-6600
bmp	-6601
des	-6602
een	-6603
emp	-6604
erc	-6605
ltr	-6606
shp	-6607
tee	-6608
▁"#	-6609
▁"{	-6610
▁*~	-6611
▁2.	-6612
▁Ab	-6613
▁CO	-6614
▁LI	-6615
▁Le	-6616
▁|&	-6617
($0)	-6618
Data	-6619
FAST	-6620
Find	-6621
LINK	-6622
OBJS	-6623
PASS	-6624
PIPE	-6625
Text	-6626
cpio	-6627
elic	-6628
elve	-6629
flac	-6630
gsub	-6631
imer	-6632
span	-6633
tiny	-6634
▁Car	-6635
▁FOR	-6636
▁Hel	-6637
▁aaa	-6638
▁pal	-6639
▁rej	-6640
▁rpm	-6641
▁vex	-6642
▁xxx	-6643
34567	-6644
BUILD	-6645
CHECK	-6646
Files	-6647
Inter	-6648
[1-9]	-6649
alpha	-6650
arked	-6651
atson	-6652
bling	-6653
coder	-6654
codes	-6655
indow	-6656
iting	-6657
never	-6658
orage	-6659
stant	-6660
store	-6661
sumed	-6662
▁$5}'	-6663
▁brew	-6664
▁dogs	-6665
▁ease	-6666
▁fate	-6667
▁gets	-6668
▁hate	-6669
▁impr	-6670
▁pale	-6671
▁pity	-6672
▁resp	-6673
▁sets	-6674
▁tort	-6675
▁vict	-6676
/"&"/'	-6677
CONFIG	-6678
colors	-6679
escape	-6680
ounced	-6681
priate	-6682
ulated	-6683
unique	-6684
upport	-6685
wakeup	-6686
▁2009.	-6687
▁Gener	-6688
▁angry	-6689
▁assem	-6690
▁cache	-6691
▁entry	-6692
▁escap	-6693
▁fault	-6694
▁liter	-6695
▁pract	-6696
▁reser	-6697
▁reuse	-6698
▁signs	-6699
▁taste	-6700
▁theme	-6701
/\(.*\)	-6702
[0-9]*'	-6703
extract	-6704
getitem	-6705
icAlias	-6706
lengths	-6707
logfile	-6708
rawdata	-6709
righton	-6710
uration	-6711
▁FOLDER	-6712
▁Watson	-6713
▁amount	-6714
▁approx	-6715
▁candle	-6716
▁contri	-6717
▁denied	-6718
▁distur	-6719
▁divide	-6720
▁eldest	-6721
▁finite	-6722
▁manage	-6723
▁pardon	-6724
▁praise	-6725
▁smiles	-6726
▁struct	-6727
▁wretch	-6728
cygdrive	-6729
historyi	-6730
quantize	-6731
structor	-6732
▁8.8.8.8	-6733
▁Command	-6734
▁covered	-6735
▁dislike	-6736
▁extglob	-6737
▁improve	-6738
▁pending	-6739
▁remount	-6740
▁triumph	-6741
▁weather	-6742
▁working	-6743
/.*/"&"/'	-6744
recursive	-6745
semicolon	-6746
▁Brighton	-6747
▁Hunsford	-6748
▁SUPPRESS	-6749
▁directed	-6750
▁messages	-6751
▁myscript	-6752
▁powerful	-6753
▁presence	-6754
▁shutdown	-6755
▁truncate	-6756
structions	-6757
▁Everybody	-6758
▁Otherwise	-6759
▁callbacks	-6760
▁converted	-6761
▁cottagers	-6762
▁departure	-6763
▁forgotten	-6764
▁increased	-6765
▁scheduled	-6766
▁universal	-6767
[^.][^.]*\.	-6768
annotations	-6769
▁comprehend	-6770
▁correspond	-6771
▁misfortune	-6772
▁continually	-6773
▁expectation	-6774
▁explanation	-6775
BlockingIOError	-6776
????????????????	-6777
/-	-6778
5]	-6779
76	-6780
82	-6781
?—	-6782
NU	-6783
PG	-6784
RC	-6785
Tm	-6786
[?	-6787
]/	-6788
_;	-6789
`.	-6790
ql	-6791
yz	-6792
zA	-6793
-20	-6794
00,	-6795
444	-6796
COL	-6797
ERS	-6798
ITY	-6799
LUS	-6800
PIC	-6801
acy	-6802
ael	-6803
ali	-6804
bly	-6805
bur	-6806
ded	-6807
flv	-6808
lks	-6809
mpg	-6810
ned	-6811
ont	-6812
rev	-6813
see	-6814
▁((	-6815
▁.*	-6816
▁15	-6817
▁GU	-6818
▁PS	-6819
▁Pr	-6820
▁_,	-6821
▁da	-6822
▁dd	-6823
▁mm	-6824
▁ru	-6825
8888	-6826
=$1}	-6827
LIST	-6828
MAND	-6829
SHUT	-6830
View	-6831
[0])	-6832
blah	-6833
cron	-6834
fPIC	-6835
hacl	-6836
imiz	-6837
irth	-6838
must	-6839
near	-6840
olog	-6841
otes	-6842
pect	-6843
phew	-6844
post	-6845
real	-6846
sbin	-6847
summ	-6848
▁"")	-6849
▁'$1	-6850
▁ISO	-6851
▁MAX	-6852
▁Mar	-6853
▁Par	-6854
▁STR	-6855
▁ama	-6856
▁bow	-6857
▁elo	-6858
▁sco	-6859
▁wuz	-6860
▁zsh	-6861
Fatal	-6862
GROUP	-6863
PLACE	-6864
PPING	-6865
align	-6866
anted	-6867
aries	-6868
asure	-6869
ecess	-6870
itate	-6871
mixed	-6872
oline	-6873
otion	-6874
rench	-6875
▁$0))	-6876
▁Even	-6877
▁]*\)	-6878
▁drop	-6879
▁exam	-6880
▁gall	-6881
▁kiss	-6882
▁ones	-6883
▁wake	-6884
▁wlen	-6885
Closed	-6886
INSTRU	-6887
cannot	-6888
ichael	-6889
inking	-6890
plugin	-6891
simple	-6892
ubuntu	-6893
vering	-6894
▁-4000	-6895
▁Ratio	-6896
▁Right	-6897
▁Safie	-6898
▁White	-6899
▁apart	-6900
▁contr	-6901
▁dummy	-6902
▁fatig	-6903
▁hello	-6904
▁incon	-6905
▁influ	-6906
▁reset	-6907
▁shell	-6908
▁tired	-6909
▁traps	-6910
▁union	-6911
.*/\1/'	-6912
backups	-6913
options	-6914
ulation	-6915
▁Format	-6916
▁active	-6917
▁asking	-6918
▁copies	-6919
▁desert	-6920
▁estate	-6921
▁inside	-6922
▁nbytes	-6923
▁nephew	-6924
▁notion	-6925
▁phrase	-6926
▁pursue	-6927
▁sought	-6928
▁sounds	-6929
▁stairs	-6930
▁termin	-6931
▁twelve	-6932
▁unwill	-6933
▁useful	-6934
99999999	-6935
Division	-6936
fortunes	-6937
original	-6938
proactor	-6939
registry	-6940
strptime	-6941
▁Nothing	-6942
▁conceal	-6943
▁escaped	-6944
▁inhabit	-6945
▁logical	-6946
▁putting	-6947
▁signals	-6948
▁sockets	-6949
▁visited	-6950
▁whisper	-6951
▁buffered	-6952
▁contempt	-6953
▁goodness	-6954
▁nullglob	-6955
▁registry	-6956
▁surround	-6957
▁Copyright	-6958
▁immediate	-6959
▁tranquill	-6960
checkClosed	-6961
▁attributes	-6962
▁importance	-6963
▁reasonable	-6964
▁stacklevel	-6965
▁declaration	-6966
▁misfortunes	-6967
▁particulars	-6968
▁recollection	-6969
▁compatibility	-6970
+-	-6971
1%	-6972
4"	-6973
@$	-6974
AM	-6975
Al	-6976
Be	-6977
Ch	-6978
Td	-6979
VI	-6980
`/	-6981
gy	-6982
ny	-6983
pv	-6984
vp	-6985
|%	-6986
*$/	-6987
---	-6988
.*\	-6989
/[^	-6990
="%	-6991
BAL	-6992
CAN	-6993
FOO	-6994
GLO	-6995
MEN	-6996
PTH	-6997
cpu	-6998
ium	-6999
npm	-7000
oot	-7001
pad	-7002
pyc	-7003
rap	-7004
sen	-7005
tab	-7006
uel	-7007
vim	-7008
}";	-7009
▁"'	-7010
▁':	-7011
▁*'	-7012
▁13	-7013
▁En	-7014
▁LO	-7015
▁Or	-7016
▁PY	-7017
0-9]	-7018
1111	-7019
BASH	-7020
JUMP	-7021
METH	-7022
STAT	-7023
TERM	-7024
Time	-7025
UPLE	-7026
[1:]	-7027
arts	-7028
atha	-7029
enes	-7030
gith	-7031
gzip	-7032
lamp	-7033
plus	-7034
save	-7035
ties	-7036
uuid	-7037
▁-14	-7038
▁600	-7039
▁DIR	-7040
▁gaz	-7041
▁gro	-7042
▁que	-7043
▁xvf	-7044
▁xyz	-7045
2.168	-7046
EVENT	-7047
PROCE	-7048
allow	-7049
ament	-7050
aming	-7051
based	-7052
coord	-7053
deque	-7054
dtstr	-7055
eries	-7056
ialog	-7057
icult	-7058
osite	-7059
peter	-7060
quote	-7061
sites	-7062
traps	-7063
▁$9}'	-7064
▁-111	-7065
▁2013	-7066
▁Head	-7067
▁Move	-7068
▁Thus	-7069
▁beat	-7070
▁burn	-7071
▁craw	-7072
▁forb	-7073
▁frac	-7074
▁ring	-7075
▁shri	-7076
▁song	-7077
▁thir	-7078
======	-7079
GLOBAL	-7080
MENTED	-7081
METHOD	-7082
\.){3}	-7083
course	-7084
econds	-7085
github	-7086
iction	-7087
lambda	-7088
morrow	-7089
newdir	-7090
onents	-7091
sample	-7092
▁Eliza	-7093
▁aloud	-7094
▁alter	-7095
▁based	-7096
▁birds	-7097
▁cheek	-7098
▁civil	-7099
▁decor	-7100
▁earli	-7101
▁folks	-7102
▁grate	-7103
▁grave	-7104
▁ident	-7105
▁north	-7106
▁prove	-7107
▁repro	-7108
▁sharp	-7109
▁spend	-7110
▁stick	-7111
▁third	-7112
▁wreck	-7113
0000000	-7114
MAPPING	-7115
[0-9]\+	-7116
connect	-7117
express	-7118
folders	-7119
machine	-7120
ordinal	-7121
session	-7122
storage	-7123
unknown	-7124
▁Harvey	-7125
▁affair	-7126
▁beings	-7127
▁choose	-7128
▁chosen	-7129
▁demand	-7130
▁extras	-7131
▁longed	-7132
▁normal	-7133
▁origin	-7134
▁peculi	-7135
▁policy	-7136
▁propos	-7137
▁spring	-7138
▁threat	-7139
▁typing	-7140
▁virtue	-7141
Buffered	-7142
Messages	-7143
USERNAME	-7144
conflict	-7145
existing	-7146
terminfo	-7147
▁collect	-7148
▁compile	-7149
▁details	-7150
▁dressed	-7151
▁follows	-7152
▁inspect	-7153
▁parents	-7154
▁protect	-7155
▁pursuit	-7156
▁quarter	-7157
▁welcome	-7158
buffering	-7159
▁FILENAME	-7160
▁accepted	-7161
▁annotate	-7162
▁attached	-7163
▁branches	-7164
▁commence	-7165
▁describe	-7166
▁judgment	-7167
▁laughing	-7168
▁opposite	-7169
▁servants	-7170
▁signific	-7171
▁sympathy	-7172
▁algorithm	-7173
▁collected	-7174
▁difficult	-7175
▁enjoyment	-7176
▁entertain	-7177
▁fortunate	-7178
▁inputfile	-7179
▁intention	-7180
▁philosoph	-7181
▁recovered	-7182
application	-7183
specialized	-7184
▁conviction	-7185
▁engagement	-7186
▁memoryview	-7187
▁reflection	-7188
INSTRUMENTED	-7189
Optimization	-7190
▁ImportError	-7191
▁application	-7192
▁inclination	-7193
▁intelligence	-7194
▁StopIteration	-7195
▁BlockingIOError	-7196
';	-7197
01	-7198
94	-7199
<>	-7200
=(	-7201
UX	-7202
Up	-7203
[/	-7204
[2	-7205
[4	-7206
[@	-7207
\1	-7208
'.'	-7209
('\	-7210
(10	-7211
)",	-7212
-*'	-7213
125	-7214
2')	-7215
:22	-7216
Doc	-7217
Don	-7218
Ind	-7219
ODO	-7220
ROR	-7221
WRA	-7222
[:]	-7223
dge	-7224
dot	-7225
edd	-7226
erv	-7227
nas	-7228
vis	-7229
wav	-7230
yle	-7231
}"'	-7232
▁64	-7233
▁Sw	-7234
▁cc	-7235
▁et	-7236
▁ve	-7237
/(.*	-7238
2012	-7239
DATE	-7240
HASH	-7241
HEAD	-7242
UUUU	-7243
cker	-7244
disk	-7245
else	-7246
ilst	-7247
mest	-7248
odec	-7249
ouis	-7250
race	-7251
scri	-7252
uded	-7253
▁'+%	-7254
▁999	-7255
▁<<<	-7256
▁CVS	-7257
▁Cur	-7258
▁DST	-7259
▁_('	-7260
▁bag	-7261
▁dry	-7262
▁eof	-7263
▁exh	-7264
▁fee	-7265
▁fog	-7266
▁map	-7267
▁pig	-7268
▁red	-7269
▁thy	-7270
▁vis	-7271
="{}"	-7272
Async	-7273
Graph	-7274
TUPLE	-7275
Write	-7276
allen	-7277
assed	-7278
cence	-7279
hours	-7280
icate	-7281
icked	-7282
isnan	-7283
pipes	-7284
rsync	-7285
setup	-7286
unzip	-7287
would	-7288
▁$3}'	-7289
▁----	-7290
▁Jack	-7291
▁tall	-7292
▁tear	-7293
('1'))	-7294
Called	-7295
Cannot	-7296
Please	-7297
SUBSCR	-7298
Writer	-7299
ashion	-7300
divmod	-7301
eature	-7302
infile	-7303
ittest	-7304
repare	-7305
resize	-7306
sorted	-7307
tuples	-7308
▁+1000	-7309
▁10**(	-7310
▁Files	-7311
▁Peter	-7312
▁birth	-7313
▁bread	-7314
▁cabin	-7315
▁conde	-7316
▁drift	-7317
▁errno	-7318
▁fears	-7319
▁fever	-7320
▁madam	-7321
▁venge	-7322
▁zeros	-7323
Library	-7324
Process	-7325
bracket	-7326
initial	-7327
msgctxt	-7328
request	-7329
tkinter	-7330
windows	-7331
▁Agatha	-7332
▁Option	-7333
▁adding	-7334
▁agreed	-7335
▁cancel	-7336
▁caught	-7337
▁colour	-7338
▁disgra	-7339
▁distri	-7340
▁employ	-7341
▁imprud	-7342
▁locked	-7343
▁modify	-7344
▁motive	-7345
▁render	-7346
▁secure	-7347
▁sooner	-7348
▁strict	-7349
▁thanks	-7350
buffered	-7351
compiler	-7352
extended	-7353
markdown	-7354
strftime	-7355
▁changes	-7356
▁checked	-7357
▁declare	-7358
▁fifteen	-7359
▁gettext	-7360
▁mogrify	-7361
▁opening	-7362
▁persons	-7363
▁reverse	-7364
▁rounded	-7365
▁satisfy	-7366
▁service	-7367
[0-9]+[.]	-7368
timedelta	-7369
▁bestowed	-7370
▁cheerful	-7371
▁employed	-7372
▁murdered	-7373
▁possibly	-7374
▁prepared	-7375
[0-9]{1,3}	-7376
interleave	-7377
▁apprehens	-7378
▁extremely	-7379
▁generator	-7380
▁ourselves	-7381
▁stretched	-7382
▁vengeance	-7383
Stringifier	-7384
completions	-7385
iscoroutine	-7386
▁ForwardRef	-7387
▁containing	-7388
▁appropriate	-7389
▁destruction	-7390
▁possibility	-7391
HelpFormatter	-7392
▁acknowledged	-7393
----------------	-7394
$$	-7395
'<	-7396
.6	-7397
0-	-7398
09	-7399
1`	-7400
5}	-7401
63	-7402
79	-7403
EM	-7404
Ne	-7405
OS	-7406
[%	-7407
[[	-7408
gl	-7409
lf	-7410
oP	-7411
tw	-7412
~"	-7413
’.	-7414
"")	-7415
'];	-7416
()]	-7417
.1,	-7418
/^/	-7419
1,$	-7420
1}'	-7421
400	-7422
=",	-7423
="`	-7424
ACK	-7425
HED	-7426
MAC	-7427
MyC	-7428
VEN	-7429
[@]	-7430
\""	-7431
\0"	-7432
eve	-7433
ftp	-7434
ico	-7435
iro	-7436
job	-7437
kwd	-7438
oid	-7439
ops	-7440
tag	-7441
tpd	-7442
uly	-7443
whe	-7444
▁%(	-7445
▁'#	-7446
▁/'	-7447
▁1]	-7448
▁Ke	-7449
▁SC	-7450
▁Tr	-7451
▁ec	-7452
▁pv	-7453
▁“—	-7454
($0,	-7455
/^.*	-7456
Good	-7457
INFO	-7458
LOCK	-7459
Miss	-7460
PPED	-7461
Temp	-7462
ULTI	-7463
[0],	-7464
arnt	-7465
ctrl	-7466
ftot	-7467
hest	-7468
illy	-7469
oard	-7470
omin	-7471
ping	-7472
repo	-7473
uous	-7474
vern	-7475
▁'/'	-7476
▁('-	-7477
▁0.1	-7478
▁2**	-7479
▁Add	-7480
▁New	-7481
▁Our	-7482
▁Out	-7483
▁Sat	-7484
▁dim	-7485
▁ful	-7486
▁kne	-7487
▁mix	-7488
▁nur	-7489
▁pit	-7490
▁sel	-7491
']=1;	-7492
SSAGE	-7493
asted	-7494
chmod	-7495
erred	-7496
herit	-7497
igned	-7498
onest	-7499
otent	-7500
thumb	-7501
xtype	-7502
▁'0',	-7503
▁'{}.	-7504
▁Alas	-7505
▁Next	-7506
▁PATH	-7507
▁Stri	-7508
▁bare	-7509
▁boys	-7510
▁depr	-7511
▁firm	-7512
▁furn	-7513
▁gold	-7514
▁limb	-7515
▁magn	-7516
▁mail	-7517
▁puzz	-7518
▁rapt	-7519
▁vess	-7520
Create	-7521
Stream	-7522
ajesty	-7523
isatty	-7524
passwd	-7525
reduce	-7526
sqlite	-7527
tmpdir	-7528
ysroot	-7529
▁"$1")	-7530
▁About	-7531
▁Maria	-7532
▁anger	-7533
▁cents	-7534
▁faces	-7535
▁fraud	-7536
▁guilt	-7537
▁heavy	-7538
▁lives	-7539
▁param	-7540
▁prete	-7541
▁quant	-7542
▁stars	-7543
▁straw	-7544
Convert	-7545
REPLACE	-7546
Support	-7547
TIMEOUT	-7548
android	-7549
cending	-7550
ftotext	-7551
looking	-7552
manager	-7553
missing	-7554
sources	-7555
▁During	-7556
▁advice	-7557
▁animal	-7558
▁apolog	-7559
▁caused	-7560
▁charge	-7561
▁dining	-7562
▁endure	-7563
▁exists	-7564
▁expand	-7565
▁famili	-7566
▁learnt	-7567
▁nearer	-7568
▁record	-7569
▁relate	-7570
▁scenes	-7571
▁seated	-7572
▁shoved	-7573
▁spoken	-7574
▁stayed	-7575
▁thrown	-7576
Examples	-7577
addrinfo	-7578
evaluate	-7579
messages	-7580
outgoing	-7581
recvfrom	-7582
somehost	-7583
venience	-7584
▁Windows	-7585
▁condemn	-7586
▁destroy	-7587
▁isearch	-7588
▁mistake	-7589
▁nonzero	-7590
▁padding	-7591
▁painful	-7592
▁remains	-7593
▁retired	-7594
▁similar	-7595
▁usually	-7596
CallGraph	-7597
Directory	-7598
canonical	-7599
completed	-7600
interrupt	-7601
threading	-7602
▁apparent	-7603
▁charming	-7604
▁commands	-7605
▁generous	-7606
▁increase	-7607
▁infinity	-7608
▁material	-7609
▁override	-7610
▁register	-7611
MyCProgram	-7612
completion	-7613
▁agitation	-7614
▁composure	-7615
▁concerned	-7616
▁multiline	-7617
▁principal	-7618
▁protocols	-7619
▁suspicion	-7620
▁absolutely	-7621
▁confidence	-7622
▁philosophy	-7623
▁transports	-7624
▁considering	-7625
▁representing	-7626
▁approximation	-7627
▁consideration	-7628
CommandExamples	-7629
!’	-7630
->	-7631
/)	-7632
2;	-7633
3)	-7634
4'	-7635
:$	-7636
CC	-7637
ML	-7638
Qu	-7639
Sc	-7640
Wh	-7641
_—	-7642
rq	-7643
zZ	-7644
$/{	-7645
')"	-7646
(":	-7647
++}	-7648
64.	-7649
=$0	-7650
BLA	-7651
MEM	-7652
SIX	-7653
_,”	-7654
__:	-7655
aby	-7656
cnt	-7657
dbf	-7658
fmt	-7659
ges	-7660
ism	-7661
plo	-7662
pub	-7663
rid	-7664
usi	-7665
xor	-7666
▁##	-7667
▁($	-7668
▁(?	-7669
▁*=	-7670
▁1-	-7671
▁32	-7672
▁HU	-7673
▁MY	-7674
▁Py	-7675
▁TO	-7676
▁dæ	-7677
▁fa	-7678
▁la	-7679
▁ow	-7680
▁ur	-7681
▁yc	-7682
▁})	-7683
$//"	-7684
INIT	-7685
WAIT	-7686
Word	-7687
aise	-7688
appe	-7689
barr	-7690
capi	-7691
gate	-7692
impl	-7693
inel	-7694
oned	-7695
quit	-7696
road	-7697
sqld	-7698
sudo	-7699
unch	-7700
▁"),	-7701
▁'/\	-7702
▁'1,	-7703
▁Raw	-7704
▁Two	-7705
▁adj	-7706
▁bur	-7707
▁ole	-7708
▁pul	-7709
▁saf	-7710
▁sig	-7711
▁unf	-7712
▁voy	-7713
▁wig	-7714
LINUX	-7715
TRACT	-7716
Total	-7717
WRITE	-7718
[:-1]	-7719
anied	-7720
aniel	-7721
apped	-7722
dated	-7723
defin	-7724
ening	-7725
hello	-7726
hered	-7727
isure	-7728
large	-7729
myDir	-7730
pause	-7731
prefs	-7732
quent	-7733
repos	-7734
ulian	-7735
▁+500	-7736
▁Come	-7737
▁FROM	-7738
▁Scot	-7739
▁Sher	-7740
▁Time	-7741
▁bent	-7742
▁cent	-7743
▁cuss	-7744
▁disg	-7745
▁edge	-7746
▁json	-7747
▁nons	-7748
▁note	-7749
▁pull	-7750
▁sank	-7751
▁sell	-7752
▁slid	-7753
▁sunk	-7754
▁thin	-7755
▁wedd	-7756
▁wise	-7757
('3'))	-7758
arched	-7759
called	-7760
ersion	-7761
needed	-7762
origin	-7763
versed	-7764
▁Enter	-7765
▁Since	-7766
▁banks	-7767
▁chile	-7768
▁clock	-7769
▁drink	-7770
▁estab	-7771
▁felic	-7772
▁ferry	-7773
▁freed	-7774
▁nodes	-7775
▁noise	-7776
▁solid	-7777
▁teste	-7778
▁upper	-7779
▁yours	-7780
PTHREAD	-7781
WRAPPED	-7782
ational	-7783
methods	-7784
minutes	-7785
somedir	-7786
▁French	-7787
▁String	-7788
▁aboard	-7789
▁assume	-7790
▁coffin	-7791
▁header	-7792
▁played	-7793
▁pocket	-7794
▁precip	-7795
▁propag	-7796
▁recent	-7797
▁relief	-7798
▁scared	-7799
▁seized	-7800
▁street	-7801
▁substr	-7802
▁taught	-7803
▁tender	-7804
▁travel	-7805
▁uneasy	-7806
▁warmth	-7807
▁whilst	-7808
▁yonder	-7809
Argument	-7810
cription	-7811
ordinary	-7812
previous	-7813
readinto	-7814
specific	-7815
▁+100000	-7816
▁DEFAULT	-7817
▁Shepher	-7818
▁columns	-7819
▁crossed	-7820
▁dotglob	-7821
▁filters	-7822
▁happens	-7823
▁leisure	-7824
▁parsing	-7825
▁passage	-7826
▁readily	-7827
▁results	-7828
▁setattr	-7829
▁slipped	-7830
▁telling	-7831
▁wedding	-7832
abilities	-7833
backspace	-7834
normalize	-7835
separator	-7836
▁approach	-7837
▁contents	-7838
▁declared	-7839
▁dwelling	-7840
▁existing	-7841
▁horrible	-7842
▁offended	-7843
▁operator	-7844
▁pictures	-7845
▁relative	-7846
▁restored	-7847
▁shoulder	-7848
▁upstairs	-7849
▁confusion	-7850
▁described	-7851
▁earnestly	-7852
▁encourage	-7853
▁including	-7854
▁influence	-7855
▁innocence	-7856
▁objection	-7857
▁preceding	-7858
▁somewhere	-7859
▁succeeded	-7860
collections	-7861
interactive	-7862
▁Permission	-7863
▁additional	-7864
▁astonished	-7865
▁companions	-7866
▁compatible	-7867
▁compressed	-7868
▁conversion	-7869
▁favourable	-7870
▁resentment	-7871
▁surrounded	-7872
GenericAlias	-7873
▁completions	-7874
▁interactive	-7875
▁tranquillity	-7876
▁ArgumentError	-7877
▁extraordinary	-7878
▁implementations	-7879
'%	-7880
06	-7881
2\	-7882
2}	-7883
35	-7884
48	-7885
:—	-7886
=[	-7887
AV	-7888
DF	-7889
PC	-7890
So	-7891
WH	-7892
`)	-7893
`,	-7894
hh	-7895
qr	-7896
rd	-7897
rh	-7898
td	-7899
xb	-7900
yy	-7901
▁Z	-7902
"(?	-7903
":"	-7904
'])	-7905
(.*	-7906
(/^	-7907
([^	-7908
)),	-7909
)/\	-7910
2.3	-7911
2})	-7912
:]*	-7913
=1)	-7914
BEN	-7915
ILT	-7916
JPG	-7917
NDO	-7918
PER	-7919
UNI	-7920
XXX	-7921
[/]	-7922
[2]	-7923
`/`	-7924
ape	-7925
bam	-7926
boo	-7927
fox	-7928
gar	-7929
isp	-7930
ius	-7931
mme	-7932
rec	-7933
sof	-7934
voc	-7935
▁$6	-7936
▁BO	-7937
▁DO	-7938
▁Gr	-7939
▁IP	-7940
▁aa	-7941
▁nt	-7942
()))	-7943
.255	-7944
ARGS	-7945
Here	-7946
NDOM	-7947
PEND	-7948
REEN	-7949
REPL	-7950
TERN	-7951
Then	-7952
aled	-7953
alog	-7954
aven	-7955
brew	-7956
burn	-7957
ital	-7958
jpeg	-7959
kwds	-7960
logs	-7961
ndor	-7962
quet	-7963
sqrt	-7964
stop	-7965
uniq	-7966
upid	-7967
wood	-7968
}/${	-7969
▁$0;	-7970
▁$0}	-7971
▁''.	-7972
▁Den	-7973
▁IMP	-7974
▁PEP	-7975
▁PER	-7976
▁Wil	-7977
▁fmt	-7978
▁mil	-7979
▁sne	-7980
▁ver	-7981
▁via	-7982
)."""	-7983
/1024	-7984
/\.*'	-7985
Class	-7986
MULTI	-7987
NABLE	-7988
Press	-7989
Tuple	-7990
abase	-7991
abort	-7992
aging	-7993
agree	-7994
asant	-7995
ashes	-7996
ccess	-7997
cious	-7998
epend	-7999
errno	-8000
erved	-8001
gtest	-8002
ifted	-8003
isted	-8004
onage	-8005
reeze	-8006
retty	-8007
rozen	-8008
style	-8009
urday	-8010
▁$4}'	-8011
▁'/./	-8012
▁DATA	-8013
▁Lord	-8014
▁Mess	-8015
▁Pars	-8016
▁Span	-8017
▁Spec	-8018
▁bore	-8019
▁elev	-8020
▁fart	-8021
▁heap	-8022
▁hell	-8023
▁hero	-8024
▁	-8025
e	-8026
t	-8027
n	-8028
a	-8029
o	-8030
i	-8031
r	-8032
s	-8033
d	-8034
l	-8035
h	-8036
f	-8037
c	-8038
m	-8039
p	-8040
u	-8041
-	-8042
.	-8043
g	-8044
y	-8045
w	-8046
_	-8047
,	-8048
b	-8049
"	-8050
'	-8051
/	-8052
v	-8053
x	-8054
(	-8055
)	-8056
k	-8057
=	-8058
:	-8059
I	-8060
|	-8061
0	-8062
1	-8063
E	-8064
*	-8065
\	-8066
T	-8067
;	-8068
$	-8069
S	-8070
{	-8071
}	-8072
N	-8073
A	-8074
2	-8075
D	-8076
R	-8077
M	-8078
O	-8079
z	-8080
#	-8081
C	-8082
L	-8083
’	-8084
[	-8085
]	-8086
H	-8087
“	-8088
F	-8089
+	-8090
”	-8091
P	-8092
j	-8093
>	-8094
B	-8095
W	-8096
q	-8097
3	-8098
%	-8099
5	-8100
`	-8101
U	-8102
4	-8103
!	-8104
G	-8105
?	-8106
6	-8107
9	-8108
<	-8109
7	-8110
Y	-8111
V	-8112
X	-8113
8	-8114
—	-8115
^	-8116
J	-8117
&	-8118
@	-8119
K	-8120
~	-8121
Z	-8122
Q	-8123
‘	-8124
–	-8125
и	-8126
е	-8127
æ	-8128
а	-8129
н	-8130
о	-8131
п	-8132
я	-8133
ê	-8134
с	-8135
ц	-8136
十	-8137
廿	-8138
з	-8139
ч	-8140
─	-8141
à	-8142
й	-8143
к	-8144
т	-8145
è	-8146
¤	-8147
­	-8148
ñ	-8149
ú	-8150
в	-8151
д	-8152
м	-8153
‐	-8154
一	-8155
換	-8156
置	-8157
é	-8158
╱	-8159
╲	-8160
七	-8161
三	-8162
九	-8163
二	-8164
五	-8165
八	-8166
六	-8167
四	-8168
«	-8169
·	-8170
»	-8171
ô	-8172
ö	-8173
г	-8174
л	-8175
р	-8176
у	-8177
ф	-8178
′	-8179
前	-8180
卅	-8181
後	-8182
â	-8183
ù	-8184
İ	-8185
œ	-8186
〇	-8187
