<pad>	0
<s>	0
</s>	0
<unk>	0
in	-0
▁t	-1
▁a	-2
he	-3
▁-	-4
▁s	-5
re	-6
▁f	-7
on	-8
er	-9
▁w	-10
me	-11
at	-12
▁the	-13
nd	-14
or	-15
▁c	-16
ou	-17
le	-18
▁d	-19
it	-20
el	-21
is	-22
▁b	-23
ar	-24
▁o	-25
ed	-26
▁m	-27
ing	-28
▁h	-29
ind	-30
st	-31
▁and	-32
▁to	-33
en	-34
al	-35
▁p	-36
▁n	-37
as	-38
▁'	-39
ex	-40
ec	-41
▁"	-42
elf	-43
▁find	-44
an	-45
ot	-46
▁|	-47
▁of	-48
▁in	-49
ame	-50
▁re	-51
▁I	-52
▁l	-53
▁th	-54
▁g	-55
et	-56
ion	-57
ad	-58
▁=	-59
▁he	-60
ce	-61
pe	-62
▁i	-63
ut	-64
name	-65
es	-66
ro	-67
▁self	-68
ty	-69
ll	-70
ur	-71
▁.	-72
ow	-73
mp	-74
se	-75
._	-76
od	-77
▁be	-78
▁y	-79
ver	-80
▁/	-81
ld	-82
▁r	-83
▁if	-84
id	-85
ir	-86
int	-87
ch	-88
▁it	-89
type	-90
one	-91
▁is	-92
nt	-93
▁was	-94
▁_	-95
▁u	-96
ig	-97
▁de	-98
▁#	-99
ile	-100
ck	-101
ve	-102
pr	-103
▁“	-104
ay	-105
▁for	-106
ct	-107
ly	-108
▁not	-109
▁e	-110
self	-111
▁you	-112
ho	-113
▁T	-114
▁that	-115
im	-116
pt	-117
):	-118
ort	-119
▁\	-120
lo	-121
▁so	-122
{}	-123
urn	-124
▁as	-125
▁1	-126
ent	-127
her	-128
▁st	-129
arg	-130
ith	-131
print	-132
ab	-133
ime	-134
exec	-135
ke	-136
▁ret	-137
out	-138
▁an	-139
de	-140
▁me	-141
▁her	-142
ht	-143
▁return	-144
▁with	-145
ould	-146
▁my	-147
▁on	-148
▁def	-149
▁con	-150
▁$	-151
()	-152
*.	-153
▁co	-154
ss	-155
ter	-156
▁wh	-157
▁{}	-158
and	-159
▁ex	-160
▁N	-161
ue	-162
args	-163
un	-164
th	-165
co	-166
▁M	-167
li	-168
▁su	-169
▁x	-170
ra	-171
""	-172
ext	-173
rep	-174
ri	-175
▁+	-176
▁we	-177
ul	-178
ff	-179
ation	-180
▁A	-181
oo	-182
ate	-183
▁\;	-184
us	-185
▁she	-186
▁S	-187
▁had	-188
ect	-189
▁his	-190
▁ha	-191
our	-192
ag	-193
pp	-194
▁at	-195
__	-196
▁(	-197
▁xargs	-198
▁v	-199
▁all	-200
rom	-201
▁le	-202
te	-203
ore	-204
ill	-205
▁ch	-206
00	-207
il	-208
▁se	-209
ror	-210
▁but	-211
▁B	-212
ight	-213
to	-214
▁None	-215
▁grep	-216
▁sh	-217
ain	-218
▁The	-219
all	-220
red	-221
▁k	-222
ment	-223
▁by	-224
▁D	-225
▁do	-226
ath	-227
▁or	-228
.”	-229
so	-230
▁W	-231
▁sa	-232
ass	-233
▁C	-234
▁tr	-235
",	-236
▁E	-237
ust	-238
ic	-239
▁him	-240
um	-241
file	-242
':	-243
▁ne	-244
dir	-245
▁file	-246
ure	-247
')	-248
▁whe	-249
▁from	-250
▁H	-251
ich	-252
if	-253
ise	-254
text	-255
iz	-256
ode	-257
ine	-258
able	-259
per	-260
▁"""	-261
am	-262
art	-263
ard	-264
qu	-265
ist	-266
▁0	-267
▁--	-268
xt	-269
sp	-270
▁aw	-271
▁"$	-272
▁ra	-273
▁have	-274
con	-275
▁el	-276
ma	-277
ite	-278
os	-279
txt	-280
very	-281
ell	-282
',	-283
ult	-284
op	-285
ther	-286
▁ar	-287
ack	-288
ound	-289
ction	-290
oug	-291
own	-292
▁no	-293
ne	-294
sh	-295
cept	-296
read	-297
path	-298
▁j	-299
▁up	-300
time	-301
str	-302
ast	-303
rror	-304
▁they	-305
▁this	-306
▁F	-307
Error	-308
▁un	-309
▁which	-310
cl	-311
▁said	-312
▁>	-313
▁al	-314
▁"*.	-315
('	-316
ive	-317
iv	-318
ance	-319
ant	-320
▁2	-321
▁out	-322
▁<	-323
▁go	-324
▁would	-325
▁imp	-326
▁other	-327
ize	-328
▁time	-329
▁could	-330
ess	-331
ong	-332
▁L	-333
▁can	-334
▁lo	-335
led	-336
ers	-337
▁ab	-338
▁pr	-339
ays	-340
▁*	-341
imal	-342
get	-343
che	-344
ory	-345
▁us	-346
▁when	-347
ount	-348
▁them	-349
echo	-350
▁str	-351
▁en	-352
▁Mr	-353
==	-354
om	-355
ecimal	-356
alue	-357
pth	-358
▁sort	-359
▁some	-360
▁see	-361
▁rm	-362
▁who	-363
ake	-364
▁there	-365
▁raise	-366
ak	-367
▁loo	-368
for	-369
▁pro	-370
")	-371
▁else	-372
▁any	-373
▁read	-374
ata	-375
other	-376
ire	-377
ap	-378
ait	-379
▁man	-380
▁your	-381
,”	-382
▁%	-383
▁one	-384
set	-385
▁pre	-386
▁'*.	-387
▁sp	-388
▁sed	-389
ace	-390
age	-391
ous	-392
are	-393
--	-394
HA	-395
ip	-396
▁ad	-397
▁are	-398
ase	-399
▁were	-400
av	-401
mod	-402
ity	-403
ink	-404
▁ag	-405
col	-406
ign	-407
▁R	-408
▁get	-409
mm	-410
▁[	-411
mple	-412
ings	-413
▁__	-414
▁-0	-415
now	-416
▁will	-417
▁P	-418
▁J	-419
su	-420
▁been	-421
pre	-422
▁awk	-423
bu	-424
}'	-425
fo	-426
mat	-427
▁cl	-428
ond	-429
▁echo	-430
ge	-431
▁what	-432
IN	-433
("	-434
tr	-435
ars	-436
au	-437
▁more	-438
bj	-439
key	-440
ER	-441
max	-442
▁O	-443
ost	-444
depth	-445
py	-446
▁fe	-447
ough	-448
▁ls	-449
▁te	-450
▁did	-451
up	-452
.*	-453
ix	-454
.__	-455
itt	-456
▁li	-457
size	-458
▁==	-459
▁{	-460
▁then	-461
vent	-462
))	-463
ask	-464
[0	-465
ord	-466
▁their	-467
▁-1	-468
▁know	-469
nc	-470
▁except	-471
?”	-472
▁`	-473
eth	-474
not	-475
fore	-476
▁import	-477
act	-478
▁am	-479
▁off	-480
rite	-481
▁set	-482
LE	-483
ule	-484
ions	-485
ry	-486
end	-487
▁arg	-488
▁very	-489
ice	-490
liz	-491
▁di	-492
ated	-493
▁Eliz	-494
wn	-495
ffer	-496
▁po	-497
ence	-498
pro	-499
abeth	-500
arn	-501
▁He	-502
▁head	-503
oto	-504
▁Elizabeth	-505
ST	-506
▁pl	-507
cy	-508
▁ro	-509
ert	-510
bject	-511
ng	-512
▁too	-513
▁must	-514
maxdepth	-515
ble	-516
ree	-517
ync	-518
sult	-519
ail	-520
None	-521
ked	-522
▁!	-523
▁comp	-524
new	-525
ull	-526
home	-527
ide	-528
tmp	-529
▁per	-530
rue	-531
▁than	-532
ally	-533
iss	-534
▁over	-535
di	-536
▁Decimal	-537
▁ac	-538
mtime	-539
▁down	-540
iname	-541
log	-542
▁context	-543
ep	-544
cal	-545
▁'{	-546
uture	-547
ype	-548
▁Th	-549
▁cat	-550
do	-551
▁about	-552
alse	-553
VE	-554
ish	-555
error	-556
RE	-557
__(	-558
▁again	-559
▁has	-560
▁should	-561
▁$(	-562
▁exp	-563
▁every	-564
pend	-565
▁only	-566
fter	-567
irst	-568
em	-569
▁cut	-570
thing	-571
▁got	-572
no	-573
otocol	-574
▁sc	-575
▁But	-576
ather	-577
▁add	-578
▁dis	-579
ie	-580
ought	-581
dev	-582
back	-583
▁before	-584
ved	-585
ection	-586
▁now	-587
stance	-588
..	-589
10	-590
$(	-591
perm	-592
reat	-593
▁how	-594
ansp	-595
add	-596
▁such	-597
put	-598
▁name	-599
pos	-600
data	-601
ument	-602
ault	-603
ls	-604
usr	-605
▁wc	-606
▁ho	-607
▁new	-608
▁try	-609
▁chmod	-610
uch	-611
ittle	-612
ption	-613
▁fo	-614
▁hand	-615
▁It	-616
▁G	-617
ely	-618
▁int	-619
▁bu	-620
Con	-621
▁qu	-622
tra	-623
val	-624
##	-625
ME	-626
▁print	-627
▁class	-628
ary	-629
ick	-630
▁op	-631
▁tw	-632
une	-633
▁done	-634
string	-635
AT	-636
▁says	-637
▁little	-638
ft	-639
ies	-640
▁1,	-641
▁come	-642
ily	-643
ansport	-644
ody	-645
ON	-646
ger	-647
▁first	-648
ber	-649
▁call	-650
ress	-651
▁into	-652
▁./	-653
),	-654
ms	-655
loop	-656
line	-657
ph	-658
▁>>	-659
▁like	-660
ven	-661
printf	-662
\.	-663
▁->	-664
ac	-665
▁<(	-666
▁dir	-667
ister	-668
▁much	-669
/'	-670
HAVE	-671
ward	-672
oup	-673
▁ind	-674
class	-675
▁after	-676
▁good	-677
min	-678
vers	-679
▁~	-680
▁wor	-681
▁while	-682
ud	-683
-9	-684
ause	-685
!”	-686
▁day	-687
▁may	-688
ade	-689
ys	-690
▁pass	-691
XX	-692
cess	-693
*'	-694
ning	-695
user	-696
▁Y	-697
▁never	-698
▁gr	-699
hing	-700
write	-701
▁She	-702
ww	-703
ness	-704
▁bec	-705
irect	-706
▁ap	-707
econd	-708
▁think	-709
OR	-710
ml	-711
▁long	-712
▁3	-713
tend	-714
▁V	-715
▁list	-716
▁sock	-717
fl	-718
▁des	-719
▁say	-720
rent	-721
ute	-722
====	-723
▁value	-724
we	-725
"""	-726
▁>>>	-727
ful	-728
ial	-729
▁cal	-730
com	-731
ched	-732
▁result	-733
ild	-734
io	-735
bin	-736
▁cont	-737
*"	-738
aw	-739
▁most	-740
▁part	-741
odule	-742
▁len	-743
reg	-744
gr	-745
▁rem	-746
mpty	-747
my	-748
▁If	-749
▁cur	-750
ND	-751
its	-752
ude	-753
▁way	-754
body	-755
-9]	-756
sc	-757
▁end	-758
▁True	-759
▁make	-760
atter	-761
▁two	-762
▁diff	-763
code	-764
sent	-765
▁'{}	-766
64	-767
pl	-768
hen	-769
ove	-770
format	-771
nder	-772
▁old	-773
cel	-774
lock	-775
▁ans	-776
▁object	-777
▁7	-778
find	-779
▁just	-780
▁went	-781
iel	-782
prune	-783
app	-784
sock	-785
by	-786
▁let	-787
▁This	-788
▁'\	-789
ource	-790
▁loop	-791
▁key	-792
▁cp	-793
thon	-794
ear	-795
que	-796
▁col	-797
▁ever	-798
arcy	-799
ations	-800
▁own	-801
/\	-802
▁Darcy	-803
some	-804
ek	-805
hed	-806
ser	-807
ans	-808
▁br	-809
ener	-810
▁)	-811
zip	-812
▁happ	-813
ave	-814
▁'{}'	-815
=$(	-816
lice	-817
▁back	-818
▁bet	-819
ield	-820
context	-821
instance	-822
-1	-823
ins	-824
ose	-825
ition	-826
▁comm	-827
▁might	-828
IT	-829
cur	-830
▁soon	-831
▁wait	-832
▁\(	-833
ingle	-834
ach	-835
var	-836
▁want	-837
":	-838
ash	-839
ible	-840
elt	-841
▁10	-842
ark	-843
ious	-844
tended	-845
ane	-846
▁count	-847
ol	-848
ced	-849
▁pos	-850
():	-851
▁Ex	-852
conf	-853
local	-854
▁feel	-855
lin	-856
sub	-857
[0-9]	-858
ang	-859
▁mv	-860
▁thought	-861
ipe	-862
med	-863
In	-864
ner	-865
hat	-866
▁data	-867
oin	-868
▁made	-869
▁False	-870
▁nothing	-871
los	-872
▁its	-873
▁look	-874
▁"*	-875
▁\)	-876
▁where	-877
▁Alice	-878
net	-879
nce	-880
▁don	-881
ens	-882
▁bel	-883
row	-884
▁beg	-885
▁being	-886
▁$1	-887
▁last	-888
AR	-889
buffer	-890
▁isinstance	-891
▁elif	-892
./	-893
ca	-894
als	-895
ied	-896
▁fl	-897
▁here	-898
task	-899
▁com	-900
▁right	-901
▁~/	-902
▁ent	-903
▁warn	-904
ub	-905
igh	-906
arch	-907
▁dec	-908
▁Miss	-909
lp	-910
node	-911
sign	-912
riend	-913
ctions	-914
ats	-915
thod	-916
▁min	-917
▁node	-918
."""	-919
exp	-920
▁So	-921
TI	-922
▁bl	-923
call	-924
ried	-925
▁tail	-926
▁type	-927
Context	-928
ception	-929
="	-930
SE	-931
rit	-932
hand	-933
▁supp	-934
info	-935
ouse	-936
tes	-937
▁friend	-938
uck	-939
▁We	-940
atch	-941
▁Ben	-942
append	-943
//	-944
[0]	-945
err	-946
▁*.	-947
sort	-948
▁argument	-949
▁away	-950
▁K	-951
html	-952
▁well	-953
lose	-954
▁ple	-955
ator	-956
▁And	-957
ered	-958
ived	-959
▁Mrs	-960
▁log	-961
▁line	-962
init	-963
▁cor	-964
Decimal	-965
host	-966
alk	-967
▁uni	-968
OU	-969
▁Jane	-970
▁sudo	-971
▁&	-972
par	-973
ared	-974
▁even	-975
▁Bennet	-976
99	-977
OD	-978
▁kind	-979
▁herself	-980
alueError	-981
can	-982
.1	-983
▁z	-984
▁In	-985
lic	-986
comp	-987
▁del	-988
000	-989
▁event	-990
▁sister	-991
unt	-992
▁+=	-993
null	-994
▁ValueError	-995
day	-996
ways	-997
▁exc	-998
▁foo	-999
start	-1000
▁under	-1001
irectory	-1002
AL	-1003
▁mo	-1004
▁start	-1005
▁great	-1006
▁our	-1007
▁use	-1008
clude	-1009
▁didn	-1010
ok	-1011
air	-1012
fin	-1013
tri	-1014
▁Not	-1015
▁fun	-1016
).	-1017
yes	-1018
count	-1019
grep	-1020
link	-1021
amily	-1022
sl	-1023
from	-1024
lect	-1025
less	-1026
▁rep	-1027
gz	-1028
▁mk	-1029
▁found	-1030
▁without	-1031
▁app	-1032
est	-1033
date	-1034
▁string	-1035
DI	-1036
foo	-1037
temp	-1038
▁ser	-1039
▁same	-1040
▁'*	-1041
tendedContext	-1042
▁U	-1043
sync	-1044
empty	-1045
▁because	-1046
▁'/	-1047
▁pe	-1048
▁Jim	-1049
▁task	-1050
▁sign	-1051
▁ExtendedContext	-1052
'))	-1053
test	-1054
wards	-1055
cod	-1056
value	-1057
:]	-1058
ood	-1059
▁du	-1060
ving	-1061
▁im	-1062
eturn	-1063
▁tell	-1064
**	-1065
sum	-1066
▁"%	-1067
ange	-1068
▁num	-1069
▁Bingle	-1070
ead	-1071
php	-1072
ife	-1073
▁run	-1074
▁sub	-1075
▁sm	-1076
▁bre	-1077
▁reg	-1078
▁place	-1079
▁Bingley	-1080
▁You	-1081
▁sho	-1082
▁uniq	-1083
▁mkdir	-1084
▁action	-1085
fix	-1086
wh	-1087
def	-1088
ened	-1089
onth	-1090
LO	-1091
aug	-1092
rem	-1093
ret	-1094
config	-1095
▁myself	-1096
of	-1097
▁tra	-1098
▁ass	-1099
▁next	-1100
▁always	-1101
▁these	-1102
/*	-1103
len	-1104
lit	-1105
ower	-1106
▁0:	-1107
ected	-1108
▁format	-1109
1,	-1110
CE	-1111
isit	-1112
▁father	-1113
??	-1114
ler	-1115
lob	-1116
owed	-1117
▁@	-1118
ors	-1119
▁char	-1120
1)	-1121
ater	-1122
vert	-1123
▁spec	-1124
▁test	-1125
future	-1126
ps	-1127
ream	-1128
bo	-1129
▁async	-1130
FI	-1131
▁appe	-1132
▁chown	-1133
▁]	-1134
ired	-1135
▁does	-1136
▁word	-1137
▁pleas	-1138
GE	-1139
gn	-1140
▁protocol	-1141
"\	-1142
▁'%	-1143
▁aff	-1144
reate	-1145
▁inter	-1146
tar	-1147
the	-1148
ished	-1149
lder	-1150
▁ssh	-1151
ative	-1152
wd	-1153
dec	-1154
▁shall	-1155
▁around	-1156
▁option	-1157
rc	-1158
1.	-1159
▁4	-1160
▁5	-1161
▁inte	-1162
▁default	-1163
du	-1164
▁take	-1165
ting	-1166
▁They	-1167
12	-1168
pg	-1169
uple	-1170
files	-1171
▁took	-1172
▁though	-1173
▁round	-1174
lete	-1175
▁give	-1176
reen	-1177
spec	-1178
▁par	-1179
LA	-1180
ags	-1181
▁mar	-1182
odules	-1183
PT	-1184
▁dig	-1185
▁called	-1186
fe	-1187
ady	-1188
etc	-1189
▁yet	-1190
}"	-1191
▁’	-1192
std	-1193
▁Co	-1194
▁dear	-1195
mented	-1196
▁family	-1197
55	-1198
cle	-1199
▁"\	-1200
▁ke	-1201
group	-1202
losed	-1203
fd	-1204
'),	-1205
ngth	-1206
▁still	-1207
The	-1208
sol	-1209
▁ain	-1210
jpg	-1211
ither	-1212
▁many	-1213
▁night	-1214
▁0,	-1215
▁cons	-1216
Ex	-1217
bug	-1218
ript	-1219
▁less	-1220
▁turn	-1221
▁rsync	-1222
version	-1223
2.	-1224
▁When	-1225
directory	-1226
MOD	-1227
▁ob	-1228
wait	-1229
▁poss	-1230
▁belie	-1231
▁buffer	-1232
cat	-1233
▁oper	-1234
delete	-1235
second	-1236
▁going	-1237
▁young	-1238
ote	-1239
vel	-1240
mind	-1241
cc	-1242
ank	-1243
▁put	-1244
ample	-1245
iness	-1246
▁conn	-1247
SI	-1248
[^	-1249
lib	-1250
▁2>	-1251
oy	-1252
▁fin	-1253
▁mis	-1254
valid	-1255
▁enough	-1256
comm	-1257
▁tar	-1258
newer	-1259
▁user	-1260
aut	-1261
bar	-1262
word	-1263
[:	-1264
ING	-1265
▁rest	-1266
default	-1267
LD	-1268
epth	-1269
prec	-1270
True	-1271
▁along	-1272
mindepth	-1273
20	-1274
ib	-1275
attern	-1276
ceived	-1277
▁house	-1278
▁mount	-1279
ever	-1280
▁bot	-1281
event	-1282
action	-1283
▁heard	-1284
be	-1285
▁Ch	-1286
sole	-1287
▁saw	-1288
▁write	-1289
####	-1290
▁hope	-1291
▁hour	-1292
11	-1293
▁att	-1294
▁spe	-1295
ssage	-1296
module	-1297
ised	-1298
space	-1299
DE	-1300
ux	-1301
man	-1302
run	-1303
MODU	-1304
dirname	-1305
▁transport	-1306
0,	-1307
SS	-1308
ows	-1309
attr	-1310
▁need	-1311
source	-1312
hy	-1313
down	-1314
press	-1315
▁error	-1316
▁visit	-1317
MA	-1318
DIR	-1319
conn	-1320
▁inst	-1321
▁looked	-1322
alf	-1323
▁dist	-1324
▁another	-1325
dest	-1326
lied	-1327
part	-1328
▁sys	-1329
▁felt	-1330
)"	-1331
LI	-1332
regex	-1333
▁help	-1334
▁left	-1335
▁mind	-1336
ged	-1337
imit	-1338
MODULE	-1339
▁thing	-1340
▁contin	-1341
▁future	-1342
TE	-1343
▁sl	-1344
ertain	-1345
sg	-1346
▁My	-1347
▁size	-1348
reader	-1349
▁break	-1350
ef	-1351
▁$2	-1352
▁<=	-1353
▁&&	-1354
rence	-1355
▁conf	-1356
timeout	-1357
$/	-1358
ern	-1359
ook	-1360
ename	-1361
python	-1362
protocol	-1363
ax	-1364
▁eyes	-1365
transport	-1366
mplemented	-1367
AD	-1368
dia	-1369
▁sat	-1370
▁hear	-1371
▁till	-1372
Implemented	-1373
ron	-1374
▁!=	-1375
orm	-1376
stem	-1377
▁ssl	-1378
▁val	-1379
rough	-1380
state	-1381
▁told	-1382
▁used	-1383
Return	-1384
▁NotImplemented	-1385
▁giv	-1386
▁pers	-1387
cancel	-1388
St	-1389
FILE	-1390
which	-1391
▁case	-1392
▁gener	-1393
ues	-1394
▁'.	-1395
ffset	-1396
▁await	-1397
▁better	-1398
▁himself	-1399
umn	-1400
who	-1401
www	-1402
ines	-1403
▁"$(	-1404
▁life	-1405
▁something	-1406
pd	-1407
ush	-1408
ople	-1409
check	-1410
']	-1411
1/	-1412
gra	-1413
▁For	-1414
▁towards	-1415
ract	-1416
used	-1417
▁msg	-1418
▁sure	-1419
result	-1420
▁cannot	-1421
▁foll	-1422
▁upon	-1423
cs	-1424
0000	-1425
ments	-1426
asename	-1427
ome	-1428
filename	-1429
UT	-1430
ham	-1431
raw	-1432
ted	-1433
tty	-1434
ager	-1435
here	-1436
pipe	-1437
▁dest	-1438
aught	-1439
▁room	-1440
▁number	-1441
▁second	-1442
▁---	-1443
▁che	-1444
ystem	-1445
▁work	-1446
['	-1447
ery	-1448
hist	-1449
▁talk	-1450
▁three	-1451
\)	-1452
fort	-1453
▁rev	-1454
ython	-1455
▁week	-1456
/^	-1457
▁+1	-1458
▁det	-1459
▁join	-1460
▁town	-1461
========	-1462
exception	-1463
▁filename	-1464
ale	-1465
▁ln	-1466
form	-1467
▁child	-1468
▁method	-1469
ool	-1470
aint	-1471
quest	-1472
[1	-1473
ey	-1474
{}"	-1475
▁ear	-1476
▁ref	-1477
debug	-1478
▁world	-1479
▁couldn	-1480
PE	-1481
ince	-1482
ready	-1483
▁gent	-1484
▁through	-1485
/_	-1486
HO	-1487
rf	-1488
map	-1489
list	-1490
root	-1491
▁mor	-1492
▁ter	-1493
ility	-1494
stats	-1495
▁half	-1496
▁text	-1497
ickham	-1498
iet	-1499
▁gl	-1500
▁"${	-1501
▁tee	-1502
pattern	-1503
ten	-1504
▁[]	-1505
head	-1506
aking	-1507
▁hist	-1508
▁path	-1509
option	-1510
▁bytes	-1511
NA	-1512
md	-1513
mt	-1514
pped	-1515
▁Coll	-1516
eed	-1517
Well	-1518
▁Then	-1519
▁cour	-1520
▁offset	-1521
▁Collins	-1522
=1	-1523
You	-1524
▁os	-1525
aste	-1526
▁super	-1527
▁letter	-1528
▁Wickham	-1529
60	-1530
▁beh	-1531
index	-1532
verse	-1533
▁There	-1534
▁extra	-1535
history	-1536
▁people	-1537
▁current	-1538
with	-1539
▁reck	-1540
▁socket	-1541
▁;	-1542
dig	-1543
▁}'	-1544
that	-1545
▁gentle	-1546
▁anything	-1547
GS	-1548
but	-1549
▁args	-1550
▁month	-1551
▁charact	-1552
'\	-1553
CK	-1554
▁yes	-1555
▁open	-1556
▁diffe	-1557
▁cd	-1558
▁\*.	-1559
▁fut	-1560
msg	-1561
iled	-1562
▁dat	-1563
(_	-1564
TR	-1565
ava	-1566
ken	-1567
▁('	-1568
▁md	-1569
right	-1570
▁both	-1571
▁wish	-1572
coding	-1573
▁passed	-1574
▁things	-1575
2,	-1576
ages	-1577
ature	-1578
execut	-1579
▁comple	-1580
▁sur	-1581
▁came	-1582
▁hard	-1583
▁express	-1584
▁history	-1585
.0	-1586
▁bo	-1587
oice	-1588
▁year	-1589
▁source	-1590
▁certain	-1591
86	-1592
=`	-1593
().	-1594
----	-1595
dict	-1596
ling	-1597
▁root	-1598
folder	-1599
cor	-1600
▁${	-1601
▁days	-1602
ration	-1603
▁mother	-1604
;'	-1605
▁ide	-1606
strings	-1607
dd	-1608
▁}	-1609
▁>=	-1610
ately	-1611
▁Lady	-1612
▁also	-1613
▁heart	-1614
1"	-1615
▁-2	-1616
warn	-1617
▁mean	-1618
▁seen	-1619
comple	-1620
▁present	-1621
NT	-1622
fut	-1623
ient	-1624
offset	-1625
▁those	-1626
▁reckon	-1627
]*	-1628
,--	-1629
src	-1630
ssl	-1631
▁Ly	-1632
arget	-1633
▁"{}"	-1634
▁Type	-1635
▁once	-1636
▁input	-1637
▁ca	-1638
▁wr	-1639
ical	-1640
curs	-1641
▁CHA	-1642
llust	-1643
▁Lydia	-1644
▁wouldn	-1645
ug	-1646
▁rel	-1647
▁whole	-1648
▁column	-1649
56	-1650
ATE	-1651
False	-1652
▁love	-1653
method	-1654
▁assert	-1655
▁pretty	-1656
▁feelings	-1657
unk	-1658
▁ri	-1659
ason	-1660
rame	-1661
arent	-1662
ination	-1663
77	-1664
ider	-1665
stru	-1666
ained	-1667
reading	-1668
uff	-1669
rest	-1670
▁755	-1671
close	-1672
▁whom	-1673
▁appear	-1674
:/	-1675
PI	-1676
og	-1677
▁:	-1678
644	-1679
upt	-1680
▁cho	-1681
ision	-1682
xargs	-1683
▁high	-1684
▁keep	-1685
▁however	-1686
NAME	-1687
ular	-1688
▁nig	-1689
▁pur	-1690
▁var	-1691
arser	-1692
▁date	-1693
▁gone	-1694
▁perl	-1695
▁close	-1696
▁watch	-1697
FLA	-1698
spect	-1699
▁form	-1700
server	-1701
▁point	-1702
▁TypeError	-1703
▁exception	-1704
])	-1705
'):	-1706
ves	-1707
repl	-1708
▁each	-1709
▁temp	-1710
▁quite	-1711
▁since	-1712
exc	-1713
Name	-1714
PTER	-1715
glob	-1716
writ	-1717
outine	-1718
exclude	-1719
▁minute	-1720
▁CHAPTER	-1721
llustration	-1722
\(	-1723
▁St	-1724
▁few	-1725
▁gir	-1726
times	-1727
▁Well	-1728
▁home	-1729
▁group	-1730
command	-1731
Illustration	-1732
It	-1733
eno	-1734
ero	-1735
idth	-1736
▁info	-1737
▁side	-1738
▁module	-1739
IO	-1740
aN	-1741
aps	-1742
hes	-1743
java	-1744
mand	-1745
▁far	-1746
pport	-1747
▁support	-1748
ict	-1749
FLAGS	-1750
onder	-1751
▁acqu	-1752
▁king	-1753
▁light	-1754
▁function	-1755
-3	-1756
TH	-1757
done	-1758
▁std	-1759
atime	-1760
▁near	-1761
▁replied	-1762
())	-1763
▁'-	-1764
▁sk	-1765
icro	-1766
most	-1767
year	-1768
▁unt	-1769
ating	-1770
▁wind	-1771
utdown	-1772
process	-1773
▁believe	-1774
▁morning	-1775
AN	-1776
bour	-1777
▁men	-1778
▁mod	-1779
field	-1780
lines	-1781
▁best	-1782
▁imple	-1783
HE	-1784
MP	-1785
US	-1786
▁df	-1787
copy	-1788
ween	-1789
▁cle	-1790
avour	-1791
wargs	-1792
ceback	-1793
▁daught	-1794
▁server	-1795
readlink	-1796
OF	-1797
medi	-1798
nown	-1799
▁nor	-1800
ified	-1801
▁often	-1802
▁address	-1803
▁consider	-1804
▁returned	-1805
";	-1806
ami	-1807
▁act	-1808
▁door	-1809
special	-1810
▁either	-1811
▁moment	-1812
='	-1813
po	-1814
(),	-1815
ene	-1816
mem	-1817
ual	-1818
▁...	-1819
extra	-1820
\|	-1821
vo	-1822
iter	-1823
uring	-1824
actory	-1825
finity	-1826
socket	-1827
stract	-1828
▁'^	-1829
leep	-1830
qual	-1831
▁mode	-1832
▁true	-1833
▁river	-1834
▁indeed	-1835
js	-1836
vn	-1837
cls	-1838
iew	-1839
pwd	-1840
▁gu	-1841
ense	-1842
tz	-1843
pdf	-1844
vid	-1845
▁es	-1846
ject	-1847
▁tri	-1848
alked	-1849
▁between	-1850
22	-1851
abc	-1852
use	-1853
▁$0	-1854
▁At	-1855
ures	-1856
▁began	-1857
register	-1858
sq	-1859
▁ye	-1860
mmin	-1861
inter	-1862
stack	-1863
/.	-1864
Oh	-1865
fun	-1866
ons	-1867
sys	-1868
ump	-1869
▁As	-1870
addr	-1871
▁Tom	-1872
color	-1873
ually	-1874
▁larg	-1875
▁screen	-1876
icrosecond	-1877
/$	-1878
git	-1879
pid	-1880
ren	-1881
join	-1882
▁prec	-1883
▁writ	-1884
prefix	-1885
▁given	-1886
▁local	-1887
convert	-1888
▁waiter	-1889
No	-1890
isf	-1891
oke	-1892
}')	-1893
▁ast	-1894
bytes	-1895
▁creat	-1896
▁happy	-1897
▁reason	-1898
▁seemed	-1899
30	-1900
CT	-1901
File	-1902
ceed	-1903
land	-1904
▁cried	-1905
"'	-1906
14	-1907
],	-1908
num	-1909
HOME	-1910
▁adv	-1911
etime	-1912
script	-1913
▁power	-1914
▁until	-1915
▁attent	-1916
callback	-1917
▁command	-1918
▁**	-1919
▁tz	-1920
▁nec	-1921
▁occ	-1922
cache	-1923
▁exact	-1924
▁match	-1925
▁brother	-1926
Pr	-1927
wer	-1928
you	-1929
▁1;	-1930
____	-1931
akes	-1932
item	-1933
▁';'	-1934
▁acc	-1935
▁eas	-1936
ouble	-1937
▁base	-1938
▁duke	-1939
▁poor	-1940
▁wood	-1941
▁voice	-1942
▁having	-1943
▁already	-1944
/"	-1945
aid	-1946
illi	-1947
proc	-1948
▁ign	-1949
raise	-1950
▁allow	-1951
▁state	-1952
▁handle	-1953
hostname	-1954
▁arguments	-1955
▁character	-1956
2)	-1957
tt	-1958
▁low	-1959
▁subject	-1960
▁possible	-1961
SO	-1962
zy	-1963
"),	-1964
▁car	-1965
▁div	-1966
▁hum	-1967
illiam	-1968
▁course	-1969
▁country	-1970
.—	-1971
vf	-1972
ilt	-1973
oud	-1974
ited	-1975
oney	-1976
repr	-1977
▁100	-1978
▁flo	-1979
▁git	-1980
▁inc	-1981
▁dict	-1982
▁tuple	-1983
▁8	-1984
(1)	-1985
ift	-1986
imp	-1987
ock	-1988
parse	-1989
gative	-1990
▁among	-1991
▁beaut	-1992
▁immedi	-1993
▁message	-1994
▁pleasure	-1995
▁‘	-1996
Que	-1997
ably	-1998
ured	-1999
▁644	-2000
▁full	-2001
▁paste	-2002
▁using	-2003
▁words	-2004
▁direct	-2005
▁delight	-2006
▁dirname	-2007
▁different	-2008
amp	-2009
iec	-2010
▁bash	-2011
▁care	-2012
▁requ	-2013
gether	-2014
ommand	-2015
▁leave	-2016
▁satisf	-2017
traverse	-2018
▁affection	-2019
▁everything	-2020
mk	-2021
/.*	-2022
idd	-2023
base	-2024
miss	-2025
ront	-2026
input	-2027
▁addr	-2028
▁Cather	-2029
▁manner	-2030
▁output	-2031
▁whether	-2032
▁Catherine	-2033
'.	-2034
CO	-2035
64-	-2036
arm	-2037
ier	-2038
ued	-2039
▁1)	-2040
ains	-2041
aken	-2042
sume	-2043
▁top	-2044
ublic	-2045
▁idea	-2046
▁pipe	-2047
closed	-2048
▁resol	-2049
example	-2050
▁answer	-2051
TO	-2052
▁ps	-2053
XXXX	-2054
ents	-2055
haps	-2056
▁'.*	-2057
▁What	-2058
▁integer	-2059
UP	-2060
uc	-2061
://	-2062
oub	-2063
What	-2064
inal	-2065
ross	-2066
riage	-2067
▁fold	-2068
▁gzip	-2069
▁mile	-2070
▁spir	-2071
▁walk	-2072
▁digits	-2073
('0	-2074
OUR	-2075
les	-2076
ots	-2077
oman	-2078
ural	-2079
▁ext	-2080
▁jud	-2081
▁That	-2082
▁kill	-2083
create	-2084
▁least	-2085
▁nigger	-2086
NF	-2087
NR	-2088
ah	-2089
rew	-2090
elta	-2091
ific	-2092
▁How	-2093
▁short	-2094
shutdown	-2095
($	-2096
]'	-2097
▁6	-2098
full	-2099
gram	-2100
pper	-2101
▁eng	-2102
▁opt	-2103
▁host	-2104
▁sent	-2105
▁appro	-2106
cedence	-2107
▁length	-2108
▁wonder	-2109
▁friends	-2110
50	-2111
=/	-2112
apt	-2113
der	-2114
▁Do	-2115
Read	-2116
▁fix	-2117
▁hor	-2118
State	-2119
▁copy	-2120
present	-2121
▁rather	-2122
▁really	-2123
▁position	-2124
flags	-2125
▁tree	-2126
▁empty	-2127
▁split	-2128
▁Modules	-2129
▁X	-2130
('1	-2131
▁OS	-2132
ants	-2133
wise	-2134
▁bus	-2135
▁raw	-2136
round	-2137
celled	-2138
target	-2139
▁hands	-2140
▁received	-2141
II	-2142
SC	-2143
dom	-2144
ref	-2145
svn	-2146
bute	-2147
help	-2148
ined	-2149
▁dark	-2150
▁item	-2151
▁field	-2152
▁flags	-2153
▁whose	-2154
▁ifconfig	-2155
STR	-2156
old	-2157
▁+2	-2158
????	-2159
TION	-2160
like	-2161
your	-2162
▁suc	-2163
handle	-2164
▁stand	-2165
▁rename	-2166
$'	-2167
Tr	-2168
hi	-2169
mpt	-2170
top	-2171
▁On	-2172
stri	-2173
ters	-2174
▁His	-2175
▁ill	-2176
▁non	-2177
▁tot	-2178
itted	-2179
width	-2180
▁glob	-2181
untime	-2182
▁added	-2183
factory	-2184
peration	-2185
▁underst	-2186
▁happiness	-2187
ased	-2188
ches	-2189
stat	-2190
▁adm	-2191
▁ask	-2192
▁won	-2193
lease	-2194
▁stat	-2195
remove	-2196
▁surpr	-2197
▁woman	-2198
▁looking	-2199
▁represent	-2200
=$	-2201
UL	-2202
\\	-2203
men	-2204
und	-2205
fect	-2206
otal	-2207
▁Con	-2208
▁fre	-2209
▁fort	-2210
▁show	-2211
▁sile	-2212
▁stay	-2213
▁means	-2214
▁encoding	-2215
RO	-2216
_,	-2217
Yes	-2218
▁sw	-2219
▁cre	-2220
delta	-2221
▁face	-2222
▁sens	-2223
▁coming	-2224
▁turned	-2225
2-	-2226
FOR	-2227
Pro	-2228
ience	-2229
▁fell	-2230
ousand	-2231
▁money	-2232
▁values	-2233
▁callback	-2234
:%	-2235
My	-2236
doc	-2237
sql	-2238
make	-2239
length	-2240
▁wanted	-2241
lections	-2242
▁together	-2243
▁implement	-2244
24	-2245
──	-2246
▁"/	-2247
▁nl	-2248
flow	-2249
ized	-2250
▁bar	-2251
▁lay	-2252
andom	-2253
▁$1}'	-2254
▁speak	-2255
▁table	-2256
▁years	-2257
▁almost	-2258
Operation	-2259
▁acquaint	-2260
▁therefore	-2261
((	-2262
Why	-2263
ify	-2264
tle	-2265
▁''	-2266
cale	-2267
▁".*	-2268
▁'',	-2269
▁'./	-2270
▁hur	-2271
▁seq	-2272
iable	-2273
shake	-2274
▁dead	-2275
▁real	-2276
▁bound	-2277
▁closed	-2278
▁stream	-2279
▁everybody	-2280
EN	-2281
bl	-2282
But	-2283
ple	-2284
▁od	-2285
just	-2286
▁bit	-2287
names	-2288
ormal	-2289
▁Char	-2290
▁Long	-2291
▁desc	-2292
errupt	-2293
current	-2294
▁partic	-2295
Protocol	-2296
▁operand	-2297
▁sometimes	-2298
▁immediately	-2299
0'	-2300
BU	-2301
opt	-2302
ster	-2303
▁END	-2304
▁Key	-2305
▁big	-2306
▁eff	-2307
anger	-2308
month	-2309
tered	-2310
fileno	-2311
replace	-2312
▁person	-2313
▁convers	-2314
▁perfect	-2315
]:	-2316
Int	-2317
LIB	-2318
__,	-2319
fra	-2320
loc	-2321
▁Ar	-2322
▁inv	-2323
iment	-2324
▁conc	-2325
quence	-2326
search	-2327
whoami	-2328
▁remem	-2329
Invalid	-2330
▁hardly	-2331
▁necess	-2332
▁trouble	-2333
traceback	-2334
oop	-2335
▁id	-2336
lost	-2337
ools	-2338
▁max	-2339
Event	-2340
ailed	-2341
▁raft	-2342
▁disco	-2343
▁quest	-2344
▁times	-2345
▁total	-2346
▁water	-2347
Command	-2348
▁Python	-2349
▁others	-2350
,-	-2351
kf	-2352
non	-2353
▁OR	-2354
▁sy	-2355
▁ut	-2356
ases	-2357
over	-2358
▁bro	-2359
▁cir	-2360
▁sor	-2361
annot	-2362
▁gave	-2363
waiter	-2364
▁against	-2365
▁instance	-2366
33	-2367
ee	-2368
sd	-2369
ung	-2370
▁No	-2371
ache	-2372
prot	-2373
utes	-2374
▁2>/	-2375
linux	-2376
onent	-2377
queue	-2378
▁book	-2379
▁lines	-2380
▁sound	-2381
ization	-2382
▁reader	-2383
########	-2384
▁exceptions	-2385
.]	-2386
CON	-2387
▁oc	-2388
ateg	-2389
iety	-2390
side	-2391
await	-2392
inner	-2393
perty	-2394
▁Mary	-2395
▁arri	-2396
▁knew	-2397
▁egrep	-2398
▁uncle	-2399
message	-2400
▁during	-2401
▁execut	-2402
basename	-2403
Exception	-2404
▁connection	-2405
xy	-2406
('-	-2407
sel	-2408
ton	-2409
xml	-2410
▁AN	-2411
▁cr	-2412
next	-2413
▁All	-2414
▁Her	-2415
▁Que	-2416
▁buf	-2417
▁cls	-2418
▁env	-2419
▁gra	-2420
▁met	-2421
▁sec	-2422
▁tre	-2423
locking	-2424
▁basename	-2425
▁daughter	-2426
▁thousand	-2427
▁yourself	-2428
2/	-2429
FA	-2430
uz	-2431
And	-2432
any	-2433
nan	-2434
cape	-2435
▁dro	-2436
▁pop	-2437
STATE	-2438
ached	-2439
items	-2440
▁code	-2441
kwargs	-2442
▁asked	-2443
▁death	-2444
▁deter	-2445
▁files	-2446
▁limit	-2447
Modules	-2448
▁running	-2449
3,	-2450
34	-2451
nr	-2452
rw	-2453
ATH	-2454
buf	-2455
cont	-2456
▁tou	-2457
ardin	-2458
▁doub	-2459
ignore	-2460
▁tasks	-2461
▁Gardin	-2462
);	-2463
VER	-2464
uth	-2465
ices	-2466
OURCE	-2467
total	-2468
tuple	-2469
▁play	-2470
▁check	-2471
▁follow	-2472
position	-2473
▁Runtime	-2474
▁account	-2475
▁asyncio	-2476
▁perhaps	-2477
EX	-2478
FS	-2479
eof	-2480
umb	-2481
iece	-2482
port	-2483
▁Col	-2484
▁htt	-2485
▁ste	-2486
actor	-2487
tempt	-2488
▁prev	-2489
▁index	-2490
ference	-2491
handler	-2492
▁change	-2493
▁events	-2494
FO	-2495
cp	-2496
rm	-2497
xx	-2498
86_	-2499
▁*,	-2500
only	-2501
▁liv	-2502
anged	-2503
licit	-2504
▁"$1"	-2505
▁conv	-2506
▁ende	-2507
▁four	-2508
▁prom	-2509
▁alone	-2510
▁large	-2511
ategory	-2512
tribute	-2513
▁OSError	-2514
0)	-2515
ES	-2516
YS	-2517
mo	-2518
-1]	-2519
dat	-2520
sed	-2521
airs	-2522
ison	-2523
izzy	-2524
load	-2525
andle	-2526
aused	-2527
▁aunt	-2528
▁send	-2529
SOURCE	-2530
struct	-2531
▁signal	-2532
▁interest	-2533
CH	-2534
UN	-2535
rb	-2536
wra	-2537
TIME	-2538
clud	-2539
▁sto	-2540
async	-2541
▁glad	-2542
▁lock	-2543
erable	-2544
▁const	-2545
▁sleep	-2546
▁yield	-2547
▁allowed	-2548
▁RuntimeError	-2549
LL	-2550
Wl	-2551
rt	-2552
—”	-2553
del	-2554
ian	-2555
lot	-2556
ork	-2557
ray	-2558
▁fd	-2559
ship	-2560
▁Why	-2561
▁gun	-2562
▁inf	-2563
fully	-2564
▁circ	-2565
▁decl	-2566
▁obser	-2567
▁expect	-2568
▁William	-2569
▁comfort	-2570
▁appeared	-2571
NE	-2572
Base	-2573
OUND	-2574
dden	-2575
send	-2576
usic	-2577
▁ele	-2578
level	-2579
ultip	-2580
▁$2}'	-2581
atever	-2582
lineno	-2583
▁above	-2584
▁exist	-2585
▁hours	-2586
actions	-2587
▁longer	-2588
▁saying	-2589
handshake	-2590
connection	-2591
▁certainly	-2592
ID	-2593
PY	-2594
ye	-2595
=1;	-2596
ALL	-2597
GET	-2598
▁Al	-2599
orth	-2600
▁den	-2601
▁dev	-2602
▁fet	-2603
▁mem	-2604
▁mur	-2605
▁sit	-2606
▁swe	-2607
gener	-2608
vered	-2609
▁cpio	-2610
losing	-2611
▁sight	-2612
▁trace	-2613
▁sudden	-2614
precated	-2615
▁evening	-2616
▁finally	-2617
▁continued	-2618
.8	-2619
\*	-2620
avi	-2621
gnu	-2622
▁'$	-2623
▁+7	-2624
▁20	-2625
▁sn	-2626
itle	-2627
oder	-2628
▁doc	-2629
▁lin	-2630
board	-2631
inary	-2632
▁block	-2633
▁small	-2634
support	-2635
▁notice	-2636
▁Gardiner	-2637
gs	-2638
pm	-2639
▁'_	-2640
▁\!	-2641
cell	-2642
▁cot	-2643
▁{}.	-2644
domain	-2645
▁ought	-2646
▁spoke	-2647
modules	-2648
▁Return	-2649
▁thread	-2650
▁attention	-2651
br	-2652
ks	-2653
14-	-2654
bit	-2655
ios	-2656
ney	-2657
win	-2658
▁12	-2659
▁IN	-2660
exit	-2661
ford	-2662
lent	-2663
prog	-2664
▁air	-2665
▁ten	-2666
▁10**	-2667
▁desp	-2668
▁imag	-2669
▁live	-2670
▁ping	-2671
object	-2672
cpython	-2673
▁inform	-2674
▁nobody	-2675
▁opcode	-2676
▁process	-2677
▁timeout	-2678
▁rounding	-2679
microsecond	-2680
OP	-2681
dis	-2682
fil	-2683
pec	-2684
ates	-2685
▁lik	-2686
▁body	-2687
▁bool	-2688
▁fear	-2689
▁girl	-2690
▁begin	-2691
▁names	-2692
execdir	-2693
▁expected	-2694
AB	-2695
Th	-2696
da	-2697
[[:	-2698
▁1:	-2699
▁XX	-2700
cket	-2701
▁+10	-2702
▁nat	-2703
lotte	-2704
mktemp	-2705
screen	-2706
selves	-2707
▁favour	-2708
▁raised	-2709
▁anybody	-2710
▁returns	-2711
▁continue	-2712
▁Charlotte	-2713
▁understand	-2714
db	-2715
ob	-2716
eff	-2717
▁SS	-2718
▁em	-2719
licy	-2720
▁-60	-2721
▁lad	-2722
▁cous	-2723
▁frame	-2724
▁separ	-2725
▁behind	-2726
▁exactly	-2727
▁feeling	-2728
Transport	-2729
▁business	-2730
▁conversation	-2731
sem	-2732
▁""	-2733
ides	-2734
iful	-2735
oded	-2736
▁Luc	-2737
bourn	-2738
ctime	-2739
ities	-2740
itten	-2741
swith	-2742
digits	-2743
▁comes	-2744
newermt	-2745
running	-2746
▁accept	-2747
▁instead	-2748
▁children	-2749
▁datetime	-2750
protection	-2751
▁Longbourn	-2752
▁timedelta	-2753
PA	-2754
Un	-2755
ZE	-2756
fs	-2757
awk	-2758
orn	-2759
▁0)	-2760
▁An	-2761
▁By	-2762
USER	-2763
fold	-2764
ners	-2765
▁tmp	-2766
place	-2767
shire	-2768
▁ment	-2769
aining	-2770
except	-2771
lector	-2772
▁sense	-2773
▁sever	-2774
▁ladies	-2775
▁minutes	-2776
▁talking	-2777
cancelled	-2778
▁exponent	-2779
)'	-2780
/,	-2781
={	-2782
irt	-2783
mnt	-2784
coro	-2785
vars	-2786
void	-2787
▁fur	-2788
asion	-2789
chars	-2790
ighty	-2791
ledge	-2792
tring	-2793
types	-2794
▁+100	-2795
▁laug	-2796
▁lost	-2797
▁equal	-2798
▁tried	-2799
▁logger	-2800
▁convert	-2801
▁getattr	-2802
▁objects	-2803
▁coroutine	-2804
"$	-2805
az	-2806
mv	-2807
For	-2808
ITH	-2809
LIN	-2810
amb	-2811
bak	-2812
usb	-2813
alle	-2814
gers	-2815
xdev	-2816
antly	-2817
apter	-2818
imple	-2819
split	-2820
▁bzip	-2821
▁orig	-2822
▁zero	-2823
86_64-	-2824
▁shopt	-2825
▁became	-2826
▁provid	-2827
▁entered	-2828
▁mention	-2829
▁respect	-2830
▁particular	-2831
BA	-2832
kg	-2833
TER	-2834
bed	-2835
9999	-2836
LOAD	-2837
auto	-2838
fast	-2839
▁bed	-2840
tasks	-2841
▁deep	-2842
▁fall	-2843
▁fast	-2844
▁meet	-2845
▁opin	-2846
enance	-2847
icient	-2848
▁Lizzy	-2849
▁rmdir	-2850
▁itself	-2851
▁Chapter	-2852
▁success	-2853
▁subclass	-2854
oe	-2855
/\.	-2856
div	-2857
▁):	-2858
soon	-2859
▁why	-2860
ingly	-2861
▁Some	-2862
▁calc	-2863
▁coro	-2864
▁repe	-2865
lected	-2866
output	-2867
stderr	-2868
thread	-2869
▁range	-2870
address	-2871
▁become	-2872
▁regard	-2873
▁methods	-2874
▁sisters	-2875
0"	-2876
SH	-2877
Dir	-2878
▁+5	-2879
▁ph	-2880
inum	-2881
▁NaN	-2882
▁ago	-2883
▁obj	-2884
▁res	-2885
ently	-2886
ernal	-2887
▁Base	-2888
▁kept	-2889
▁suff	-2890
▁quick	-2891
▁woods	-2892
▁several	-2893
▁required	-2894
▁gentleman	-2895
(1	-2896
EG	-2897
IS	-2898
ia	-2899
ley	-2900
rel	-2901
way	-2902
▁-=	-2903
▁FI	-2904
come	-2905
hook	-2906
▁rec	-2907
▁cott	-2908
▁foot	-2909
▁inqu	-2910
ressed	-2911
system	-2912
▁doubt	-2913
▁touch	-2914
▁knowed	-2915
▁parser	-2916
▁marriage	-2917
KE	-2918
eor	-2919
fno	-2920
pop	-2921
ssh	-2922
▁("	-2923
pose	-2924
▁bad	-2925
▁cap	-2926
CTION	-2927
match	-2928
minal	-2929
▁King	-2930
▁easy	-2931
▁rece	-2932
▁seem	-2933
▁thus	-2934
parent	-2935
rontab	-2936
▁begun	-2937
▁eager	-2938
▁produ	-2939
▁taken	-2940
ibility	-2941
▁Future	-2942
▁escape	-2943
▁within	-2944
subclass	-2945
▁newline	-2946
▁raiseit	-2947
▁perfectly	-2948
destination	-2949
IL	-2950
\}	-2951
lt	-2952
mn	-2953
NaN	-2954
png	-2955
▁".	-2956
▁OF	-2957
PATH	-2958
inte	-2959
mark	-2960
oura	-2961
▁anx	-2962
-314-	-2963
arest	-2964
oured	-2965
▁lady	-2966
▁behavi	-2967
▁nature	-2968
▁prefix	-2969
property	-2970
▁console	-2971
▁general	-2972
▁necessary	-2973
▁operation	-2974
02	-2975
He	-2976
][	-2977
cap	-2978
env	-2979
inc	-2980
son	-2981
yer	-2982
▁-3	-2983
$//'	-2984
mode	-2985
oved	-2986
▁abs	-2987
▁hon	-2988
▁sun	-2989
▁und	-2990
whole	-2991
▁Huck	-2992
▁expl	-2993
▁hadn	-2994
▁laid	-2995
▁seek	-2996
▁serv	-2997
▁posit	-2998
compare	-2999
console	-3000
pending	-3001
writing	-3002
▁matter	-3003
Infinity	-3004
argument	-3005
▁otherwise	-3006
▁countenance	-3007
▁implementation	-3008
ns	-3009
Bar	-3010
ITE	-3011
got	-3012
▁To	-3013
▁“_	-3014
flto	-3015
▁SSL	-3016
▁ang	-3017
▁fan	-3018
inder	-3019
table	-3020
where	-3021
▁cold	-3022
▁fire	-3023
▁five	-3024
▁mist	-3025
opcode	-3026
▁fixed	-3027
▁human	-3028
▁persu	-3029
include	-3030
▁circum	-3031
▁cousin	-3032
▁walked	-3033
▁wished	-3034
abstract	-3035
▁optional	-3036
exceptions	-3037
▁miserable	-3038
++	-3039
CL	-3040
Do	-3041
go	-3042
CHA	-3043
abs	-3044
grp	-3045
opy	-3046
}")	-3047
Loop	-3048
char	-3049
func	-3050
ging	-3051
▁777	-3052
▁civ	-3053
▁lab	-3054
▁Just	-3055
▁deal	-3056
▁After	-3057
▁avoid	-3058
▁incre	-3059
project	-3060
retched	-3061
▁create	-3062
▁ignore	-3063
▁memory	-3064
▁mighty	-3065
▁months	-3066
▁myfile	-3067
▁seeing	-3068
▁brought	-3069
▁spirits	-3070
▁determin	-3071
▁warnings	-3072
cf	-3073
cv	-3074
}:	-3075
"):	-3076
PUT	-3077
SHA	-3078
met	-3079
▁")	-3080
▁ed	-3081
(1);	-3082
inet	-3083
lish	-3084
▁'\\	-3085
▁ben	-3086
▁yum	-3087
ether	-3088
stree	-3089
▁Geor	-3090
▁able	-3091
▁zcat	-3092
normal	-3093
▁Queen	-3094
▁build	-3095
▁compl	-3096
▁marry	-3097
▁ready	-3098
▁types	-3099
closing	-3100
itation	-3101
▁errors	-3102
▁ground	-3103
▁listen	-3104
▁version	-3105
▁occasion	-3106
▁information	-3107
-%	-3108
88	-3109
BO	-3110
▁^	-3111
('2	-3112
iff	-3113
pkg	-3114
▁"^	-3115
▁'1	-3116
That	-3117
▁Tur	-3118
▁pri	-3119
illed	-3120
▁hast	-3121
[0-9]*	-3122
global	-3123
▁annot	-3124
▁effect	-3125
▁natural	-3126
▁opinion	-3127
▁possess	-3128
▁precision	-3129
RA	-3130
af	-3131
cd	-3132
Not	-3133
PRE	-3134
box	-3135
oss	-3136
▁',	-3137
....	-3138
atal	-3139
itty	-3140
▁"./	-3141
▁200	-3142
▁row	-3143
▁six	-3144
apped	-3145
ifier	-3146
▁jour	-3147
▁pain	-3148
▁stri	-3149
[0-9]+	-3150
arning	-3151
backup	-3152
remote	-3153
▁agree	-3154
▁chgrp	-3155
▁known	-3156
LDFLAGS	-3157
lection	-3158
▁Nether	-3159
▁opened	-3160
▁printf	-3161
▁Netherfield	-3162
89	-3163
Sh	-3164
ATI	-3165
▁",	-3166
lict	-3167
open	-3168
▁Eng	-3169
▁ins	-3170
▁joy	-3171
exact	-3172
limit	-3173
stdin	-3174
▁heav	-3175
▁main	-3176
▁view	-3177
indent	-3178
triple	-3179
▁doesn	-3180
▁white	-3181
mission	-3182
▁struck	-3183
▁hasattr	-3184
▁followed	-3185
▁circumstance	-3186
"`	-3187
:'	-3188
NO	-3189
dc	-3190
gh	-3191
1/'	-3192
[1]	-3193
gle	-3194
obj	-3195
sor	-3196
ury	-3197
{1,	-3198
aced	-3199
hour	-3200
ntax	-3201
onel	-3202
▁err	-3203
ering	-3204
iddle	-3205
iling	-3206
ondon	-3207
share	-3208
▁land	-3209
▁none	-3210
▁prob	-3211
public	-3212
stdout	-3213
though	-3214
▁Lucas	-3215
▁aston	-3216
▁girls	-3217
▁party	-3218
▁London	-3219
▁chance	-3220
▁attempt	-3221
▁strings	-3222
▁written	-3223
wholename	-3224
2"	-3225
PW	-3226
UM	-3227
cb	-3228
sa	-3229
tp	-3230
(0,	-3231
How	-3232
cmp	-3233
▁+%	-3234
osed	-3235
vail	-3236
week	-3237
zone	-3238
▁sum	-3239
itude	-3240
strip	-3241
▁File	-3242
▁arch	-3243
▁wife	-3244
signal	-3245
tribut	-3246
▁Kitty	-3247
▁cause	-3248
▁false	-3249
▁neigh	-3250
▁stood	-3251
▁descri	-3252
▁folder	-3253
▁misery	-3254
▁talked	-3255
received	-3256
▁getting	-3257
▁keyword	-3258
▁suppose	-3259
▁resolved	-3260
3}	-3261
();	-3262
256	-3263
ARD	-3264
lig	-3265
Exit	-3266
aged	-3267
avar	-3268
bout	-3269
hash	-3270
late	-3271
outh	-3272
rely	-3273
uled	-3274
▁hold	-3275
▁port	-3276
▁summ	-3277
String	-3278
▁smile	-3279
awaited	-3280
▁compan	-3281
▁single	-3282
▁manners	-3283
▁started	-3284
abstractmethod	-3285
15	-3286
UE	-3287
["	-3288
bz	-3289
▁q	-3290
)):	-3291
.*'	-3292
/*"	-3293
ULT	-3294
ecs	-3295
rol	-3296
she	-3297
▁Wh	-3298
Type	-3299
aves	-3300
▁mad	-3301
▁step	-3302
▁stre	-3303
paused	-3304
tzinfo	-3305
▁doing	-3306
▁dread	-3307
mainder	-3308
▁likely	-3309
▁pstree	-3310
encoding	-3311
▁Colonel	-3312
▁crontab	-3313
▁globals	-3314
▁married	-3315
▁seconds	-3316
subdomain	-3317
▁thoughts	-3318
▁cancelled	-3319
▁satisfied	-3320
_.	-3321
ew	-3322
wm	-3323
joy	-3324
yed	-3325
▁De	-3326
▁Oh	-3327
SIZE	-3328
cend	-3329
ises	-3330
play	-3331
▁wid	-3332
dered	-3333
light	-3334
lower	-3335
▁assu	-3336
▁exit	-3337
▁fail	-3338
idered	-3339
indows	-3340
▁clear	-3341
▁quiet	-3342
▁stack	-3343
▁former	-3344
▁parent	-3345
▁question	-3346
▁reckoned	-3347
▁remember	-3348
▁considered	-3349
cu	-3350
sk	-3351
arc	-3352
csv	-3353
ird	-3354
tom	-3355
▁'(	-3356
▁cy	-3357
▁fi	-3358
main	-3359
nest	-3360
room	-3361
▁ali	-3362
▁lot	-3363
().__	-3364
ading	-3365
water	-3366
▁miss	-3367
Future	-3368
events	-3369
gument	-3370
▁Every	-3371
▁below	-3372
▁oblig	-3373
▁trans	-3374
▁across	-3375
▁honour	-3376
▁lineno	-3377
▁window	-3378
▁connect	-3379
▁example	-3380
▁happened	-3381
▁breakfast	-3382
▁following	-3383
▁appearance	-3384
"]	-3385
13	-3386
44	-3387
90	-3388
If	-3389
UR	-3390
...	-3391
ORD	-3392
ils	-3393
▁":	-3394
▁()	-3395
ATTR	-3396
oint	-3397
▁+30	-3398
▁Now	-3399
ainer	-3400
ember	-3401
fraid	-3402
frame	-3403
night	-3404
ution	-3405
▁fing	-3406
▁husb	-3407
▁sick	-3408
▁situ	-3409
▁makes	-3410
▁maybe	-3411
▁occur	-3412
▁recol	-3413
ossible	-3414
▁depend	-3415
▁remove	-3416
________	-3417
cheduled	-3418
▁husband	-3419
▁journey	-3420
▁directly	-3421
▁whatever	-3422
▁beautiful	-3423
▁acquaintance	-3424
InvalidOperation	-3425
/(	-3426
/{	-3427
}{	-3428
OUT	-3429
gen	-3430
hel	-3431
nal	-3432
hood	-3433
pass	-3434
tled	-3435
unic	-3436
▁CON	-3437
▁hid	-3438
never	-3439
slots	-3440
▁Your	-3441
▁free	-3442
▁mark	-3443
Reader	-3444
ically	-3445
import	-3446
▁sorry	-3447
Console	-3448
Returns	-3449
nonlocal	-3450
▁decimal	-3451
▁forward	-3452
▁options	-3453
▁original	-3454
▁behaviour	-3455
▁namespace	-3456
▁neighbour	-3457
3"	-3458
PS	-3459
//'	-3460
Col	-3461
sec	-3462
uni	-3463
▁'[	-3464
▁Un	-3465
▁ev	-3466
cing	-3467
iler	-3468
pack	-3469
when	-3470
ying	-3471
▁dey	-3472
▁eye	-3473
▁fra	-3474
▁pow	-3475
awyer	-3476
digit	-3477
▁bank	-3478
▁doll	-3479
▁shut	-3480
elling	-3481
iously	-3482
itting	-3483
▁black	-3484
▁chars	-3485
▁enjoy	-3486
▁tears	-3487
▁multip	-3488
▁strong	-3489
--------	-3490
▁greater	-3491
startswith	-3492
'|	-3493
-2	-3494
TY	-3495
rn	-3496
▁'+	-3497
▁pa	-3498
10**	-3499
="$(	-3500
LDER	-3501
aded	-3502
ided	-3503
kens	-3504
▁gri	-3505
▁sir	-3506
▁wis	-3507
▁wit	-3508
aring	-3509
clear	-3510
oogle	-3511
pping	-3512
▁cond	-3513
▁dare	-3514
▁grat	-3515
▁jump	-3516
▁prep	-3517
▁stop	-3518
update	-3519
▁conce	-3520
▁learn	-3521
▁order	-3522
▁scene	-3523
invalid	-3524
keyword	-3525
▁afraid	-3526
▁making	-3527
▁created	-3528
▁prevent	-3529
▁reading	-3530
coroutine	-3531
supported	-3532
▁believed	-3533
▁creature	-3534
▁provided	-3535
▁specified	-3536
================	-3537
=3	-3538
IX	-3539
=0,	-3540
Hel	-3541
PWD	-3542
SET	-3543
cpp	-3544
how	-3545
▁$5	-3546
▁ce	-3547
▁er	-3548
days	-3549
into	-3550
iron	-3551
long	-3552
mend	-3553
what	-3554
▁One	-3555
▁THE	-3556
▁deg	-3557
▁equ	-3558
▁iter	-3559
▁slow	-3560
▁early	-3561
▁token	-3562
▁python	-3563
opyright	-3564
▁calling	-3565
▁complet	-3566
▁thinking	-3567
precedence	-3568
▁BaseException	-3569
DO	-3570
IP	-3571
]]	-3572
sr	-3573
})	-3574
("%	-3575
cmd	-3576
▁+3	-3577
▁\\	-3578
('-1	-3579
CALL	-3580
[0];	-3581
angu	-3582
▁dri	-3583
▁mon	-3584
ising	-3585
▁Cler	-3586
▁draw	-3587
▁excl	-3588
▁fine	-3589
▁late	-3590
▁mine	-3591
▁pict	-3592
▁tone	-3593
▁whis	-3594
[0]=1;	-3595
apping	-3596
insert	-3597
justed	-3598
lapped	-3599
▁dance	-3600
▁George	-3601
▁common	-3602
▁destro	-3603
▁disapp	-3604
▁indent	-3605
▁script	-3606
negative	-3607
EventLoop	-3608
▁surprised	-3609
.’	-3610
SU	-3611
`"	-3612
yn	-3613
yp	-3614
Pre	-3615
Sub	-3616
amed	-3617
ards	-3618
bers	-3619
last	-3620
rier	-3621
▁Let	-3622
▁dan	-3623
▁est	-3624
▁tac	-3625
▁www	-3626
▁fair	-3627
▁prog	-3628
anging	-3629
locked	-3630
▁float	-3631
▁shore	-3632
uffered	-3633
▁Turtle	-3634
▁advant	-3635
▁cursor	-3636
▁entire	-3637
▁middle	-3638
▁nearly	-3639
username	-3640
▁Clerval	-3641
▁neither	-3642
▁silence	-3643
▁category	-3644
▁negative	-3645
▁positive	-3646
▁endeavour	-3647
▁collections	-3648
$"	-3649
(?	-3650
,%	-3651
ET	-3652
Re	-3653
To	-3654
``	-3655
cr	-3656
▁,	-3657
-1)	-3658
1",	-3659
=*.	-3660
▁//	-3661
▁AB	-3662
alth	-3663
atio	-3664
iced	-3665
▁"__	-3666
▁Res	-3667
▁fif	-3668
▁wat	-3669
aster	-3670
ially	-3671
▁FILE	-3672
▁gard	-3673
▁plan	-3674
▁reco	-3675
Werror	-3676
accept	-3677
arcely	-3678
family	-3679
ourage	-3680
values	-3681
▁color	-3682
▁corre	-3683
▁ignor	-3684
▁impro	-3685
▁sweet	-3686
▁divmod	-3687
▁silent	-3688
▁system	-3689
▁trying	-3690
complete	-3691
tributes	-3692
▁concern	-3693
▁waiting	-3694
Interrupt	-3695
▁complete	-3696
▁kindness	-3697
▁remained	-3698
▁expressed	-3699
▁knowledge	-3700
▁afterwards	-3701
▁determined	-3702
▁themselves	-3703
"|	-3704
-8	-3705
/%	-3706
FF	-3707
WA	-3708
]+	-3709
pi	-3710
('3	-3711
▁<<	-3712
amin	-3713
cent	-3714
gest	-3715
show	-3716
▁boy	-3717
▁eat	-3718
▁opp	-3719
▁pat	-3720
▁son	-3721
build	-3722
lying	-3723
urity	-3724
▁Mery	-3725
▁Mock	-3726
▁hund	-3727
▁repr	-3728
Handle	-3729
common	-3730
extend	-3731
trials	-3732
▁avail	-3733
▁fetch	-3734
▁inner	-3735
▁throw	-3736
▁title	-3737
futures	-3738
▁beauty	-3739
▁dinner	-3740
▁needed	-3741
▁public	-3742
▁remark	-3743
▁Meryton	-3744
▁actions	-3745
▁compute	-3746
▁futures	-3747
▁pleased	-3748
▁settled	-3749
▁impossible	-3750
boardInterrupt	-3751
AS	-3752
ci	-3753
},	-3754
ech	-3755
flo	-3756
iny	-3757
ony	-3758
▁"-	-3759
▁-5	-3760
▁xc	-3761
.8.8	-3762
cmin	-3763
phon	-3764
▁../	-3765
▁emp	-3766
▁mot	-3767
▁pap	-3768
▁sea	-3769
aving	-3770
ively	-3771
mount	-3772
ustom	-3773
▁prof	-3774
▁sole	-3775
CFLAGS	-3776
STRING	-3777
active	-3778
codecs	-3779
▁'\\',	-3780
▁dream	-3781
▁intro	-3782
▁lived	-3783
▁nargs	-3784
seconds	-3785
▁compar	-3786
▁horror	-3787
▁prompt	-3788
????????	-3789
▁proceed	-3790
ystemExit	-3791
▁readlink	-3792
▁scarcely	-3793
▁somebody	-3794
▁surprise	-3795
${	-3796
=0	-3797
EL	-3798
We	-3799
ev	-3800
ts	-3801
cut	-3802
ief	-3803
may	-3804
▁``	-3805
.0.0	-3806
READ	-3807
This	-3808
anch	-3809
fill	-3810
ives	-3811
move	-3812
ries	-3813
rown	-3814
seek	-3815
work	-3816
▁2>&	-3817
▁Gry	-3818
▁Int	-3819
▁See	-3820
▁Set	-3821
▁XXX	-3822
▁vio	-3823
ATION	-3824
abbit	-3825
eness	-3826
flush	-3827
orrow	-3828
usion	-3829
▁ANSI	-3830
▁soft	-3831
fortun	-3832
isible	-3833
locale	-3834
▁These	-3835
▁conse	-3836
▁parse	-3837
▁truth	-3838
▁Hatter	-3839
▁Pember	-3840
▁desire	-3841
▁fellow	-3842
▁tzinfo	-3843
▁Gryphon	-3844
▁engaged	-3845
Precedence	-3846
▁Pemberley	-3847
▁difference	-3848
ProtocolState	-3849
"{	-3850
$1	-3851
ED	-3852
LC	-3853
ov	-3854
.14	-3855
ips	-3856
itz	-3857
was	-3858
▁-7	-3859
▁Du	-3860
Iter	-3861
teen	-3862
▁sou	-3863
ambda	-3864
▁Task	-3865
▁With	-3866
▁ball	-3867
▁hair	-3868
▁padd	-3869
▁quar	-3870
▁reli	-3871
▁wild	-3872
Action	-3873
atform	-3874
coming	-3875
▁canoe	-3876
▁offic	-3877
▁usual	-3878
Warning	-3879
asyncio	-3880
▁accomp	-3881
▁depart	-3882
▁interr	-3883
▁judged	-3884
▁suffer	-3885
ancelled	-3886
expected	-3887
▁purpose	-3888
▁writing	-3889
▁agreeable	-3890
▁expression	-3891
tributeError	-3892
▁microsecond	-3893
ancelledError	-3894
4,	-3895
80	-3896
RI	-3897
/\(	-3898
ARY	-3899
SYS	-3900
Set	-3901
rwx	-3902
uli	-3903
▁*/	-3904
▁||	-3905
Mode	-3906
cher	-3907
duct	-3908
ites	-3909
need	-3910
recv	-3911
▁EOF	-3912
▁dra	-3913
▁soc	-3914
FAULT	-3915
__.__	-3916
erver	-3917
iving	-3918
reset	-3919
▁clot	-3920
▁died	-3921
▁road	-3922
▁tale	-3923
▁langu	-3924
▁parts	-3925
▁piece	-3926
▁pride	-3927
▁trees	-3928
▁usage	-3929
▁worth	-3930
warning	-3931
▁forgot	-3932
▁garden	-3933
▁spirit	-3934
▁Justine	-3935
▁dollars	-3936
▁fortune	-3937
){	-3938
3'	-3939
75	-3940
\/	-3941
jk	-3942
ze	-3943
CUR	-3944
Key	-3945
[.]	-3946
Call	-3947
orig	-3948
rowd	-3949
view	-3950
will	-3951
▁'__	-3952
▁-10	-3953
▁aut	-3954
▁wra	-3955
▁~/.	-3956
*10**	-3957
cking	-3958
known	-3959
param	-3960
range	-3961
▁hain	-3962
▁luck	-3963
▁stud	-3964
▁warm	-3965
▁crowd	-3966
▁delay	-3967
▁level	-3968
▁stdin	-3969
decimal	-3970
▁finger	-3971
▁forget	-3972
▁kwargs	-3973
▁unless	-3974
rounding	-3975
▁changed	-3976
▁despair	-3977
▁hundred	-3978
▁meaning	-3979
▁stopped	-3980
▁strange	-3981
▁although	-3982
▁document	-3983
▁repeated	-3984
▁directory	-3985
▁instantly	-3986
▁characters	-3987
▁disappoint	-3988
microseconds	-3989
32	-3990
6,	-3991
9,	-3992
OT	-3993
/*/	-3994
mux	-3995
▁";	-3996
▁1.	-3997
▁UT	-3998
/*/*	-3999
WITH	-4000
[-1]	-4001
bash	-4002
keys	-4003
vely	-4004
wrap	-4005
▁"*"	-4006
▁'/^	-4007
▁ABC	-4008
▁Ros	-4009
▁lib	-4010
▁mag	-4011
▁une	-4012
built	-4013
ident	-4014
inced	-4015
istry	-4016
▁".*"	-4017
▁func	-4018
▁push	-4019
parser	-4020
tokens	-4021
▁pause	-4022
▁plain	-4023
▁queue	-4024
IOError	-4025
waiters	-4026
▁choice	-4027
▁diffic	-4028
▁gunzip	-4029
▁happen	-4030
▁remote	-4031
▁target	-4032
function	-4033
▁cottage	-4034
▁introdu	-4035
▁special	-4036
something	-4037
▁astonish	-4038
▁entirely	-4039
▁explicit	-4040
▁handsome	-4041
▁suddenly	-4042
▁wretched	-4043
▁daughters	-4044
▁reference	-4045
▁separator	-4046
▁situation	-4047
.3	-4048
CS	-4049
GR	-4050
")"	-4051
inf	-4052
iod	-4053
peg	-4054
ram	-4055
unc	-4056
▁"`	-4057
▁$3	-4058
▁19	-4059
elix	-4060
eter	-4061
omen	-4062
toff	-4063
▁Sir	-4064
▁typ	-4065
block	-4066
parts	-4067
▁2>&1	-4068
▁byte	-4069
▁loss	-4070
▁pack	-4071
▁prot	-4072
▁susp	-4073
▁term	-4074
▁admir	-4075
▁blame	-4076
▁built	-4077
▁calls	-4078
▁occup	-4079
▁peace	-4080
decoded	-4081
generic	-4082
reatest	-4083
▁island	-4084
▁amiable	-4085
▁further	-4086
▁defaults	-4087
▁greatest	-4088
▁listened	-4089
▁advantage	-4090
▁companion	-4091
▁getcontext	-4092
lockingIOError	-4093
>'	-4094
Co	-4095
[2	-4096
\"	-4097
\+	-4098
wp	-4099
▁–	-4100
ORT	-4101
PID	-4102
ior	-4103
lab	-4104
▁RE	-4105
▁ir	-4106
docs	-4107
mine	-4108
ming	-4109
roll	-4110
yond	-4111
▁hop	-4112
▁src	-4113
allel	-4114
array	-4115
going	-4116
uname	-4117
▁Note	-4118
▁proc	-4119
▁skip	-4120
fields	-4121
▁Event	-4122
▁absol	-4123
▁coeff	-4124
▁enter	-4125
▁hurry	-4126
▁posix	-4127
▁widow	-4128
▁women	-4129
logical	-4130
pportun	-4131
section	-4132
serving	-4133
▁attach	-4134
▁broken	-4135
▁compat	-4136
▁master	-4137
▁stderr	-4138
▁taking	-4139
datetime	-4140
▁Rosings	-4141
▁earnest	-4142
▁hostname	-4143
▁observed	-4144
▁opportun	-4145
▁convinced	-4146
▁considerable	-4147
)]	-4148
+1	-4149
5,	-4150
7,	-4151
DA	-4152
▁9	-4153
BEG	-4154
SSL	-4155
mon	-4156
ogg	-4157
rer	-4158
seq	-4159
zen	-4160
▁Be	-4161
▁dt	-4162
.*\)	-4163
Pipe	-4164
SION	-4165
eval	-4166
fail	-4167
http	-4168
ones	-4169
urch	-4170
urst	-4171
zero	-4172
────	-4173
▁bes	-4174
ounds	-4175
shift	-4176
trans	-4177
▁Read	-4178
▁hung	-4179
▁symp	-4180
Colors	-4181
formed	-4182
number	-4183
▁bring	-4184
▁clean	-4185
▁cross	-4186
▁debug	-4187
▁meant	-4188
▁pursu	-4189
▁spent	-4190
isearch	-4191
outines	-4192
▁Sawyer	-4193
▁danger	-4194
▁degree	-4195
▁easily	-4196
▁failed	-4197
▁places	-4198
▁report	-4199
annotate	-4200
commands	-4201
infinity	-4202
lication	-4203
▁clothes	-4204
▁handler	-4205
▁removed	-4206
▁various	-4207
▁parallel	-4208
▁stranger	-4209
▁gentlemen	-4210
▁AttributeError	-4211
!_	-4212
OM	-4213
Se	-4214
WN	-4215
ha	-4216
oc	-4217
tx	-4218
wy	-4219
AGE	-4220
LOG	-4221
She	-4222
res	-4223
▁-9	-4224
▁24	-4225
ARCH	-4226
Cont	-4227
reme	-4228
resh	-4229
same	-4230
term	-4231
uish	-4232
wyne	-4233
▁'--	-4234
▁Yet	-4235
▁ice	-4236
▁unh	-4237
BEGIN	-4238
ffile	-4239
wered	-4240
▁fool	-4241
▁goes	-4242
▁safe	-4243
ctools	-4244
forward	-4245
▁Rabbit	-4246
▁exceed	-4247
▁groups	-4248
▁height	-4249
▁slight	-4250
▁waited	-4251
daystart	-4252
▁amongst	-4253
▁conduct	-4254
▁extreme	-4255
▁Argument	-4256
▁abstract	-4257
▁carriage	-4258
subprocess	-4259
classmethod	-4260
16	-4261
MM	-4262
OL	-4263
QU	-4264
xc	-4265
("\	-4266
BIN	-4267
Def	-4268
LOC	-4269
[^/	-4270
ets	-4271
gex	-4272
ics	-4273
rif	-4274
udi	-4275
uid	-4276
▁Sh	-4277
▁dr	-4278
▁ov	-4279
MAGE	-4280
THON	-4281
enty	-4282
▁"$@	-4283
▁cmd	-4284
▁die	-4285
const	-4286
▁'.*'	-4287
▁-100	-4288
▁boat	-4289
▁disc	-4290
▁flag	-4291
▁hide	-4292
▁http	-4293
▁inno	-4294
▁news	-4295
▁past	-4296
▁sing	-4297
▁vill	-4298
▁weak	-4299
apache	-4300
iregex	-4301
ounded	-4302
writer	-4303
▁fancy	-4304
▁hopes	-4305
▁owner	-4306
▁paper	-4307
Include	-4308
▁anyway	-4309
▁assure	-4310
▁beyond	-4311
▁bitter	-4312
▁design	-4313
▁inquir	-4314
▁latter	-4315
▁proper	-4316
▁stdout	-4317
blocking	-4318
internal	-4319
location	-4320
security	-4321
▁arrived	-4322
▁answered	-4323
▁acquainted	-4324
▁connections	-4325
*/	-4326
FY	-4327
rx	-4328
/*.	-4329
END	-4330
__.	-4331
alt	-4332
css	-4333
hor	-4334
pan	-4335
ume	-4336
▁\+	-4337
▁bc	-4338
).__	-4339
SOCK	-4340
boat	-4341
imed	-4342
lies	-4343
look	-4344
ware	-4345
▁dut	-4346
▁eth	-4347
▁pid	-4348
▁ran	-4349
▁scp	-4350
mport	-4351
nargs	-4352
stuff	-4353
▁coup	-4354
▁drew	-4355
▁evid	-4356
▁quit	-4357
▁soul	-4358
▁tmux	-4359
Format	-4360
cluded	-4361
minute	-4362
stream	-4363
▁Felix	-4364
▁cycle	-4365
▁frequ	-4366
▁https	-4367
▁liked	-4368
▁proto	-4369
▁seems	-4370
myfiles	-4371
▁accord	-4372
▁health	-4373
▁resume	-4374
▁secret	-4375
adjusted	-4376
▁rawdata	-4377
▁receive	-4378
▁society	-4379
▁beginning	-4380
▁subprocess	-4381
################	-4382
''	-4383
(*	-4384
."	-4385
Py	-4386
UU	-4387
Wp	-4388
].	-4389
gi	-4390
vm	-4391
(",	-4392
/..	-4393
86-	-4394
999	-4395
>",	-4396
Des	-4397
INT	-4398
RED	-4399
TED	-4400
fcf	-4401
ien	-4402
plt	-4403
▁2,	-4404
▁Ag	-4405
▁IO	-4406
▁NR	-4407
DEPS	-4408
TIFY	-4409
acle	-4410
ibly	-4411
requ	-4412
ring	-4413
unix	-4414
▁-23	-4415
▁Don	-4416
▁hat	-4417
▁mix	-4418
▁pwd	-4419
abled	-4420
clash	-4421
float	-4422
march	-4423
mtune	-4424
theme	-4425
usted	-4426
yntax	-4427
▁eval	-4428
▁fact	-4429
▁pars	-4430
▁stra	-4431
▁ways	-4432
86-64-	-4433
errors	-4434
ffered	-4435
fstack	-4436
idence	-4437
iosity	-4438
▁earth	-4439
▁loved	-4440
▁speed	-4441
▁store	-4442
▁thank	-4443
▁toler	-4444
▁wrote	-4445
FORTIFY	-4446
Wformat	-4447
decoder	-4448
gettext	-4449
▁append	-4450
▁binary	-4451
▁engage	-4452
▁finish	-4453
▁giving	-4454
▁merely	-4455
▁termin	-4456
▁decoder	-4457
▁desired	-4458
▁modules	-4459
▁obliged	-4460
▁pattern	-4461
▁reached	-4462
completer	-4463
▁civility	-4464
▁finished	-4465
isinfinity	-4466
fexceptions	-4467
▁ANSIColors	-4468
▁annotations	-4469
.)	-4470
23	-4471
>"	-4472
Bu	-4473
EE	-4474
PL	-4475
fn	-4476
$//	-4477
)))	-4478
Foo	-4479
SES	-4480
\//	-4481
ann	-4482
ims	-4483
oth	-4484
ulo	-4485
▁$4	-4486
▁'0	-4487
▁]*	-4488
▁ma	-4489
Your	-4490
held	-4491
odes	-4492
they	-4493
▁";"	-4494
▁dog	-4495
▁gen	-4496
▁glo	-4497
▁sli	-4498
chess	-4499
ining	-4500
media	-4501
short	-4502
▁bene	-4503
▁enum	-4504
▁grow	-4505
▁priv	-4506
▁trem	-4507
▁uses	-4508
cursor	-4509
keymap	-4510
recurs	-4511
▁March	-4512
▁Their	-4513
▁emplo	-4514
▁judge	-4515
▁mouth	-4516
ability	-4517
aration	-4518
connect	-4519
environ	-4520
▁detail	-4521
▁lovely	-4522
▁showed	-4523
▁Returns	-4524
▁assured	-4525
▁promise	-4526
▁regular	-4527
▁restore	-4528
regextype	-4529
▁distance	-4530
▁interrupt	-4531
▁threading	-4532
▁compliment	-4533
▁comfortable	-4534
▁opportunity	-4535
▁circumstances	-4536
([	-4537
Ar	-4538
DS	-4539
aa	-4540
sn	-4541
ORE	-4542
sue	-4543
uct	-4544
~",	-4545
▁"<	-4546
▁{'	-4547
.*/\	-4548
cked	-4549
imum	-4550
mail	-4551
mbox	-4552
▁Par	-4553
▁arm	-4554
▁isn	-4555
▁led	-4556
▁loc	-4557
▁mut	-4558
7.0.0	-4559
ators	-4560
ester	-4561
maybe	-4562
redit	-4563
▁Make	-4564
▁auth	-4565
▁dire	-4566
▁incl	-4567
▁virt	-4568
▁floor	-4569
▁twice	-4570
7.0.0.1	-4571
urandom	-4572
▁attend	-4573
▁couple	-4574
▁custom	-4575
▁locale	-4576
▁placed	-4577
▁search	-4578
▁wishes	-4579
▁Duchess	-4580
▁England	-4581
▁install	-4582
▁request	-4583
imization	-4584
struction	-4585
▁Ladyship	-4586
▁discover	-4587
SystemExit	-4588
▁available	-4589
▁curiosity	-4590
▁supported	-4591
'{	-4592
As	-4593
PP	-4594
Po	-4595
:]]	-4596
LIM	-4597
aws	-4598
eta	-4599
vey	-4600
web	-4601
▁*"	-4602
▁16	-4603
▁DI	-4604
('1.	-4605
VENT	-4606
dump	-4607
ills	-4608
kind	-4609
nans	-4610
skip	-4611
tern	-4612
▁-12	-4613
▁blo	-4614
▁bra	-4615
earch	-4616
mydir	-4617
ourgh	-4618
stamp	-4619
▁Hert	-4620
▁arms	-4621
▁rows	-4622
strict	-4623
▁court	-4624
▁excel	-4625
▁front	-4626
▁miles	-4627
▁shift	-4628
▁shook	-4629
▁youth	-4630
coffset	-4631
newline	-4632
objects	-4633
▁Bourgh	-4634
▁joined	-4635
▁occurs	-4636
▁solemn	-4637
▁sorrow	-4638
▁temper	-4639
▁unhapp	-4640
category	-4641
sendfile	-4642
▁arrival	-4643
▁confess	-4644
▁letters	-4645
cellation	-4646
fordshire	-4647
namespace	-4648
▁internal	-4649
▁speaking	-4650
▁whenever	-4651
deprecated	-4652
▁functions	-4653
▁mentioned	-4654
▁returning	-4655
▁discovered	-4656
▁Hertfordshire	-4657
-*	-4658
/2	-4659
]"	-4660
nl	-4661
}.	-4662
/$(	-4663
/{}	-4664
10(	-4665
=""	-4666
MAX	-4667
PRO	-4668
SUB	-4669
ica	-4670
iso	-4671
jar	-4672
lly	-4673
oun	-4674
sep	-4675
{\}	-4676
▁Is	-4677
('10	-4678
ALUE	-4679
Send	-4680
They	-4681
WORD	-4682
arge	-4683
ctxt	-4684
hore	-4685
rank	-4686
rate	-4687
shot	-4688
▁189	-4689
▁Har	-4690
▁Pro	-4691
▁ack	-4692
▁dot	-4693
▁enc	-4694
▁mer	-4695
▁pay	-4696
▁spr	-4697
▁tim	-4698
FTIME	-4699
aimed	-4700
incip	-4701
leave	-4702
ouser	-4703
ously	-4704
power	-4705
rying	-4706
token	-4707
▁"$@"	-4708
▁Buck	-4709
▁Dorm	-4710
▁Iter	-4711
▁bear	-4712
▁exec	-4713
▁fore	-4714
▁keys	-4715
▁moon	-4716
▁pick	-4717
▁rain	-4718
ending	-4719
groups	-4720
policy	-4721
ssages	-4722
▁books	-4723
▁cloud	-4724
▁looks	-4725
▁stats	-4726
▁terms	-4727
▁wrong	-4728
Program	-4729
avoured	-4730
weekday	-4731
▁acknow	-4732
▁afford	-4733
▁assist	-4734
▁killed	-4735
▁simple	-4736
esterday	-4737
warnings	-4738
▁content	-4739
▁feature	-4740
▁related	-4741
▁release	-4742
▁Dormouse	-4743
▁callable	-4744
▁communic	-4745
▁sequence	-4746
▁mountains	-4747
▁admiration	-4748
▁consequence	-4749
'`	-4750
=%	-4751
LF	-4752
100	-4753
200	-4754
asy	-4755
cks	-4756
low	-4757
odo	-4758
▁Sc	-4759
▁TI	-4760
▁\*	-4761
▁]]	-4762
DAYS	-4763
PIPE	-4764
Path	-4765
TEST	-4766
__",	-4767
ctor	-4768
iffe	-4769
ktop	-4770
lass	-4771
lips	-4772
nced	-4773
ynch	-4774
▁$'\	-4775
▁fro	-4776
▁ord	-4777
▁scr	-4778
alent	-4779
ality	-4780
chool	-4781
found	-4782
graph	-4783
lient	-4784
msgid	-4785
ushed	-4786
▁fish	-4787
▁hunt	-4788
▁rich	-4789
▁wand	-4790
FOLDER	-4791
apshot	-4792
counts	-4793
nouser	-4794
versal	-4795
▁ROUND	-4796
▁awful	-4797
▁chief	-4798
▁chunk	-4799
▁gwyne	-4800
▁recom	-4801
▁steam	-4802
VERSION	-4803
complet	-4804
imation	-4805
ription	-4806
▁Stream	-4807
▁credit	-4808
▁formed	-4809
▁living	-4810
▁modulo	-4811
▁please	-4812
▁prison	-4813
▁Forster	-4814
▁invalid	-4815
▁niggers	-4816
▁princip	-4817
▁sympath	-4818
▁walking	-4819
▁actually	-4820
▁comments	-4821
▁officers	-4822
▁pleasant	-4823
▁formatter	-4824
▁deprecated	-4825
-\	-4826
1:	-4827
AX	-4828
lh	-4829
()`	-4830
.")	-4831
App	-4832
GEN	-4833
TRA	-4834
off	-4835
pow	-4836
uce	-4837
}",	-4838
▁'<	-4839
▁30	-4840
▁[_	-4841
▁py	-4842
Emax	-4843
decl	-4844
inst	-4845
made	-4846
oken	-4847
this	-4848
wake	-4849
▁IFS	-4850
▁Per	-4851
▁ann	-4852
▁rid	-4853
('1')	-4854
Gener	-4855
Music	-4856
[^/]*	-4857
alled	-4858
idden	-4859
ports	-4860
posxy	-4861
retch	-4862
▁Sund	-4863
▁feet	-4864
▁hell	-4865
▁lose	-4866
▁move	-4867
▁repl	-4868
filter	-4869
finite	-4870
return	-4871
▁Other	-4872
▁bless	-4873
▁catch	-4874
▁cheer	-4875
▁fiend	-4876
▁impat	-4877
▁msgid	-4878
▁takes	-4879
▁thick	-4880
▁weeks	-4881
▁width	-4882
integer	-4883
ivalent	-4884
▁belong	-4885
▁speech	-4886
▁whence	-4887
▁writer	-4888
Proactor	-4889
finished	-4890
▁dropped	-4891
▁picture	-4892
▁program	-4893
▁require	-4894
▁village	-4895
▁younger	-4896
Copyright	-4897
▁Sometimes	-4898
▁perceived	-4899
▁coroutines	-4900
▁endeavoured	-4901
▁particularly	-4902
"%	-4903
/[	-4904
/`	-4905
1'	-4906
19	-4907
1_	-4908
De	-4909
Hn	-4910
wc	-4911
wo	-4912
};	-4913
(0)	-4914
(1,	-4915
.*"	-4916
mer	-4917
▁(_	-4918
▁],	-4919
▁ug	-4920
Down	-4921
Spec	-4922
card	-4923
core	-4924
enev	-4925
gral	-4926
mint	-4927
more	-4928
step	-4929
▁###	-4930
▁ctx	-4931
▁“*.	-4932
Count	-4933
Store	-4934
There	-4935
first	-4936
ftime	-4937
ggest	-4938
igure	-4939
there	-4940
using	-4941
uther	-4942
▁1000	-4943
▁Call	-4944
▁From	-4945
▁Here	-4946
▁Join	-4947
▁blow	-4948
▁capt	-4949
▁cell	-4950
▁coff	-4951
▁curl	-4952
▁loud	-4953
000000	-4954
Buffer	-4955
ameter	-4956
▁overr	-4957
▁trunc	-4958
Desktop	-4959
compile	-4960
ilities	-4961
metavar	-4962
▁asleep	-4963
▁global	-4964
▁period	-4965
▁transp	-4966
errupted	-4967
terminal	-4968
▁Section	-4969
▁classes	-4970
▁compare	-4971
▁knowing	-4972
▁passing	-4973
▁setting	-4974
▁succeed	-4975
▁Buffered	-4976
▁intended	-4977
▁probably	-4978
▁Exception	-4979
▁connected	-4980
▁possessed	-4981
▁invitation	-4982
▁astonishment	-4983
specialization	-4984
({	-4985
.4	-4986
36	-4987
8,	-4988
PO	-4989
}/	-4990
111	-4991
Get	-4992
One	-4993
ROR	-4994
bra	-4995
hup	-4996
lto	-4997
org	-4998
pha	-4999
uss	-5000
▁"+	-5001
▁2)	-5002
▁Ra	-5003
▁TH	-5004
('12	-5005
RIPT	-5006
abit	-5007
bled	-5008
ilar	-5009
itzw	-5010
oper	-5011
safe	-5012
tree	-5013
ummy	-5014
well	-5015
▁'\.	-5016
▁Phi	-5017
▁UTC	-5018
▁ard	-5019
▁cab	-5020
▁sha	-5021
▁sty	-5022
▁van	-5023
▁zip	-5024
('0')	-5025
agram	-5026
binop	-5027
dirty	-5028
egrep	-5029
eneva	-5030
itial	-5031
label	-5032
osing	-5033
point	-5034
quant	-5035
ulate	-5036
▁1894	-5037
▁Hare	-5038
▁\{\}	-5039
▁evil	-5040
▁libr	-5041
▁mort	-5042
▁rose	-5043
BINARY	-5044
XXXXXX	-5045
ecause	-5046
ecmint	-5047
ertion	-5048
header	-5049
params	-5050
▁Allen	-5051
▁Fitzw	-5052
▁Stats	-5053
▁story	-5054
▁trust	-5055
▁utter	-5056
globals	-5057
▁author	-5058
▁google	-5059
▁marked	-5060
▁unable	-5061
incoming	-5062
▁Philips	-5063
▁comment	-5064
▁courage	-5065
▁hearing	-5066
▁indiffe	-5067
▁partial	-5068
▁weekday	-5069
scheduled	-5070
▁addition	-5071
▁compiler	-5072
▁conflict	-5073
▁integers	-5074
▁language	-5075
▁promised	-5076
▁supposed	-5077
▁terminal	-5078
▁variable	-5079
iwholename	-5080
▁favourite	-5081
▁sufficient	-5082
▁Fitzwilliam	-5083
▁disposition	-5084
▁documentation	-5085
▁neighbourhood	-5086
,$	-5087
1\	-5088
2_	-5089
>/	-5090
An	-5091
Gr	-5092
.')	-5093
.]*	-5094
All	-5095
Are	-5096
COD	-5097
HOR	-5098
RAN	-5099
aff	-5100
let	-5101
▁0.	-5102
▁Re	-5103
▁hi	-5104
Info	-5105
Meta	-5106
STRU	-5107
lias	-5108
llib	-5109
runk	-5110
zcat	-5111
▁'0'	-5112
▁+20	-5113
▁-1:	-5114
▁AST	-5115
▁Get	-5116
▁age	-5117
▁aux	-5118
▁inh	-5119
▁sep	-5120
▁wel	-5121
('2.1	-5122
antic	-5123
under	-5124
▁cook	-5125
▁dece	-5126
▁fami	-5127
▁sake	-5128
▁vain	-5129
▁wasn	-5130
aching	-5131
choice	-5132
decode	-5133
helper	-5134
marker	-5135
mitted	-5136
pyrepl	-5137
resume	-5138
urllib	-5139
▁guard	-5140
▁guess	-5141
▁hoped	-5142
▁indic	-5143
▁items	-5144
▁knows	-5145
▁spite	-5146
changed	-5147
▁access	-5148
▁bright	-5149
▁fright	-5150
▁native	-5151
▁select	-5152
defaults	-5153
keywords	-5154
▁absence	-5155
▁besides	-5156
▁company	-5157
▁curious	-5158
▁eagerly	-5159
▁fetched	-5160
▁library	-5161
▁noticed	-5162
▁numbers	-5163
▁profess	-5164
▁timezone	-5165
▁condition	-5166
▁existence	-5167
▁generally	-5168
▁questions	-5169
▁yesterday	-5170
▁sensations	-5171
-6	-5172
66	-5173
68	-5174
70	-5175
Is	-5176
SY	-5177
Us	-5178
XT	-5179
oh	-5180
$/\	-5181
033	-5182
222	-5183
777	-5184
:",	-5185
Now	-5186
ROM	-5187
cjk	-5188
mag	-5189
mov	-5190
phe	-5191
rpm	-5192
▁ip	-5193
._]]	-5194
DOWN	-5195
WARD	-5196
diff	-5197
expr	-5198
hend	-5199
mpeg	-5200
prev	-5201
▁'*'	-5202
▁'+'	-5203
▁775	-5204
▁Hen	-5205
▁Use	-5206
▁Who	-5207
▁bin	-5208
▁fil	-5209
▁hig	-5210
▁lit	-5211
▁neg	-5212
▁pen	-5213
▁sad	-5214
▁sky	-5215
▁sol	-5216
ardon	-5217
fatal	-5218
lence	-5219
ourse	-5220
ptime	-5221
rible	-5222
title	-5223
tract	-5224
▁Stop	-5225
▁calm	-5226
▁cast	-5227
▁enem	-5228
▁harm	-5229
▁mach	-5230
▁rend	-5231
▁sold	-5232
CURSES	-5233
height	-5234
imeout	-5235
rehend	-5236
▁Hurst	-5237
▁broke	-5238
▁consc	-5239
▁deser	-5240
▁laugh	-5241
▁numer	-5242
▁offer	-5243
▁reply	-5244
▁solit	-5245
▁study	-5246
▁wants	-5247
[0-9]*'	-5248
archive	-5249
parents	-5250
▁Sunday	-5251
▁church	-5252
▁fields	-5253
▁highly	-5254
▁leaves	-5255
▁regret	-5256
▁remain	-5257
▁summer	-5258
▁twenty	-5259
builtins	-5260
platform	-5261
▁anxious	-5262
▁consent	-5263
▁perform	-5264
▁section	-5265
▁violent	-5266
cjkcodecs	-5267
ification	-5268
▁attended	-5269
▁creation	-5270
▁dreadful	-5271
▁ignorant	-5272
▁produced	-5273
▁standard	-5274
▁straight	-5275
▁superior	-5276
▁watching	-5277
overlapped	-5278
subdomainA	-5279
subdomainB	-5280
▁attribute	-5281
▁creatures	-5282
▁excellent	-5283
▁recommend	-5284
▁relations	-5285
▁remainder	-5286
▁operations	-5287
-4	-5288
04	-5289
?—	-5290
MS	-5291
TM	-5292
WR	-5293
\{	-5294
bb	-5295
eq	-5296
rl	-5297
10,	-5298
SER	-5299
att	-5300
him	-5301
his	-5302
inn	-5303
irm	-5304
ltn	-5305
sig	-5306
▁DA	-5307
▁cv	-5308
:]]*	-5309
HACL	-5310
Over	-5311
TERM	-5312
anqu	-5313
aved	-5314
ffat	-5315
json	-5316
nter	-5317
uses	-5318
▁','	-5319
▁+60	-5320
▁ALL	-5321
▁AUT	-5322
▁Sub	-5323
▁hot	-5324
▁mat	-5325
▁rej	-5326
▁spo	-5327
Group	-5328
PRESS	-5329
arily	-5330
atory	-5331
ellig	-5332
fined	-5333
mtoff	-5334
owner	-5335
resol	-5336
scale	-5337
utely	-5338
visit	-5339
▁'*.[	-5340
▁Text	-5341
▁blue	-5342
▁hash	-5343
▁held	-5344
▁pair	-5345
▁pray	-5346
imilar	-5347
▁Henry	-5348
▁dared	-5349
▁final	-5350
▁fresh	-5351
▁grief	-5352
▁horse	-5353
▁intim	-5354
▁press	-5355
▁proud	-5356
▁steps	-5357
▁studi	-5358
▁style	-5359
▁worse	-5360
DEFAULT	-5361
UPPRESS	-5362
indices	-5363
wrapper	-5364
▁AUTHOR	-5365
▁Geneva	-5366
▁beheld	-5367
▁cancel	-5368
▁consol	-5369
▁intent	-5370
▁labour	-5371
▁locals	-5372
▁status	-5373
proactor	-5374
relative	-5375
selector	-5376
▁applied	-5377
▁bufsize	-5378
▁hanging	-5379
▁sitting	-5380
▁warning	-5381
Iteration	-5382
remainder	-5383
▁daylight	-5384
▁descript	-5385
▁previous	-5386
▁prospect	-5387
▁sensible	-5388
▁exclaimed	-5389
▁functools	-5390
.2	-5391
82	-5392
=2	-5393
?"	-5394
AF	-5395
By	-5396
JS	-5397
ba	-5398
dt	-5399
:]'	-5400
CHE	-5401
Div	-5402
OTE	-5403
SIG	-5404
_.”	-5405
ces	-5406
did	-5407
els	-5408
imb	-5409
mut	-5410
utc	-5411
▁17	-5412
▁50	-5413
▁60	-5414
▁>(	-5415
▁Se	-5416
▁io	-5417
▁ru	-5418
=0):	-5419
BACK	-5420
Come	-5421
LINE	-5422
Work	-5423
arer	-5424
case	-5425
ency	-5426
face	-5427
hilo	-5428
iate	-5429
iest	-5430
jest	-5431
kill	-5432
pher	-5433
rive	-5434
suff	-5435
▁"$1	-5436
▁Che	-5437
▁USE	-5438
▁art	-5439
▁cop	-5440
▁fer	-5441
▁inj	-5442
▁mid	-5443
▁obt	-5444
▁rot	-5445
▁sle	-5446
▁tea	-5447
Alias	-5448
Users	-5449
anges	-5450
cheme	-5451
force	-5452
gment	-5453
ieces	-5454
pager	-5455
posed	-5456
▁"$0"	-5457
▁1024	-5458
▁Aust	-5459
▁THIS	-5460
▁camp	-5461
▁flow	-5462
▁park	-5463
▁post	-5464
▁rand	-5465
▁suit	-5466
▁vent	-5467
▁wall	-5468
ensure	-5469
hiloso	-5470
plural	-5471
▁alive	-5472
▁cases	-5473
▁drunk	-5474
▁exper	-5475
▁later	-5476
▁moved	-5477
▁murde	-5478
▁stuff	-5479
Default	-5480
comment	-5481
discard	-5482
fulness	-5483
partial	-5484
ynchron	-5485
▁bottom	-5486
▁candle	-5487
▁murder	-5488
▁resent	-5489
▁tranqu	-5490
▁trials	-5491
colorize	-5492
▁capable	-5493
▁compass	-5494
▁imagine	-5495
▁philoso	-5496
▁quickly	-5497
▁replace	-5498
▁unhappy	-5499
▁witness	-5500
▁KeyError	-5501
▁mistaken	-5502
▁addressed	-5503
▁constants	-5504
▁delighted	-5505
▁persuaded	-5506
▁attachment	-5507
CancelledError	-5508
09	-5509
:\	-5510
IG	-5511
Sc	-5512
Su	-5513
VS	-5514
~'	-5515
('7	-5516
Rep	-5517
__)	-5518
avz	-5519
cvf	-5520
dst	-5521
ste	-5522
uzz	-5523
▁tb	-5524
BUFF	-5525
Comp	-5526
HAND	-5527
Mess	-5528
THER	-5529
atty	-5530
bind	-5531
eved	-5532
ilst	-5533
left	-5534
rase	-5535
ulty	-5536
▁"$0	-5537
▁'.'	-5538
▁256	-5539
▁400	-5540
▁ANY	-5541
▁API	-5542
▁Doc	-5543
▁WAR	-5544
▁ash	-5545
▁cow	-5546
▁cra	-5547
▁dst	-5548
▁kne	-5549
▁nar	-5550
▁tow	-5551
ROUND	-5552
acher	-5553
alloc	-5554
asing	-5555
bered	-5556
iding	-5557
onday	-5558
orses	-5559
pgrep	-5560
separ	-5561
▁2009	-5562
▁Bill	-5563
▁attr	-5564
▁dogs	-5565
▁fond	-5566
▁lips	-5567
▁mour	-5568
▁mult	-5569
▁prop	-5570
▁stir	-5571
BUFFER	-5572
PYTHON	-5573
erning	-5574
lished	-5575
▁Count	-5576
▁espec	-5577
▁gives	-5578
▁noble	-5579
▁steal	-5580
LIBHACL	-5581
choices	-5582
delimit	-5583
filters	-5584
osition	-5585
unction	-5586
▁Import	-5587
▁config	-5588
▁excess	-5589
▁horses	-5590
▁laying	-5591
▁paused	-5592
▁raises	-5593
▁suspic	-5594
[0-9]{1,	-5595
ctionary	-5596
executor	-5597
integral	-5598
structor	-5599
▁Invalid	-5600
▁carried	-5601
▁dearest	-5602
▁defined	-5603
▁entreat	-5604
▁excited	-5605
▁private	-5606
▁quitted	-5607
▁servant	-5608
▁turning	-5609
connected	-5610
dataclass	-5611
▁executed	-5612
▁intellig	-5613
▁murderer	-5614
▁starting	-5615
▁bytearray	-5616
▁copyright	-5617
▁execution	-5618
▁gratitude	-5619
▁listening	-5620
▁receiving	-5621
▁traceback	-5622
▁attentions	-5623
▁concurrent	-5624
▁sslcontext	-5625
$2	-5626
=-	-5627
Eo	-5628
Mr	-5629
OB	-5630
Of	-5631
.",	-5632
1":	-5633
1..	-5634
ABC	-5635
Mix	-5636
NGE	-5637
OFT	-5638
PPE	-5639
Per	-5640
SPA	-5641
UMP	-5642
Who	-5643
YPE	-5644
esc	-5645
ksh	-5646
mix	-5647
oly	-5648
xxx	-5649
▁:=	-5650
▁FO	-5651
▁fp	-5652
/[[:	-5653
3.14	-5654
4000	-5655
RECT	-5656
TIES	-5657
WARE	-5658
When	-5659
bits	-5660
boot	-5661
dirs	-5662
frac	-5663
hens	-5664
inux	-5665
rary	-5666
reck	-5667
reed	-5668
▁"",	-5669
▁"*/	-5670
▁-20	-5671
▁Yes	-5672
▁\{}	-5673
▁job	-5674
▁lan	-5675
▁lie	-5676
▁mel	-5677
▁oct	-5678
▁rob	-5679
▁tor	-5680
▁vim	-5681
MAGES	-5682
Mixin	-5683
anced	-5684
clock	-5685
eager	-5686
music	-5687
usage	-5688
▁Find	-5689
▁SOFT	-5690
▁WITH	-5691
▁auto	-5692
▁bind	-5693
▁blah	-5694
▁cand	-5695
▁core	-5696
▁duty	-5697
▁fill	-5698
▁hurt	-5699
▁save	-5700
▁shot	-5701
▁spot	-5702
FooBar	-5703
Python	-5704
SCRIPT	-5705
[0-9]{	-5706
before	-5707
keygen	-5708
wakeup	-5709
▁abhor	-5710
▁benef	-5711
▁comme	-5712
▁crime	-5713
▁digit	-5714
▁errno	-5715
▁gloom	-5716
▁mater	-5717
▁mysql	-5718
▁rapid	-5719
▁share	-5720
RANTIES	-5721
ancholy	-5722
release	-5723
▁ACTION	-5724
▁deeply	-5725
▁images	-5726
▁infile	-5727
▁lambda	-5728
▁larger	-5729
▁smiled	-5730
▁winter	-5731
▁worked	-5732
........	-5733
[.][0-9]	-5734
iterator	-5735
projects	-5736
samefile	-5737
snapshot	-5738
▁DAMAGES	-5739
▁complex	-5740
▁control	-5741
▁hastily	-5742
▁hurried	-5743
▁mapping	-5744
▁meeting	-5745
▁monster	-5746
▁outside	-5747
▁passion	-5748
▁science	-5749
▁sockets	-5750
▁JoinMode	-5751
▁SOFTWARE	-5752
▁multiple	-5753
▁progress	-5754
▁standing	-5755
▁unfortun	-5756
executable	-5757
unregister	-5758
▁steamboat	-5759
▁WARRANTIES	-5760
▁resolution	-5761
▁understood	-5762
▁Interrupted	-5763
▁destination	-5764
▁interesting	-5765
[0-9]*[.][0-9]	-5766
________________	-5767
(-	-5768
03	-5769
65	-5770
?_	-5771
At	-5772
On	-5773
TA	-5774
[$	-5775
sm	-5776
xe	-5777
||	-5778
/*'	-5779
:00	-5780
COM	-5781
INF	-5782
ITS	-5783
Opt	-5784
PLA	-5785
Ref	-5786
Wno	-5787
asp	-5788
aud	-5789
awn	-5790
den	-5791
erm	-5792
exe	-5793
lrt	-5794
nat	-5795
try	-5796
▁$9	-5797
▁14	-5798
▁2:	-5799
▁AR	-5800
▁Pr	-5801
▁VK	-5802
▁[[	-5803
▁ss	-5804
▁xe	-5805
▁“‘	-5806
('2.	-5807
HALF	-5808
QUEN	-5809
Task	-5810
eral	-5811
grat	-5812
ooks	-5813
oted	-5814
peek	-5815
pill	-5816
site	-5817
tail	-5818
▁'*/	-5819
▁+50	-5820
▁700	-5821
▁Any	-5822
▁Ass	-5823
▁Wal	-5824
▁ant	-5825
▁arr	-5826
▁due	-5827
▁etc	-5828
▁fat	-5829
▁squ	-5830
Queue	-5831
chunk	-5832
erate	-5833
ictor	-5834
links	-5835
proto	-5836
roken	-5837
usive	-5838
▁2000	-5839
▁Only	-5840
▁game	-5841
▁hint	-5842
▁lake	-5843
▁lead	-5844
▁nice	-5845
▁paid	-5846
▁prov	-5847
▁redu	-5848
IOBase	-5849
OUTPUT	-5850
multip	-5851
pillar	-5852
random	-5853
▁Mouse	-5854
▁alarm	-5855
▁amuse	-5856
▁heads	-5857
▁instr	-5858
▁nohup	-5859
▁polit	-5860
▁regex	-5861
▁stead	-5862
forever	-5863
program	-5864
▁Austen	-5865
▁admire	-5866
▁anyone	-5867
▁breath	-5868
▁corner	-5869
▁forced	-5870
▁preced	-5871
▁preser	-5872
▁scheme	-5873
▁sorted	-5874
▁supper	-5875
▁undert	-5876
▁update	-5877
▁whilst	-5878
optional	-5879
overflow	-5880
template	-5881
▁Heading	-5882
▁However	-5883
▁display	-5884
▁drawing	-5885
▁enabled	-5886
▁initial	-5887
▁instant	-5888
▁laughed	-5889
▁leaving	-5890
▁metavar	-5891
▁moments	-5892
▁serious	-5893
▁suggest	-5894
▁visitor	-5895
▁watched	-5896
▁windows	-5897
utcoffset	-5898
▁affected	-5899
▁occupied	-5900
▁persuade	-5901
▁pleasing	-5902
▁relation	-5903
▁suffered	-5904
attributes	-5905
▁acknowled	-5906
▁buffering	-5907
▁container	-5908
▁destroyed	-5909
▁inquiries	-5910
▁scheduled	-5911
▁wonderful	-5912
▁compassion	-5913
▁completion	-5914
▁especially	-5915
▁frequently	-5916
▁melancholy	-5917
▁remembered	-5918
▁consolation	-5919
▁exceedingly	-5920
▁satisfaction	-5921
%.	-5922
<=	-5923
CP	-5924
VI	-5925
`;	-5926
dm	-5927
la	-5928
",$	-5929
:--	-5930
BLE	-5931
BUG	-5932
CLU	-5933
III	-5934
Log	-5935
TEN	-5936
arp	-5937
cii	-5938
fer	-5939
gor	-5940
has	-5941
lks	-5942
sty	-5943
uns	-5944
}:{	-5945
▁"(	-5946
▁"_	-5947
▁$'	-5948
▁25	-5949
▁ff	-5950
){3}	-5951
COMP	-5952
Help	-5953
Wait	-5954
aked	-5955
arse	-5956
calc	-5957
erby	-5958
eros	-5959
hold	-5960
inct	-5961
ndar	-5962
pair	-5963
plug	-5964
verb	-5965
▁+90	-5966
▁abc	-5967
▁pec	-5968
▁php	-5969
▁pun	-5970
▁sco	-5971
Fatal	-5972
Inter	-5973
STORE	-5974
Write	-5975
agers	-5976
armed	-5977
bling	-5978
emove	-5979
ested	-5980
infos	-5981
lname	-5982
loads	-5983
pered	-5984
trace	-5985
▁'\0'	-5986
▁0777	-5987
▁Comp	-5988
▁Over	-5989
▁bird	-5990
▁kiss	-5991
▁rule	-5992
▁snow	-5993
▁thir	-5994
▁wide	-5995
('0'))	-5996
.8.8.8	-5997
Object	-5998
SEQUEN	-5999
access	-6000
column	-6001
divide	-6002
ension	-6003
gorith	-6004
itated	-6005
signed	-6006
tofind	-6007
vation	-6008
▁Cater	-6009
▁Queue	-6010
▁Table	-6011
▁While	-6012
▁agony	-6013
▁blind	-6014
▁cabin	-6015
▁fault	-6016
▁ideas	-6017
▁pushd	-6018
▁quote	-6019
▁saved	-6020
▁shell	-6021
▁shout	-6022
▁sides	-6023
▁valid	-6024
▁works	-6025
Barrier	-6026
bstract	-6027
ertools	-6028
istered	-6029
▁Victor	-6030
▁attemp	-6031
▁backup	-6032
▁cycles	-6033
▁explan	-6034
▁ffmpeg	-6035
▁filled	-6036
▁fortun	-6037
▁jumped	-6038
▁nbytes	-6039
▁nights	-6040
▁spread	-6041
▁stairs	-6042
▁wholly	-6043
LOCATION	-6044
progress	-6045
▁archive	-6046
▁contain	-6047
▁correct	-6048
▁dancing	-6049
▁disting	-6050
▁finding	-6051
▁include	-6052
▁justice	-6053
▁pending	-6054
▁reflect	-6055
▁results	-6056
▁visible	-6057
127.0.0.1	-6058
formatter	-6059
localhost	-6060
▁absolute	-6061
▁accident	-6062
▁constant	-6063
▁distress	-6064
▁rendered	-6065
▁according	-6066
▁fortnight	-6067
▁lightning	-6068
▁proceeded	-6069
▁comprehend	-6070
▁concerning	-6071
▁delightful	-6072
▁permission	-6073
▁transports	-6074
▁Caterpillar	-6075
▁positionals	-6076
BlockingIOError	-6077
)}	-6078
.,	-6079
0|	-6080
25	-6081
Ch	-6082
[3	-6083
ky	-6084
tk	-6085
('%	-6086
+=$	-6087
.*)	-6088
0-9	-6089
ADD	-6090
CLE	-6091
Res	-6092
USE	-6093
bly	-6094
fst	-6095
idx	-6096
mit	-6097
▁$$	-6098
▁),	-6099
▁11	-6100
▁DE	-6101
▁Po	-6102
▁\"	-6103
()):	-6104
3456	-6105
CODE	-6106
TYPE	-6107
Zero	-6108
[^.]	-6109
__',	-6110
conv	-6111
eper	-6112
flag	-6113
rows	-6114
tell	-6115
uate	-6116
uted	-6117
▁":"	-6118
▁Cat	-6119
▁Had	-6120
▁deb	-6121
▁fit	-6122
▁imm	-6123
▁law	-6124
▁sig	-6125
VALUE	-6126
[^.]*	-6127
atson	-6128
enste	-6129
iline	-6130
imits	-6131
older	-6132
onest	-6133
rance	-6134
venge	-6135
while	-6136
▁Rows	-6137
▁Such	-6138
▁beat	-6139
▁disg	-6140
▁null	-6141
▁rage	-6142
▁wake	-6143
CHANGE	-6144
Parser	-6145
SEARCH	-6146
SHARED	-6147
ainted	-6148
cludes	-6149
cmpltn	-6150
getstr	-6151
onical	-6152
prompt	-6153
urance	-6154
widths	-6155
▁Frank	-6156
▁blood	-6157
▁dress	-6158
▁earli	-6159
▁folks	-6160
▁invol	-6161
▁niece	-6162
▁renew	-6163
▁trial	-6164
counter	-6165
enstein	-6166
nearest	-6167
nection	-6168
verbose	-6169
▁Watson	-6170
▁amount	-6171
▁figure	-6172
▁inside	-6173
▁lively	-6174
▁powers	-6175
▁school	-6176
▁shoved	-6177
▁syntax	-6178
▁triump	-6179
getstate	-6180
required	-6181
▁English	-6182
▁anxiety	-6183
▁beloved	-6184
▁consist	-6185
▁decided	-6186
▁endured	-6187
▁equally	-6188
▁leading	-6189
▁termios	-6190
▁weather	-6191
▁whisper	-6192
Formatter	-6193
▁Iterator	-6194
▁algorith	-6195
▁attempts	-6196
▁compress	-6197
▁fallback	-6198
▁interpre	-6199
▁occurred	-6200
▁overcome	-6201
▁property	-6202
▁readline	-6203
▁regiment	-6204
▁shutdown	-6205
▁blocksize	-6206
▁determine	-6207
▁sentiment	-6208
▁comparison	-6209
▁descriptor	-6210
▁instrument	-6211
▁positional	-6212
▁underlying	-6213
▁imagination	-6214
▁implemented	-6215
▁interrupted	-6216
▁affectionate	-6217
!—	-6218
29	-6219
;/	-6220
_/	-6221
ds	-6222
pc	-6223
ru	-6224
rv	-6225
-2.	-6226
/${	-6227
2.1	-6228
ART	-6229
Don	-6230
ILD	-6231
aim	-6232
cud	-6233
dbm	-6234
eve	-6235
gif	-6236
jud	-6237
pet	-6238
ses	-6239
utf	-6240
|\.	-6241
▁_,	-6242
▁dw	-6243
('-0	-6244
Emin	-6245
ITER	-6246
MENT	-6247
Writ	-6248
__()	-6249
acon	-6250
cast	-6251
half	-6252
iers	-6253
lime	-6254
macs	-6255
rain	-6256
roid	-6257
than	-6258
tras	-6259
▁'[:	-6260
▁/_/	-6261
▁God	-6262
▁Ind	-6263
▁bag	-6264
▁der	-6265
▁har	-6266
▁iso	-6267
INPUT	-6268
Trans	-6269
ament	-6270
ascii	-6271
colon	-6272
ended	-6273
exist	-6274
hered	-6275
hosts	-6276
ouses	-6277
sence	-6278
▁food	-6279
▁gets	-6280
▁infl	-6281
▁jury	-6282
▁mask	-6283
▁neck	-6284
▁pred	-6285
▁rate	-6286
▁shad	-6287
curses	-6288
encode	-6289
finish	-6290
ifying	-6291
inking	-6292
locals	-6293
memory	-6294
rehens	-6295
stairs	-6296
tzname	-6297
▁Derby	-6298
▁eight	-6299
▁forth	-6300
▁grand	-6301
▁liber	-6302
▁lower	-6303
▁reach	-6304
▁stick	-6305
▁stole	-6306
▁threw	-6307
▁tired	-6308
▁uname	-6309
attered	-6310
cluding	-6311
content	-6312
refresh	-6313
unsford	-6314
wardRef	-6315
▁benevo	-6316
▁colors	-6317
▁compos	-6318
▁distur	-6319
▁doctor	-6320
▁gained	-6321
▁heaven	-6322
▁indign	-6323
▁notion	-6324
▁pounds	-6325
▁proved	-6326
▁random	-6327
▁struct	-6328
Selector	-6329
comments	-6330
readable	-6331
readline	-6332
writable	-6333
▁anguish	-6334
▁ashamed	-6335
▁conject	-6336
▁consume	-6337
▁counter	-6338
▁greatly	-6339
▁quarter	-6340
▁someone	-6341
▁unknown	-6342
docstring	-6343
▁executor	-6344
▁goodness	-6345
▁innocent	-6346
▁marrying	-6347
▁operands	-6348
▁sentence	-6349
▁Otherwise	-6350
▁difficult	-6351
▁direction	-6352
▁important	-6353
▁performed	-6354
▁tolerable	-6355
▁equivalent	-6356
▁Frankenstein	-6357
▁StreamReader	-6358
▁microseconds	-6359
▁understanding	-6360
▁representation	-6361
)/	-6362
)?	-6363
/1	-6364
/:	-6365
1(	-6366
1}	-6367
2:	-6368
3_	-6369
:3	-6370
AM	-6371
CA	-6372
CI	-6373
DB	-6374
EM	-6375
EP	-6376
MD	-6377
SA	-6378
YY	-6379
`.	-6380
lm	-6381
ln	-6382
vt	-6383
’,	-6384
$'\	-6385
(10	-6386
.*/	-6387
:02	-6388
="\	-6389
Add	-6390
Che	-6391
FIN	-6392
FLO	-6393
Gra	-6394
KEY	-6395
ONE	-6396
VAR	-6397
bre	-6398
cub	-6399
cuf	-6400
cuu	-6401
dch	-6402
hum	-6403
lse	-6404
▁CO	-6405
ABLE	-6406
HOST	-6407
Host	-6408
INET	-6409
User	-6410
afie	-6411
imer	-6412
mach	-6413
menu	-6414
mult	-6415
must	-6416
olog	-6417
pace	-6418
star	-6419
todo	-6420
▁"{}	-6421
▁':'	-6422
▁AND	-6423
▁gcc	-6424
▁leg	-6425
▁mac	-6426
▁vol	-6427
INTER	-6428
PTION	-6429
START	-6430
after	-6431
allow	-6432
aning	-6433
child	-6434
lated	-6435
minfo	-6436
paste	-6437
pause	-6438
spond	-6439
ulars	-6440
umber	-6441
▁agin	-6442
▁drop	-6443
▁educ	-6444
▁eleg	-6445
▁hall	-6446
▁java	-6447
▁objc	-6448
▁pity	-6449
▁pron	-6450
▁pull	-6451
▁rank	-6452
▁sets	-6453
('-1')	-6454
Create	-6455
Policy	-6456
ateful	-6457
device	-6458
foobar	-6459
icolon	-6460
itions	-6461
reated	-6462
uished	-6463
utable	-6464
▁alias	-6465
▁align	-6466
▁desir	-6467
▁enemy	-6468
▁escap	-6469
▁force	-6470
▁indul	-6471
▁label	-6472
▁loose	-6473
▁outer	-6474
▁perce	-6475
▁pract	-6476
▁treat	-6477
WorkRep	-6478
fortune	-6479
ignored	-6480
scripts	-6481
▁active	-6482
▁asking	-6483
▁bestow	-6484
▁device	-6485
▁export	-6486
▁feared	-6487
▁gmtoff	-6488
▁manage	-6489
endswith	-6490
hashcode	-6491
itespace	-6492
password	-6493
qualname	-6494
startpos	-6495
whatever	-6496
▁barrier	-6497
▁congrat	-6498
▁descend	-6499
▁extract	-6500
▁fifteen	-6501
▁improve	-6502
▁learned	-6503
▁machine	-6504
▁project	-6505
▁revenge	-6506
▁signals	-6507
▁Makefile	-6508
▁buffered	-6509
▁division	-6510
▁murdered	-6511
▁powerful	-6512
▁strength	-6513
▁Everybody	-6514
▁assurance	-6515
▁callbacks	-6516
▁dataclass	-6517
▁discovery	-6518
▁impatient	-6519
▁ourselves	-6520
▁prevented	-6521
▁remaining	-6522
▁universal	-6523
iscoroutine	-6524
unsupported	-6525
▁Derbyshire	-6526
▁approached	-6527
▁dictionary	-6528
▁difficulty	-6529
▁memoryview	-6530
▁ImportError	-6531
▁description	-6532
▁reflections	-6533
▁unfortunate	-6534
▁representing	-6535
▁representable	-6536
EventLoopPolicy	-6537
▁disappointment	-6538
".	-6539
*(	-6540
,)	-6541
2'	-6542
kw	-6543
"${	-6544
"/'	-6545
-10	-6546
.00	-6547
/$/	-6548
789	-6549
FIG	-6550
JBO	-6551
Lib	-6552
URE	-6553
cyg	-6554
erc	-6555
lip	-6556
lst	-6557
ltr	-6558
mys	-6559
oot	-6560
vol	-6561
▁+$	-6562
▁+0	-6563
▁80	-6564
▁LI	-6565
▁Le	-6566
▁Or	-6567
▁RS	-6568
▁kn	-6569
▁})	-6570
/../	-6571
DATE	-6572
FAST	-6573
OBJS	-6574
SCII	-6575
elic	-6576
elve	-6577
enes	-6578
feed	-6579
itor	-6580
near	-6581
phew	-6582
rect	-6583
span	-6584
tiny	-6585
true	-6586
▁+"%	-6587
▁-50	-6588
▁664	-6589
▁Car	-6590
▁FOR	-6591
▁OUT	-6592
▁SUM	-6593
▁bow	-6594
▁dry	-6595
▁pal	-6596
▁tin	-6597
▁vex	-6598
▁wuz	-6599
ARGET	-6600
BUILD	-6601
CHECK	-6602
EVENT	-6603
JBOSS	-6604
[1-9]	-6605
anted	-6606
arked	-6607
codes	-6608
enter	-6609
herit	-6610
lling	-6611
rench	-6612
stant	-6613
sumed	-6614
▁"$2"	-6615
▁ease	-6616
▁exam	-6617
▁fate	-6618
▁gold	-6619
▁impr	-6620
▁ones	-6621
▁pale	-6622
▁resp	-6623
▁tort	-6624
▁vict	-6625
Cannot	-6626
colors	-6627
escape	-6628
google	-6629
ounced	-6630
priate	-6631
ulated	-6632
▁Gener	-6633
▁Where	-6634
▁White	-6635
▁angry	-6636
▁assem	-6637
▁cheek	-6638
▁contr	-6639
▁entry	-6640
▁grave	-6641
▁liter	-6642
▁music	-6643
▁reser	-6644
▁reuse	-6645
▁signs	-6646
▁space	-6647
▁taste	-6648
▁theme	-6649
▁third	-6650
▁unset	-6651
Process	-6652
company	-6653
getitem	-6654
icAlias	-6655
lengths	-6656
rawdata	-6657
request	-6658
righton	-6659
ulation	-6660
uration	-6661
▁approx	-6662
▁borrow	-6663
▁eldest	-6664
▁finite	-6665
▁oracle	-6666
▁pardon	-6667
▁passwd	-6668
▁policy	-6669
▁praise	-6670
▁propag	-6671
▁smiles	-6672
▁thirty	-6673
▁useful	-6674
▁wretch	-6675
historyi	-6676
quantize	-6677
timezone	-6678
▁Command	-6679
▁Nothing	-6680
▁Windows	-6681
▁covered	-6682
▁dislike	-6683
▁explain	-6684
▁inspect	-6685
▁putting	-6686
▁remount	-6687
▁tecmint	-6688
▁triumph	-6689
[^.][^.]*	-6690
completed	-6691
container	-6692
semicolon	-6693
▁Brighton	-6694
▁Hunsford	-6695
▁SUPPRESS	-6696
▁directed	-6697
▁presence	-6698
▁selector	-6699
structions	-6700
▁cottagers	-6701
▁departure	-6702
▁forgotten	-6703
▁increased	-6704
annotations	-6705
▁correspond	-6706
▁misfortune	-6707
▁reasonable	-6708
▁unexpected	-6709
▁continually	-6710
▁expectation	-6711
▁explanation	-6712
▁cancellation	-6713
????????????????	-6714
'"	-6715
2]	-6716
BY	-6717
HT	-6718
IF	-6719
NU	-6720
[4	-6721
[?	-6722
df	-6723
gt	-6724
zf	-6725
zz	-6726
'/'	-6727
-*.	-6728
-20	-6729
/10	-6730
00,	-6731
==1	-6732
ATA	-6733
ITY	-6734
LUS	-6735
PIC	-6736
STD	-6737
_,”	-6738
acy	-6739
emp	-6740
ntu	-6741
ont	-6742
pol	-6743
see	-6744
uel	-6745
url	-6746
▁"[	-6747
▁"{	-6748
▁*~	-6749
▁+6	-6750
▁18	-6751
▁Tr	-6752
▁xx	-6753
:"),	-6754
Data	-6755
Good	-6756
Here	-6757
INFO	-6758
LINK	-6759
LIST	-6760
PPED	-6761
SHUT	-6762
Text	-6763
UPLE	-6764
View	-6765
WAIT	-6766
[0-9	-6767
[0])	-6768
apps	-6769
demo	-6770
fPIC	-6771
hacl	-6772
high	-6773
imiz	-6774
impl	-6775
irth	-6776
keep	-6777
ncle	-6778
oard	-6779
pect	-6780
perl	-6781
post	-6782
vern	-6783
{1,2	-6784
▁"")	-6785
▁$1}	-6786
▁Add	-6787
▁Hel	-6788
▁ISO	-6789
▁MAX	-6790
▁Mar	-6791
▁New	-6792
▁STR	-6793
▁ama	-6794
▁ban	-6795
▁elo	-6796
▁ens	-6797
▁fee	-6798
▁red	-6799
▁rub	-6800
▁ven	-6801
▁wig	-6802
PLACE	-6803
PPING	-6804
align	-6805
alpha	-6806
aming	-6807
asure	-6808
buntu	-6809
cious	-6810
coder	-6811
ecess	-6812
errno	-6813
itate	-6814
jesty	-6815
mixed	-6816
oline	-6817
otion	-6818
would	-6819
▁0644	-6820
▁Come	-6821
▁Even	-6822
▁bare	-6823
▁born	-6824
▁bran	-6825
▁craw	-6826
▁cuss	-6827
▁furn	-6828
▁gall	-6829
▁rock	-6830
▁wlen	-6831
Closed	-6832
INSTRU	-6833
lambda	-6834
morrow	-6835
plugin	-6836
simple	-6837
▁'.*\.	-6838
▁Ratio	-6839
▁Right	-6840
▁Safie	-6841
▁Sally	-6842
▁alter	-6843
▁apart	-6844
▁blank	-6845
▁bread	-6846
▁cents	-6847
▁chain	-6848
▁fatig	-6849
▁incon	-6850
▁influ	-6851
▁north	-6852
▁reset	-6853
▁sharp	-6854
▁solid	-6855
▁spend	-6856
▁traps	-6857
▁turns	-6858
▁union	-6859
Windows	-6860
chedule	-6861
extract	-6862
options	-6863
▁Format	-6864
▁adding	-6865
▁affect	-6866
▁beings	-6867
▁caught	-6868
▁choose	-6869
▁copies	-6870
▁desert	-6871
▁disgra	-6872
▁estate	-6873
▁locked	-6874
▁nephew	-6875
▁normal	-6876
▁phrase	-6877
▁pursue	-6878
▁render	-6879
▁scared	-6880
▁sought	-6881
▁sounds	-6882
▁stayed	-6883
▁twelve	-6884
▁typing	-6885
▁unwill	-6886
Division	-6887
fortunes	-6888
recvfrom	-6889
registry	-6890
strptime	-6891
▁conceal	-6892
▁details	-6893
▁dressed	-6894
▁escaped	-6895
▁follows	-6896
▁inhabit	-6897
▁logical	-6898
▁passage	-6899
▁similar	-6900
▁visited	-6901
▁working	-6902
recursive	-6903
▁attached	-6904
▁contempt	-6905
▁laughing	-6906
▁messages	-6907
▁registry	-6908
▁surround	-6909
ynchronous	-6910
▁Copyright	-6911
▁collected	-6912
▁immediate	-6913
▁tranquill	-6914
checkClosed	-6915
▁attributes	-6916
▁containing	-6917
▁importance	-6918
▁stacklevel	-6919
▁declaration	-6920
▁misfortunes	-6921
▁particulars	-6922
▁recollection	-6923
▁compatibility	-6924
.6	-6925
1%	-6926
18	-6927
28	-6928
3)	-6929
59	-6930
?'	-6931
RT	-6932
_;	-6933
_—	-6934
gy	-6935
ny	-6936
xB	-6937
|%	-6938
)",	-6939
/^\	-6940
1,1	-6941
BAL	-6942
CAN	-6943
ERS	-6944
FOO	-6945
GLO	-6946
MEN	-6947
PTH	-6948
SCR	-6949
erv	-6950
ohn	-6951
rap	-6952
sen	-6953
▁'#	-6954
▁13	-6955
▁15	-6956
▁2.	-6957
▁GU	-6958
▁Ke	-6959
▁PY	-6960
▁et	-6961
▁mm	-6962
2009	-6963
HITE	-6964
JUMP	-6965
METH	-6966
Miss	-6967
STAT	-6968
[1:]	-6969
atha	-6970
away	-6971
blah	-6972
hest	-6973
page	-6974
plus	-6975
sess	-6976
summ	-6977
{1..	-6978
▁'^\	-6979
▁Cur	-6980
▁aaa	-6981
▁dim	-6982
▁fog	-6983
▁gaz	-6984
▁gro	-6985
▁hit	-6986
▁pit	-6987
▁que	-6988
CLEAN	-6989
coord	-6990
deque	-6991
drive	-6992
dtstr	-6993
false	-6994
ialog	-6995
isnan	-6996
iting	-6997
ories	-6998
osite	-6999
pipes	-7000
quote	-7001
retty	-7002
setup	-7003
sites	-7004
store	-7005
traps	-7006
uliar	-7007
ulous	-7008
▁$5}'	-7009
▁Move	-7010
▁Thus	-7011
▁boys	-7012
▁burn	-7013
▁forb	-7014
▁frac	-7015
▁logs	-7016
▁ring	-7017
▁song	-7018
▁tear	-7019
======	-7020
GLOBAL	-7021
MENTED	-7022
METHOD	-7023
TARGET	-7024
\.){3}	-7025
allest	-7026
amples	-7027
ashion	-7028
cannot	-7029
course	-7030
econds	-7031
export	-7032
iction	-7033
losure	-7034
needle	-7035
▁Eliza	-7036
▁Uncle	-7037
▁aloud	-7038
▁birds	-7039
▁cache	-7040
▁civil	-7041
▁decor	-7042
▁fraud	-7043
▁lives	-7044
▁prove	-7045
▁repro	-7046
▁straw	-7047
▁wreck	-7048
MAPPING	-7049
ordinal	-7050
unknown	-7051
▁100000	-7052
▁Harvey	-7053
▁Pretty	-7054
▁aboard	-7055
▁affair	-7056
▁chosen	-7057
▁coffin	-7058
▁demand	-7059
▁extras	-7060
▁frames	-7061
▁longed	-7062
▁played	-7063
▁pocket	-7064
▁propos	-7065
▁record	-7066
▁sooner	-7067
▁spring	-7068
▁threat	-7069
▁uneasy	-7070
▁virtue	-7071
99999999	-7072
Buffered	-7073
Messages	-7074
conflict	-7075
terminfo	-7076
▁8.8.8.8	-7077
▁awaited	-7078
▁collect	-7079
▁compile	-7080
▁declare	-7081
▁lantern	-7082
▁parents	-7083
▁protect	-7084
▁pursuit	-7085
▁somehow	-7086
▁telling	-7087
▁welcome	-7088
buffering	-7089
▁accepted	-7090
▁annotate	-7091
▁branches	-7092
▁commence	-7093
▁describe	-7094
▁judgment	-7095
▁mountain	-7096
▁opposite	-7097
▁peculiar	-7098
▁possibly	-7099
▁servants	-7100
▁signific	-7101
▁sympathy	-7102
▁algorithm	-7103
▁enjoyment	-7104
▁entertain	-7105
▁fortunate	-7106
▁intention	-7107
▁philosoph	-7108
▁recovered	-7109
▁stretched	-7110
specialized	-7111
▁conviction	-7112
▁engagement	-7113
▁reflection	-7114
INSTRUMENTED	-7115
Optimization	-7116
stringtofind	-7117
▁application	-7118
▁inclination	-7119
▁intelligence	-7120
▁StopIteration	-7121
▁CancelledError	-7122
▁BlockingIOError	-7123
/-	-7124
01	-7125
3.	-7126
5]	-7127
::	-7128
=(	-7129
Be	-7130
So	-7131
UX	-7132
_1	-7133
gl	-7134
kn	-7135
lf	-7136
mb	-7137
zA	-7138
’.	-7139
('\	-7140
)$'	-7141
.*\	-7142
2')	-7143
COL	-7144
Can	-7145
Doc	-7146
FNR	-7147
Ind	-7148
LED	-7149
New	-7150
OUP	-7151
PAT	-7152
ROF	-7153
SIX	-7154
TMP	-7155
UTF	-7156
VEN	-7157
WRA	-7158
[:]	-7159
\)'	-7160
ael	-7161
big	-7162
bur	-7163
dge	-7164
dot	-7165
edd	-7166
ges	-7167
ias	-7168
pad	-7169
tab	-7170
uly	-7171
vis	-7172
▁"#	-7173
▁((	-7174
▁LO	-7175
▁Sw	-7176
▁cf	-7177
▁ve	-7178
8888	-7179
BASH	-7180
DEST	-7181
HASH	-7182
HEAD	-7183
INIT	-7184
PEND	-7185
\([^	-7186
appe	-7187
arnt	-7188
arts	-7189
demn	-7190
gsub	-7191
ilas	-7192
junk	-7193
liar	-7194
lper	-7195
mest	-7196
omin	-7197
ouis	-7198
sbin	-7199
uded	-7200
uuid	-7201
▁"\.	-7202
▁Can	-7203
▁_('	-7204
▁eof	-7205
▁exh	-7206
▁ole	-7207
▁thy	-7208
▁vis	-7209
Async	-7210
FILES	-7211
Graph	-7212
Hello	-7213
SSAGE	-7214
TUPLE	-7215
admin	-7216
allen	-7217
assed	-7218
cence	-7219
every	-7220
hours	-7221
icate	-7222
indow	-7223
otent	-7224
plist	-7225
udent	-7226
users	-7227
utils	-7228
▁$0}'	-7229
▁----	-7230
▁Head	-7231
▁Jack	-7232
▁Next	-7233
▁coat	-7234
▁inde	-7235
▁limb	-7236
▁puzz	-7237
▁sell	-7238
▁shri	-7239
▁tall	-7240
('1'))	-7241
CONFIG	-7242
Called	-7243
Please	-7244
SUBSCR	-7245
Writer	-7246
arsers	-7247
divmod	-7248
eature	-7249
geance	-7250
ichael	-7251
onents	-7252
tuples	-7253
unique	-7254
versed	-7255
▁10**(	-7256
▁Peter	-7257
▁Silas	-7258
▁Since	-7259
▁birth	-7260
▁drift	-7261
▁estab	-7262
▁fears	-7263
▁fever	-7264
▁ident	-7265
▁image	-7266
▁madam	-7267
▁moral	-7268
▁spoon	-7269
▁whoop	-7270
▁zeros	-7271
bracket	-7272
express	-7273
initial	-7274
install	-7275
msgctxt	-7276
profile	-7277
tkinter	-7278
▁Agatha	-7279
▁During	-7280
▁FOLDER	-7281
▁advice	-7282
▁agreed	-7283
▁apolog	-7284
▁charge	-7285
▁colour	-7286
▁contri	-7287
▁distri	-7288
▁employ	-7289
▁fileno	-7290
▁helper	-7291
▁learnt	-7292
▁modify	-7293
▁motive	-7294
▁origin	-7295
▁secure	-7296
▁strict	-7297
▁thanks	-7298
▁yonder	-7299
Sendfile	-7300
specific	-7301
strftime	-7302
venience	-7303
────────	-7304
▁changes	-7305
▁checked	-7306
▁condemn	-7307
▁destroy	-7308
▁factory	-7309
▁foolish	-7310
▁gettext	-7311
▁letting	-7312
▁manager	-7313
▁mistake	-7314
▁opening	-7315
▁persons	-7316
▁reverse	-7317
▁rounded	-7318
▁satisfy	-7319
timedelta	-7320
timestamp	-7321
▁bestowed	-7322
▁cheerful	-7323
▁employed	-7324
▁material	-7325
▁overflow	-7326
▁override	-7327
▁prepared	-7328
▁register	-7329
▁shoulder	-7330
▁truncate	-7331
▁username	-7332
[0-9]{1,3}	-7333
interleave	-7334
▁apprehens	-7335
▁completed	-7336
▁extremely	-7337
▁generator	-7338
▁somewhere	-7339
▁vengeance	-7340
Stringifier	-7341
completions	-7342
▁ForwardRef	-7343
▁Permission	-7344
▁compatible	-7345
▁appropriate	-7346
▁destruction	-7347
▁possibility	-7348
HelpFormatter	-7349
▁acknowledged	-7350
----------------	-7351
!’	-7352
'<	-7353
+-	-7354
76	-7355
Al	-7356
Ne	-7357
OS	-7358
Qu	-7359
RC	-7360
Tm	-7361
[[	-7362
\-	-7363
]/	-7364
nj	-7365
oP	-7366
sf	-7367
sw	-7368
sy	-7369
"}'	-7370
'];	-7371
++)	-7372
---	-7373
/"&	-7374
/[^	-7375
ACK	-7376
HED	-7377
ULL	-7378
]))	-7379
aby	-7380
baz	-7381
ded	-7382
ids	-7383
ino	-7384
iro	-7385
kes	-7386
kwd	-7387
pyc	-7388
srv	-7389
wam	-7390
}"'	-7391
▁%(	-7392
▁*'	-7393
▁..	-7394
▁1]	-7395
▁32	-7396
▁SC	-7397
▁da	-7398
▁ec	-7399
▁“—	-7400
($0,	-7401
0-9]	-7402
LOCK	-7403
SAVE	-7404
Sign	-7405
Sock	-7406
ULTI	-7407
[0],	-7408
disk	-7409
icon	-7410
illy	-7411
iver	-7412
king	-7413
llow	-7414
otes	-7415
race	-7416
real	-7417
save	-7418
stop	-7419
uous	-7420
▁"-"	-7421
▁$1;	-7422
▁'$1	-7423
▁'/'	-7424
▁('-	-7425
▁0.1	-7426
▁2**	-7427
▁CVS	-7428
▁DIR	-7429
▁DST	-7430
▁Our	-7431
▁Sat	-7432
▁Two	-7433
▁boo	-7434
▁bur	-7435
▁ful	-7436
▁map	-7437
▁nur	-7438
▁pie	-7439
▁pig	-7440
▁saf	-7441
▁sel	-7442
▁sne	-7443
▁ttt	-7444
▁voy	-7445
▁wnj	-7446
▁{}'	-7447
']=1;	-7448
Found	-7449
Linux	-7450
ables	-7451
adder	-7452
asted	-7453
based	-7454
ening	-7455
eries	-7456
erred	-7457
icked	-7458
ickle	-7459
icode	-7460
isons	-7461
▁$0))	-7462
▁$3}'	-7463
▁'*~'	-7464
▁'0',	-7465
▁Alas	-7466
▁Look	-7467
▁]*\)	-7468
▁cool	-7469
▁depr	-7470
▁edge	-7471
▁firm	-7472
▁grad	-7473
▁hate	-7474
▁hero	-7475
▁magn	-7476
▁nine	-7477
▁note	-7478
▁shed	-7479
▁slid	-7480
▁vess	-7481
-*2009	-7482
/"&"/'	-7483
Socket	-7484
Stream	-7485
fstype	-7486
isatty	-7487
limits	-7488
needed	-7489
newdir	-7490
reduce	-7491
repare	-7492
sample	-7493
ysroot	-7494
▁About	-7495
▁Check	-7496
▁Files	-7497
▁Maria	-7498
▁abort	-7499
▁ahead	-7500
▁anger	-7501
▁array	-7502
▁clock	-7503
▁drove	-7504
▁faces	-7505
▁fifty	-7506
▁freed	-7507
▁guilt	-7508
▁heavy	-7509
▁noise	-7510
▁quant	-7511
▁shirt	-7512
▁skiff	-7513
▁smoke	-7514
▁stars	-7515
/\(.*\)	-7516
0000000	-7517
3456789	-7518
REPLACE	-7519
TIMEOUT	-7520
cending	-7521
looking	-7522
missing	-7523
nogroup	-7524
results	-7525
windows	-7526
▁animal	-7527
▁apache	-7528
▁caused	-7529
▁causes	-7530
▁dining	-7531
▁divide	-7532
▁endure	-7533
▁nearer	-7534
▁relate	-7535
▁scenes	-7536
▁seated	-7537
▁spoken	-7538
▁thrown	-7539
▁travel	-7540
▁wigwam	-7541
addrinfo	-7542
compiler	-7543
cygdrive	-7544
evaluate	-7545
original	-7546
outgoing	-7547
ulations	-7548
▁isearch	-7549
▁nonzero	-7550
▁padding	-7551
▁painful	-7552
▁remains	-7553
▁retired	-7554
▁runaway	-7555
▁service	-7556
▁slipped	-7557
▁smiling	-7558
▁usually	-7559
/.*/"&"/'	-7560
CallGraph	-7561
lications	-7562
recursion	-7563
scription	-7564
threading	-7565
▁FILENAME	-7566
▁apparent	-7567
▁charming	-7568
▁familiar	-7569
▁generous	-7570
▁increase	-7571
▁infinity	-7572
▁platform	-7573
returncode	-7574
▁agitation	-7575
▁composure	-7576
▁concerned	-7577
▁converted	-7578
▁multiline	-7579
▁principal	-7580
▁protocols	-7581
▁statement	-7582
▁suspicion	-7583
▁absolutely	-7584
▁astonished	-7585
▁confidence	-7586
▁philosophy	-7587
▁returncode	-7588
▁considering	-7589
PipeTransport	-7590
▁approximation	-7591
▁consideration	-7592
▁implementations	-7593
$$	-7594
->	-7595
06	-7596
3/	-7597
6/	-7598
94	-7599
<>	-7600
CC	-7601
Le	-7602
ML	-7603
PG	-7604
Td	-7605
Up	-7606
Wh	-7607
[%	-7608
[@	-7609
`,	-7610
tw	-7611
wi	-7612
"")	-7613
'.'	-7614
(":	-7615
)),	-7616
.1,	-7617
400	-7618
BLA	-7619
\./	-7620
]*'	-7621
__:	-7622
aix	-7623
deb	-7624
ele	-7625
gar	-7626
htm	-7627
ico	-7628
ium	-7629
lan	-7630
mpg	-7631
nas	-7632
npm	-7633
nty	-7634
plo	-7635
rec	-7636
tex	-7637
tgz	-7638
xor	-7639
▁"'	-7640
▁':	-7641
▁(?	-7642
▁*=	-7643
▁.*	-7644
▁1-	-7645
▁64	-7646
▁Of	-7647
▁Py	-7648
▁TO	-7649
▁cc	-7650
▁dæ	-7651
▁fa	-7652
▁ow	-7653
▁ur	-7654
▁yc	-7655
('11	-7656
Find	-7657
MAND	-7658
Temp	-7659
Word	-7660
aise	-7661
aled	-7662
ball	-7663
barr	-7664
capi	-7665
cron	-7666
gate	-7667
gone	-7668
inel	-7669
lamp	-7670
oned	-7671
road	-7672
ties	-7673
▁"),	-7674
▁'+%	-7675
▁-30	-7676
▁<<<	-7677
▁Out	-7678
▁Raw	-7679
▁adj	-7680
▁cry	-7681
▁pet	-7682
▁pul	-7683
▁unf	-7684
ERROR	-7685
Files	-7686
LINUX	-7687
PROCE	-7688
TRACT	-7689
[:-1]	-7690
aging	-7691
anied	-7692
aries	-7693
dated	-7694
defin	-7695
house	-7696
isted	-7697
isure	-7698
peter	-7699
quent	-7700
reeze	-7701
ulian	-7702
▁"${0	-7703
▁$9}'	-7704
▁FROM	-7705
▁Scot	-7706
▁Sher	-7707
▁Span	-7708
▁bent	-7709
▁bust	-7710
▁cent	-7711
▁cost	-7712
▁diss	-7713
▁grab	-7714
▁nons	-7715
▁rapt	-7716
▁remo	-7717
▁rope	-7718
▁sank	-7719
▁seve	-7720
▁simp	-7721
▁sunk	-7722
▁thin	-7723
▁wedd	-7724
▁wise	-7725
('3'))	-7726
Shared	-7727
called	-7728
images	-7729
infile	-7730
myfile	-7731
origin	-7732
sorted	-7733
ubuntu	-7734
▁CONNE	-7735
▁Enter	-7736
▁banks	-7737
▁based	-7738
▁chair	-7739
▁chile	-7740
▁cruel	-7741
▁devil	-7742
▁drink	-7743
▁felic	-7744
▁ferry	-7745
▁grass	-7746
▁mourn	-7747
▁nodes	-7748
▁param	-7749
▁shame	-7750
▁storm	-7751
▁tells	-7752
▁upper	-7753
▁yards	-7754
▁yours	-7755
.*/\1/'	-7756
Convert	-7757
Library	-7758
PENDING	-7759
PTHREAD	-7760
WRAPPED	-7761
android	-7762
ational	-7763
because	-7764
manager	-7765
methods	-7766
ptional	-7767
▁French	-7768
▁ashore	-7769
▁assume	-7770
▁begged	-7771
▁bother	-7772
▁breast	-7773
▁client	-7774
▁crying	-7775
▁double	-7776
▁exists	-7777
▁ladder	-7778
▁missed	-7779
▁plenty	-7780
▁precip	-7781
▁recent	-7782
▁relief	-7783
▁reward	-7784
▁seized	-7785
▁steady	-7786
▁strang	-7787
▁street	-7788
▁taught	-7789
▁tender	-7790
▁warmth	-7791
▁writes	-7792
Argument	-7793
buffered	-7794
ordinary	-7795
readinto	-7796
▁DEFAULT	-7797
▁Shepher	-7798
▁closing	-7799
▁columns	-7800
▁crossed	-7801
▁fashion	-7802
▁filters	-7803
▁happens	-7804
▁leisure	-7805
▁parsing	-7806
▁provide	-7807
▁readily	-7808
▁setattr	-7809
▁thunder	-7810
▁treated	-7811
▁wedding	-7812
abilities	-7813
backspace	-7814
canonical	-7815
normalize	-7816
separator	-7817
▁Overflow	-7818
▁approach	-7819
▁commands	-7820
▁contents	-7821
▁deceived	-7822
▁declared	-7823
▁disgrace	-7824
▁dwelling	-7825
▁existing	-7826
▁horrible	-7827
▁myscript	-7828
▁offended	-7829
▁operator	-7830
▁pictures	-7831
▁proactor	-7832
▁relative	-7833
▁restored	-7834
▁upstairs	-7835
▁wherever	-7836
[0-9][0-9]	-7837
▁confusion	-7838
▁described	-7839
▁earnestly	-7840
▁encourage	-7841
▁enumerate	-7842
▁influence	-7843
▁innocence	-7844
▁iteration	-7845
▁necessity	-7846
▁objection	-7847
▁preceding	-7848
▁propagate	-7849
▁succeeded	-7850
collections	-7851
imeoutError	-7852
interactive	-7853
▁additional	-7854
▁companions	-7855
▁conversion	-7856
▁favourable	-7857
▁issubclass	-7858
▁resentment	-7859
▁surrounded	-7860
GenericAlias	-7861
▁completions	-7862
▁interactive	-7863
▁disappointed	-7864
▁tranquillity	-7865
▁ArgumentError	-7866
▁extraordinary	-7867
"}	-7868
0-	-7869
1;	-7870
5}	-7871
:—	-7872
=[	-7873
PC	-7874
\;	-7875
qr	-7876
rq	-7877
▁Z	-7878
!_”	-7879
"(?	-7880
')"	-7881
'])	-7882
()]	-7883
([^	-7884
-*'	-7885
/./	-7886
2.3	-7887
2})	-7888
444	-7889
:]*	-7890
="%	-7891
?_”	-7892
Did	-7893
ILT	-7894
MAC	-7895
UNI	-7896
[@]	-7897
api	-7898
avo	-7899
cgi	-7900
cpu	-7901
fmt	-7902
ism	-7903
ius	-7904
mme	-7905
say	-7906
swp	-7907
voc	-7908
}";	-7909
▁##	-7910
▁+4	-7911
▁3.	-7912
▁>/	-7913
▁BO	-7914
▁En	-7915
▁Gr	-7916
▁HU	-7917
▁UN	-7918
▁la	-7919
▁|&	-7920
"'"'	-7921
$//"	-7922
($0)	-7923
()))	-7924
ABIL	-7925
ARGS	-7926
REAM	-7927
REEN	-7928
REPL	-7929
TEXT	-7930
Then	-7931
aven	-7932
burn	-7933
else	-7934
isto	-7935
ital	-7936
kwds	-7937
nded	-7938
odec	-7939
ouch	-7940
quit	-7941
sqrt	-7942
subl	-7943
unch	-7944
upid	-7945
wood	-7946
▁''.	-7947
▁-14	-7948
▁500	-7949
▁999	-7950
▁Den	-7951
▁IMP	-7952
▁May	-7953
▁PEP	-7954
▁PER	-7955
▁Wil	-7956
▁cro	-7957
▁fmt	-7958
▁jis	-7959
▁kit	-7960
▁kno	-7961
▁mil	-7962
▁unc	-7963
▁ver	-7964
▁via	-7965
▁xxx	-7966
/\.*'	-7967
2.168	-7968
GROUP	-7969
MULTI	-7970
NABLE	-7971
Tuple	-7972
abort	-7973
agree	-7974
ashes	-7975
erved	-7976
ifted	-7977
oking	-7978
onage	-7979
orage	-7980
rozen	-7981
style	-7982
thumb	-7983
urday	-7984
xtype	-7985
▁'/^\	-7986
▁Aunt	-7987
▁Cont	-7988
▁Finn	-7989
▁Lord	-7990
▁Mess	-7991
▁PATH	-7992
▁Pars	-7993
▁Spec	-7994
▁bore	-7995
▁deny	-7996
▁fart	-7997
▁leap	-7998
▁meta	-7999
▁mill	-8000
▁nose	-8001
▁rise	-8002
▁rode	-8003
▁sail	-8004
▁tuck	-8005
▁weep	-8006
Dialog	-8007
SIZEOF	-8008
SOCKET	-8009
STREAM	-8010
aconda	-8011
bation	-8012
chmark	-8013
compar	-8014
ersion	-8015
headed	-8016
inning	-8017
ittest	-8018
linker	-8019
passwd	-8020
▁	-8021
e	-8022
t	-8023
n	-8024
a	-8025
o	-8026
i	-8027
s	-8028
r	-8029
d	-8030
l	-8031
h	-8032
f	-8033
c	-8034
m	-8035
u	-8036
p	-8037
-	-8038
.	-8039
g	-8040
y	-8041
w	-8042
_	-8043
,	-8044
b	-8045
"	-8046
'	-8047
v	-8048
(	-8049
)	-8050
/	-8051
x	-8052
k	-8053
=	-8054
:	-8055
I	-8056
1	-8057
0	-8058
|	-8059
E	-8060
T	-8061
;	-8062
*	-8063
\	-8064
N	-8065
S	-8066
A	-8067
$	-8068
{	-8069
}	-8070
’	-8071
R	-8072
D	-8073
M	-8074
#	-8075
2	-8076
C	-8077
O	-8078
L	-8079
z	-8080
“	-8081
[	-8082
”	-8083
H	-8084
]	-8085
F	-8086
P	-8087
j	-8088
+	-8089
B	-8090
>	-8091
W	-8092
q	-8093
3	-8094
%	-8095
U	-8096
!	-8097
`	-8098
4	-8099
5	-8100
?	-8101
G	-8102
6	-8103
<	-8104
Y	-8105
9	-8106
V	-8107
7	-8108
—	-8109
X	-8110
8	-8111
J	-8112
K	-8113
^	-8114
@	-8115
&	-8116
~	-8117
Z	-8118
Q	-8119
‘	-8120
─	-8121
–	-8122
и	-8123
е	-8124
æ	-8125
а	-8126
н	-8127
о	-8128
п	-8129
я	-8130
ê	-8131
с	-8132
ц	-8133
十	-8134
廿	-8135
з	-8136
ч	-8137
й	-8138
к	-8139
т	-8140
à	-8141
¤	-8142
ñ	-8143
в	-8144
д	-8145
м	-8146
一	-8147
換	-8148
置	-8149
­	-8150
è	-8151
é	-8152
‐	-8153
七	-8154
三	-8155
九	-8156
二	-8157
五	-8158
八	-8159
六	-8160
四	-8161
·	-8162
ô	-8163
ö	-8164
ú	-8165
г	-8166
л	-8167
р	-8168
у	-8169
ф	-8170
′	-8171
→	-8172
╱	-8173
╲	-8174
前	-8175
卅	-8176
後	-8177
«	-8178
»	-8179
â	-8180
ù	-8181
İ	-8182
œ	-8183
│	-8184
└	-8185
├	-8186
〇	-8187
