<pad>	0
<s>	0
</s>	0
<unk>	0
▁t	-0
in	-1
▁a	-2
he	-3
▁s	-4
re	-5
on	-6
▁w	-7
er	-8
▁f	-9
▁-	-10
▁the	-11
nd	-12
at	-13
ou	-14
or	-15
me	-16
▁c	-17
el	-18
it	-19
is	-20
▁d	-21
le	-22
▁b	-23
▁o	-24
ed	-25
ar	-26
▁h	-27
▁and	-28
▁m	-29
ing	-30
▁to	-31
as	-32
en	-33
al	-34
▁n	-35
elf	-36
▁p	-37
st	-38
▁in	-39
an	-40
▁of	-41
ot	-42
▁I	-43
▁re	-44
▁th	-45
ec	-46
▁l	-47
ex	-48
▁=	-49
et	-50
▁he	-51
ce	-52
ion	-53
ad	-54
▁"	-55
▁g	-56
▁i	-57
ind	-58
▁'	-59
es	-60
ut	-61
ame	-62
▁self	-63
ur	-64
ow	-65
om	-66
ll	-67
od	-68
se	-69
▁be	-70
▁find	-71
._	-72
▁y	-73
id	-74
▁it	-75
▁r	-76
▁if	-77
pe	-78
ver	-79
ld	-80
▁|	-81
▁was	-82
one	-83
▁is	-84
▁_	-85
ay	-86
▁“	-87
▁de	-88
ch	-89
nt	-90
ck	-91
▁for	-92
▁#	-93
▁u	-94
ig	-95
▁T	-96
ve	-97
ly	-98
▁not	-99
im	-100
self	-101
▁you	-102
name	-103
▁e	-104
ir	-105
▁that	-106
ct	-107
):	-108
urn	-109
pt	-110
▁wh	-111
▁st	-112
ent	-113
▁so	-114
▁as	-115
her	-116
ile	-117
pr	-118
ith	-119
ty	-120
ter	-121
lo	-122
▁.	-123
▁ret	-124
out	-125
ke	-126
▁return	-127
▁with	-128
▁an	-129
▁me	-130
ort	-131
▁def	-132
int	-133
▁on	-134
ab	-135
ould	-136
▁her	-137
()	-138
▁ex	-139
th	-140
and	-141
▁con	-142
ht	-143
▁N	-144
""	-145
op	-146
▁1	-147
ime	-148
▁/	-149
▁my	-150
mp	-151
ue	-152
ss	-153
ra	-154
type	-155
un	-156
▁we	-157
ul	-158
▁M	-159
▁A	-160
ol	-161
▁S	-162
▁his	-163
▁su	-164
ri	-165
ff	-166
ect	-167
__	-168
ext	-169
▁she	-170
▁had	-171
ation	-172
li	-173
gs	-174
ate	-175
▁at	-176
de	-177
▁lo	-178
▁{	-179
ore	-180
▁ha	-181
▁(	-182
▁The	-183
▁all	-184
▁\	-185
rom	-186
▁le	-187
our	-188
▁B	-189
ill	-190
▁sh	-191
ror	-192
▁v	-193
▁but	-194
ight	-195
▁None	-196
▁by	-197
.”	-198
all	-199
ment	-200
▁se	-201
red	-202
ge	-203
▁k	-204
ain	-205
▁pr	-206
pp	-207
▁him	-208
▁ch	-209
▁"""	-210
il	-211
▁or	-212
us	-213
▁do	-214
▁W	-215
▁sa	-216
▁+	-217
▁D	-218
ode	-219
ust	-220
te	-221
ass	-222
print	-223
ic	-224
▁C	-225
▁H	-226
ome	-227
",	-228
▁whe	-229
▁ne	-230
ine	-231
exec	-232
args	-233
▁from	-234
▁E	-235
*.	-236
ok	-237
os	-238
ard	-239
▁{}	-240
▁el	-241
ise	-242
ure	-243
▁tr	-244
':	-245
▁ra	-246
if	-247
able	-248
art	-249
ell	-250
ist	-251
qu	-252
▁$	-253
am	-254
▁x	-255
')	-256
▁com	-257
ack	-258
ich	-259
▁ar	-260
▁have	-261
text	-262
ult	-263
very	-264
▁up	-265
ound	-266
oug	-267
ite	-268
um	-269
to	-270
▁no	-271
',	-272
ction	-273
ther	-274
rep	-275
▁they	-276
iz	-277
00	-278
▁0	-279
cept	-280
▁this	-281
rror	-282
sp	-283
Error	-284
own	-285
▁al	-286
▁out	-287
▁go	-288
▁said	-289
▁j	-290
la	-291
read	-292
ant	-293
str	-294
▁would	-295
ap	-296
con	-297
▁\;	-298
ays	-299
('	-300
▁which	-301
▁F	-302
ive	-303
ance	-304
▁can	-305
iv	-306
▁time	-307
▁when	-308
ath	-309
▁could	-310
get	-311
▁un	-312
▁file	-313
▁en	-314
ess	-315
▁other	-316
led	-317
ong	-318
ak	-319
ers	-320
▁ab	-321
file	-322
▁them	-323
ake	-324
ho	-325
▁imp	-326
▁L	-327
▁aw	-328
lass	-329
ast	-330
▁us	-331
▁see	-332
▁xargs	-333
che	-334
▁str	-335
▁there	-336
alue	-337
▁>	-338
--	-339
▁kn	-340
per	-341
▁some	-342
imal	-343
▁else	-344
▁raise	-345
oc	-346
▁any	-347
sh	-348
▁Mr	-349
so	-350
ize	-351
▁one	-352
▁sp	-353
time	-354
ecimal	-355
for	-356
set	-357
▁grep	-358
▁man	-359
ple	-360
com	-361
▁pre	-362
other	-363
==	-364
ata	-365
▁get	-366
ous	-367
▁are	-368
▁R	-369
,”	-370
▁P	-371
▁*	-372
▁J	-373
ount	-374
▁your	-375
ait	-376
pre	-377
▁were	-378
uff	-379
HA	-380
tr	-381
ars	-382
ings	-383
▁__	-384
ase	-385
ne	-386
ory	-387
▁ag	-388
▁ad	-389
▁will	-390
ity	-391
▁<	-392
▁been	-393
fo	-394
ma	-395
dir	-396
mat	-397
▁what	-398
▁2	-399
age	-400
")	-401
▁li	-402
ough	-403
ign	-404
are	-405
▁who	-406
itt	-407
bj	-408
▁did	-409
▁read	-410
?”	-411
▁[	-412
▁then	-413
vent	-414
xt	-415
▁O	-416
au	-417
▁%	-418
di	-419
em	-420
ost	-421
ond	-422
▁more	-423
▁di	-424
.__	-425
▁fe	-426
▁==	-427
("	-428
▁know	-429
▁wor	-430
act	-431
ger	-432
▁except	-433
▁res	-434
key	-435
odu	-436
▁their	-437
▁import	-438
▁off	-439
txt	-440
fore	-441
ink	-442
▁He	-443
ry	-444
▁"$	-445
IN	-446
path	-447
▁--	-448
ER	-449
ix	-450
av	-451
ro	-452
rite	-453
))	-454
ask	-455
end	-456
ions	-457
nc	-458
▁"*.	-459
▁set	-460
▁very	-461
▁am	-462
arn	-463
eth	-464
ep	-465
ble	-466
ated	-467
ence	-468
▁over	-469
bject	-470
▁fo	-471
None	-472
uffer	-473
▁down	-474
▁must	-475
ip	-476
put	-477
ally	-478
▁Th	-479
}'	-480
ide	-481
error	-482
liz	-483
rue	-484
▁got	-485
ice	-486
su	-487
▁Eliz	-488
▁dis	-489
▁about	-490
ert	-491
▁po	-492
abeth	-493
__(	-494
▁than	-495
▁Elizabeth	-496
▁again	-497
▁ac	-498
wn	-499
▁But	-500
▁look	-501
alse	-502
irst	-503
not	-504
tra	-505
▁every	-506
fter	-507
odule	-508
pend	-509
▁only	-510
gu	-511
▁now	-512
▁has	-513
ish	-514
▁sort	-515
▁pro	-516
▁hand	-517
iss	-518
ST	-519
▁should	-520
▁Decimal	-521
▁context	-522
[0	-523
ree	-524
uture	-525
▁try	-526
thing	-527
▁name	-528
size	-529
▁class	-530
▁before	-531
ought	-532
back	-533
stance	-534
▁te	-535
ault	-536
LE	-537
ittle	-538
ie	-539
▁It	-540
▁how	-541
reat	-542
ng	-543
▁come	-544
▁says	-545
VE	-546
▁tw	-547
▁exp	-548
ather	-549
ick	-550
ber	-551
▁per	-552
cl	-553
ary	-554
ved	-555
▁call	-556
▁little	-557
▁sc	-558
▁such	-559
ely	-560
!”	-561
add	-562
ody	-563
▁ap	-564
ocol	-565
otocol	-566
pro	-567
pth	-568
echo	-569
ys	-570
uch	-571
ection	-572
ption	-573
cy	-574
▁G	-575
▁into	-576
▁new	-577
RE	-578
▁add	-579
pos	-580
▁qu	-581
▁op	-582
ansp	-583
▁'{	-584
▁like	-585
cal	-586
ype	-587
ek	-588
▁bo	-589
▁gr	-590
we	-591
▁rm	-592
▁first	-593
▁good	-594
up	-595
ft	-596
▁head	-597
▁ro	-598
▁'*.	-599
ull	-600
line	-601
val	-602
Con	-603
▁after	-604
ag	-605
ven	-606
lace	-607
▁day	-608
▁`	-609
ove	-610
),	-611
ies	-612
▁never	-613
▁may	-614
ily	-615
ync	-616
ward	-617
ause	-618
ister	-619
▁much	-620
gument	-621
##	-622
ear	-623
code	-624
min	-625
ade	-626
You	-627
▁1,	-628
loop	-629
class	-630
ace	-631
data	-632
ansport	-633
hing	-634
ms	-635
max	-636
▁bec	-637
▁V	-638
ud	-639
alk	-640
ful	-641
▁sed	-642
write	-643
▁pass	-644
py	-645
▁br	-646
▁say	-647
▁long	-648
ail	-649
ning	-650
▁done	-651
"""	-652
▁int	-653
▁->	-654
bu	-655
onth	-656
no	-657
ire	-658
ched	-659
▁comp	-660
▁>>	-661
▁-1	-662
▁She	-663
HAVE	-664
ness	-665
▁list	-666
▁-0	-667
▁Tom	-668
▁object	-669
ord	-670
▁!	-671
▁If	-672
▁think	-673
▁value	-674
..	-675
ON	-676
rent	-677
▁result	-678
cod	-679
▁just	-680
string	-681
▁len	-682
▁two	-683
▁while	-684
vers	-685
▁way	-686
▁des	-687
▁back	-688
ose	-689
▁most	-690
▁let	-691
body	-692
tend	-693
▁went	-694
log	-695
lin	-696
▁end	-697
ress	-698
▁awk	-699
ial	-700
▁cal	-701
10	-702
cess	-703
econd	-704
▁line	-705
ced	-706
mod	-707
▁True	-708
▁ls	-709
▁This	-710
▁sock	-711
AT	-712
▁ever	-713
OR	-714
depth	-715
▁echo	-716
▁make	-717
====	-718
format	-719
▁cur	-720
ca	-721
▁don	-722
▁part	-723
.*	-724
ild	-725
ans	-726
▁>>>	-727
▁too	-728
hen	-729
▁data	-730
its	-731
ark	-732
uck	-733
nder	-734
tes	-735
▁bet	-736
▁old	-737
buffer	-738
hat	-739
by	-740
los	-741
▁dec	-742
▁cont	-743
hed	-744
aw	-745
eld	-746
sent	-747
mand	-748
cel	-749
ition	-750
▁want	-751
ls	-752
rame	-753
reak	-754
▁right	-755
▁ans	-756
▁beg	-757
▁rem	-758
ach	-759
ener	-760
ious	-761
ins	-762
▁cat	-763
▁fun	-764
▁might	-765
▁key	-766
▁And	-767
igh	-768
▁own	-769
ield	-770
ations	-771
unt	-772
▁happ	-773
day	-774
lock	-775
▁soon	-776
lp	-777
ute	-778
ible	-779
▁False	-780
instance	-781
ME	-782
ave	-783
thod	-784
ingle	-785
▁loop	-786
rit	-787
sock	-788
▁thought	-789
▁its	-790
▁made	-791
ied	-792
que	-793
arcy	-794
▁wait	-795
▁Darcy	-796
▁count	-797
lice	-798
▁away	-799
▁warn	-800
▁nothing	-801
low	-802
▁print	-803
▁where	-804
():	-805
ner	-806
call	-807
thon	-808
als	-809
elt	-810
▁feel	-811
."""	-812
▁here	-813
context	-814
oup	-815
tmp	-816
▁ent	-817
▁last	-818
-1	-819
tended	-820
atter	-821
":	-822
ream	-823
▁min	-824
▁being	-825
ats	-826
lement	-827
ens	-828
new	-829
▁col	-830
nce	-831
cur	-832
▁bel	-833
▁Ex	-834
▁elif	-835
ane	-836
IT	-837
▁pos	-838
med	-839
▁ho	-840
▁rep	-841
▁3	-842
mtime	-843
ouse	-844
▁argument	-845
▁We	-846
io	-847
▁isinstance	-848
ph	-849
▁supp	-850
lose	-851
eturn	-852
ried	-853
append	-854
▁pl	-855
une	-856
hand	-857
rect	-858
▁diff	-859
ND	-860
reg	-861
▁exc	-862
).	-863
home	-864
▁del	-865
iname	-866
▁Alice	-867
maxdepth	-868
init	-869
ctions	-870
[0]	-871
ged	-872
▁Jim	-873
alueError	-874
cre	-875
▁event	-876
ception	-877
gr	-878
ipe	-879
ways	-880
▁cons	-881
▁well	-882
▁In	-883
▁under	-884
can	-885
▁mo	-886
usr	-887
atch	-888
ered	-889
ource	-890
oin	-891
riend	-892
▁Miss	-893
net	-894
task	-895
▁didn	-896
▁ValueError	-897
▁Ben	-898
▁cor	-899
air	-900
▁’	-901
dec	-902
err	-903
row	-904
ator	-905
▁tell	-906
64	-907
par	-908
▁)	-909
ac	-910
info	-911
▁ple	-912
ood	-913
▁even	-914
▁start	-915
▁node	-916
▁friend	-917
ead	-918
Context	-919
▁kind	-920
▁K	-921
▁co	-922
▁char	-923
▁because	-924
▁great	-925
sign	-926
▁Not	-927
AR	-928
OD	-929
XX	-930
pty	-931
ived	-932
In	-933
exp	-934
▁So	-935
▁tra	-936
ange	-937
ash	-938
ude	-939
▁cut	-940
▁Mrs	-941
SE	-942
▁U	-943
▁run	-944
▁use	-945
▁herself	-946
TI	-947
do	-948
▁found	-949
dev	-950
▁$(	-951
pl	-952
res	-953
▁our	-954
tri	-955
▁+=	-956
local	-957
▁inter	-958
▁z	-959
▁num	-960
Decimal	-961
▁pe	-962
def	-963
node	-964
▁Jane	-965
▁same	-966
ser	-967
yes	-968
ared	-969
▁Bennet	-970
▁without	-971
▁chmod	-972
▁always	-973
perm	-974
▁You	-975
▁next	-976
▁sm	-977
ving	-978
▁sister	-979
▁format	-980
ife	-981
▁place	-982
ub	-983
col	-984
99	-985
the	-986
ened	-987
▁ain	-988
▁ass	-989
AL	-990
▁'\	-991
▁spec	-992
▁break	-993
▁around	-994
odules	-995
▁string	-996
count	-997
//	-998
▁10	-999
▁ke	-1000
▁ser	-1001
amily	-1002
start	-1003
hy	-1004
ret	-1005
ater	-1006
press	-1007
▁sign	-1008
sl	-1009
wards	-1010
$(	-1011
▁take	-1012
my	-1013
▁./	-1014
app	-1015
arch	-1016
▁took	-1017
▁these	-1018
tendedContext	-1019
▁task	-1020
▁default	-1021
ps	-1022
'))	-1023
▁sub	-1024
value	-1025
▁ExtendedContext	-1026
**	-1027
▁bl	-1028
▁wc	-1029
ected	-1030
▁turn	-1031
opy	-1032
ting	-1033
▁sys	-1034
coding	-1035
▁dir	-1036
▁log	-1037
OU	-1038
std	-1039
▁0:	-1040
▁Bingle	-1041
PT	-1042
lob	-1043
▁They	-1044
▁does	-1045
▁give	-1046
-9	-1047
ml	-1048
aug	-1049
sub	-1050
ired	-1051
owed	-1052
▁reg	-1053
▁myself	-1054
▁action	-1055
fe	-1056
bin	-1057
fin	-1058
from	-1059
▁talk	-1060
▁type	-1061
▁Bingley	-1062
gn	-1063
▁7	-1064
len	-1065
▁bu	-1066
▁error	-1067
ished	-1068
▁called	-1069
co	-1070
ler	-1071
▁word	-1072
./	-1073
uple	-1074
fix	-1075
isit	-1076
user	-1077
printf	-1078
▁~	-1079
ors	-1080
▁appe	-1081
▁inte	-1082
▁month	-1083
▁night	-1084
▁option	-1085
▁father	-1086
less	-1087
▁pleas	-1088
The	-1089
ative	-1090
▁work	-1091
▁going	-1092
future	-1093
▁round	-1094
▁ind	-1095
▁yet	-1096
▁im	-1097
ever	-1098
▁put	-1099
losed	-1100
▁async	-1101
bo	-1102
ows	-1103
▁When	-1104
▁still	-1105
*'	-1106
be	-1107
▁aff	-1108
▁thr	-1109
▁shall	-1110
amp	-1111
arg	-1112
▁fin	-1113
▁protocol	-1114
of	-1115
ww	-1116
▁though	-1117
bug	-1118
some	-1119
▁enough	-1120
lic	-1121
*"	-1122
ither	-1123
AG	-1124
oll	-1125
▁lin	-1126
="	-1127
▁<(	-1128
▁bytes	-1129
▁buffer	-1130
oy	-1131
}"	-1132
ady	-1133
cle	-1134
vert	-1135
▁many	-1136
(1	-1137
▁rest	-1138
est	-1139
vel	-1140
conf	-1141
▁poss	-1142
LO	-1143
cri	-1144
▁week	-1145
▁family	-1146
fd	-1147
eno	-1148
event	-1149
-9]	-1150
▁bot	-1151
▁size	-1152
▁along	-1153
▁dear	-1154
MOD	-1155
True	-1156
spec	-1157
▁house	-1158
▁0,	-1159
find	-1160
ised	-1161
iness	-1162
▁@	-1163
attr	-1164
default	-1165
'),	-1166
▁help	-1167
▁oper	-1168
▁thing	-1169
▁---	-1170
CE	-1171
▁another	-1172
Ex	-1173
▁oc	-1174
ngth	-1175
▁saw	-1176
▁belie	-1177
alf	-1178
▁\(	-1179
date	-1180
▁need	-1181
0,	-1182
ang	-1183
sole	-1184
prune	-1185
▁method	-1186
▁mar	-1187
▁hour	-1188
▁mind	-1189
▁till	-1190
▁upon	-1191
.1	-1192
/\	-1193
ank	-1194
ling	-1195
oice	-1196
wait	-1197
▁mis	-1198
▁par	-1199
valid	-1200
lemented	-1201
▁himself	-1202
▁heard	-1203
"\	-1204
▁spe	-1205
trace	-1206
ale	-1207
▁sat	-1208
▁looked	-1209
:]	-1210
aut	-1211
▁frame	-1212
▁write	-1213
▁ob	-1214
▁Ch	-1215
lags	-1216
▁used	-1217
rem	-1218
▁giv	-1219
▁conn	-1220
Return	-1221
reader	-1222
____	-1223
prec	-1224
▁dist	-1225
SI	-1226
lit	-1227
run	-1228
tar	-1229
▁\)	-1230
▁inst	-1231
▁contin	-1232
▁St	-1233
▁du	-1234
ters	-1235
▁number	-1236
▁through	-1237
ax	-1238
Imp	-1239
var	-1240
EN	-1241
▁att	-1242
ssage	-1243
▁case	-1244
action	-1245
ib	-1246
del	-1247
▁val	-1248
▁left	-1249
▁told	-1250
▁dig	-1251
▁hear	-1252
Well	-1253
▁eyes	-1254
St	-1255
comp	-1256
▁Then	-1257
ceived	-1258
####	-1259
year	-1260
ING	-1261
▁felt	-1262
ertain	-1263
sort	-1264
▁For	-1265
▁arg	-1266
state	-1267
▁foll	-1268
▁gener	-1269
▁visit	-1270
▁better	-1271
zip	-1272
▁<=	-1273
▁ms	-1274
MODU	-1275
▁conf	-1276
▁reck	-1277
▁future	-1278
▁transport	-1279
mon	-1280
raw	-1281
▁4	-1282
idth	-1283
LI	-1284
off	-1285
conn	-1286
ower	-1287
[0-9]	-1288
rence	-1289
version	-1290
000	-1291
lied	-1292
▁'{}'	-1293
▁less	-1294
▁input	-1295
▁something	-1296
▁!=	-1297
▁pers	-1298
Implemented	-1299
AD	-1300
man	-1301
▁cp	-1302
▁three	-1303
DI	-1304
ues	-1305
▁em	-1306
check	-1307
MODULE	-1308
▁couldn	-1309
▁NotImplemented	-1310
▁5	-1311
▁There	-1312
timeout	-1313
host	-1314
ople	-1315
part	-1316
▁half	-1317
▁young	-1318
▁function	-1319
▁charact	-1320
cale	-1321
down	-1322
imit	-1323
▁ask	-1324
▁"*	-1325
▁CHA	-1326
▁cannot	-1327
protocol	-1328
head	-1329
econds	-1330
transport	-1331
used	-1332
cancel	-1333
▁child	-1334
▁comple	-1335
=$(	-1336
orm	-1337
pped	-1338
▁mor	-1339
aking	-1340
empty	-1341
ef	-1342
ush	-1343
▁My	-1344
▁ssl	-1345
▁year	-1346
result	-1347
▁anything	-1348
▁"\	-1349
▁[]	-1350
form	-1351
word	-1352
▁ear	-1353
group	-1354
▁life	-1355
▁heart	-1356
1,	-1357
md	-1358
▁]	-1359
▁msg	-1360
▁ref	-1361
inter	-1362
▁room	-1363
▁town	-1364
▁towards	-1365
exception	-1366
']	-1367
('1	-1368
iet	-1369
ready	-1370
▁await	-1371
▁reckon	-1372
DE	-1373
SS	-1374
but	-1375
▁det	-1376
ments	-1377
python	-1378
ote	-1379
tty	-1380
▁che	-1381
▁came	-1382
▁walk	-1383
▁wouldn	-1384
fort	-1385
▁beh	-1386
▁cour	-1387
▁sure	-1388
▁&	-1389
PTER	-1390
html	-1391
test	-1392
▁sho	-1393
▁gent	-1394
▁CHAPTER	-1395
ract	-1396
▁cre	-1397
filename	-1398
ten	-1399
ager	-1400
stem	-1401
month	-1402
▁args	-1403
▁super	-1404
▁filename	-1405
().	-1406
gra	-1407
▁os	-1408
▁std	-1409
stats	-1410
▁things	-1411
UT	-1412
['	-1413
that	-1414
ility	-1415
▁world	-1416
▁offset	-1417
gz	-1418
▁mv	-1419
▁nig	-1420
▁keep	-1421
▁open	-1422
▁tail	-1423
LD	-1424
ince	-1425
\.	-1426
rc	-1427
ham	-1428
uct	-1429
▁hard	-1430
(_	-1431
ery	-1432
▁app	-1433
space	-1434
ython	-1435
▁both	-1436
▁diffe	-1437
▁passed	-1438
▁current	-1439
wh	-1440
========	-1441
ted	-1442
dict	-1443
hist	-1444
▁ter	-1445
False	-1446
▁days	-1447
config	-1448
dia	-1449
▁'%	-1450
▁~/	-1451
▁once	-1452
/'	-1453
msg	-1454
augh	-1455
▁uni	-1456
▁wish	-1457
▁gentle	-1458
▁people	-1459
ump	-1460
▁gl	-1461
quest	-1462
▁mode	-1463
debug	-1464
▁text	-1465
FI	-1466
ey	-1467
▁*.	-1468
with	-1469
ystem	-1470
ickham	-1471
▁present	-1472
[1	-1473
▁cl	-1474
▁wr	-1475
aint	-1476
oint	-1477
▁sudo	-1478
▁test	-1479
▁extra	-1480
▁whole	-1481
▁dat	-1482
right	-1483
comple	-1484
FL	-1485
PE	-1486
[:	-1487
iled	-1488
null	-1489
oper	-1490
▁sur	-1491
▁Coll	-1492
option	-1493
source	-1494
▁began	-1495
lib	-1496
map	-1497
arser	-1498
▁socket	-1499
▁Collins	-1500
2.	-1501
les	-1502
▁$1	-1503
▁('	-1504
▁fut	-1505
▁hope	-1506
▁Wickham	-1507
Oh	-1508
ew	-1509
ient	-1510
foo	-1511
▁ide	-1512
▁>=	-1513
▁tar	-1514
▁pretty	-1515
iver	-1516
oder	-1517
pipe	-1518
index	-1519
▁high	-1520
▁home	-1521
=1	-1522
▁gir	-1523
ately	-1524
ature	-1525
▁Type	-1526
▁mother	-1527
▁certain	-1528
/_	-1529
dd	-1530
cor	-1531
verse	-1532
▁also	-1533
▁mean	-1534
▁returned	-1535
▁Y	-1536
ron	-1537
ves	-1538
▁each	-1539
attern	-1540
erable	-1541
offset	-1542
history	-1543
▁exception	-1544
ool	-1545
pes	-1546
▁'/	-1547
frame	-1548
▁module	-1549
CK	-1550
▁"%	-1551
warn	-1552
ating	-1553
▁minute	-1554
▁express	-1555
ux	-1556
link	-1557
close	-1558
lines	-1559
▁stop	-1560
fl	-1561
'):	-1562
unk	-1563
rest	-1564
▁far	-1565
▁state	-1566
▁those	-1567
fold	-1568
ained	-1569
clude	-1570
▁door	-1571
strings	-1572
cas	-1573
grep	-1574
▁gone	-1575
▁close	-1576
2,	-1577
▁mk	-1578
sync	-1579
▁seen	-1580
▁TypeError	-1581
20	-1582
OM	-1583
ete	-1584
▁sk	-1585
ason	-1586
▁inde	-1587
▁love	-1588
▁wind	-1589
ration	-1590
▁light	-1591
▁encoding	-1592
ET	-1593
fun	-1594
▁'*	-1595
ical	-1596
writ	-1597
▁Lady	-1598
ug	-1599
fut	-1600
here	-1601
ified	-1602
▁Well	-1603
▁form	-1604
▁user	-1605
rectory	-1606
▁morning	-1607
og	-1608
,--	-1609
▁men	-1610
process	-1611
reading	-1612
▁assert	-1613
AN	-1614
TE	-1615
▁Ly	-1616
▁fl	-1617
▁side	-1618
())	-1619
oke	-1620
FLAG	-1621
lect	-1622
ween	-1623
▁cle	-1624
llust	-1625
▁moment	-1626
ero	-1627
▁prom	-1628
▁Lydia	-1629
▁feelings	-1630
/*	-1631
86	-1632
No	-1633
▁At	-1634
▁pi	-1635
▁pur	-1636
▁unt	-1637
method	-1638
▁since	-1639
It	-1640
wd	-1641
exc	-1642
hes	-1643
most	-1644
▁few	-1645
ouble	-1646
▁near	-1647
▁given	-1648
▁point	-1649
▁support	-1650
TR	-1651
vid	-1652
dest	-1653
leep	-1654
▁rel	-1655
ision	-1656
onder	-1657
times	-1658
▁mkdir	-1659
sel	-1660
upt	-1661
▁ye	-1662
akes	-1663
list	-1664
wargs	-1665
▁whom	-1666
▁appear	-1667
▁consid	-1668
Com	-1669
etc	-1670
join	-1671
ular	-1672
▁chown	-1673
▁quite	-1674
▁command	-1675
])	-1676
▁letter	-1677
▁between	-1678
▁however	-1679
ilt	-1680
ock	-1681
php	-1682
ssl	-1683
stri	-1684
▁nor	-1685
▁path	-1686
aps	-1687
dig	-1688
umn	-1689
FLAGS	-1690
bytes	-1691
width	-1692
(),	-1693
cat	-1694
sum	-1695
▁sl	-1696
actory	-1697
outine	-1698
▁nigger	-1699
55	-1700
='	-1701
mem	-1702
0000	-1703
iter	-1704
▁act	-1705
▁nec	-1706
▁tri	-1707
▁king	-1708
▁believe	-1709
llustration	-1710
OF	-1711
use	-1712
▁acc	-1713
▁best	-1714
▁using	-1715
▁either	-1716
Illustration	-1717
ros	-1718
ual	-1719
oken	-1720
week	-1721
▁acqu	-1722
▁uniq	-1723
lineno	-1724
▁local	-1725
▁river	-1726
11	-1727
56	-1728
aN	-1729
▁sn	-1730
▁seemed	-1731
bar	-1732
isf	-1733
mpt	-1734
▁foo	-1735
▁join	-1736
PI	-1737
pg	-1738
aid	-1739
apt	-1740
ped	-1741
▁'.	-1742
curs	-1743
pport	-1744
▁poor	-1745
▁writ	-1746
utdown	-1747
▁indeed	-1748
▁stream	-1749
▁replied	-1750
??	-1751
ren	-1752
you	-1753
▁As	-1754
done	-1755
▁won	-1756
arent	-1757
▁info	-1758
▁mount	-1759
▁often	-1760
▁trace	-1761
▁address	-1762
1.	-1763
ATE	-1764
What	-1765
bour	-1766
▁non	-1767
etime	-1768
uring	-1769
▁That	-1770
▁already	-1771
▁character	-1772
der	-1773
ern	-1774
▁'-	-1775
▁**	-1776
▁av	-1777
medi	-1778
▁base	-1779
▁daugh	-1780
▁source	-1781
register	-1782
II	-1783
IO	-1784
▁2>	-1785
▁es	-1786
▁equ	-1787
▁opt	-1788
avour	-1789
files	-1790
▁What	-1791
▁until	-1792
MA	-1793
iew	-1794
▁gu	-1795
ures	-1796
extra	-1797
▁tuple	-1798
▁course	-1799
callback	-1800
glob	-1801
▁ign	-1802
▁var	-1803
icros	-1804
▁exec	-1805
▁voice	-1806
num	-1807
und	-1808
ually	-1809
▁code	-1810
▁face	-1811
▁full	-1812
finity	-1813
)"	-1814
mt	-1815
cls	-1816
ene	-1817
ense	-1818
ited	-1819
like	-1820
▁lay	-1821
▁lik	-1822
field	-1823
regex	-1824
gether	-1825
module	-1826
stract	-1827
▁creat	-1828
▁stand	-1829
special	-1830
▁reason	-1831
tz	-1832
jpg	-1833
Read	-1834
▁eas	-1835
▁care	-1836
▁glob	-1837
▁hist	-1838
▁suff	-1839
▁wood	-1840
socket	-1841
▁hands	-1842
▁attent	-1843
▁handle	-1844
▁brother	-1845
▁possible	-1846
wer	-1847
ceed	-1848
help	-1849
▁car	-1850
cript	-1851
▁power	-1852
▁output	-1853
_,	-1854
Why	-1855
rew	-1856
ued	-1857
▁adv	-1858
▁ssh	-1859
▁cried	-1860
▁happy	-1861
▁satisf	-1862
▁arguments	-1863
▁different	-1864
NT	-1865
land	-1866
▁ast	-1867
▁flo	-1868
▁lar	-1869
stack	-1870
▁comm	-1871
▁prec	-1872
delete	-1873
▁turned	-1874
-3	-1875
ci	-1876
zy	-1877
DIR	-1878
mag	-1879
ross	-1880
▁ins	-1881
▁words	-1882
▁Return	-1883
▁having	-1884
▁server	-1885
▁everything	-1886
----	-1887
ains	-1888
ison	-1889
▁exact	-1890
pattern	-1891
▁second	-1892
▁waiter	-1893
▁whether	-1894
directory	-1895
'\	-1896
Pr	-1897
▁hum	-1898
▁low	-1899
▁spir	-1900
[^	-1901
],	-1902
Yes	-1903
src	-1904
▁dr	-1905
ably	-1906
illi	-1907
newer	-1908
▁fell	-1909
▁fold	-1910
▁idea	-1911
closed	-1912
gative	-1913
handle	-1914
▁among	-1915
▁group	-1916
▁person	-1917
);	-1918
ES	-1919
{}	-1920
oney	-1921
repr	-1922
ample	-1923
parse	-1924
which	-1925
▁dead	-1926
▁dict	-1927
prefix	-1928
convert	-1929
▁implement	-1930
'.	-1931
arm	-1932
ots	-1933
▁ty	-1934
▁tz	-1935
ches	-1936
▁His	-1937
▁How	-1938
owing	-1939
▁duke	-1940
▁requ	-1941
illiam	-1942
▁beaut	-1943
▁watch	-1944
CH	-1945
NA	-1946
oe	-1947
Que	-1948
▁dark	-1949
command	-1950
▁answer	-1951
▁country	-1952
▁message	-1953
23	-1954
—”	-1955
▁}	-1956
idd	-1957
oud	-1958
FILE	-1959
ates	-1960
item	-1961
mind	-1962
▁jud	-1963
chars	-1964
input	-1965
raise	-1966
▁true	-1967
▁match	-1968
▁position	-1969
CT	-1970
▁sw	-1971
ined	-1972
ured	-1973
▁div	-1974
▁delight	-1975
▁history	-1976
▁instance	-1977
▁:	-1978
oub	-1979
sys	-1980
ents	-1981
▁leave	-1982
present	-1983
▁immedi	-1984
▁trouble	-1985
▁pleasure	-1986
.0	-1987
.—	-1988
TH	-1989
"),	-1990
prot	-1991
reen	-1992
▁...	-1993
▁boy	-1994
▁tee	-1995
▁least	-1996
▁rsync	-1997
▁short	-1998
ination	-1999
▁direct	-2000
▁length	-2001
encoding	-2002
ift	-2003
aken	-2004
ines	-2005
ized	-2006
ural	-2007
▁bus	-2008
▁fix	-2009
tempt	-2010
pd	-2011
▁6	-2012
ific	-2013
▁abs	-2014
▁eff	-2015
▁gra	-2016
▁resol	-2017
▁subject	-2018
ece	-2019
bute	-2020
haps	-2021
root	-2022
▁big	-2023
▁eng	-2024
▁sum	-2025
ename	-2026
spect	-2027
▁mile	-2028
▁manner	-2029
▁wonder	-2030
traverse	-2031
▁looking	-2032
▁affection	-2033
32	-2034
▁1;	-2035
copy	-2036
▁suc	-2037
▁Huck	-2038
▁dest	-2039
▁sile	-2040
▁appro	-2041
▁whose	-2042
▁Cather	-2043
▁integer	-2044
traceback	-2045
▁together	-2046
▁Catherine	-2047
14	-2048
64-	-2049
ages	-2050
ased	-2051
epth	-2052
oman	-2053
pper	-2054
▁max	-2055
▁ste	-2056
▁stay	-2057
▁allow	-2058
▁lines	-2059
▁rather	-2060
▁represent	-2061
▁1)	-2062
▁Con	-2063
▁hor	-2064
point	-2065
ousand	-2066
▁water	-2067
▁wanted	-2068
mindepth	-2069
old	-2070
pid	-2071
▁No	-2072
temp	-2073
wise	-2074
▁inv	-2075
flags	-2076
riage	-2077
stant	-2078
▁date	-2079
celled	-2080
dirname	-2081
▁coming	-2082
▁digits	-2083
▁values	-2084
▁callback	-2085
('0	-2086
▁OS	-2087
addr	-2088
miss	-2089
▁rev	-2090
tered	-2091
▁gave	-2092
▁pipe	-2093
server	-2094
▁really	-2095
UP	-2096
▁‘	-2097
Int	-2098
ier	-2099
who	-2100
elta	-2101
gram	-2102
▁fre	-2103
▁hur	-2104
cache	-2105
▁sent	-2106
▁years	-2107
cedence	-2108
shutdown	-2109
▁friends	-2110
abc	-2111
win	-2112
fect	-2113
▁cir	-2114
color	-2115
▁Mary	-2116
▁cond	-2117
▁bound	-2118
▁surpr	-2119
replace	-2120
doc	-2121
▁adm	-2122
▁bit	-2123
▁raw	-2124
State	-2125
ached	-2126
▁item	-2127
quence	-2128
▁added	-2129
▁empty	-2130
▁field	-2131
▁flags	-2132
▁Python	-2133
▁closed	-2134
85	-2135
sv	-2136
Name	-2137
base	-2138
full	-2139
round	-2140
▁aunt	-2141
▁raft	-2142
▁means	-2143
▁times	-2144
▁Modules	-2145
▁underst	-2146
SO	-2147
UL	-2148
cu	-2149
▁X	-2150
cap	-2151
men	-2152
www	-2153
▁On	-2154
▁bed	-2155
itted	-2156
▁play	-2157
▁temp	-2158
create	-2159
▁table	-2160
▁yield	-2161
asename	-2162
Tr	-2163
But	-2164
fra	-2165
ian	-2166
ton	-2167
▁&&	-2168
▁+1	-2169
▁ln	-2170
flow	-2171
▁yes	-2172
andle	-2173
aused	-2174
▁book	-2175
▁sens	-2176
▁sound	-2177
▁woman	-2178
current	-2179
factory	-2180
▁column	-2181
▁errors	-2182
▁execut	-2183
▁hardly	-2184
▁received	-2185
STR	-2186
opt	-2187
TION	-2188
oded	-2189
▁ill	-2190
Event	-2191
▁money	-2192
▁almost	-2193
▁happiness	-2194
]:	-2195
ify	-2196
oop	-2197
ung	-2198
▁cr	-2199
NAME	-2200
aste	-2201
port	-2202
▁ext	-2203
ering	-2204
▁fort	-2205
▁knew	-2206
untime	-2207
▁speak	-2208
▁everybody	-2209
HO	-2210
hi	-2211
igin	-2212
next	-2213
▁range	-2214
▁remem	-2215
▁necess	-2216
▁against	-2217
▁thousand	-2218
br	-2219
ref	-2220
tle	-2221
▁Ar	-2222
▁sy	-2223
just	-2224
names	-2225
▁perfect	-2226
▁therefore	-2227
uz	-2228
}')	-2229
▁"$(	-2230
▁Why	-2231
▁hop	-2232
▁sor	-2233
delta	-2234
________	-2235
lections	-2236
▁anybody	-2237
▁sometimes	-2238
utes	-2239
▁Key	-2240
▁tre	-2241
▁large	-2242
peration	-2243
1/	-2244
ee	-2245
FOR	-2246
make	-2247
▁mem	-2248
▁swe	-2249
ailed	-2250
anger	-2251
▁imag	-2252
▁real	-2253
kwargs	-2254
▁compan	-2255
▁partic	-2256
▁interest	-2257
dis	-2258
loc	-2259
▁All	-2260
▁fet	-2261
ormal	-2262
▁Char	-2263
▁copy	-2264
▁others	-2265
▁finally	-2266
Operation	-2267
▁acquaint	-2268
▁immediately	-2269
BU	-2270
__,	-2271
nal	-2272
char	-2273
▁'',	-2274
▁tot	-2275
iment	-2276
shake	-2277
▁kill	-2278
fileno	-2279
▁small	-2280
Invalid	-2281
▁lineno	-2282
OP	-2283
\)	-2284
db	-2285
──	-2286
{}"	-2287
▁pap	-2288
▁Long	-2289
operty	-2290
ization	-2291
▁events	-2292
▁screen	-2293
Protocol	-2294
▁convers	-2295
▁operand	-2296
▁yourself	-2297
=/	-2298
now	-2299
uth	-2300
▁*,	-2301
▁XX	-2302
exit	-2303
func	-2304
▁buf	-2305
▁body	-2306
▁mult	-2307
▁death	-2308
▁names	-2309
tribute	-2310
Exception	-2311
2)	-2312
tt	-2313
▁8	-2314
LIB	-2315
iety	-2316
▁met	-2317
▁top	-2318
level	-2319
▁girl	-2320
▁quest	-2321
▁allowed	-2322
SC	-2323
('-	-2324
▁id	-2325
File	-2326
lost	-2327
over	-2328
▁air	-2329
queue	-2330
▁circ	-2331
▁glad	-2332
▁prev	-2333
remove	-2334
▁asked	-2335
▁reader	-2336
▁saying	-2337
▁exceptions	-2338
,-	-2339
MP	-2340
ache	-2341
airs	-2342
▁sec	-2343
actor	-2344
board	-2345
iable	-2346
waiter	-2347
▁alone	-2348
▁split	-2349
▁uncle	-2350
message	-2351
▁behind	-2352
▁during	-2353
▁longer	-2354
▁raised	-2355
▁running	-2356
12	-2357
kf	-2358
rf	-2359
▁$2	-2360
▁ut	-2361
ject	-2362
annot	-2363
items	-2364
onent	-2365
▁arri	-2366
▁doub	-2367
▁four	-2368
selves	-2369
▁limit	-2370
▁sleep	-2371
########	-2372
((	-2373
/^	-2374
77	-2375
FA	-2376
And	-2377
ava	-2378
ateg	-2379
▁Her	-2380
▁Que	-2381
▁\*.	-2382
▁mur	-2383
aster	-2384
await	-2385
tuple	-2386
▁addr	-2387
▁lock	-2388
▁deter	-2389
▁exist	-2390
uffered	-2391
▁change	-2392
▁parser	-2393
▁connection	-2394
-1]	-2395
orth	-2396
proc	-2397
▁cls	-2398
▁liv	-2399
fully	-2400
▁Base	-2401
▁iter	-2402
▁mark	-2403
▁show	-2404
overed	-2405
▁block	-2406
▁notice	-2407
▁thread	-2408
▁OSError	-2409
▁account	-2410
▁daughter	-2411
60	-2412
My	-2413
▁;	-2414
nan	-2415
dden	-2416
▁pop	-2417
▁ten	-2418
▁fool	-2419
▁root	-2420
▁check	-2421
Modules	-2422
▁provid	-2423
▁sudden	-2424
position	-2425
▁perhaps	-2426
PY	-2427
SH	-2428
UN	-2429
xy	-2430
buf	-2431
oid	-2432
▁AN	-2433
▁OR	-2434
▁}'	-2435
ides	-2436
▁"${	-2437
STATE	-2438
anged	-2439
ardin	-2440
inary	-2441
length	-2442
▁tasks	-2443
handler	-2444
▁Gardin	-2445
▁signal	-2446
▁asyncio	-2447
▁attempt	-2448
▁instead	-2449
▁appeared	-2450
▁continue	-2451
1"	-2452
://	-2453
OUR	-2454
bed	-2455
cape	-2456
▁Col	-2457
▁rec	-2458
▁sim	-2459
inner	-2460
itten	-2461
▁white	-2462
▁Runtime	-2463
▁methods	-2464
]*	-2465
irt	-2466
non	-2467
▁TH	-2468
▁“_	-2469
Base	-2470
ront	-2471
ship	-2472
▁conv	-2473
▁disc	-2474
▁prot	-2475
▁send	-2476
struct	-2477
▁above	-2478
▁begin	-2479
▁expect	-2480
▁William	-2481
▁returns	-2482
CON	-2483
Pro	-2484
ami	-2485
eof	-2486
wra	-2487
▁1:	-2488
▁An	-2489
▁By	-2490
ster	-2491
▁100	-2492
creen	-2493
▁ende	-2494
locale	-2495
stdout	-2496
▁hours	-2497
▁sight	-2498
▁datetime	-2499
▁attention	-2500
▁continued	-2501
=`	-2502
ED	-2503
SY	-2504
son	-2505
▁''	-2506
▁Al	-2507
▁Do	-2508
▁cd	-2509
▁fd	-2510
izzy	-2511
olic	-2512
▁bar	-2513
▁den	-2514
atime	-2515
except	-2516
losing	-2517
▁tried	-2518
ference	-2519
▁inform	-2520
▁opcode	-2521
▁business	-2522
AB	-2523
ks	-2524
ye	-2525
644	-2526
ook	-2527
ray	-2528
▁md	-2529
OUND	-2530
mode	-2531
▁755	-2532
▁fur	-2533
▁inf	-2534
▁sit	-2535
async	-2536
light	-2537
linux	-2538
▁obser	-2539
Command	-2540
ategory	-2541
▁months	-2542
▁comfort	-2543
▁evening	-2544
▁getattr	-2545
▁minutes	-2546
▁RuntimeError	-2547
0)	-2548
1)	-2549
Wl	-2550
go	-2551
ob	-2552
ict	-2553
way	-2554
▁${	-2555
▁0)	-2556
cell	-2557
▁dev	-2558
▁why	-2559
elect	-2560
ience	-2561
ighty	-2562
▁conc	-2563
▁whis	-2564
micros	-2565
▁total	-2566
locking	-2567
▁knowed	-2568
hostname	-2569
precated	-2570
▁subclass	-2571
30	-2572
;'	-2573
86_	-2574
ALL	-2575
eff	-2576
ios	-2577
pec	-2578
send	-2579
stat	-2580
stru	-2581
licit	-2582
▁"{}"	-2583
▁desp	-2584
▁fall	-2585
▁lost	-2586
object	-2587
▁comes	-2588
▁separ	-2589
actions	-2590
weekday	-2591
▁accept	-2592
▁timeout	-2593
handshake	-2594
▁children	-2595
connection	-2596
▁certainly	-2597
fil	-2598
lag	-2599
umb	-2600
yer	-2601
▁cou	-2602
▁git	-2603
ities	-2604
▁zero	-2605
folder	-2606
▁matter	-2607
▁entered	-2608
▁objects	-2609
▁talking	-2610
▁expected	-2611
24	-2612
mn	-2613
ney	-2614
iful	-2615
ndar	-2616
otal	-2617
▁bad	-2618
▁cot	-2619
▁nat	-2620
swith	-2621
ublic	-2622
▁index	-2623
▁ought	-2624
▁spoke	-2625
support	-2626
▁nobody	-2627
▁feeling	-2628
▁Gardiner	-2629
LA	-2630
LL	-2631
VER	-2632
bit	-2633
lot	-2634
java	-2635
▁lad	-2636
▁mod	-2637
lease	-2638
olicy	-2639
▁fear	-2640
▁host	-2641
▁kept	-2642
▁ment	-2643
▁tree	-2644
decode	-2645
stderr	-2646
▁behav	-2647
▁incre	-2648
exclude	-2649
▁memory	-2650
▁within	-2651
argument	-2652
▁optional	-2653
▁understand	-2654
EX	-2655
\(	-2656
gnu	-2657
▁'_	-2658
ford	-2659
gers	-2660
lent	-2661
▁10**	-2662
▁prop	-2663
errupt	-2664
lapped	-2665
▁ready	-2666
cpython	-2667
▁itself	-2668
▁instant	-2669
▁newline	-2670
▁rounding	-2671
/$	-2672
\|	-2673
GET	-2674
got	-2675
come	-2676
days	-2677
ging	-2678
side	-2679
▁ele	-2680
▁lan	-2681
▁und	-2682
▁bool	-2683
▁foot	-2684
▁laid	-2685
▁live	-2686
aining	-2687
ignore	-2688
▁occas	-2689
▁quick	-2690
Transport	-2691
3,	-2692
Th	-2693
ley	-2694
hook	-2695
ners	-2696
open	-2697
▁obj	-2698
▁pri	-2699
▁tou	-2700
gener	-2701
lotte	-2702
▁cous	-2703
▁deep	-2704
▁lady	-2705
▁seek	-2706
▁seem	-2707
events	-2708
▁sever	-2709
▁stood	-2710
▁favour	-2711
▁exactly	-2712
▁globals	-2713
▁required	-2714
▁Charlotte	-2715
▁conversation	-2716
For	-2717
ets	-2718
ume	-2719
Loop	-2720
ases	-2721
▁Now	-2722
▁Some	-2723
▁drop	-2724
▁repe	-2725
thread	-2726
▁equal	-2727
▁files	-2728
▁effect	-2729
▁ground	-2730
▁ignore	-2731
▁success	-2732
Un	-2733
cv	-2734
sq	-2735
"):	-2736
=1;	-2737
orn	-2738
sem	-2739
▁IN	-2740
▁Lu	-2741
cing	-2742
▁'./	-2743
▁gun	-2744
bourn	-2745
chedu	-2746
reate	-2747
xargs	-2748
▁hadn	-2749
digits	-2750
ibility	-2751
running	-2752
▁ladies	-2753
▁mention	-2754
▁respect	-2755
cancelled	-2756
protection	-2757
▁Longbourn	-2758
▁necessary	-2759
▁timedelta	-2760
"'	-2761
(0,	-2762
14-	-2763
ecs	-2764
pdf	-2765
▁):	-2766
9999	-2767
fast	-2768
shire	-2769
strip	-2770
▁easy	-2771
icient	-2772
▁woods	-2773
▁became	-2774
▁logger	-2775
▁getting	-2776
▁options	-2777
▁consider	-2778
▁exponent	-2779
▁operation	-2780
▁perfectly	-2781
▁particular	-2782
50	-2783
={	-2784
He	-2785
amb	-2786
oss	-2787
coro	-2788
sume	-2789
▁ben	-2790
OURCE	-2791
ently	-2792
ledge	-2793
▁opin	-2794
▁serv	-2795
▁step	-2796
itting	-2797
opcode	-2798
▁Lucas	-2799
▁produ	-2800
pending	-2801
▁mighty	-2802
▁regard	-2803
▁process	-2804
▁coroutine	-2805
git	-2806
she	-2807
▁-=	-2808
itle	-2809
▁cap	-2810
awyer	-2811
ution	-2812
▁calc	-2813
▁free	-2814
▁perl	-2815
86_64-	-2816
▁After	-2817
▁doubt	-2818
▁sense	-2819
▁several	-2820
▁gentleman	-2821
0'	-2822
ZE	-2823
ITH	-2824
TER	-2825
lan	-2826
▁ps	-2827
TIME	-2828
That	-2829
clud	-2830
outh	-2831
vars	-2832
▁anx	-2833
▁lab	-2834
▁sun	-2835
andom	-2836
ingly	-2837
tasks	-2838
▁meet	-2839
▁stat	-2840
SOURCE	-2841
enance	-2842
screen	-2843
script	-2844
▁Lizzy	-2845
▁learn	-2846
▁maybe	-2847
▁taken	-2848
▁become	-2849
▁circum	-2850
▁comput	-2851
▁window	-2852
▁brought	-2853
▁followed	-2854
▁implementation	-2855
22	-2856
:/	-2857
da	-2858
div	-2859
▁SS	-2860
mmin	-2861
ntax	-2862
soon	-2863
your	-2864
▁htt	-2865
▁tok	-2866
apter	-2867
total	-2868
▁cold	-2869
▁coro	-2870
▁thus	-2871
▁begun	-2872
▁opened	-2873
▁origin	-2874
▁single	-2875
▁termin	-2876
property	-2877
▁console	-2878
▁general	-2879
▁sisters	-2880
";	-2881
33	-2882
ah	-2883
)):	-2884
▁'^	-2885
oved	-2886
pose	-2887
▁NaN	-2888
▁wid	-2889
CTION	-2890
chool	-2891
stdin	-2892
▁cott	-2893
▁deal	-2894
▁fire	-2895
▁five	-2896
▁func	-2897
▁inqu	-2898
Reader	-2899
stream	-2900
▁human	-2901
console	-2902
▁chance	-2903
▁nature	-2904
▁struck	-2905
subclass	-2906
▁information	-2907
TO	-2908
US	-2909
kn	-2910
sc	-2911
pwd	-2912
▁-2	-2913
▁OF	-2914
HOME	-2915
LOAD	-2916
ansl	-2917
auto	-2918
▁ago	-2919
▁env	-2920
▁hon	-2921
illed	-2922
split	-2923
▁King	-2924
▁heav	-2925
▁intr	-2926
▁mist	-2927
▁stri	-2928
active	-2929
▁eager	-2930
▁fixed	-2931
▁behavi	-2932
▁walked	-2933
▁wished	-2934
▁Chapter	-2935
▁written	-2936
▁marriage	-2937
▁warnings	-2938
/.	-2939
LIN	-2940
fno	-2941
ork	-2942
▁"/	-2943
▁("	-2944
▁To	-2945
▁df	-2946
bout	-2947
ises	-2948
▁644	-2949
▁Com	-2950
night	-2951
oured	-2952
table	-2953
▁padd	-2954
▁pain	-2955
▁rece	-2956
ressed	-2957
▁doesn	-2958
▁posit	-2959
▁Future	-2960
▁prefix	-2961
▁seeing	-2962
readlink	-2963
▁hasattr	-2964
▁raiseit	-2965
▁spirits	-2966
▁strings	-2967
▁complete	-2968
▁otherwise	-2969
▁specified	-2970
ID	-2971
NaN	-2972
dat	-2973
eor	-2974
▁fan	-2975
-314-	-2976
arest	-2977
inder	-2978
▁able	-2979
▁main	-2980
encode	-2981
tribut	-2982
▁chars	-2983
▁contr	-2984
▁doing	-2985
▁stack	-2986
▁listen	-2987
▁started	-2988
▁occasion	-2989
▁miserable	-2990
:%	-2991
\\	-2992
ia	-2993
mk	-2994
CHA	-2995
Not	-2996
Str	-2997
pop	-2998
rel	-2999
usb	-3000
▁""	-3001
Exit	-3002
aged	-3003
inte	-3004
load	-3005
▁eye	-3006
▁six	-3007
fraid	-3008
▁Just	-3009
▁hold	-3010
▁none	-3011
atever	-3012
▁avoid	-3013
▁girls	-3014
▁marry	-3015
▁persu	-3016
compare	-3017
retched	-3018
▁cousin	-3019
Infinity	-3020
▁determin	-3021
▁countenance	-3022
▁circumstance	-3023
rt	-3024
flto	-3025
only	-3026
prog	-3027
room	-3028
▁".*	-3029
▁SSL	-3030
▁bre	-3031
▁civ	-3032
▁cmd	-3033
▁err	-3034
▁joy	-3035
▁wra	-3036
dered	-3037
▁Aunt	-3038
▁prob	-3039
writing	-3040
▁create	-3041
▁natural	-3042
exceptions	-3043
▁following	-3044
RO	-3045
_.	-3046
abs	-3047
cmd	-3048
ils	-3049
ury	-3050
▁Oh	-3051
SIZE	-3052
iling	-3053
itude	-3054
▁slow	-3055
normal	-3056
though	-3057
▁types	-3058
itation	-3059
▁talked	-3060
abstract	-3061
▁opinion	-3062
▁possess	-3063
▁reckoned	-3064
▁satisfied	-3065
"]	-3066
89	-3067
js	-3068
=0,	-3069
met	-3070
▁$0	-3071
▁Un	-3072
(1);	-3073
▁';'	-3074
▁'\\	-3075
ading	-3076
iddle	-3077
water	-3078
▁Geor	-3079
▁jour	-3080
global	-3081
▁Queen	-3082
▁below	-3083
▁built	-3084
▁order	-3085
closing	-3086
▁version	-3087
IS	-3088
RA	-3089
cc	-3090
kg	-3091
('2	-3092
//'	-3093
SHA	-3094
mer	-3095
obj	-3096
▁")	-3097
▁ed	-3098
atal	-3099
▁Eng	-3100
▁Net	-3101
▁Tur	-3102
▁land	-3103
▁view	-3104
errors	-3105
iously	-3106
output	-3107
search	-3108
▁agree	-3109
▁annot	-3110
▁build	-3111
▁clear	-3112
▁known	-3113
▁quiet	-3114
Console	-3115
complete	-3116
▁convert	-3117
▁cancelled	-3118
▁precision	-3119
IL	-3120
NE	-3121
ov	-3122
ird	-3123
lig	-3124
ols	-3125
▁Wh	-3126
itty	-3127
lict	-3128
onel	-3129
ping	-3130
usic	-3131
▁Int	-3132
▁sir	-3133
oring	-3134
▁bash	-3135
▁boys	-3136
▁curs	-3137
▁gzip	-3138
idered	-3139
target	-3140
▁aston	-3141
▁occur	-3142
LDFLAGS	-3143
▁Nether	-3144
▁afraid	-3145
▁descri	-3146
▁likely	-3147
▁Netherfield	-3148
KE	-3149
]'	-3150
how	-3151
joy	-3152
aded	-3153
ants	-3154
hour	-3155
rupt	-3156
what	-3157
ying	-3158
▁'.*	-3159
exact	-3160
first	-3161
match	-3162
types	-3163
▁exit	-3164
▁miss	-3165
▁wife	-3166
Handle	-3167
indent	-3168
lected	-3169
signal	-3170
triple	-3171
▁Every	-3172
▁dread	-3173
▁neigh	-3174
▁smile	-3175
▁tears	-3176
mission	-3177
▁escape	-3178
▁making	-3179
▁complet	-3180
▁keyword	-3181
EventLoop	-3182
▁breakfast	-3183
▁considered	-3184
▁themselves	-3185
.]	-3186
CL	-3187
FO	-3188
lt	-3189
wm	-3190
How	-3191
mark	-3192
ools	-3193
rely	-3194
▁gri	-3195
▁hid	-3196
▁son	-3197
ifier	-3198
ondon	-3199
reset	-3200
▁fast	-3201
▁port	-3202
▁sick	-3203
Future	-3204
▁black	-3205
▁party	-3206
▁paste	-3207
▁London	-3208
▁remark	-3209
▁seconds	-3210
▁suppose	-3211
▁beautiful	-3212
▁characters	-3213
If	-3214
();	-3215
arc	-3216
cmp	-3217
cup	-3218
env	-3219
....	-3220
Type	-3221
cend	-3222
cont	-3223
stop	-3224
tled	-3225
zone	-3226
▁lot	-3227
clear	-3228
lying	-3229
▁byte	-3230
▁jump	-3231
▁late	-3232
▁Kitty	-3233
▁cause	-3234
▁makes	-3235
▁stdin	-3236
address	-3237
mainder	-3238
▁across	-3239
▁depend	-3240
▁misery	-3241
▁prompt	-3242
▁dirname	-3243
▁manners	-3244
▁remember	-3245
▁resolved	-3246
2-	-3247
Sh	-3248
["	-3249
cf	-3250
}:	-3251
ACK	-3252
ULT	-3253
svn	-3254
xml	-3255
}")	-3256
avar	-3257
cket	-3258
nest	-3259
▁dri	-3260
().__	-3261
__.__	-3262
limit	-3263
ustom	-3264
▁dare	-3265
▁doll	-3266
▁draw	-3267
▁hain	-3268
▁shut	-3269
arning	-3270
indows	-3271
▁debug	-3272
awaited	-3273
modules	-3274
▁former	-3275
▁parent	-3276
▁strong	-3277
▁forward	-3278
▁married	-3279
▁silence	-3280
▁happened	-3281
abstractmethod	-3282
($	-3283
NR	-3284
af	-3285
ARD	-3286
ITE	-3287
PRE	-3288
was	-3289
▁ev	-3290
alth	-3291
bers	-3292
diff	-3293
hash	-3294
iron	-3295
urch	-3296
▁Res	-3297
▁Sid	-3298
▁mad	-3299
stroy	-3300
▁clot	-3301
elling	-3302
paused	-3303
tzinfo	-3304
uation	-3305
update	-3306
▁oblig	-3307
▁piece	-3308
▁sorry	-3309
ailable	-3310
▁Stream	-3311
▁locale	-3312
▁stdout	-3313
▁trying	-3314
received	-3315
▁Colonel	-3316
▁thinking	-3317
▁thoughts	-3318
▁namespace	-3319
/"	-3320
IX	-3321
cb	-3322
fs	-3323
ns	-3324
rb	-3325
vf	-3326
pkg	-3327
▁+2	-3328
▁20	-3329
aves	-3330
▁"__	-3331
▁dey	-3332
▁fra	-3333
▁pat	-3334
▁wit	-3335
aring	-3336
▁fail	-3337
▁grat	-3338
common	-3339
utable	-3340
▁enjoy	-3341
▁fetch	-3342
▁meant	-3343
alendar	-3344
example	-3345
ossible	-3346
▁Sawyer	-3347
▁middle	-3348
tributes	-3349
▁reading	-3350
▁constant	-3351
▁creature	-3352
▁directly	-3353
02	-3354
DO	-3355
gh	-3356
ze	-3357
/.*	-3358
256	-3359
PAT	-3360
top	-3361
▁De	-3362
▁cy	-3363
amed	-3364
ards	-3365
rage	-3366
▁2>/	-3367
▁EOF	-3368
▁One	-3369
▁pow	-3370
▁sou	-3371
▁wis	-3372
ember	-3373
ising	-3374
laced	-3375
omain	-3376
▁bank	-3377
▁fair	-3378
▁hair	-3379
▁pict	-3380
▁plan	-3381
▁repr	-3382
▁stre	-3383
ically	-3384
number	-3385
strict	-3386
▁recol	-3387
▁width	-3388
ections	-3389
lection	-3390
▁honour	-3391
▁remove	-3392
▁stderr	-3393
▁calling	-3394
▁greater	-3395
▁prevent	-3396
▁somebody	-3397
startswith	-3398
▁appearance	-3399
$'	-3400
=3	-3401
OL	-3402
sk	-3403
▁q	-3404
...	-3405
[1]	-3406
▁ru	-3407
ATTR	-3408
gest	-3409
ided	-3410
iler	-3411
main	-3412
osed	-3413
▁THE	-3414
▁XXX	-3415
▁ali	-3416
▁bro	-3417
▁est	-3418
cover	-3419
▁husb	-3420
insert	-3421
writer	-3422
▁early	-3423
▁touch	-3424
Returns	-3425
ishment	-3426
▁choice	-3427
cheduled	-3428
negative	-3429
▁husband	-3430
▁journey	-3431
▁question	-3432
▁acquaintance	-3433
InvalidOperation	-3434
SU	-3435
UE	-3436
OUT	-3437
READ	-3438
XXXX	-3439
hood	-3440
ices	-3441
unic	-3442
when	-3443
▁mon	-3444
slots	-3445
▁fine	-3446
▁vill	-3447
anging	-3448
atched	-3449
▁canoe	-3450
▁nearly	-3451
▁rename	-3452
▁spirit	-3453
basename	-3454
nonlocal	-3455
▁created	-3456
▁decimal	-3457
▁neither	-3458
▁stopped	-3459
▁defaults	-3460
▁provided	-3461
▁behaviour	-3462
▁neighbour	-3463
▁breakpoint	-3464
)'	-3465
88	-3466
=$	-3467
UR	-3468
rm	-3469
rw	-3470
xx	-3471
ech	-3472
lar	-3473
cher	-3474
ctor	-3475
enev	-3476
into	-3477
last	-3478
mend	-3479
pect	-3480
seek	-3481
▁Don	-3482
ively	-3483
▁safe	-3484
apping	-3485
return	-3486
▁These	-3487
▁dream	-3488
▁scene	-3489
▁common	-3490
▁entire	-3491
ystemExit	-3492
▁believed	-3493
▁surprised	-3494
▁BaseException	-3495
AM	-3496
NF	-3497
Col	-3498
ORD	-3499
SET	-3500
any	-3501
cii	-3502
ics	-3503
tom	-3504
10**	-3505
▁CON	-3506
▁Let	-3507
▁Set	-3508
▁deg	-3509
▁eat	-3510
▁seq	-3511
▁Note	-3512
▁hund	-3513
▁mine	-3514
▁prep	-3515
▁prog	-3516
termin	-3517
▁conce	-3518
▁thank	-3519
▁silent	-3520
opyright	-3521
coroutine	-3522
supported	-3523
▁ifconfig	-3524
▁negative	-3525
================	-3526
EG	-3527
OT	-3528
PS	-3529
]]	-3530
('3	-3531
sql	-3532
▁()	-3533
▁//	-3534
▁hi	-3535
▁nl	-3536
????	-3537
CALL	-3538
iced	-3539
play	-3540
teen	-3541
▁See	-3542
break	-3543
eness	-3544
▁gard	-3545
▁tone	-3546
arcely	-3547
▁cross	-3548
▁encod	-3549
▁float	-3550
▁token	-3551
▁worth	-3552
▁advant	-3553
▁forgot	-3554
▁clothes	-3555
▁decoder	-3556
▁destroy	-3557
▁settled	-3558
Interrupt	-3559
▁positive	-3560
▁remained	-3561
precedence	-3562
.’	-3563
2]	-3564
LC	-3565
WA	-3566
We	-3567
("%	-3568
ARY	-3569
Can	-3570
Hel	-3571
ief	-3572
udi	-3573
▁UT	-3574
('-1	-3575
Iter	-3576
[0];	-3577
ries	-3578
will	-3579
▁ang	-3580
▁dog	-3581
▁fif	-3582
▁inn	-3583
▁$1}'	-3584
▁Cler	-3585
▁assu	-3586
▁died	-3587
String	-3588
[0]=1;	-3589
justed	-3590
parent	-3591
▁calls	-3592
▁dance	-3593
▁shore	-3594
▁sweet	-3595
▁throw	-3596
▁usual	-3597
keyword	-3598
▁George	-3599
▁indent	-3600
▁needed	-3601
▁system	-3602
▁concern	-3603
▁engaged	-3604
▁pleased	-3605
▁determined	-3606
tributeError	-3607
boardInterrupt	-3608
FS	-3609
▁12	-3610
▁ca	-3611
▁ov	-3612
qual	-3613
rier	-3614
▁END	-3615
▁mot	-3616
▁opp	-3617
aving	-3618
ially	-3619
ident	-3620
where	-3621
▁Read	-3622
▁arch	-3623
▁prof	-3624
▁soft	-3625
▁stud	-3626
locked	-3627
system	-3628
▁color	-3629
▁compl	-3630
▁egrep	-3631
▁false	-3632
▁lived	-3633
invalid	-3634
▁Turtle	-3635
▁cursor	-3636
▁dinner	-3637
▁fellow	-3638
▁instru	-3639
▁judged	-3640
▁select	-3641
▁Clerval	-3642
▁contain	-3643
▁futures	-3644
▁writing	-3645
▁category	-3646
▁kindness	-3647
▁scarcely	-3648
▁suddenly	-3649
▁surprise	-3650
▁whatever	-3651
▁endeavour	-3652
▁expressed	-3653
▁knowledge	-3654
▁difference	-3655
▁collections	-3656
!_	-3657
16	-3658
To	-3659
``	-3660
ev	-3661
}{	-3662
1",	-3663
Pre	-3664
ces	-3665
ony	-3666
rer	-3667
▁AB	-3668
▁\!	-3669
[-1]	-3670
atio	-3671
ives	-3672
pack	-3673
show	-3674
▁'__	-3675
▁mid	-3676
flush	-3677
orrow	-3678
urity	-3679
usion	-3680
▁With	-3681
▁Your	-3682
▁warm	-3683
Werror	-3684
accept	-3685
atform	-3686
codecs	-3687
import	-3688
values	-3689
▁impro	-3690
▁nargs	-3691
▁offic	-3692
Warning	-3693
▁compar	-3694
▁divmod	-3695
▁dollars	-3696
▁proceed	-3697
▁waiting	-3698
▁basename	-3699
▁original	-3700
▁afterwards	-3701
"{	-3702
pm	-3703
(1)	-3704
Set	-3705
iny	-3706
may	-3707
ole	-3708
▁er	-3709
▁od	-3710
rowd	-3711
▁cla	-3712
▁emp	-3713
▁row	-3714
▁sea	-3715
alent	-3716
ambda	-3717
lower	-3718
▁Mery	-3719
▁Mock	-3720
▁Sund	-3721
▁flag	-3722
▁quar	-3723
▁reli	-3724
▁wild	-3725
isible	-3726
trials	-3727
▁clean	-3728
▁crowd	-3729
▁inner	-3730
▁peace	-3731
▁plain	-3732
▁trees	-3733
▁truth	-3734
futures	-3735
▁beauty	-3736
▁horror	-3737
▁Meryton	-3738
▁Returns	-3739
▁actions	-3740
▁compute	-3741
▁hundred	-3742
▁reached	-3743
▁impossible	-3744
▁considerable	-3745
15	-3746
=0	-3747
Bar	-3748
Inc	-3749
flo	-3750
tok	-3751
vey	-3752
yle	-3753
▁',	-3754
▁ce	-3755
▁fi	-3756
▁+10	-3757
▁blo	-3758
▁dra	-3759
abled	-3760
ctime	-3761
istry	-3762
▁hast	-3763
▁luck	-3764
▁youn	-3765
CFLAGS	-3766
fortun	-3767
header	-3768
whoami	-3769
▁'\\',	-3770
▁langu	-3771
▁mouth	-3772
▁occup	-3773
▁parse	-3774
▁pride	-3775
▁couple	-3776
▁depart	-3777
▁garden	-3778
▁locals	-3779
▁master	-3780
expected	-3781
▁further	-3782
▁meaning	-3783
▁village	-3784
BO	-3785
Do	-3786
FF	-3787
az	-3788
sa	-3789
sd	-3790
-1)	-3791
Sub	-3792
▁Sh	-3793
▁``	-3794
fill	-3795
mult	-3796
omen	-3797
phon	-3798
view	-3799
▁Gry	-3800
▁dan	-3801
▁hat	-3802
▁red	-3803
abbit	-3804
built	-3805
known	-3806
range	-3807
▁"$1"	-3808
▁ANSI	-3809
▁ball	-3810
▁cpio	-3811
▁ping	-3812
▁road	-3813
▁sole	-3814
▁stra	-3815
▁conse	-3816
▁pause	-3817
▁usage	-3818
▁weeks	-3819
decoded	-3820
▁Hatter	-3821
▁Pember	-3822
▁anyway	-3823
▁binary	-3824
▁custom	-3825
▁desire	-3826
▁forget	-3827
▁happen	-3828
▁kwargs	-3829
▁micros	-3830
▁school	-3831
▁tzinfo	-3832
▁Gryphon	-3833
▁changed	-3834
▁listened	-3835
Precedence	-3836
▁Pemberley	-3837
▁agreeable	-3838
ProtocolState	-3839
0"	-3840
2/	-3841
EL	-3842
][	-3843
ha	-3844
yn	-3845
ATI	-3846
YPE	-3847
itz	-3848
loy	-3849
ons	-3850
unc	-3851
▁"-	-3852
▁'1	-3853
▁+7	-3854
▁Du	-3855
▁xc	-3856
look	-3857
move	-3858
vely	-3859
yond	-3860
▁bes	-3861
▁cod	-3862
▁spr	-3863
▁tmp	-3864
FAULT	-3865
going	-3866
ining	-3867
iving	-3868
▁Task	-3869
▁fing	-3870
▁hung	-3871
▁laug	-3872
▁soul	-3873
▁susp	-3874
Action	-3875
▁admir	-3876
▁blame	-3877
▁level	-3878
▁shopt	-3879
asyncio	-3880
seconds	-3881
▁diffic	-3882
▁island	-3883
▁prison	-3884
▁unless	-3885
▁example	-3886
▁fortune	-3887
▁purpose	-3888
▁special	-3889
▁strange	-3890
▁although	-3891
▁handsome	-3892
▁sequence	-3893
▁instantly	-3894
▁reference	-3895
celledError	-3896
▁expression	-3897
▁AttributeError	-3898
________________	-3899
>'	-3900
AY	-3901
.14	-3902
Now	-3903
ORE	-3904
PUT	-3905
SYS	-3906
ams	-3907
oth	-3908
sec	-3909
▁tb	-3910
Mode	-3911
This	-3912
iece	-3913
long	-3914
ones	-3915
recv	-3916
▁Har	-3917
▁ash	-3918
▁die	-3919
▁sli	-3920
▁soc	-3921
patch	-3922
place	-3923
pping	-3924
▁proc	-3925
▁skip	-3926
▁uses	-3927
family	-3928
▁awful	-3929
▁bring	-3930
▁parts	-3931
decoder	-3932
serving	-3933
warning	-3934
▁broken	-3935
▁places	-3936
▁public	-3937
▁whence	-3938
▁Justine	-3939
▁despair	-3940
▁introdu	-3941
▁weekday	-3942
▁entirely	-3943
▁repeated	-3944
▁functions	-3945
▁separator	-3946
▁situation	-3947
$/	-3948
6,	-3949
cs	-3950
nr	-3951
COM	-3952
zen	-3953
Call	-3954
Pipe	-3955
they	-3956
urst	-3957
▁arm	-3958
▁cra	-3959
▁mag	-3960
*10**	-3961
usted	-3962
yntax	-3963
▁blow	-3964
▁bzip	-3965
▁drew	-3966
▁enum	-3967
▁expl	-3968
STRING	-3969
formed	-3970
▁Sally	-3971
▁delay	-3972
▁enter	-3973
▁queue	-3974
▁women	-3975
▁wrote	-3976
appoint	-3977
decimal	-3978
include	-3979
pportun	-3980
▁compat	-3981
▁taking	-3982
datetime	-3983
rounding	-3984
▁Argument	-3985
▁explicit	-3986
▁advantage	-3987
▁available	-3988
▁gentlemen	-3989
▁disappoint	-3990
microseconds	-3991
++	-3992
+1	-3993
13	-3994
8.	-3995
cr	-3996
},	-3997
BIN	-3998
alt	-3999
inf	-4000
ior	-4001
sed	-4002
▁".	-4003
▁ma	-4004
tern	-4005
▁-60	-4006
▁ABC	-4007
▁Joe	-4008
▁Ros	-4009
▁une	-4010
array	-4011
aught	-4012
inced	-4013
ounds	-4014
rying	-4015
▁+100	-4016
▁hide	-4017
▁zcat	-4018
parser	-4019
tokens	-4020
▁chunk	-4021
▁front	-4022
▁title	-4023
IOError	-4024
reatest	-4025
waiters	-4026
▁Sunday	-4027
▁beyond	-4028
▁failed	-4029
▁waited	-4030
--------	-4031
▁cottage	-4032
▁earnest	-4033
▁removed	-4034
▁finished	-4035
▁opportun	-4036
▁stranger	-4037
▁wretched	-4038
▁daughters	-4039
)]	-4040
▁9	-4041
("\	-4042
hel	-4043
inc	-4044
let	-4045
▁",	-4046
▁'$	-4047
▁Be	-4048
▁ph	-4049
DEPS	-4050
VENT	-4051
elix	-4052
enty	-4053
keys	-4054
lude	-4055
toff	-4056
wrap	-4057
▁Sir	-4058
ascii	-4059
enter	-4060
pered	-4061
▁File	-4062
▁docu	-4063
▁fore	-4064
▁moon	-4065
▁sing	-4066
extend	-4067
mental	-4068
select	-4069
▁Event	-4070
▁absol	-4071
▁widow	-4072
generic	-4073
rection	-4074
▁accord	-4075
▁latter	-4076
function	-4077
▁amiable	-4078
▁various	-4079
▁distance	-4080
▁greatest	-4081
▁observed	-4082
▁companion	-4083
▁getcontext	-4084
▁subprocess	-4085
lockingIOError	-4086
4,	-4087
IP	-4088
ky	-4089
wy	-4090
>",	-4091
Key	-4092
She	-4093
awk	-4094
pan	-4095
▁Ra	-4096
▁ir	-4097
WITH	-4098
coff	-4099
imed	-4100
ming	-4101
ring	-4102
wyne	-4103
▁"./	-4104
▁'--	-4105
▁200	-4106
▁Can	-4107
▁aut	-4108
▁cab	-4109
build	-4110
digit	-4111
parts	-4112
wered	-4113
▁$2}'	-4114
▁pars	-4115
▁quit	-4116
▁term	-4117
ctools	-4118
second	-4119
▁coeff	-4120
▁earth	-4121
▁liked	-4122
▁multi	-4123
▁proto	-4124
▁pursu	-4125
▁speed	-4126
▁spent	-4127
execdir	-4128
logical	-4129
newermt	-4130
outines	-4131
section	-4132
▁church	-4133
▁danger	-4134
▁easily	-4135
▁exceed	-4136
▁height	-4137
▁Rosings	-4138
▁amongst	-4139
▁classes	-4140
▁conduct	-4141
▁handler	-4142
completer	-4143
subprocess	-4144
▁convinced	-4145
▁supported	-4146
(*	-4147
\*	-4148
].	-4149
999	-4150
SSL	-4151
__.	-4152
asy	-4153
eed	-4154
iff	-4155
▁FI	-4156
PATH	-4157
boat	-4158
face	-4159
ibly	-4160
lies	-4161
reme	-4162
────	-4163
▁Yet	-4164
ROUND	-4165
diffe	-4166
eless	-4167
riter	-4168
▁evid	-4169
▁goes	-4170
▁news	-4171
▁priv	-4172
▁tick	-4173
▁weak	-4174
Colors	-4175
domain	-4176
▁hopes	-4177
▁ignor	-4178
▁shook	-4179
isearch	-4180
olation	-4181
▁bitter	-4182
▁degree	-4183
▁design	-4184
▁detail	-4185
▁slight	-4186
annotate	-4187
infinity	-4188
▁extreme	-4189
▁outside	-4190
▁answered	-4191
▁document	-4192
'{	-4193
01	-4194
GE	-4195
WN	-4196
jk	-4197
▁^	-4198
ORT	-4199
box	-4200
cks	-4201
hor	-4202
▁'(	-4203
▁<<	-4204
▁\\	-4205
).__	-4206
PIPE	-4207
mine	-4208
resh	-4209
zero	-4210
▁art	-4211
▁dut	-4212
▁glo	-4213
▁inc	-4214
▁mix	-4215
▁unh	-4216
▁vio	-4217
▁{}.	-4218
alled	-4219
erved	-4220
imple	-4221
shift	-4222
whole	-4223
▁arms	-4224
▁boat	-4225
▁feet	-4226
▁past	-4227
▁pray	-4228
▁pros	-4229
▁ways	-4230
idence	-4231
iosity	-4232
▁floor	-4233
▁innoc	-4234
▁overr	-4235
▁store	-4236
forward	-4237
▁Rabbit	-4238
▁asleep	-4239
▁finish	-4240
▁giving	-4241
▁inquir	-4242
▁placed	-4243
▁showed	-4244
▁dropped	-4245
▁letters	-4246
▁abstract	-4247
▁carriage	-4248
▁readline	-4249
▁beginning	-4250
classmethod	-4251
destination	-4252
▁discovered	-4253
▁circumstances	-4254
.3	-4255
EP	-4256
mv	-4257
})	-4258
CUR	-4259
MAX	-4260
gen	-4261
ims	-4262
▁'[	-4263
▁+5	-4264
alph	-4265
need	-4266
repl	-4267
rows	-4268
term	-4269
▁777	-4270
itial	-4271
templ	-4272
▁cell	-4273
▁eval	-4274
▁pack	-4275
mktemp	-4276
ounded	-4277
▁frequ	-4278
▁loved	-4279
Include	-4280
▁append	-4281
▁assure	-4282
▁resume	-4283
▁solemn	-4284
commands	-4285
▁arrived	-4286
▁obliged	-4287
▁restore	-4288
▁setting	-4289
▁society	-4290
▁internal	-4291
▁interpre	-4292
▁returning	-4293
▁threading	-4294
▁acquainted	-4295
▁connections	-4296
AS	-4297
Ar	-4298
FY	-4299
WR	-4300
(1,	-4301
200	-4302
Dec	-4303
Def	-4304
GEN	-4305
INT	-4306
SCR	-4307
bak	-4308
iod	-4309
mnt	-4310
ope	-4311
png	-4312
uce	-4313
▁IO	-4314
THON	-4315
USER	-4316
eter	-4317
ites	-4318
semb	-4319
▁###	-4320
▁Imp	-4321
▁bra	-4322
▁doc	-4323
▁ice	-4324
▁pay	-4325
ality	-4326
erver	-4327
nargs	-4328
ushed	-4329
▁auth	-4330
▁coff	-4331
▁fact	-4332
▁hunt	-4333
▁pick	-4334
▁trem	-4335
Format	-4336
▁Felix	-4337
▁Their	-4338
▁catch	-4339
▁court	-4340
▁cycle	-4341
▁fancy	-4342
▁twice	-4343
▁attach	-4344
▁doctor	-4345
▁health	-4346
▁lovely	-4347
▁occurs	-4348
▁proper	-4349
▁secret	-4350
▁suffer	-4351
adjusted	-4352
blocking	-4353
internal	-4354
lication	-4355
security	-4356
▁niggers	-4357
▁rawdata	-4358
▁receive	-4359
▁pleasant	-4360
▁curiosity	-4361
▁opportunity	-4362
################	-4363
-%	-4364
/,	-4365
7,	-4366
Py	-4367
QU	-4368
Wp	-4369
\}	-4370
bs	-4371
xc	-4372
86-	-4373
api	-4374
fcf	-4375
inn	-4376
plt	-4377
uss	-4378
▁'+	-4379
▁-3	-4380
▁Ag	-4381
▁dt	-4382
TIFY	-4383
They	-4384
ills	-4385
xdev	-4386
▁enc	-4387
▁led	-4388
▁lit	-4389
▁ord	-4390
▁ran	-4391
▁tim	-4392
▁yum	-4393
There	-4394
clash	-4395
codes	-4396
ffile	-4397
float	-4398
idden	-4399
march	-4400
maybe	-4401
mtune	-4402
ously	-4403
share	-4404
ulate	-4405
under	-4406
▁capt	-4407
▁prov	-4408
▁rose	-4409
▁stir	-4410
86-64-	-4411
ecause	-4412
fstack	-4413
▁bless	-4414
▁broke	-4415
▁hurry	-4416
▁judge	-4417
▁laugh	-4418
▁owner	-4419
▁toler	-4420
▁wrong	-4421
FORTIFY	-4422
Wformat	-4423
project	-4424
▁engage	-4425
▁merely	-4426
▁myfile	-4427
▁python	-4428
▁report	-4429
▁speech	-4430
▁confess	-4431
▁desired	-4432
▁regular	-4433
▁request	-4434
▁civility	-4435
▁compress	-4436
▁standard	-4437
isinfinity	-4438
fexceptions	-4439
▁ANSIColors	-4440
▁compliment	-4441
▁annotations	-4442
▁comfortable	-4443
"$	-4444
."	-4445
.)	-4446
5,	-4447
AX	-4448
CS	-4449
MM	-4450
Qu	-4451
(",	-4452
All	-4453
COD	-4454
aws	-4455
grp	-4456
▁Re	-4457
▁ct	-4458
AGES	-4459
held	-4460
inal	-4461
nced	-4462
odes	-4463
pass	-4464
requ	-4465
step	-4466
▁bin	-4467
▁gen	-4468
▁isn	-4469
▁mer	-4470
▁rat	-4471
▁scr	-4472
ators	-4473
block	-4474
chess	-4475
odulo	-4476
▁bear	-4477
▁blue	-4478
▁flow	-4479
▁virt	-4480
▁wand	-4481
backup	-4482
cursor	-4483
elcome	-4484
ending	-4485
fields	-4486
keymap	-4487
minute	-4488
winapi	-4489
▁cloud	-4490
▁escap	-4491
▁looks	-4492
▁miles	-4493
▁rmdir	-4494
▁seems	-4495
▁steam	-4496
▁takes	-4497
ability	-4498
connect	-4499
gettext	-4500
itional	-4501
▁simple	-4502
▁England	-4503
▁assured	-4504
▁company	-4505
▁invalid	-4506
▁promise	-4507
▁replace	-4508
▁executed	-4509
▁interrupt	-4510
▁mentioned	-4511
▁comparison	-4512
$"	-4513
(?	-4514
?—	-4515
EE	-4516
mm	-4517
Dir	-4518
END	-4519
TED	-4520
acy	-4521
ann	-4522
csv	-4523
ele	-4524
htt	-4525
sue	-4526
uni	-4527
~",	-4528
SOCK	-4529
Your	-4530
abet	-4531
ilar	-4532
kind	-4533
runk	-4534
well	-4535
▁Par	-4536
▁van	-4537
redit	-4538
trans	-4539
▁Stop	-4540
▁hurt	-4541
▁incl	-4542
▁libr	-4543
▁lose	-4544
▁rain	-4545
▁rich	-4546
▁rows	-4547
▁tale	-4548
[0-9]*	-4549
remote	-4550
▁March	-4551
▁decla	-4552
▁youth	-4553
▁attend	-4554
▁employ	-4555
▁global	-4556
▁joined	-4557
▁summer	-4558
▁temper	-4559
▁transp	-4560
▁wishes	-4561
warnings	-4562
▁Duchess	-4563
▁feature	-4564
imization	-4565
▁Ladyship	-4566
▁multiple	-4567
▁probably	-4568
▁speaking	-4569
SystemExit	-4570
▁mountains	-4571
▁admiration	-4572
-8	-4573
bz	-4574
cp	-4575
wo	-4576
RED	-4577
UTF	-4578
VAL	-4579
cho	-4580
eta	-4581
lab	-4582
ssh	-4583
▁"^	-4584
▁1.	-4585
▁19	-4586
▁24	-4587
▁io	-4588
=0):	-4589
eval	-4590
imum	-4591
inum	-4592
nans	-4593
rank	-4594
skip	-4595
cking	-4596
leave	-4597
mpath	-4598
ourgh	-4599
posed	-4600
stree	-4601
uther	-4602
▁Buck	-4603
▁Hert	-4604
▁cook	-4605
▁fish	-4606
▁held	-4607
▁loss	-4608
▁post	-4609
▁wall	-4610
ameter	-4611
coming	-4612
rontab	-4613
▁Other	-4614
▁books	-4615
▁cabin	-4616
▁cheer	-4617
▁excel	-4618
▁excla	-4619
▁indic	-4620
▁paper	-4621
▁recom	-4622
▁reset	-4623
▁stats	-4624
▁steal	-4625
▁steps	-4626
▁terms	-4627
▁trunc	-4628
coffset	-4629
globals	-4630
ivalent	-4631
▁Bourgh	-4632
▁assist	-4633
▁please	-4634
▁unhapp	-4635
Proactor	-4636
sendfile	-4637
▁arrival	-4638
▁decoded	-4639
▁fetched	-4640
▁pattern	-4641
▁picture	-4642
cellation	-4643
fordshire	-4644
namespace	-4645
▁actually	-4646
▁officers	-4647
▁straight	-4648
▁whenever	-4649
deprecated	-4650
▁Sometimes	-4651
▁deprecated	-4652
▁Hertfordshire	-4653
=%	-4654
PA	-4655
PW	-4656
dc	-4657
mb	-4658
uc	-4659
(0)	-4660
)))	-4661
/*"	-4662
/\.	-4663
DAY	-4664
Get	-4665
SES	-4666
arp	-4667
did	-4668
mit	-4669
{1,	-4670
▁Is	-4671
▁Pr	-4672
▁bp	-4673
('10	-4674
Send	-4675
__",	-4676
ctxt	-4677
rate	-4678
tain	-4679
this	-4680
▁Who	-4681
▁ack	-4682
▁loc	-4683
▁pol	-4684
▁rid	-4685
Inter	-4686
onday	-4687
retch	-4688
theme	-4689
token	-4690
▁Call	-4691
▁Dorm	-4692
▁Here	-4693
▁Iter	-4694
▁Look	-4695
▁enem	-4696
▁keys	-4697
▁mort	-4698
▁neck	-4699
▁shot	-4700
[0-9]+	-4701
ssages	-4702
versal	-4703
▁chgrp	-4704
▁chief	-4705
▁final	-4706
▁gwyne	-4707
▁https	-4708
▁moved	-4709
▁study	-4710
▁thick	-4711
▁trans	-4712
▁worse	-4713
avoured	-4714
compile	-4715
environ	-4716
newline	-4717
objects	-4718
▁acknow	-4719
▁afford	-4720
▁bright	-4721
▁killed	-4722
▁living	-4723
▁printf	-4724
laration	-4725
▁besides	-4726
▁knowing	-4727
▁library	-4728
▁sympath	-4729
wholename	-4730
▁Buffered	-4731
▁Dormouse	-4732
▁callable	-4733
▁communic	-4734
▁intended	-4735
▁standing	-4736
overlapped	-4737
▁condition	-4738
microsecond	-4739
▁consequence	-4740
([	-4741
2"	-4742
36	-4743
44	-4744
9,	-4745
As	-4746
Re	-4747
UM	-4748
('\	-4749
()`	-4750
MAP	-4751
__)	-4752
bra	-4753
css	-4754
}",	-4755
▁"<	-4756
▁'0	-4757
▁{'	-4758
ANCE	-4759
SION	-4760
bing	-4761
ency	-4762
iate	-4763
iest	-4764
lips	-4765
made	-4766
olly	-4767
reed	-4768
roll	-4769
ynch	-4770
▁189	-4771
▁Get	-4772
▁Use	-4773
▁ann	-4774
▁sol	-4775
▁sug	-4776
Gener	-4777
msgid	-4778
power	-4779
▁dogs	-4780
▁fami	-4781
▁move	-4782
▁nice	-4783
▁scri	-4784
▁sold	-4785
▁ROUND	-4786
▁blood	-4787
▁encou	-4788
▁entry	-4789
▁fresh	-4790
▁grave	-4791
▁impat	-4792
▁shift	-4793
ilities	-4794
imation	-4795
▁author	-4796
▁breath	-4797
▁candle	-4798
▁credit	-4799
▁folder	-4800
▁follow	-4801
▁formed	-4802
▁modulo	-4803
▁native	-4804
▁remote	-4805
▁search	-4806
▁supper	-4807
▁writer	-4808
category	-4809
▁Forster	-4810
▁bufsize	-4811
▁content	-4812
▁initial	-4813
▁partial	-4814
▁passing	-4815
▁related	-4816
▁release	-4817
▁succeed	-4818
▁walking	-4819
▁younger	-4820
Iteration	-4821
▁comments	-4822
▁discover	-4823
▁language	-4824
▁promised	-4825
▁attribute	-4826
▁formatter	-4827
▁perceived	-4828
▁StreamReader	-4829
▁astonishment	-4830
({	-4831
/{	-4832
:'	-4833
IG	-4834
cd	-4835
pi	-4836
sn	-4837
.")	-4838
10(	-4839
LIM	-4840
One	-4841
him	-4842
idx	-4843
pow	-4844
▁'<	-4845
▁(_	-4846
▁2,	-4847
▁Sc	-4848
▁TI	-4849
▁[_	-4850
$//'	-4851
Emax	-4852
Over	-4853
STRU	-4854
Spec	-4855
cent	-4856
hend	-4857
high	-4858
utor	-4859
wake	-4860
work	-4861
▁+30	-4862
▁-1:	-4863
▁2>&	-4864
▁age	-4865
▁cho	-4866
▁lie	-4867
▁sad	-4868
▁tem	-4869
('1')	-4870
ATION	-4871
antic	-4872
arily	-4873
cious	-4874
ester	-4875
graph	-4876
igure	-4877
monit	-4878
posxy	-4879
tools	-4880
using	-4881
▁cast	-4882
▁push	-4883
Writer	-4884
breaks	-4885
cluded	-4886
locals	-4887
policy	-4888
public	-4889
▁alive	-4890
▁digit	-4891
▁drunk	-4892
▁fiend	-4893
▁knows	-4894
▁msgid	-4895
▁story	-4896
complet	-4897
▁Import	-4898
▁fright	-4899
▁period	-4900
▁script	-4901
▁twenty	-4902
▁worked	-4903
finished	-4904
structor	-4905
▁anxious	-4906
▁defined	-4907
▁noticed	-4908
▁numbers	-4909
▁perform	-4910
▁require	-4911
Copyright	-4912
▁watching	-4913
▁generally	-4914
▁possessed	-4915
▁questions	-4916
▁coroutines	-4917
▁endeavoured	-4918
▁particularly	-4919
34	-4920
75	-4921
8,	-4922
90	-4923
LF	-4924
sr	-4925
234	-4926
RAN	-4927
SUB	-4928
[[:	-4929
cpp	-4930
els	-4931
▁0.	-4932
▁],	-4933
TEST	-4934
abit	-4935
eces	-4936
gral	-4937
ipes	-4938
left	-4939
lish	-4940
safe	-4941
shot	-4942
unix	-4943
▁Inc	-4944
▁Per	-4945
▁ard	-4946
▁ctx	-4947
▁dot	-4948
▁hot	-4949
▁mut	-4950
▁neg	-4951
▁rob	-4952
▁rot	-4953
acher	-4954
cheme	-4955
found	-4956
ftime	-4957
stamp	-4958
there	-4959
usage	-4960
▁From	-4961
▁Join	-4962
▁bran	-4963
▁sake	-4964
aching	-4965
counts	-4966
finite	-4967
mitted	-4968
▁fence	-4969
▁hoped	-4970
▁later	-4971
▁press	-4972
▁spite	-4973
▁trust	-4974
▁utter	-4975
metavar	-4976
▁bottom	-4977
▁finger	-4978
▁marked	-4979
▁unable	-4980
esterday	-4981
platform	-4982
terminal	-4983
▁Section	-4984
▁compare	-4985
▁hearing	-4986
▁indiffe	-4987
▁mapping	-4988
▁modules	-4989
▁quickly	-4990
▁conflict	-4991
▁integers	-4992
▁produced	-4993
▁terminal	-4994
▁Exception	-4995
▁connected	-4996
▁traceback	-4997
▁completion	-4998
▁invitation	-4999
▁operations	-5000
▁underlying	-5001
specialization	-5002
2_	-5003
?_	-5004
By	-5005
HT	-5006
NO	-5007
`"	-5008
1/'	-5009
HOR	-5010
LOC	-5011
LOG	-5012
_.”	-5013
awn	-5014
jun	-5015
lto	-5016
tab	-5017
▁+%	-5018
/*/*	-5019
ARCH	-5020
WORD	-5021
anqu	-5022
card	-5023
cked	-5024
ilst	-5025
inet	-5026
itzw	-5027
race	-5028
▁API	-5029
▁Phi	-5030
▁UTC	-5031
▁hig	-5032
▁hit	-5033
▁inh	-5034
▁pen	-5035
▁pid	-5036
▁sky	-5037
▁spo	-5038
▁tow	-5039
('0')	-5040
Count	-5041
binop	-5042
dirty	-5043
eneva	-5044
ernal	-5045
gment	-5046
lient	-5047
rible	-5048
▁1894	-5049
▁Hare	-5050
▁calm	-5051
▁evil	-5052
▁mour	-5053
▁pair	-5054
▁suit	-5055
▁wasn	-5056
BINARY	-5057
antize	-5058
ertion	-5059
groups	-5060
pyrepl	-5061
▁Allen	-5062
▁Fitzw	-5063
▁Stats	-5064
▁guess	-5065
▁loose	-5066
▁offer	-5067
▁proud	-5068
▁reply	-5069
▁style	-5070
▁wants	-5071
integer	-5072
▁cancel	-5073
▁corner	-5074
▁gunzip	-5075
▁laying	-5076
▁leaves	-5077
▁pstree	-5078
▁remain	-5079
▁sorrow	-5080
▁sorted	-5081
builtins	-5082
location	-5083
▁Philips	-5084
▁consent	-5085
▁courage	-5086
▁curious	-5087
▁eagerly	-5088
▁hanging	-5089
▁whisper	-5090
ification	-5091
scheduled	-5092
▁compiler	-5093
▁dreadful	-5094
▁starting	-5095
▁supposed	-5096
▁existence	-5097
▁favourite	-5098
▁remainder	-5099
▁sufficient	-5100
▁Fitzwilliam	-5101
▁disposition	-5102
▁documentation	-5103
▁neighbourhood	-5104
De	-5105
Gr	-5106
IM	-5107
oh	-5108
}.	-5109
.')	-5110
ENT	-5111
III	-5112
PRO	-5113
ROR	-5114
Who	-5115
odo	-5116
whe	-5117
▁":	-5118
▁16	-5119
▁py	-5120
CODE	-5121
Meta	-5122
fail	-5123
llib	-5124
uses	-5125
▁'0'	-5126
▁AST	-5127
▁Pro	-5128
▁fil	-5129
▁mat	-5130
('2.1	-5131
bered	-5132
mount	-5133
onest	-5134
ourse	-5135
▁dece	-5136
▁harm	-5137
▁http	-5138
▁kiss	-5139
▁spot	-5140
▁vain	-5141
Buffer	-5142
apshot	-5143
choice	-5144
height	-5145
origin	-5146
params	-5147
resume	-5148
urllib	-5149
▁Count	-5150
▁const	-5151
▁grief	-5152
▁guard	-5153
▁stead	-5154
▁valid	-5155
edError	-5156
istered	-5157
options	-5158
wrapper	-5159
▁access	-5160
▁groups	-5161
▁suspic	-5162
▁tranqu	-5163
defaults	-5164
keywords	-5165
▁absence	-5166
▁comment	-5167
▁crontab	-5168
▁padding	-5169
▁profess	-5170
▁program	-5171
▁section	-5172
▁servant	-5173
▁sitting	-5174
▁warning	-5175
▁KeyError	-5176
▁creation	-5177
▁daylight	-5178
▁ignorant	-5179
▁occurred	-5180
▁previous	-5181
▁timezone	-5182
▁variable	-5183
▁buffering	-5184
▁bytearray	-5185
▁exclaimed	-5186
▁gratitude	-5187
▁recommend	-5188
▁sensations	-5189
3}	-5190
>"	-5191
BA	-5192
CP	-5193
mo	-5194
ru	-5195
('%	-5196
EAD	-5197
PWD	-5198
cjk	-5199
cut	-5200
lly	-5201
seq	-5202
ste	-5203
._]]	-5204
Come	-5205
DOWN	-5206
Info	-5207
LDER	-5208
SCII	-5209
acle	-5210
arer	-5211
lias	-5212
more	-5213
ogle	-5214
ypes	-5215
▁AUT	-5216
▁Hen	-5217
▁Ind	-5218
▁Pre	-5219
▁cop	-5220
▁fer	-5221
▁fro	-5222
▁pun	-5223
▁sla	-5224
▁sle	-5225
▁www	-5226
after	-5227
anced	-5228
ardon	-5229
chunk	-5230
earch	-5231
encod	-5232
fatal	-5233
tract	-5234
▁".*"	-5235
▁2>&1	-5236
▁Over	-5237
▁exam	-5238
▁lips	-5239
▁loud	-5240
▁rend	-5241
CURSES	-5242
before	-5243
imeout	-5244
▁Hurst	-5245
▁dared	-5246
▁exper	-5247
▁gloom	-5248
▁heads	-5249
▁horse	-5250
▁items	-5251
▁music	-5252
▁numer	-5253
▁solit	-5254
▁tremb	-5255
DEFAULT	-5256
elector	-5257
▁AUTHOR	-5258
▁enumer	-5259
▁fields	-5260
▁highly	-5261
▁intent	-5262
▁multip	-5263
▁regret	-5264
▁scheme	-5265
▁target	-5266
ctionary	-5267
pecially	-5268
proactor	-5269
▁carried	-5270
▁display	-5271
▁violent	-5272
▁welcome	-5273
cjkcodecs	-5274
reakpoint	-5275
subdomain	-5276
▁attended	-5277
▁descript	-5278
▁prospect	-5279
▁superior	-5280
monitoring	-5281
▁creatures	-5282
▁excellent	-5283
▁functools	-5284
▁relations	-5285
▁yesterday	-5286
'|	-5287
(-	-5288
/%	-5289
/(	-5290
80	-5291
UD	-5292
oo	-5293
▁,	-5294
.*'	-5295
100	-5296
ABC	-5297
MIN	-5298
PPE	-5299
TRA	-5300
den	-5301
irm	-5302
ltn	-5303
oor	-5304
org	-5305
sep	-5306
sig	-5307
▁*/	-5308
▁-7	-5309
▁:=	-5310
HACL	-5311
WARD	-5312
cmin	-5313
ffat	-5314
hold	-5315
ingu	-5316
inst	-5317
jest	-5318
lamp	-5319
lest	-5320
mail	-5321
omed	-5322
pare	-5323
tool	-5324
udge	-5325
ware	-5326
▁"*"	-5327
▁ALL	-5328
▁Any	-5329
▁Che	-5330
▁ban	-5331
▁cow	-5332
▁har	-5333
▁lib	-5334
▁phi	-5335
▁rej	-5336
▁sep	-5337
▁tac	-5338
▁tin	-5339
▁tor	-5340
Group	-5341
PRESS	-5342
atory	-5343
choly	-5344
derer	-5345
ellig	-5346
imate	-5347
losop	-5348
mtoff	-5349
ptime	-5350
utely	-5351
visit	-5352
▁Bill	-5353
▁bird	-5354
▁camp	-5355
▁fill	-5356
▁lead	-5357
▁mach	-5358
▁ones	-5359
ateful	-5360
ensure	-5361
filter	-5362
▁Henry	-5363
▁agony	-5364
▁cases	-5365
▁dress	-5366
▁gives	-5367
▁stuff	-5368
UPPRESS	-5369
changed	-5370
indices	-5371
▁Geneva	-5372
▁beheld	-5373
▁decode	-5374
▁excess	-5375
▁filled	-5376
▁inside	-5377
▁labour	-5378
▁murder	-5379
▁paused	-5380
▁resent	-5381
▁stairs	-5382
▁struct	-5383
▁transl	-5384
▁trials	-5385
▁whilst	-5386
colorize	-5387
compress	-5388
cription	-5389
iterator	-5390
readline	-5391
selector	-5392
▁control	-5393
▁enabled	-5394
▁imagine	-5395
remainder	-5396
something	-5397
▁goodness	-5398
▁philosop	-5399
▁sensible	-5400
▁delighted	-5401
▁execution	-5402
▁interface	-5403
▁lightning	-5404
▁listening	-5405
▁steamboat	-5406
▁whispered	-5407
▁resolution	-5408
!—	-5409
''	-5410
3"	-5411
An	-5412
Is	-5413
ML	-5414
OB	-5415
OS	-5416
dt	-5417
gi	-5418
rn	-5419
sw	-5420
ts	-5421
('7	-5422
(10	-5423
:",	-5424
Div	-5425
SIG	-5426
Tom	-5427
UMP	-5428
fer	-5429
has	-5430
mux	-5431
utc	-5432
▁-5	-5433
▁NO	-5434
.0.0	-5435
="$(	-5436
ABLE	-5437
BACK	-5438
HAND	-5439
Wait	-5440
__()	-5441
amin	-5442
case	-5443
kill	-5444
prom	-5445
ulty	-5446
▁256	-5447
▁Ass	-5448
▁USE	-5449
▁WAR	-5450
▁Wal	-5451
▁der	-5452
▁fol	-5453
▁lim	-5454
▁map	-5455
▁squ	-5456
▁tea	-5457
▁typ	-5458
Write	-5459
allel	-5460
anges	-5461
asing	-5462
clock	-5463
iding	-5464
igned	-5465
osing	-5466
otter	-5467
pager	-5468
title	-5469
▁Aust	-5470
▁duty	-5471
▁fond	-5472
▁grow	-5473
▁hash	-5474
▁thir	-5475
▁vent	-5476
▁wide	-5477
covery	-5478
plural	-5479
▁Gener	-5480
▁Polly	-5481
▁mater	-5482
▁melan	-5483
▁noble	-5484
▁posix	-5485
▁shell	-5486
▁stick	-5487
▁studi	-5488
▁tempt	-5489
VERSION	-5490
comment	-5491
discard	-5492
fulness	-5493
ynchron	-5494
▁belong	-5495
▁jumped	-5496
▁raises	-5497
▁wholly	-5498
remental	-5499
▁However	-5500
▁capable	-5501
▁compass	-5502
▁compile	-5503
▁drawing	-5504
▁dressed	-5505
▁excited	-5506
▁passion	-5507
▁private	-5508
▁reflect	-5509
▁turning	-5510
▁unhappy	-5511
▁watched	-5512
▁witness	-5513
▁mistaken	-5514
▁murderer	-5515
▁progress	-5516
▁according	-5517
▁addressed	-5518
▁constants	-5519
▁copyright	-5520
▁directory	-5521
▁persuaded	-5522
▁attachment	-5523
▁attentions	-5524
▁attributes	-5525
▁melancholy	-5526
▁remembered	-5527
▁representing	-5528
CancelledError	-5529
"|	-5530
$1	-5531
3'	-5532
</	-5533
AF	-5534
Ch	-5535
Mr	-5536
fp	-5537
.",	-5538
Don	-5539
Enc	-5540
REP	-5541
ROM	-5542
Rep	-5543
nat	-5544
oun	-5545
rwx	-5546
▁$5	-5547
▁2)	-5548
▁2:	-5549
▁CO	-5550
▁fp	-5551
▁ss	-5552
BUFF	-5553
aked	-5554
away	-5555
bash	-5556
bits	-5557
eved	-5558
hens	-5559
ncle	-5560
peek	-5561
reck	-5562
trol	-5563
▁../	-5564
▁ANY	-5565
▁Der	-5566
▁Doc	-5567
▁Yes	-5568
▁due	-5569
▁ens	-5570
▁nar	-5571
▁pec	-5572
▁sha	-5573
▁wuz	-5574
Alias	-5575
EVENT	-5576
alloc	-5577
berry	-5578
fined	-5579
hered	-5580
multi	-5581
orses	-5582
outer	-5583
owner	-5584
resol	-5585
venge	-5586
▁Make	-5587
▁Only	-5588
▁THIS	-5589
▁WITH	-5590
▁attr	-5591
▁cand	-5592
▁clos	-5593
▁save	-5594
▁wake	-5595
BUFFER	-5596
Parser	-5597
Policy	-5598
Python	-5599
erning	-5600
widths	-5601
▁While	-5602
▁amuse	-5603
▁benef	-5604
▁crime	-5605
▁shirt	-5606
▁shout	-5607
▁sides	-5608
▁space	-5609
Default	-5610
LIBHACL	-5611
choices	-5612
filters	-5613
partial	-5614
▁WARRAN	-5615
▁amount	-5616
▁caller	-5617
▁compre	-5618
▁deeply	-5619
▁horses	-5620
▁lambda	-5621
▁larger	-5622
▁lively	-5623
▁nights	-5624
▁shoved	-5625
▁syntax	-5626
executor	-5627
integral	-5628
username	-5629
▁Invalid	-5630
▁consist	-5631
▁dearest	-5632
▁entreat	-5633
▁laughed	-5634
▁monster	-5635
▁quitted	-5636
connected	-5637
dataclass	-5638
▁commands	-5639
▁intellig	-5640
▁overflow	-5641
unregister	-5642
▁Interrupt	-5643
▁receiving	-5644
▁concurrent	-5645
▁sslcontext	-5646
▁understood	-5647
▁ImportError	-5648
▁satisfaction	-5649
EventLoopPolicy	-5650
${	-5651
19	-5652
At	-5653
VI	-5654
]+	-5655
"",	-5656
Des	-5657
NGE	-5658
OFT	-5659
eve	-5660
lah	-5661
pse	-5662
urs	-5663
▁";	-5664
3.14	-5665
LINE	-5666
TIES	-5667
WARE	-5668
When	-5669
Work	-5670
clus	-5671
elic	-5672
frac	-5673
grat	-5674
ixin	-5675
pill	-5676
ummy	-5677
▁-10	-5678
▁BOM	-5679
▁DAM	-5680
▁gro	-5681
▁sig	-5682
aning	-5683
asure	-5684
eager	-5685
emove	-5686
incip	-5687
short	-5688
sumed	-5689
▁FILE	-5690
▁SOFT	-5691
▁beat	-5692
▁hint	-5693
▁paid	-5694
▁rand	-5695
PYTHON	-5696
prompt	-5697
wakeup	-5698
▁Uncle	-5699
▁abhor	-5700
▁appre	-5701
▁comme	-5702
▁enemy	-5703
▁errno	-5704
▁forth	-5705
▁grand	-5706
▁rapid	-5707
▁sharp	-5708
▁tired	-5709
oformat	-5710
▁ACTION	-5711
▁Potter	-5712
▁admire	-5713
▁config	-5714
▁locked	-5715
▁scared	-5716
▁smiled	-5717
▁spring	-5718
▁winter	-5719
........	-5720
dispatch	-5721
relative	-5722
▁DAMAGES	-5723
▁complex	-5724
▁finding	-5725
▁hastily	-5726
▁hurried	-5727
▁leading	-5728
▁leaving	-5729
▁meeting	-5730
▁moments	-5731
▁science	-5732
▁sockets	-5733
▁visible	-5734
▁weather	-5735
▁JoinMode	-5736
▁SOFTWARE	-5737
▁attempts	-5738
▁distingu	-5739
▁occupied	-5740
▁powerful	-5741
▁suffered	-5742
▁unfortun	-5743
▁destroyed	-5744
▁direction	-5745
▁wonderful	-5746
▁WARRANTIES	-5747
▁especially	-5748
▁frequently	-5749
▁memoryview	-5750
▁exceedingly	-5751
▁interesting	-5752
▁interpreter	-5753
"%	-5754
){	-5755
,%	-5756
.4	-5757
1:	-5758
1_	-5759
25	-5760
2:	-5761
JS	-5762
Of	-5763
PR	-5764
\"	-5765
eq	-5766
xe	-5767
1":	-5768
=*.	-5769
=-1	-5770
BUG	-5771
CHE	-5772
IND	-5773
INF	-5774
ITS	-5775
Opt	-5776
Ref	-5777
Wno	-5778
[.]	-5779
aff	-5780
aud	-5781
gor	-5782
his	-5783
ike	-5784
kee	-5785
mix	-5786
try	-5787
uzz	-5788
▁17	-5789
▁Le	-5790
▁Or	-5791
▁VK	-5792
▁cv	-5793
▁xe	-5794
▁“‘	-5795
('2.	-5796
HALF	-5797
Help	-5798
QUEN	-5799
Task	-5800
[1:]	-5801
eral	-5802
ilas	-5803
inct	-5804
pair	-5805
tell	-5806
tree	-5807
▁bag	-5808
▁dro	-5809
▁dst	-5810
▁fat	-5811
▁law	-5812
▁leg	-5813
▁pal	-5814
▁war	-5815
▁wat	-5816
▁zip	-5817
Queue	-5818
WRITE	-5819
atson	-5820
herit	-5821
ictor	-5822
label	-5823
proto	-5824
▁Mars	-5825
▁Text	-5826
▁hell	-5827
▁lake	-5828
▁pres	-5829
▁resp	-5830
▁tend	-5831
IOBase	-5832
column	-5833
gorith	-5834
itions	-5835
pillar	-5836
stairs	-5837
vation	-5838
▁Mouse	-5839
▁Silas	-5840
▁Where	-5841
▁alarm	-5842
▁blind	-5843
▁disap	-5844
▁fault	-5845
▁folks	-5846
▁ideas	-5847
▁lower	-5848
▁moder	-5849
▁polit	-5850
▁reach	-5851
▁share	-5852
▁stole	-5853
▁straw	-5854
counter	-5855
forever	-5856
myfiles	-5857
ptional	-5858
▁Austen	-5859
▁Watson	-5860
▁accomp	-5861
▁anyone	-5862
▁codecs	-5863
▁distur	-5864
▁forced	-5865
▁heaven	-5866
▁preced	-5867
▁preser	-5868
▁spread	-5869
▁undert	-5870
▁update	-5871
▁useful	-5872
daystart	-5873
optional	-5874
▁Heading	-5875
▁Nothing	-5876
▁applied	-5877
▁dancing	-5878
▁decided	-5879
▁fifteen	-5880
▁justice	-5881
▁metavar	-5882
▁pending	-5883
▁princip	-5884
▁serious	-5885
▁suggest	-5886
▁unknown	-5887
▁visitor	-5888
▁windows	-5889
utcoffset	-5890
▁absolute	-5891
▁affected	-5892
▁distress	-5893
▁handling	-5894
▁persuade	-5895
▁pleasing	-5896
▁property	-5897
▁readlink	-5898
▁relation	-5899
attributes	-5900
▁acknowled	-5901
▁container	-5902
▁fortnight	-5903
▁inquiries	-5904
▁proceeded	-5905
▁remaining	-5906
▁scheduled	-5907
▁compassion	-5908
▁comprehend	-5909
▁equivalent	-5910
▁permission	-5911
▁consolation	-5912
-*	-5913
GR	-5914
[3	-5915
\+	-5916
bl	-5917
po	-5918
:--	-5919
AGE	-5920
ARG	-5921
ART	-5922
PID	-5923
erm	-5924
gex	-5925
ked	-5926
nty	-5927
ocp	-5928
phe	-5929
rev	-5930
ugg	-5931
uid	-5932
}:{	-5933
▁WH	-5934
▁_,	-5935
▁ug	-5936
▁||	-5937
()):	-5938
Down	-5939
Good	-5940
Path	-5941
Text	-5942
__',	-5943
atty	-5944
cogn	-5945
elve	-5946
eros	-5947
oted	-5948
pace	-5949
prev	-5950
same	-5951
▁God	-5952
▁Had	-5953
▁MAX	-5954
▁Sat	-5955
▁Sub	-5956
▁arr	-5957
▁etc	-5958
▁imm	-5959
▁oct	-5960
▁pad	-5961
▁rub	-5962
▁src	-5963
Fatal	-5964
Store	-5965
VALUE	-5966
agers	-5967
guish	-5968
icode	-5969
infos	-5970
rance	-5971
separ	-5972
uname	-5973
▁1000	-5974
▁Come	-5975
▁eleg	-5976
▁game	-5977
▁gets	-5978
▁pity	-5979
▁rage	-5980
▁rank	-5981
▁rock	-5982
▁tmux	-5983
('0'))	-5984
000000	-5985
Called	-5986
Create	-5987
Object	-5988
SEQUEN	-5989
ainted	-5990
divide	-5991
ifying	-5992
iregex	-5993
itated	-5994
onical	-5995
rstrip	-5996
▁Cater	-5997
▁Frank	-5998
▁Queue	-5999
▁Table	-6000
▁earli	-6001
▁label	-6002
▁saved	-6003
▁treat	-6004
Barrier	-6005
bstract	-6006
getattr	-6007
leberry	-6008
opcodes	-6009
▁Victor	-6010
▁contri	-6011
▁cycles	-6012
▁explan	-6013
▁figure	-6014
▁fortun	-6015
▁frames	-6016
▁gained	-6017
▁nbytes	-6018
▁played	-6019
▁status	-6020
▁thirty	-6021
▁triump	-6022
▁uneasy	-6023
????????	-6024
Selector	-6025
endswith	-6026
itespace	-6027
▁English	-6028
▁ashamed	-6029
▁correct	-6030
▁details	-6031
▁endured	-6032
▁factory	-6033
▁results	-6034
▁runaway	-6035
formatter	-6036
▁accident	-6037
▁algorith	-6038
▁buffered	-6039
▁builtins	-6040
▁overcome	-6041
▁rendered	-6042
▁shutdown	-6043
executable	-6044
▁Otherwise	-6045
▁difficult	-6046
▁ourselves	-6047
▁sentiment	-6048
▁statement	-6049
▁concerning	-6050
▁containing	-6051
▁delightful	-6052
▁descriptor	-6053
▁transports	-6054
▁Caterpillar	-6055
▁imagination	-6056
▁implemented	-6057
▁microsecond	-6058
▁positionals	-6059
BlockingIOError	-6060
"`	-6061
.,	-6062
1(	-6063
PO	-6064
UU	-6065
XT	-6066
_—	-6067
fn	-6068
rx	-6069
tk	-6070
’,	-6071
567	-6072
App	-6073
BEG	-6074
IPT	-6075
Res	-6076
mut	-6077
ogg	-6078
ops	-6079
rif	-6080
uns	-6081
▁"`	-6082
▁),	-6083
▁+3	-6084
▁-9	-6085
▁AR	-6086
Data	-6087
Here	-6088
Zero	-6089
uced	-6090
▁'/^	-6091
▁Cat	-6092
▁New	-6093
▁ant	-6094
▁cry	-6095
▁fee	-6096
▁fit	-6097
▁hel	-6098
▁kne	-6099
▁vex	-6100
▁via	-6101
compl	-6102
ended	-6103
enste	-6104
force	-6105
iline	-6106
ocket	-6107
plist	-6108
stuff	-6109
umber	-6110
▁Rows	-6111
▁Such	-6112
▁bare	-6113
▁craw	-6114
▁cuss	-6115
▁doan	-6116
▁mask	-6117
▁mill	-6118
▁nine	-6119
▁pron	-6120
▁tall	-6121
CHANGE	-6122
cmpltn	-6123
ension	-6124
getstr	-6125
ounced	-6126
priate	-6127
ulated	-6128
urance	-6129
▁ahead	-6130
▁bread	-6131
▁delic	-6132
▁incon	-6133
▁invol	-6134
▁liter	-6135
▁niece	-6136
▁noise	-6137
▁oppos	-6138
▁quote	-6139
▁renew	-6140
▁third	-6141
▁threw	-6142
▁trial	-6143
▁works	-6144
attered	-6145
cluding	-6146
delimit	-6147
enstein	-6148
nearest	-6149
nection	-6150
unction	-6151
▁assemb	-6152
▁colors	-6153
▁feared	-6154
▁notion	-6155
▁pocket	-6156
▁powers	-6157
▁twelve	-6158
calendar	-6159
getstate	-6160
required	-6161
template	-6162
▁accompl	-6163
▁anguish	-6164
▁anxiety	-6165
▁beloved	-6166
▁equally	-6167
▁foolish	-6168
▁install	-6169
▁learned	-6170
▁quarter	-6171
▁revenge	-6172
▁similar	-6173
▁telling	-6174
▁termios	-6175
Formatter	-6176
completed	-6177
struction	-6178
▁Iterator	-6179
▁fallback	-6180
▁midnight	-6181
▁murdered	-6182
▁prisoner	-6183
▁regiment	-6184
▁uncommon	-6185
▁blocksize	-6186
▁determine	-6187
▁enumerate	-6188
▁forgotten	-6189
▁performed	-6190
▁Breakpoint	-6191
▁dictionary	-6192
▁positional	-6193
▁Huckleberry	-6194
▁interactive	-6195
▁interrupted	-6196
▁reflections	-6197
▁affectionate	-6198
▁StopIteration	-6199
▁compatibility	-6200
▁understanding	-6201
".	-6202
,)	-6203
-2	-6204
04	-6205
>\	-6206
\/	-6207
kw	-6208
nl	-6209
ny	-6210
tb	-6211
▁–	-6212
")"	-6213
/*.	-6214
Are	-6215
Per	-6216
USE	-6217
cud	-6218
dbm	-6219
ges	-6220
iar	-6221
jar	-6222
lac	-6223
lim	-6224
ned	-6225
oot	-6226
peg	-6227
pet	-6228
▁"+	-6229
▁$3	-6230
▁11	-6231
▁30	-6232
▁Br	-6233
▁dw	-6234
▁})	-6235
('-0	-6236
Emin	-6237
ITER	-6238
PPED	-6239
RECT	-6240
WAIT	-6241
arse	-6242
aved	-6243
calc	-6244
dump	-6245
enes	-6246
erve	-6247
expr	-6248
gged	-6249
half	-6250
imer	-6251
must	-6252
nown	-6253
olon	-6254
ouis	-6255
rain	-6256
span	-6257
tras	-6258
uate	-6259
▁bur	-6260
▁dim	-6261
▁dry	-6262
▁inj	-6263
▁lif	-6264
▁pet	-6265
▁pul	-6266
▁vol	-6267
▁~/.	-6268
BEGIN	-6269
START	-6270
STORE	-6271
ament	-6272
aming	-6273
anted	-6274
assed	-6275
ecess	-6276
house	-6277
ouses	-6278
raged	-6279
would	-6280
▁1024	-6281
▁Finn	-6282
▁Next	-6283
▁agin	-6284
▁bind	-6285
▁born	-6286
▁curl	-6287
▁decl	-6288
▁food	-6289
▁impr	-6290
▁infl	-6291
▁jury	-6292
▁pred	-6293
▁pull	-6294
▁rate	-6295
▁rats	-6296
▁sets	-6297
▁vict	-6298
INSTRU	-6299
SHARED	-6300
Stream	-6301
apache	-6302
ashion	-6303
colors	-6304
curses	-6305
finish	-6306
inking	-6307
memory	-6308
tzname	-6309
▁Derby	-6310
▁angry	-6311
▁benev	-6312
▁birds	-6313
▁cents	-6314
▁eight	-6315
▁force	-6316
▁liber	-6317
▁outer	-6318
▁pract	-6319
▁turns	-6320
clusive	-6321
fortune	-6322
getitem	-6323
refresh	-6324
unsford	-6325
wardRef	-6326
▁asking	-6327
▁bother	-6328
▁caught	-6329
▁coffin	-6330
▁compos	-6331
▁indign	-6332
▁manage	-6333
▁pounds	-6334
▁proved	-6335
▁sounds	-6336
qualname	-6337
readable	-6338
▁Command	-6339
▁Windows	-6340
▁congrat	-6341
▁conject	-6342
▁consume	-6343
▁covered	-6344
▁crossed	-6345
▁descend	-6346
▁explain	-6347
▁greatly	-6348
▁inspect	-6349
▁lantern	-6350
▁signals	-6351
▁somehow	-6352
docstring	-6353
regextype	-6354
▁Thatcher	-6355
▁calendar	-6356
▁executor	-6357
▁hostname	-6358
▁innocent	-6359
▁marrying	-6360
▁operands	-6361
▁parallel	-6362
▁presence	-6363
▁sentence	-6364
▁strength	-6365
▁Everybody	-6366
▁generator	-6367
▁important	-6368
▁increased	-6369
▁presently	-6370
▁tolerable	-6371
▁approached	-6372
▁difficulty	-6373
▁breakpoints	-6374
▁description	-6375
▁Frankenstein	-6376
▁microseconds	-6377
▁representation	-6378
*(	-6379
.2	-6380
/2	-6381
09	-6382
AC	-6383
TY	-6384
YY	-6385
lf	-6386
vm	-6387
—_	-6388
.*"	-6389
/*/	-6390
/\(	-6391
:02	-6392
Add	-6393
FLO	-6394
ILD	-6395
ONE	-6396
URE	-6397
[^/	-6398
cub	-6399
cuf	-6400
cuu	-6401
dch	-6402
dst	-6403
hum	-6404
lse	-6405
see	-6406
wds	-6407
▁13	-6408
▁14	-6409
▁DE	-6410
▁DI	-6411
▁Ke	-6412
▁Se	-6413
▁Tr	-6414
▁\+	-6415
▁fr	-6416
INET	-6417
MENT	-6418
OBJS	-6419
PING	-6420
TYPE	-6421
afie	-6422
arts	-6423
cast	-6424
cond	-6425
ding	-6426
http	-6427
menu	-6428
oard	-6429
oked	-6430
omin	-6431
onic	-6432
resp	-6433
zing	-6434
▁"",	-6435
▁";"	-6436
▁''.	-6437
▁'+'	-6438
▁AND	-6439
▁Add	-6440
▁Two	-6441
▁das	-6442
▁eth	-6443
▁exh	-6444
▁job	-6445
▁ver	-6446
PTION	-6447
adder	-6448
child	-6449
iated	-6450
media	-6451
mydir	-6452
oding	-6453
ouser	-6454
pause	-6455
ulars	-6456
uliar	-6457
▁Even	-6458
▁alph	-6459
▁auto	-6460
▁bent	-6461
▁burn	-6462
▁ease	-6463
▁educ	-6464
▁forb	-6465
▁gold	-6466
▁grew	-6467
▁hall	-6468
▁nose	-6469
▁objc	-6470
▁pale	-6471
▁park	-6472
▁shad	-6473
▁snow	-6474
▁tied	-6475
▁tort	-6476
▁vers	-6477
('-1')	-6478
cience	-6479
ecache	-6480
icolon	-6481
ishing	-6482
lambda	-6483
morrow	-6484
recurs	-6485
sently	-6486
▁Right	-6487
▁Satur	-6488
▁White	-6489
▁align	-6490
▁chain	-6491
▁desir	-6492
▁drift	-6493
▁indul	-6494
▁perce	-6495
▁signs	-6496
WorkRep	-6497
ificant	-6498
respond	-6499
▁active	-6500
▁agreed	-6501
▁approx	-6502
▁borrow	-6503
▁choose	-6504
▁desert	-6505
▁encode	-6506
▁gmtoff	-6507
▁propag	-6508
▁record	-6509
▁street	-6510
▁threat	-6511
comments	-6512
constant	-6513
hashcode	-6514
incoming	-6515
snapshot	-6516
startpos	-6517
▁barrier	-6518
▁collect	-6519
▁counter	-6520
▁improve	-6521
▁include	-6522
▁putting	-6523
▁triumph	-6524
▁working	-6525
▁division	-6526
▁messages	-6527
▁peculiar	-6528
▁possibly	-6529
▁provides	-6530
▁register	-6531
▁surround	-6532
charbuffer	-6533
▁assurance	-6534
▁callbacks	-6535
▁dataclass	-6536
▁discovery	-6537
▁impatient	-6538
▁linecache	-6539
▁prevented	-6540
▁tranquill	-6541
▁universal	-6542
iscoroutine	-6543
unsupported	-6544
▁Derbyshire	-6545
▁misfortune	-6546
▁stacklevel	-6547
firstweekday	-6548
▁application	-6549
▁unfortunate	-6550
▁representable	-6551
▁disappointment	-6552
!’	-6553
-4	-6554
5]	-6555
66	-6556
70	-6557
=_	-6558
CA	-6559
CO	-6560
aa	-6561
gy	-6562
sm	-6563
"")	-6564
00,	-6565
033	-6566
ADD	-6567
BAL	-6568
ERS	-6569
Gra	-6570
IAL	-6571
Log	-6572
don	-6573
erv	-6574
ica	-6575
ont	-6576
say	-6577
▁ec	-6578
▁et	-6579
▁fa	-6580
▁ow	-6581
▁ve	-6582
.*\)	-6583
DAYS	-6584
FAST	-6585
JUMP	-6586
Look	-6587
Quit	-6588
UPLE	-6589
[0])	-6590
bind	-6591
conv	-6592
give	-6593
ktop	-6594
near	-6595
odec	-6596
olog	-6597
pers	-6598
phew	-6599
star	-6600
tiny	-6601
uous	-6602
▁400	-6603
▁Bdb	-6604
▁Car	-6605
▁FOR	-6606
▁Mar	-6607
▁UTF	-6608
▁ama	-6609
▁bow	-6610
▁deb	-6611
▁kit	-6612
▁pie	-6613
▁que	-6614
▁wig	-6615
7.0.0	-6616
=-1):	-6617
CHECK	-6618
INTER	-6619
LOBAL	-6620
errno	-6621
lence	-6622
lling	-6623
oming	-6624
orary	-6625
otion	-6626
rench	-6627
▁-100	-6628
▁Move	-6629
▁coat	-6630
▁fate	-6631
▁furn	-6632
▁gall	-6633
▁hook	-6634
▁note	-6635
▁shed	-6636
▁slid	-6637
SCRIPT	-6638
iction	-6639
nouser	-6640
reduce	-6641
transl	-6642
▁Louis	-6643
▁apart	-6644
▁cheek	-6645
▁devil	-6646
▁drove	-6647
▁faces	-6648
▁heavy	-6649
▁mourn	-6650
▁north	-6651
▁reuse	-6652
▁solid	-6653
▁taste	-6654
▁theme	-6655
▁traps	-6656
▁unset	-6657
7.0.0.1	-6658
Windows	-6659
because	-6660
icAlias	-6661
ignored	-6662
lengths	-6663
ordinal	-6664
rawdata	-6665
request	-6666
righton	-6667
uration	-6668
▁adding	-6669
▁advent	-6670
▁demand	-6671
▁eldest	-6672
▁finite	-6673
▁longed	-6674
▁normal	-6675
▁pardon	-6676
▁policy	-6677
▁praise	-6678
▁propos	-6679
▁random	-6680
▁render	-6681
▁seized	-6682
▁smiles	-6683
▁sought	-6684
▁stayed	-6685
▁wretch	-6686
▁yonder	-6687
Argument	-6688
Calendar	-6689
alphabet	-6690
fortunes	-6691
historyi	-6692
overflow	-6693
quantize	-6694
timezone	-6695
▁dislike	-6696
▁encoded	-6697
▁escaped	-6698
▁extract	-6699
▁letting	-6700
▁machine	-6701
▁mistake	-6702
▁passage	-6703
▁service	-6704
▁slipped	-6705
semicolon	-6706
▁Brighton	-6707
▁Hunsford	-6708
▁Optional	-6709
▁SUPPRESS	-6710
▁directed	-6711
▁judgment	-6712
▁registry	-6713
▁selector	-6714
▁Copyright	-6715
▁Presently	-6716
▁collected	-6717
▁cottagers	-6718
▁departure	-6719
▁entertain	-6720
▁stretched	-6721
▁suspicion	-6722
annotations	-6723
▁correspond	-6724
▁incomplete	-6725
▁reasonable	-6726
▁Incremental	-6727
▁appropriate	-6728
▁continually	-6729
▁expectation	-6730
▁explanation	-6731
▁misfortunes	-6732
▁cancellation	-6733
'`	-6734
*/	-6735
-6	-6736
1\	-6737
BY	-6738
NU	-6739
On	-6740
]"	-6741
ba	-6742
rl	-6743
”—	-6744
$//	-6745
10,	-6746
ATA	-6747
BLE	-6748
PEC	-6749
PIC	-6750
ULL	-6751
_,”	-6752
erc	-6753
thr	-6754
uel	-6755
▁"_	-6756
▁$4	-6757
▁25	-6758
▁]*	-6759
▁bc	-6760
▁ri	-6761
▁ur	-6762
('0.	-6763
:"),	-6764
SHUT	-6765
bose	-6766
chen	-6767
docs	-6768
fPIC	-6769
hacl	-6770
hest	-6771
iers	-6772
imiz	-6773
impl	-6774
irth	-6775
json	-6776
liar	-6777
mary	-6778
ouch	-6779
plug	-6780
rary	-6781
▁"")	-6782
▁"$@	-6783
▁'''	-6784
▁Dec	-6785
▁Did	-6786
▁Hel	-6787
▁amb	-6788
▁mal	-6789
▁pwd	-6790
▁scp	-6791
▁ven	-6792
56789	-6793
BUILD	-6794
Close	-6795
FTIME	-6796
[1-9]	-6797
allen	-6798
entry	-6799
icked	-6800
irect	-6801
itate	-6802
iting	-6803
jesty	-6804
mixed	-6805
oline	-6806
paste	-6807
pends	-6808
retty	-6809
▁'.*'	-6810
▁2000	-6811
▁Find	-6812
▁Jack	-6813
▁Sher	-6814
▁cent	-6815
▁grab	-6816
▁insp	-6817
▁ring	-6818
▁rope	-6819
▁sell	-6820
▁tear	-6821
▁tong	-6822
▁wlen	-6823
▁wrap	-6824
======	-6825
Cannot	-6826
Closed	-6827
GLOBAL	-6828
mented	-6829
school	-6830
wheres	-6831
▁About	-6832
▁Injun	-6833
▁Ratio	-6834
▁Safie	-6835
▁alter	-6836
▁blank	-6837
▁clock	-6838
▁fatig	-6839
▁fraud	-6840
▁freed	-6841
▁grass	-6842
▁influ	-6843
▁regex	-6844
▁spend	-6845
▁union	-6846
▁upper	-6847
▁wreck	-6848
Desktop	-6849
Program	-6850
comfort	-6851
looking	-6852
ulation	-6853
▁Format	-6854
▁Monday	-6855
▁affair	-6856
▁animal	-6857
▁beings	-6858
▁breast	-6859
▁copies	-6860
▁disgra	-6861
▁estate	-6862
▁fileno	-6863
▁honest	-6864
▁ladder	-6865
▁nephew	-6866
▁plenty	-6867
▁pursue	-6868
▁sooner	-6869
▁travel	-6870
▁typing	-6871
▁unwill	-6872
Buffered	-6873
Division	-6874
recvfrom	-6875
registry	-6876
strftime	-6877
strptime	-6878
▁checked	-6879
▁columns	-6880
▁conceal	-6881
▁encoder	-6882
▁follows	-6883
▁happens	-6884
▁inhabit	-6885
▁kitchen	-6886
▁logical	-6887
▁opening	-6888
▁parents	-6889
▁persons	-6890
▁provide	-6891
▁pursuit	-6892
▁usually	-6893
▁visited	-6894
▁Saturday	-6895
▁accepted	-6896
▁attached	-6897
▁binascii	-6898
▁contains	-6899
▁contempt	-6900
▁describe	-6901
▁familiar	-6902
▁grateful	-6903
▁laughing	-6904
▁material	-6905
▁mountain	-6906
▁override	-6907
▁shoulder	-6908
▁sympathy	-6909
ynchronous	-6910
▁completed	-6911
▁enjoyment	-6912
▁immediate	-6913
checkClosed	-6914
▁additional	-6915
▁importance	-6916
▁interested	-6917
▁overlapped	-6918
▁declaration	-6919
▁particulars	-6920
▁possibility	-6921
▁recollection	-6922
-\	-6923
1%	-6924
EM	-6925
IF	-6926
MD	-6927
So	-6928
[?	-6929
`.	-6930
lh	-6931
}/	-6932
!_”	-6933
,))	-6934
.]*	-6935
/..	-6936
="%	-6937
?_”	-6938
Foo	-6939
ITY	-6940
MEN	-6941
PTH	-6942
SER	-6943
STD	-6944
TES	-6945
[:]	-6946
\//	-6947
ali	-6948
bur	-6949
ded	-6950
des	-6951
dot	-6952
ien	-6953
imp	-6954
ips	-6955
mme	-6956
uly	-6957
utf	-6958
web	-6959
▁>(	-6960
▁NR	-6961
▁Of	-6962
▁PY	-6963
▁Sw	-6964
▁mm	-6965
.*/\	-6966
HASH	-6967
Hold	-6968
Huck	-6969
LIST	-6970
METH	-6971
Miss	-6972
TERM	-6973
__':	-6974
atha	-6975
core	-6976
decl	-6977
ecky	-6978
herd	-6979
kwds	-6980
osen	-6981
oses	-6982
padd	-6983
pars	-6984
post	-6985
quit	-6986
ucks	-6987
uded	-6988
▁-23	-6989
▁ISO	-6990
▁STR	-6991
▁fle	-6992
▁fog	-6993
▁gaz	-6994
▁ole	-6995
▁pit	-6996
▁sne	-6997
▁thy	-6998
▁unc	-6999
▁unf	-7000
▁vis	-7001
coord	-7002
deque	-7003
dtstr	-7004
ening	-7005
eping	-7006
ested	-7007
hours	-7008
ifies	-7009
incre	-7010
isnan	-7011
otent	-7012
pherd	-7013
pipes	-7014
quote	-7015
traps	-7016
udent	-7017
ulous	-7018
until	-7019
utils	-7020
while	-7021
▁Lord	-7022
▁Thus	-7023
▁cats	-7024
▁disg	-7025
▁edge	-7026
▁frac	-7027
▁hang	-7028
▁hate	-7029
▁hero	-7030
▁leap	-7031
▁null	-7032
▁puzz	-7033
▁sank	-7034
MENTED	-7035
METHOD	-7036
allest	-7037
amples	-7038
direct	-7039
geance	-7040
helper	-7041
random	-7042
simple	-7043
versed	-7044
▁Eliza	-7045
▁Judge	-7046
▁Peter	-7047
▁Since	-7048
▁aloud	-7049
▁cache	-7050
▁civil	-7051
▁decor	-7052
▁estab	-7053
▁exhib	-7054
▁fears	-7055
▁fight	-7056
▁lives	-7057
▁moral	-7058
▁prove	-7059
▁skiff	-7060
▁slept	-7061
▁sweat	-7062
▁teeth	-7063
▁yards	-7064
MAPPING	-7065
extract	-7066
initial	-7067
results	-7068
urandom	-7069
▁Harvey	-7070
▁Pretty	-7071
▁aboard	-7072
▁causes	-7073
▁ceased	-7074
▁chosen	-7075
▁conven	-7076
▁crying	-7077
▁distri	-7078
▁double	-7079
▁exists	-7080
▁extras	-7081
▁lookup	-7082
▁modify	-7083
▁nearer	-7084
▁relief	-7085
▁reward	-7086
▁seated	-7087
▁secure	-7088
▁strang	-7089
▁strict	-7090
▁strugg	-7091
▁thanks	-7092
▁thrown	-7093
▁virtue	-7094
99999999	-7095
conflict	-7096
terminfo	-7097
▁awaited	-7098
▁changes	-7099
▁closing	-7100
▁declare	-7101
▁impress	-7102
▁protect	-7103
▁rounded	-7104
▁satisfy	-7105
▁wrapped	-7106
buffering	-7107
▁annotate	-7108
▁branches	-7109
▁cheerful	-7110
▁commence	-7111
▁contents	-7112
▁existing	-7113
▁generous	-7114
▁iterator	-7115
▁opposite	-7116
▁prepared	-7117
▁servants	-7118
▁wandered	-7119
▁algorithm	-7120
▁apprehens	-7121
▁extremely	-7122
▁fortunate	-7123
▁instances	-7124
▁intention	-7125
▁itertools	-7126
▁parameter	-7127
▁recovered	-7128
▁uncomfort	-7129
specialized	-7130
▁compatible	-7131
▁conviction	-7132
▁engagement	-7133
▁reflection	-7134
▁unexpected	-7135
INSTRUMENTED	-7136
Optimization	-7137
▁destination	-7138
▁inclination	-7139
▁significant	-7140
▁intelligence	-7141
▁CancelledError	-7142
▁BlockingIOError	-7143
'<	-7144
03	-7145
1'	-7146
=(	-7147
BE	-7148
UX	-7149
Us	-7150
Wh	-7151
lm	-7152
ln	-7153
pc	-7154
rh	-7155
wc	-7156
~'	-7157
’.	-7158
(":	-7159
)",	-7160
/$(	-7161
2')	-7162
400	-7163
:]]	-7164
Did	-7165
Doc	-7166
FIG	-7167
Ind	-7168
KEY	-7169
LED	-7170
SIX	-7171
WRA	-7172
__:	-7173
aby	-7174
hup	-7175
lip	-7176
mov	-7177
vis	-7178
why	-7179
{\}	-7180
▁1]	-7181
▁60	-7182
▁UN	-7183
▁\*	-7184
▁]]	-7185
▁gh	-7186
▁hy	-7187
▁ip	-7188
00')	-7189
EVER	-7190
HEAD	-7191
INIT	-7192
LINK	-7193
Then	-7194
User	-7195
View	-7196
[0],	-7197
aled	-7198
arnt	-7199
demn	-7200
feed	-7201
inux	-7202
mbox	-7203
mest	-7204
nded	-7205
pute	-7206
rick	-7207
road	-7208
roid	-7209
todo	-7210
vern	-7211
wood	-7212
▁$'\	-7213
▁'.'	-7214
▁+60	-7215
▁-12	-7216
▁IFS	-7217
▁OUT	-7218
▁Our	-7219
▁Out	-7220
▁_('	-7221
▁eof	-7222
▁ful	-7223
▁saf	-7224
▁“*.	-7225
Async	-7226
ERROR	-7227
Graph	-7228
Mixin	-7229
TUPLE	-7230
alpha	-7231
egrep	-7232
eldom	-7233
every	-7234
ialog	-7235
inson	-7236
isted	-7237
never	-7238
olled	-7239
▁----	-7240
▁Span	-7241
▁bust	-7242
▁caut	-7243
▁chin	-7244
▁cost	-7245
▁ears	-7246
▁firm	-7247
▁magn	-7248
▁repl	-7249
▁shri	-7250
▁wigw	-7251
▁wise	-7252
▁yell	-7253
('1'))	-7254
Comple	-7255
FOLDER	-7256
SUBSCR	-7257
cannot	-7258
divmod	-7259
headed	-7260
inning	-7261
isatty	-7262
onents	-7263
tuples	-7264
▁10**(	-7265
▁ASCII	-7266
▁Check	-7267
▁Raise	-7268
▁based	-7269
▁chair	-7270
▁fever	-7271
▁fifty	-7272
▁forty	-7273
▁ident	-7274
▁knife	-7275
▁madam	-7276
▁repro	-7277
▁smoke	-7278
▁snake	-7279
▁spoon	-7280
▁stuck	-7281
▁tells	-7282
▁whoop	-7283
▁zeros	-7284
ameters	-7285
archive	-7286
content	-7287
msgctxt	-7288
tkinter	-7289
unknown	-7290
▁Agatha	-7291
▁During	-7292
▁Reader	-7293
▁advice	-7294
▁apolog	-7295
▁bestow	-7296
▁caused	-7297
▁charge	-7298
▁colour	-7299
▁dining	-7300
▁ensure	-7301
▁insert	-7302
▁learnt	-7303
▁motive	-7304
▁pieces	-7305
▁purpos	-7306
▁repeat	-7307
▁scenes	-7308
▁seldom	-7309
▁spoken	-7310
▁steady	-7311
▁taught	-7312
Sendfile	-7313
writable	-7314
────────	-7315
▁condemn	-7316
▁disappe	-7317
▁environ	-7318
▁fashion	-7319
▁gettext	-7320
▁manager	-7321
▁painful	-7322
▁remains	-7323
▁retired	-7324
▁thunder	-7325
timedelta	-7326
▁Overflow	-7327
▁apparent	-7328
▁bestowed	-7329
▁consumed	-7330
▁employed	-7331
▁platform	-7332
interleave	-7333
returncode	-7334
splitlines	-7335
▁concerned	-7336
▁principal	-7337
▁vengeance	-7338
Stringifier	-7339
completions	-7340
▁ForwardRef	-7341
▁SystemExit	-7342
▁companions	-7343
▁confidence	-7344
▁returncode	-7345
▁subclasses	-7346
▁completions	-7347
▁constructor	-7348
▁destruction	-7349
HelpFormatter	-7350
▁acknowledged	-7351
▁uncomfortable	-7352
/`	-7353
18	-7354
3_	-7355
68	-7356
=2	-7357
Be	-7358
DB	-7359
Ne	-7360
[2	-7361
\{	-7362
gt	-7363
vt	-7364
};	-7365
'];	-7366
)),	-7367
1')	-7368
32_	-7369
:00	-7370
BLA	-7371
Jim	-7372
NDI	-7373
Say	-7374
dri	-7375
etr	-7376
ids	-7377
ino	-7378
las	-7379
law	-7380
leg	-7381
ohn	-7382
rec	-7383
zed	-7384
▁%(	-7385
▁(1	-7386
▁*"	-7387
▁*=	-7388
▁1-	-7389
▁18	-7390
▁3.	-7391
▁En	-7392
▁LI	-7393
▁LO	-7394
▁TO	-7395
▁cc	-7396
▁“—	-7397
INFO	-7398
NULL	-7399
ULTI	-7400
ball	-7401
book	-7402
dirs	-7403
gate	-7404
illy	-7405
iocp	-7406
lend	-7407
mint	-7408
ongs	-7409
otes	-7410
page	-7411
poll	-7412
zcat	-7413
æmon	-7414
▁'*'	-7415
▁('-	-7416
▁+20	-7417
▁2**	-7418
▁May	-7419
▁aux	-7420
▁bos	-7421
▁dee	-7422
▁dup	-7423
▁hol	-7424
▁jis	-7425
▁obt	-7426
▁sel	-7427
▁voy	-7428
▁wed	-7429
']=1;	-7430
GENER	-7431
Hello	-7432
LIMIT	-7433
Music	-7434
ables	-7435
allow	-7436
anied	-7437
antly	-7438
armed	-7439
based	-7440
elled	-7441
erred	-7442
ickle	-7443
oking	-7444
oused	-7445
ports	-7446
stand	-7447
▁"$@"	-7448
▁'0',	-7449
▁Alas	-7450
▁bore	-7451
▁bull	-7452
▁cool	-7453
▁depr	-7454
▁disp	-7455
▁dull	-7456
▁gang	-7457
▁hole	-7458
▁issu	-7459
▁sail	-7460
▁seat	-7461
▁seve	-7462
▁simp	-7463
▁song	-7464
▁sunk	-7465
▁thin	-7466
▁vess	-7467
Please	-7468
SEARCH	-7469
Socket	-7470
limits	-7471
marker	-7472
needed	-7473
plugin	-7474
ysroot	-7475
▁Inter	-7476
▁Maria	-7477
▁abort	-7478
▁anger	-7479
▁apply	-7480
▁aware	-7481
▁birth	-7482
▁brass	-7483
▁chose	-7484
▁drink	-7485
▁felic	-7486
▁flung	-7487
▁guilt	-7488
▁knees	-7489
▁mixed	-7490
▁sheet	-7491
▁stars	-7492
▁stock	-7493
▁worst	-7494
▁yours	-7495
TIMEOUT	-7496
cending	-7497
chedule	-7498
correct	-7499
manager	-7500
missing	-7501
▁Result	-7502
▁ashore	-7503
▁begged	-7504
▁behold	-7505
▁counts	-7506
▁device	-7507
▁divide	-7508
▁effort	-7509
▁endure	-7510
▁images	-7511
▁lately	-7512
▁missed	-7513
▁relate	-7514
▁square	-7515
▁tongue	-7516
▁wicked	-7517
▁wigwam	-7518
▁writes	-7519
addrinfo	-7520
compiler	-7521
outgoing	-7522
readinto	-7523
specific	-7524
ulations	-7525
▁choices	-7526
▁connect	-7527
▁entries	-7528
▁ignored	-7529
▁isearch	-7530
▁keeping	-7531
▁nonzero	-7532
▁parsing	-7533
▁reverse	-7534
▁smiling	-7535
▁someone	-7536
▁touched	-7537
▁treated	-7538
CallGraph	-7539
interrupt	-7540
threading	-7541
▁charming	-7542
▁evidence	-7543
▁gracious	-7544
▁increase	-7545
▁infinity	-7546
▁pictures	-7547
▁proactor	-7548
▁restored	-7549
▁supplied	-7550
▁upstairs	-7551
[0-9][0-9]	-7552
▁agitation	-7553
▁composure	-7554
▁confusion	-7555
▁encourage	-7556
▁iteration	-7557
▁multiline	-7558
▁protocols	-7559
▁reflected	-7560
▁Permission	-7561
▁absolutely	-7562
▁astonished	-7563
▁conscience	-7564
▁conversion	-7565
▁issubclass	-7566
▁philosophy	-7567
▁resentment	-7568
▁considering	-7569
▁performance	-7570
▁respectable	-7571
PipeTransport	-7572
▁approximation	-7573
▁consideration	-7574
▁implementations	-7575
)?	-7576
)}	-7577
->	-7578
17	-7579
54	-7580
59	-7581
:\	-7582
=-	-7583
>/	-7584
Fe	-7585
Hn	-7586
VS	-7587
[%	-7588
[4	-7589
[[	-7590
▁Z	-7591
777	-7592
CLO	-7593
FIN	-7594
HER	-7595
MAT	-7596
RST	-7597
VAR	-7598
VEN	-7599
Wra	-7600
ael	-7601
aix	-7602
cer	-7603
exe	-7604
fst	-7605
ism	-7606
ixt	-7607
kes	-7608
pon	-7609
rop	-7610
uge	-7611
xor	-7612
▁((	-7613
▁(?	-7614
▁2.	-7615
▁Ad	-7616
▁GU	-7617
▁Gr	-7618
▁Py	-7619
▁da	-7620
▁yc	-7621
▁|=	-7622
8888	-7623
DATE	-7624
Rele	-7625
STAT	-7626
[0].	-7627
aise	-7628
barr	-7629
capi	-7630
gone	-7631
inel	-7632
lers	-7633
macs	-7634
nter	-7635
orse	-7636
plus	-7637
tail	-7638
tles	-7639
upid	-7640
▁"),	-7641
▁775	-7642
▁DST	-7643
▁Raw	-7644
▁Say	-7645
▁Str	-7646
▁adj	-7647
▁buy	-7648
▁fly	-7649
▁hes	-7650
▁mil	-7651
▁pig	-7652
Found	-7653
INPUT	-7654
LINUX	-7655
TRACT	-7656
Users	-7657
[:-1]	-7658
[^/]*	-7659
agree	-7660
could	-7661
hosts	-7662
indow	-7663
iring	-7664
isure	-7665
izing	-7666
ories	-7667
quent	-7668
reeze	-7669
setup	-7670
style	-7671
uated	-7672
ulian	-7673
▁"$0"	-7674
▁Pars	-7675
▁Scot	-7676
▁Tell	-7677
▁\{\}	-7678
▁bend	-7679
▁deny	-7680
▁diss	-7681
▁drow	-7682
▁grad	-7683
▁guns	-7684
▁hill	-7685
▁nons	-7686
▁remo	-7687
▁soot	-7688
▁sque	-7689
▁trif	-7690
▁tuck	-7691
▁wore	-7692
('3'))	-7693
CONFIG	-7694
called	-7695
cludes	-7696
compat	-7697
course	-7698
device	-7699
ichael	-7700
repare	-7701
▁CONNE	-7702
▁First	-7703
▁acted	-7704
▁banks	-7705
▁bench	-7706
▁blast	-7707
▁charm	-7708
▁chile	-7709
▁crept	-7710
▁cruel	-7711
▁dæmon	-7712
▁ferry	-7713
▁glory	-7714
▁green	-7715
▁nodes	-7716
▁shame	-7717
▁storm	-7718
▁uncon	-7719
▁waves	-7720
Convert	-7721
PTHREAD	-7722
WRAPPED	-7723
ational	-7724
disable	-7725
methods	-7726
osition	-7727
profile	-7728
windows	-7729
▁French	-7730
▁Lookup	-7731
▁altern	-7732
▁assume	-7733
▁backup	-7734
▁busted	-7735
▁client	-7736
▁corpse	-7737
▁establ	-7738
▁google	-7739
▁hiding	-7740
▁hither	-7741
▁infile	-7742
▁motion	-7743
▁precip	-7744
▁prefer	-7745
▁recent	-7746
▁season	-7747
▁splend	-7748
▁tender	-7749
▁warmth	-7750
23456789	-7751
ordinary	-7752
pherdson	-7753
▁DEFAULT	-7754
▁elegant	-7755
▁filters	-7756
▁leisure	-7757
▁parties	-7758
▁readily	-7759
▁reasons	-7760
▁setattr	-7761
▁theyear	-7762
▁wedding	-7763
▁wishing	-7764
abilities	-7765
backspace	-7766
normalize	-7767
separator	-7768
timestamp	-7769
▁approach	-7770
▁argparse	-7771
▁darkness	-7772
▁deceived	-7773
▁declared	-7774
▁departed	-7775
▁disagree	-7776
▁disgrace	-7777
▁dwelling	-7778
▁felicity	-7779
▁horrible	-7780
▁offended	-7781
▁operator	-7782
▁readinto	-7783
▁supports	-7784
▁truncate	-7785
▁wherever	-7786
▁wondered	-7787
iwholename	-7788
▁amusement	-7789
▁anxiously	-7790
▁described	-7791
▁earnestly	-7792
▁influence	-7793
▁innocence	-7794
▁necessity	-7795
▁objection	-7796
▁preceding	-7797
▁propagate	-7798
▁succeeded	-7799
▁variables	-7800
collections	-7801
imeoutError	-7802
▁favourable	-7803
▁frightened	-7804
▁instrument	-7805
▁introduced	-7806
▁pronounced	-7807
▁surrounded	-7808
GenericAlias	-7809
▁Shepherdson	-7810
▁indifferent	-7811
▁disappointed	-7812
▁tranquillity	-7813
▁ArgumentError	-7814
▁extraordinary	-7815
(%	-7816
(3	-7817
+-	-7818
,’	-7819
/[	-7820
2'	-7821
28	-7822
:—	-7823
<=	-7824
=[	-7825
CC	-7826
RT	-7827
Su	-7828
TM	-7829
`,	-7830
`;	-7831
bp	-7832
tw	-7833
▁—	-7834
"(?	-7835
'])	-7836
1,1	-7837
2))	-7838
COL	-7839
EAR	-7840
ILT	-7841
INE	-7842
Let	-7843
MAC	-7844
May	-7845
NOT	-7846
Run	-7847
SON	-7848
UNI	-7849
[-1	-7850
[2]	-7851
asp	-7852
bot	-7853
emp	-7854
hex	-7855
ico	-7856
ius	-7857
osp	-7858
pad	-7859
rpm	-7860
scr	-7861
tec	-7862
xxx	-7863
▁"[	-7864
▁$'	-7865
▁15	-7866
▁50	-7867
▁80	-7868
▁BO	-7869
▁BZ	-7870
▁Ma	-7871
▁PO	-7872
▁la	-7873
▁{"	-7874
8.8.	-7875
ABIL	-7876
ATOR	-7877
INST	-7878
MODE	-7879
Mess	-7880
PEND	-7881
REAM	-7882
REPL	-7883
Stop	-7884
With	-7885
[^.]	-7886
alog	-7887
aven	-7888
bage	-7889
boot	-7890
burn	-7891
cuss	-7892
even	-7893
ital	-7894
lime	-7895
noon	-7896
sqrt	-7897
than	-7898
true	-7899
unch	-7900
util	-7901
▁"$0	-7902
▁"$1	-7903
▁','	-7904
▁0.1	-7905
▁Den	-7906
▁Dis	-7907
▁IMP	-7908
▁PEP	-7909
▁PER	-7910
▁Wil	-7911
▁abc	-7912
▁bal	-7913
▁fmt	-7914
▁med	-7915
▁mum	-7916
▁pan	-7917
▁pin	-7918
▁pra	-7919
▁sal	-7920
▁tie	-7921
▁unw	-7922
▁wet	-7923
MULTI	-7924
Tuple	-7925
[^.]*	-7926
abort	-7927
acity	-7928
ainer	-7929
arted	-7930
asant	-7931
chief	-7932
ciple	-7933
dated	-7934
dices	-7935
eting	-7936
gmail	-7937
itals	-7938
onage	-7939
pgrep	-7940
rozen	-7941
store	-7942
ugged	-7943
▁Good	-7944
▁Poor	-7945
▁corn	-7946
▁fart	-7947
▁flat	-7948
▁heap	-7949
▁legs	-7950
▁load	-7951
▁logs	-7952
▁meta	-7953
▁rapt	-7954
▁rise	-7955
▁rode	-7956
▁roof	-7957
▁sung	-7958
▁swim	-7959
▁thou	-7960
▁vast	-7961
▁wept	-7962
Dialog	-7963
OUTPUT	-7964
Remove	-7965
SIZEOF	-7966
STREAM	-7967
XXXXXX	-7968
access	-7969
bation	-7970
eneath	-7971
ersion	-7972
escape	-7973
ignity	-7974
linker	-7975
udence	-7976
unless	-7977
urally	-7978
▁arrow	-7979
▁boast	-7980
▁breat	-7981
▁burst	-7982
▁cover	-7983
▁doors	-7984
▁exerc	-7985
▁forms	-7986
▁handy	-7987
▁haven	-7988
▁ideal	-7989
▁intim	-7990
▁kings	-7991
▁knock	-7992
▁lones	-7993
▁named	-7994
▁proof	-7995
▁rooms	-7996
▁rules	-7997
▁seven	-7998
▁shake	-7999
▁shows	-8000
▁stump	-8001
▁tight	-8002
▁track	-8003
▁tramp	-8004
Decoder	-8005
HEADERS	-8006
PENDING	-8007
Process	-8008
Release	-8009
failure	-8010
limited	-8011
parents	-8012
program	-8013
release	-8014
scripts	-8015
theyear	-8016
through	-8017
unicode	-8018
verbose	-8019
▁Raises	-8020
▁	-8021
e	-8022
t	-8023
a	-8024
o	-8025
n	-8026
s	-8027
i	-8028
r	-8029
d	-8030
l	-8031
h	-8032
f	-8033
c	-8034
u	-8035
m	-8036
p	-8037
g	-8038
.	-8039
y	-8040
w	-8041
,	-8042
_	-8043
b	-8044
-	-8045
"	-8046
v	-8047
)	-8048
(	-8049
'	-8050
k	-8051
:	-8052
=	-8053
x	-8054
I	-8055
/	-8056
T	-8057
E	-8058
1	-8059
0	-8060
N	-8061
S	-8062
A	-8063
;	-8064
’	-8065
|	-8066
*	-8067
#	-8068
D	-8069
R	-8070
C	-8071
\	-8072
M	-8073
“	-8074
O	-8075
”	-8076
L	-8077
H	-8078
z	-8079
2	-8080
{	-8081
}	-8082
[	-8083
]	-8084
P	-8085
B	-8086
F	-8087
W	-8088
$	-8089
j	-8090
>	-8091
+	-8092
q	-8093
!	-8094
U	-8095
3	-8096
?	-8097
%	-8098
G	-8099
—	-8100
4	-8101
5	-8102
Y	-8103
V	-8104
`	-8105
6	-8106
<	-8107
9	-8108
J	-8109
7	-8110
X	-8111
8	-8112
K	-8113
@	-8114
^	-8115
&	-8116
~	-8117
Z	-8118
Q	-8119
‘	-8120
─	-8121
–	-8122
æ	-8123
и	-8124
ê	-8125
е	-8126
а	-8127
十	-8128
廿	-8129
н	-8130
о	-8131
п	-8132
я	-8133
à	-8134
с	-8135
ц	-8136
é	-8137
з	-8138
ч	-8139
一	-8140
è	-8141
й	-8142
к	-8143
т	-8144
七	-8145
三	-8146
九	-8147
二	-8148
五	-8149
八	-8150
六	-8151
四	-8152
¤	-8153
­	-8154
·	-8155
ñ	-8156
ô	-8157
ö	-8158
ú	-8159
в	-8160
д	-8161
м	-8162
‐	-8163
→	-8164
卅	-8165
換	-8166
置	-8167
«	-8168
»	-8169
â	-8170
ù	-8171
İ	-8172
œ	-8173
г	-8174
л	-8175
р	-8176
у	-8177
ф	-8178
′	-8179
│	-8180
└	-8181
├	-8182
╱	-8183
╲	-8184
〇	-8185
前	-8186
後	-8187
