<pad>	0
<s>	0
</s>	0
<unk>	0
▁-	-2.89342
.	-3.64264
,	-3.68456
_	-3.88158
▁find	-4.18953
/	-4.19438
▁	-4.23819
s	-4.26729
▁|	-4.30881
▁the	-4.45574
name	-4.70189
▁and	-4.78825
(	-4.79481
▁to	-4.85753
"	-4.87733
▁.	-4.87768
▁/	-4.91788
type	-4.92657
)	-4.95029
'	-4.97326
▁of	-4.97542
:	-4.97804
▁'	-5.03552
▁a	-5.03606
-	-5.17023
▁f	-5.17066
▁=	-5.21651
▁I	-5.25163
▁"	-5.27101
▁in	-5.33879
n	-5.34949
d	-5.36883
;	-5.3742
exec	-5.42484
▁{}	-5.47411
print	-5.4776
▁self	-5.50177
t	-5.55274
▁if	-5.6193
i	-5.62085
▁#	-5.66863
▁\;	-5.6773
f	-5.69087
▁was	-5.71814
=	-5.73023
▁is	-5.74826
▁“	-5.75548
▁xargs	-5.80972
c	-5.82587
▁that	-5.83153
0	-5.8441
▁not	-5.84871
l	-5.85597
▁it	-5.88253
1	-5.8888
▁for	-5.90233
’	-5.90631
▁grep	-5.92102
o	-5.94201
a	-5.96221
r	-5.96373
e	-5.99974
ing	-6.00177
ed	-6.02406
▁1	-6.03214
▁_	-6.0636
▁her	-6.07868
p	-6.08538
):	-6.09506
._	-6.10456
▁my	-6.10662
▁be	-6.11962
self	-6.12373
▁return	-6.12461
▁d	-6.13981
txt	-6.17474
▁with	-6.19775
2	-6.20615
▁you	-6.22988
▁as	-6.23842
▁"*.	-6.25001
path	-6.27195
▁def	-6.29072
\	-6.29583
▁$	-6.32841
▁had	-6.33665
x	-6.33932
▁he	-6.34013
▁she	-6.34193
g	-6.37715
▁+	-6.39709
▁file	-6.39921
▁on	-6.46808
▁his	-6.47876
()	-6.53101
depth	-6.53358
▁--	-6.54158
u	-6.54559
▁me	-6.56492
▁(	-6.5716
I	-6.57177
▁but	-6.57445
dir	-6.5929
▁sort	-6.59573
▁'*.	-6.61424
[	-6.62361
▁rm	-6.641
m	-6.6443
':	-6.64616
v	-6.66029
▁None	-6.66169
▁sed	-6.66592
b	-6.67643
▁by	-6.67918
>	-6.67943
▁at	-6.69141
▁all	-6.69966
to	-6.70978
▁from	-6.72737
▁"$	-6.72932
▁have	-6.73094
.”	-6.7341
▁ls	-6.76493
▁echo	-6.76949
▁awk	-6.77964
▁so	-6.78581
▁or	-6.791
k	-6.80021
▁"""	-6.80908
y	-6.8097
`	-6.81416
file	-6.82392
▁%	-6.82482
▁-0	-6.82736
]	-6.8293
▁which	-6.84759
H	-6.8546
",	-6.86503
max	-6.87362
ly	-6.90557
▁c	-6.92474
▁this	-6.92857
▁him	-6.94086
▁an	-6.95505
mtime	-6.95887
▁said	-6.99005
size	-6.99525
home	-7.00207
▁Mr	-7.00818
!	-7.01153
|	-7.02134
▁do	-7.02192
tmp	-7.0235
5	-7.02653
w	-7.02719
3	-7.03448
h	-7.07343
▁The	-7.08388
▁>	-7.08915
▁other	-7.08941
chmod	-7.09232
▁0	-7.09895
▁no	-7.10059
▁'{	-7.10566
▁$(	-7.11613
P	-7.12231
▁`	-7.12476
perm	-7.12571
M	-7.1271
▁{	-7.12833
S	-7.13226
?	-7.14423
▁they	-7.1488
▁were	-7.1607
',	-7.16822
}	-7.19099
▁cut	-7.19353
▁wc	-7.20121
,”	-7.20224
▁*	-7.20336
usr	-7.20452
▁would	-7.20954
▁could	-7.21159
▁are	-7.21908
▁cat	-7.22772
▁b	-7.23874
▁we	-7.24934
▁head	-7.25184
printf	-7.26362
▁else	-7.26583
▁when	-7.26592
▁your	-7.27323
+	-7.28563
A	-7.2881
*	-7.29212
R	-7.29391
dev	-7.29825
▁been	-7.30049
▁read	-7.30643
▁!	-7.30893
▁will	-7.32828
▁<(	-7.32878
4	-7.33562
▁more	-7.34064
▁one	-7.34362
log	-7.34848
▁raise	-7.34898
▁time	-7.35002
user	-7.35072
er	-7.36418
▁them	-7.36658
E	-7.37336
is	-7.38222
▁==	-7.38831
▁2	-7.39637
prune	-7.40083
▁__	-7.40661
T	-7.42452
in	-7.4258
▁tr	-7.42657
▁\(	-7.42811
▁what	-7.4291
L	-7.43152
")	-7.44229
@	-7.44249
▁\)	-7.44397
▁Elizabeth	-7.46309
C	-7.47546
▁very	-7.48435
▁their	-7.48965
▁there	-7.49117
z	-7.49303
("	-7.49796
get	-7.49806
F	-7.50114
▁out	-7.50135
▁-1	-7.50204
▁./	-7.50384
▁up	-7.50487
▁'{}'	-7.50713
▁[	-7.50828
bin	-7.52544
▁Decimal	-7.53613
=$(	-7.5381
')	-7.55495
▁can	-7.56418
var	-7.57869
▁must	-7.58332
▁some	-7.58421
find	-7.59113
▁set	-7.59132
ls	-7.61006
▁r	-7.614
or	-7.61402
▁mv	-7.61846
▁import	-7.622
▁who	-7.62319
▁context	-7.62414
*'	-7.62578
%	-7.62594
sh	-7.62739
not	-7.63577
▁any	-7.63794
))	-7.64141
▁dir	-7.64174
—	-7.64616
▁print	-7.64651
gz	-7.64658
*"	-7.64966
html	-7.65029
.__	-7.65873
?”	-7.66724
▁sudo	-7.66896
re	-7.67587
com	-7.67652
__(	-7.6784
time	-7.67909
▁"*	-7.68139
▁should	-7.68651
D	-7.68698
null	-7.69216
string	-7.70144
▁tail	-7.70555
▁<	-7.71188
▁*.	-7.713
tar	-7.71674
▁has	-7.71889
▁s	-7.71916
W	-7.72157
grep	-7.72207
▁>>	-7.72785
and	-7.73208
▁such	-7.7343
▁then	-7.74611
▁than	-7.75019
▁p	-7.75765
▁~/	-7.76168
O	-7.76334
data	-7.76418
▁while	-7.76793
AVE	-7.76989
▁am	-7.77823
▁only	-7.78435
▁cp	-7.79621
min	-7.79978
▁before	-7.8016
▁get	-7.80938
▁A	-7.81365
sort	-7.81587
regex	-7.81611
▁mkdir	-7.82069
hown	-7.82153
None	-7.82212
▁done	-7.82395
▁now	-7.82826
▁But	-7.82867
php	-7.83001
▁know	-7.83413
other	-7.83684
('	-7.84078
foo	-7.84594
▁He	-7.86888
▁did	-7.8691
▁1,	-7.87489
▁uniq	-7.87496
▁sh	-7.87906
▁first	-7.88142
▁much	-7.88468
▁str	-7.89398
my	-7.89513
}'	-7.8995
▁man	-7.90702
▁value	-7.91188
empty	-7.9176
▁see	-7.91888
▁e	-7.92255
▁about	-7.92361
▁into	-7.92431
jpg	-7.93153
▁"%	-7.93188
▁class	-7.93627
$	-7.93991
N	-7.94053
q	-7.94135
▁tar	-7.94411
▁little	-7.94936
test	-7.95614
▁She	-7.9632
write	-7.9649
sum	-7.9687
▁ssh	-7.96939
newer	-7.97077
▁It	-7.97121
▁new	-7.9759
▁l	-7.97838
etc	-7.97999
▁down	-7.98173
▁again	-7.98738
cat	-7.98873
▁day	-7.99433
▁3	-7.99667
▁Darcy	-7.99919
echo	-8.00185
▁'\	-8.00542
8	-8.00771
▁result	-8.00991
▁len	-8.01034
al	-8.01154
!”	-8.01176
es	-8.01381
node	-8.01528
j	-8.01529
delete	-8.01568
▁n	-8.02301
▁over	-8.02861
directory	-8.03397
7	-8.03928
▁'*	-8.04269
▁may	-8.04746
▁foo	-8.04836
▁rsync	-8.05031
▁tee	-8.05127
line	-8.06144
▁never	-8.06437
▁'%	-8.06683
format	-8.06748
some	-8.07411
on	-8.07562
▁test	-8.07668
int	-8.08231
str	-8.08497
{	-8.0855
▁int	-8.08628
▁Alice	-8.08695
▁most	-8.09033
pos	-8.09364
”	-8.0953
▁node	-8.09708
▁might	-8.0987
▁\	-8.10071
local	-8.10852
▁x	-8.10869
▁after	-8.11105
▁like	-8.1118
py	-8.11228
6	-8.1229
▁10	-8.12366
--	-8.12493
▁good	-8.12572
}"	-8.13113
le	-8.13426
▁This	-8.13592
DIR	-8.13614
it	-8.13641
Y	-8.14093
dirname	-8.15505
mp	-8.15825
▁&&	-8.15906
▁True	-8.16131
▁make	-8.16421
▁being	-8.16907
▁try	-8.17059
▁)	-8.17395
▁list	-8.17552
▁isinstance	-8.17823
▁re	-8.18292
md	-8.1839
▁line	-8.18437
▁own	-8.18535
▁un	-8.18881
www	-8.18903
▁think	-8.19198
▁two	-8.20091
Decimal	-8.20632
▁Bennet	-8.20872
▁t	-8.21243
▁v	-8.21246
▁de	-8.2127
▁soon	-8.21389
date	-8.21446
▁user	-8.21719
▁elif	-8.21742
▁2>	-8.22332
error	-8.22491
▁how	-8.22702
id	-8.23062
▁string	-8.23298
files	-8.23565
▁"$(	-8.23842
▁Miss	-8.24159
▁every	-8.24283
▁ln	-8.24304
▁except	-8.24389
at	-8.24519
/*	-8.24576
new	-8.24584
)"	-8.24977
▁go	-8.25182
B	-8.25229
un	-8.25502
▁last	-8.25607
▁got	-8.25676
▁its	-8.2592
▁If	-8.25954
▁herself	-8.26321
from	-8.26631
if	-8.27301
key	-8.27342
readlink	-8.27501
▁$1	-8.28293
value	-8.28369
▁ExtendedContext	-8.29597
ness	-8.29857
▁us	-8.30038
▁too	-8.30237
▁way	-8.30365
▁\*.	-8.30396
ion	-8.30803
en	-8.31056
▁Bingley	-8.31488
▁well	-8.31625
an	-8.3213
▁diff	-8.32229
no	-8.32252
▁g	-8.32353
▁action	-8.32419
rf	-8.32572
▁rev	-8.32904
▁ever	-8.33081
▁made	-8.33197
bar	-8.33303
▁long	-8.33384
▁m	-8.33722
▁went	-8.33782
▁}'	-8.33828
▁w	-8.34227
▁where	-8.34294
append	-8.34368
all	-8.34441
▁say	-8.34514
▁False	-8.34783
▁thought	-8.34997
."""	-8.35016
▁"\	-8.35059
ll	-8.35089
▁Jane	-8.35404
▁without	-8.35914
context	-8.35919
group	-8.36303
java	-8.36362
pdf	-8.36436
":	-8.36543
▁"{}"	-8.36754
▁key	-8.3702
▁@	-8.37345
ent	-8.37509
▁old	-8.37898
filename	-8.38206
G	-8.38227
▁"${	-8.38249
=`	-8.38286
▁found	-8.38355
which	-8.3843
▁less	-8.38481
▁M	-8.3879
set	-8.38797
ar	-8.38837
10	-8.39222
▁object	-8.39325
lib	-8.39356
ch	-8.39763
▁755	-8.39827
▁nothing	-8.39838
▁split	-8.39951
▁ValueError	-8.40542
▁4	-8.4094
▁root	-8.40975
▁z	-8.4107
▁i	-8.4145
▁cd	-8.41727
FILE	-8.41897
▁same	-8.41913
▁father	-8.41936
pattern	-8.41968
▁name	-8.42016
▁here	-8.42318
exclude	-8.42324
▁shall	-8.42923
="	-8.43099
▁data	-8.43909
X	-8.44036
able	-8.44227
exp	-8.44403
▁We	-8.44438
▁${	-8.4478
root	-8.44979
"\	-8.45173
end	-8.45249
▁come	-8.45295
loop	-8.45307
▁mount	-8.45618
folder	-8.45782
source	-8.46018
args	-8.46165
▁away	-8.46374
sign	-8.46628
▁off	-8.46647
xargs	-8.47328
▁yes	-8.4787
▁filename	-8.47987
▁just	-8.48165
read	-8.48693
▁dear	-8.49018
▁end	-8.49074
<	-8.49213
out	-8.49719
▁myself	-8.49786
▁y	-8.49899
for	-8.49908
init	-8.5012
▁sister	-8.50221
▁S	-8.50675
▁though	-8.50948
▁these	-8.51046
▁du	-8.5143
▁next	-8.51784
mmin	-8.51821
▁perl	-8.52306
():	-8.54059
▁5	-8.54094
class	-8.54141
[0]	-8.54524
▁'/	-8.547
▁~	-8.54897
pwd	-8.55045
▁family	-8.55112
▁history	-8.55524
▁ans	-8.55624
arg	-8.55649
▁You	-8.56343
list	-8.56467
▁always	-8.56532
▁use	-8.56631
ast	-8.56634
▁0:	-8.56719
/'	-8.56822
il	-8.56931
HOME	-8.57676
\|	-8.57774
▁column	-8.57873
▁great	-8.57911
text	-8.58955
▁comm	-8.59003
ic	-8.59432
default	-8.59478
▁many	-8.59575
▁644	-8.59871
▁our	-8.5994
1.	-8.60038
▁even	-8.6019
▁yet	-8.6027
▁j	-8.60523
▁back	-8.60614
action	-8.60663
git	-8.60856
{}	-8.60991
/\	-8.61354
▁take	-8.6146
▁format	-8.61511
js	-8.61602
src	-8.61754
MODULE	-8.61923
▁P	-8.6232
▁en	-8.62584
▁And	-8.62674
▁In	-8.62844
▁;	-8.629
code	-8.62959
▁0,	-8.63242
Modules	-8.63311
ate	-8.63375
▁saw	-8.63695
▁My	-8.63718
True	-8.6406
less	-8.64119
svn	-8.64618
▁part	-8.64651
▁';'	-8.64788
▁date	-8.65205
ur	-8.65255
proc	-8.65908
▁text	-8.66001
▁df	-8.66151
ation	-8.66231
▁give	-8.66358
▁felt	-8.66413
▁join	-8.66506
▁C	-8.67399
▁gzip	-8.67476
▁log	-8.6785
▁still	-8.6819
num	-8.68527
▁right	-8.69352
NF	-8.69527
1/	-8.69587
as	-8.70015
▁sys	-8.70048
▁bash	-8.70085
▁L	-8.70227
9	-8.70394
▁upon	-8.70632
▁type	-8.70688
▁case	-8.70704
Z	-8.70769
ity	-8.70911
▁default	-8.71129
est	-8.7115
stats	-8.71278
▁loop	-8.71379
▁input	-8.71439
version	-8.71512
ve	-8.7152
▁tell	-8.71661
example	-8.72005
▁call	-8.72156
▁<=	-8.72163
▁want	-8.72206
▁help	-8.72258
Name	-8.72284
▁heard	-8.72348
buffer	-8.72485
add	-8.72919
check	-8.72972
▁place	-8.73284
ac	-8.73542
▁source	-8.73906
▁friend	-8.73965
Error	-8.74365
#	-8.74476
▁argument	-8.74515
ter	-8.75057
▁When	-8.75066
▁paste	-8.75128
▁They	-8.75194
▁because	-8.75467
st	-8.75487
▁!=	-8.75858
▁life	-8.75867
▁sure	-8.75876
▁"$1"	-8.76022
▁start	-8.76066
mt	-8.7613
.*	-8.76561
me	-8.76617
\.	-8.76698
ne	-8.76807
▁dirname	-8.76815
TO	-8.76831
▁cannot	-8.77185
The	-8.77389
▁number	-8.77433
index	-8.77507
▁love	-8.77569
▁left	-8.77577
base	-8.77727
▁eyes	-8.7776
search	-8.78206
▁path	-8.78374
cpio	-8.78451
config	-8.78719
▁Collins	-8.78905
▁NotImplemented	-8.78905
▁night	-8.78916
▁Wickham	-8.78938
▁hope	-8.79105
▁arg	-8.79252
▁size	-8.79498
▁$1}'	-8.79547
://	-8.79617
ip	-8.79624
▁took	-8.80148
▁enough	-8.80463
V	-8.80482
▁write	-8.81058
abc	-8.81301
U	-8.81526
▁kill	-8.81555
▁don	-8.81946
host	-8.82195
target	-8.82412
of	-8.82484
ment	-8.82613
▁towards	-8.82655
option	-8.8268
▁}	-8.8276
with	-8.82788
▁od	-8.82905
▁D	-8.82933
▁B	-8.83006
▁house	-8.83239
▁looked	-8.83329
2)	-8.83414
basename	-8.83743
▁mind	-8.83865
dict	-8.83883
▁option	-8.83991
▁himself	-8.84027
▁ps	-8.84057
▁ifconfig	-8.84205
='	-8.84207
▁rename	-8.84363
server	-8.84734
['	-8.85173
▁says	-8.85397
▁kind	-8.85462
one	-8.85732
▁came	-8.85848
▁screen	-8.86023
▁visit	-8.86259
history	-8.86283
▁young	-8.86862
▁something	-8.86951
ive	-8.8702
▁So	-8.87343
▁fold	-8.87395
▁world	-8.87491
len	-8.87665
:%	-8.87701
so	-8.87709
▁[]	-8.87745
▁called	-8.87925
hostname	-8.88175
▁event	-8.88246
whoami	-8.88617
am	-8.88659
▁present	-8.88741
&	-8.88853
▁output	-8.88896
▁wish	-8.88928
ri	-8.89164
ro	-8.89366
cache	-8.89474
copy	-8.89523
▁used	-8.89636
▁command	-8.89641
▁those	-8.89758
▁mother	-8.89831
You	-8.89833
count	-8.90006
▁does	-8.9009
";	-8.90155
12	-8.90178
rm	-8.90246
▁mode	-8.90301
▁Lydia	-8.90331
conf	-8.90437
2-	-8.90478
▁'./	-8.90512
▁git	-8.90524
your	-8.90891
by	-8.90927
File	-8.91048
▁didn	-8.91099
▁look	-8.9125
offset	-8.9129
▁room	-8.9138
old	-8.91469
▁seq	-8.91542
▁args	-8.92364
▁another	-8.92368
▁$2}'	-8.9243
th	-8.92444
color	-8.92561
▁basename	-8.92682
ies	-8.92942
that	-8.9308
▁feelings	-8.93354
▁END	-8.93392
ctime	-8.93598
▁whom	-8.93736
])	-8.93785
▁however	-8.93865
▁both	-8.93889
NR	-8.9437
script	-8.94433
xml	-8.94492
▁Jim	-8.94513
,--	-8.94693
▁os	-8.94714
▁true	-8.9481
Illustration	-8.95051
▁better	-8.95088
▁work	-8.95164
up	-8.9518
▁passed	-8.95269
▁current	-8.95476
year	-8.95543
▁exp	-8.95588
▁nl	-8.95717
module	-8.95941
▁quite	-8.96349
info	-8.96867
▁ping	-8.97081
2.	-8.97091
sub	-8.97363
▁going	-8.97393
▁also	-8.97508
ish	-8.97516
▁under	-8.97634
\!	-8.97784
▁shop	-8.98094
▁module	-8.98121
▁watch	-8.98246
lines	-8.98394
rb	-8.98843
la	-8.98934
▁replied	-8.99374
▁...	-8.99399
▁100	-8.99579
▁point	-8.9975
map	-8.99796
▁buffer	-9.00056
▁base	-9.00182
▁bytes	-9.00434
▁year	-9.00707
▁$2	-9.00931
strings	-9.01043
(1)	-9.01494
▁moment	-9.01816
▁days	-9.01818
▁told	-9.0184
▁hear	-9.02126
▁half	-9.02208
False	-9.02493
▁few	-9.02589
▁through	-9.0273
▁often	-9.02802
▁seen	-9.02866
▁till	-9.03232
TER	-9.03683
the	-9.03839
▁-60	-9.04405
▁add	-9.04484
command	-9.04498
▁TypeError	-9.04552
start	-9.04558
cls	-9.04634
/$	-9.04721
▁offset	-9.04854
▁once	-9.04883
▁future	-9.04899
▁1)	-9.04991
▁pos	-9.04999
prefix	-9.05136
▁letter	-9.05165
convert	-9.05166
▁round	-9.05174
▁indeed	-9.0522
reader	-9.05277
▁heart	-9.05297
▁]	-9.05436
▁put	-9.05556
python	-9.05598
▁+7	-9.05671
ext	-9.05906
▁far	-9.0597
▁u	-9.06073
▁pass	-9.06204
▁each	-9.06584
future	-9.0662
▁op	-9.07176
▁There	-9.07211
▁began	-9.07247
▁match	-9.07457
▁touch	-9.07493
▁+10	-9.07519
tr	-9.07574
mv	-9.07817
▁CHA	-9.07831
traverse	-9.07931
▁three	-9.07931
ting	-9.07999
▁anything	-9.08014
▁&	-9.08088
▁thing	-9.08214
li	-9.08405
replace	-9.08522
▁message	-9.08608
▁tree	-9.08977
']	-9.09023
▁('	-9.09121
zip	-9.09239
dest	-9.09317
mnt	-9.09354
▁---	-9.09356
▁allow	-9.09373
▁bzip	-9.09389
▁rest	-9.09649
▁'^	-9.09748
▁T	-9.09946
NAME	-9.10001
▁pleasure	-9.10014
Return	-9.10046
input	-9.10046
▁need	-9.10054
▁believe	-9.10249
el	-9.10695
▁subject	-9.10718
▁side	-9.10775
dec	-9.10906
▁sign	-9.11035
▁let	-9.11172
event	-9.11174
▁assert	-9.11428
▁between	-9.1143
▁town	-9.11458
1)	-9.11633
▁around	-9.11655
K	-9.11772
pe	-9.11844
$/	-9.11942
▁whole	-9.12117
mktemp	-9.12174
day	-9.12178
bak	-9.1226
▁"./	-9.12385
call	-9.12448
]'	-9.12656
▁+2	-9.12658
▁second	-9.13505
▁777	-9.13587
png	-9.13608
▁http	-9.13637
length	-9.13658
▁seemed	-9.13689
sys	-9.13774
RE	-9.14266
It	-9.143
▁happy	-9.14316
debug	-9.14386
▁either	-9.14404
te	-9.14426
pid	-9.14541
▁Lady	-9.1514
**	-9.15173
▁top	-9.15444
\*	-9.15534
▁+1	-9.15551
um	-9.15668
▁break	-9.15871
join	-9.15894
())	-9.15918
\\	-9.16182
▁con	-9.16243
pi	-9.165
▁morning	-9.16538
▁possible	-9.16538
'),	-9.16539
▁given	-9.16576
▁k	-9.16754
▁open	-9.16876
▁1;	-9.16908
▁dict	-9.16969
▁function	-9.17191
▁dis	-9.17282
▁voice	-9.1729
▁cried	-9.17291
▁having	-9.17292
-3	-9.17364
space	-9.17397
▁manner	-9.17404
▁msg	-9.17432
▁myfile	-9.17542
ful	-9.17611
▁Catherine	-9.18048
▁yum	-9.18069
us	-9.18171
include	-9.18179
▁warn	-9.18318
ok	-9.18524
▁word	-9.18662
▁total	-9.18755
▁minute	-9.18834
▁things	-9.18836
~	-9.19041
▁character	-9.1909
modules	-9.19154
xdev	-9.19215
▁integer	-9.1939
▁door	-9.19541
▁dig	-9.20009
▁+100	-9.20376
▁sock	-9.20503
whole	-9.20535
▁hour	-9.20538
▁st	-9.21013
▁error	-9.21052
app	-9.21143
*.	-9.21206
doc	-9.21221
share	-9.21308
total	-9.2132
My	-9.21406
▁tuple	-9.21457
▁digits	-9.21645
▁length	-9.21846
▁h	-9.21853
linux	-9.21924
▁ill	-9.22026
awk	-9.221
▁rmdir	-9.22158
man	-9.22413
flags	-9.22454
▁answer	-9.22474
▁returned	-9.22475
▁close	-9.22551
▁temp	-9.22578
▁arguments	-9.22599
prec	-9.2265
▁since	-9.22663
▁E	-9.22767
help	-9.228
▁‘	-9.22864
destination	-9.22917
▁As	-9.22973
inet	-9.23081
repr	-9.23094
ted	-9.23388
▁env	-9.24246
here	-9.24315
SOURCE	-9.24324
▁ch	-9.24546
remote	-9.24547
20	-9.24926
▁run	-9.24957
▁protocol	-9.25053
:]	-9.25124
▁nor	-9.25157
csv	-9.25224
rt	-9.25364
▁info	-9.25389
▁spec	-9.25565
ps	-9.25588
▁week	-9.25588
▁7	-9.2563
ap	-9.25736
▁rather	-9.25957
extra	-9.26199
▁keep	-9.2637
▁words	-9.26658
av	-9.26735
head	-9.26785
bytes	-9.27059
month	-9.27061
pipe	-9.27078
▁group	-9.27104
▁For	-9.27202
sed	-9.27282
ous	-9.27369
▁using	-9.27448
▁encoding	-9.27588
▁chgrp	-9.27617
▁already	-9.27617
▁happiness	-9.2762
▁cal	-9.27627
▁whose	-9.27637
▁really	-9.27712
USER	-9.2784
dc	-9.28198
addr	-9.28354
.—	-9.2839
▁files	-9.28412
'))	-9.2851
▁gone	-9.28546
▁until	-9.28547
fd	-9.28785
rn	-9.29017
Oh	-9.29139
▁whether	-9.29304
▁addr	-9.29329
▁added	-9.29622
▁state	-9.29817
▁appear	-9.29911
'|	-9.30151
▁His	-9.3017
▁power	-9.30219
ct	-9.30265
▁course	-9.30323
▁+30	-9.30389
public	-9.30487
ssh	-9.30758
▁feel	-9.30872
'):	-9.30935
▁different	-9.31021
▁people	-9.31021
▁least	-9.31022
▁stat	-9.3103
▁month	-9.31051
raise	-9.31324
parse	-9.31392
▁idea	-9.31921
▁leave	-9.32233
table	-9.32332
▁index	-9.3254
run	-9.32605
nr	-9.32702
Command	-9.32768
▁country	-9.32775
ant	-9.32807
ance	-9.32814
▁folder	-9.32975
led	-9.32993
/^	-9.33105
PATH	-9.33132
result	-9.33149
▁light	-9.33293
nan	-9.33506
yes	-9.33556
ine	-9.33558
▁change	-9.33591
▁person	-9.33653
▁almost	-9.33653
▁super	-9.33658
/*"	-9.33688
▁''	-9.33756
cpp	-9.34049
spec	-9.34058
/.*	-9.34067
-%	-9.34097
▁hand	-9.34101
▁extra	-9.34254
▁home	-9.34494
▁affection	-9.34528
▁large	-9.34534
▁therefore	-9.34546
▁dest	-9.34913
op	-9.35166
▁exception	-9.35272
▁short	-9.35337
▁brother	-9.35448
he	-9.35745
cd	-9.35779
▁transport	-9.36098
▁live	-9.36103
▁sleep	-9.36479
▁bar	-9.36512
stat	-9.36584
▁along	-9.36708
▁means	-9.36815
▁All	-9.36915
▁full	-9.3697
ad	-9.37007
▁reason	-9.37074
▁friends	-9.37206
▁woman	-9.37273
▁support	-9.37438
▁local	-9.37656
▁mean	-9.37965
backup	-9.38193
▁gunzip	-9.38209
▁poor	-9.3822
][	-9.3831
ain	-9.38653
bz	-9.38772
em	-9.38855
▁show	-9.38982
▁2>&1	-9.39134
▁+%	-9.39172
ake	-9.39281
▁What	-9.39486
lo	-9.39543
('-	-9.3959
system	-9.39632
output	-9.39638
pl	-9.39774
▁speak	-9.39833
[:	-9.3996
-1	-9.39973
▁count	-9.40252
FOR	-9.40366
▁values	-9.40428
▁printf	-9.40651
fut	-9.40667
▁table	-9.40728
And	-9.40783
▁together	-9.4103
▁gave	-9.41044
ED	-9.41067
▁'-	-9.41091
▁crontab	-9.41266
▁flags	-9.41339
[1]	-9.41549
Well	-9.41569
▁wonder	-9.41576
▁F	-9.41703
kf	-9.41841
▁knew	-9.4203
gnu	-9.42043
▁pop	-9.42061
▁pstree	-9.4214
▁o	-9.42188
lower	-9.42374
86	-9.4242
▁daughter	-9.4253
cut	-9.42689
▁+5	-9.42721
ence	-9.42831
23	-9.42897
items	-9.42934
▁Gardiner	-9.42962
▁Her	-9.42974
▁during	-9.4298
ust	-9.43056
item	-9.43308
▁received	-9.43477
tuple	-9.43541
de	-9.43642
▁'',	-9.43654
▁ssl	-9.43764
"),	-9.44061
$'	-9.44135
▁copy	-9.44223
"""	-9.44436
▁**	-9.44552
raw	-9.44557
attr	-9.44722
▁cls	-9.44739
111	-9.44903
▁".*"	-9.44982
▁perhaps	-9.44982
▁code	-9.45013
13	-9.45101
▁Python	-9.45166
link	-9.45412
▁couldn	-9.45422
2/	-9.45478
cmin	-9.45491
you	-9.45569
NO	-9.45575
($	-9.45627
$(	-9.45681
amin	-9.45879
▁care	-9.45986
our	-9.46011
▁instance	-9.46223
actions	-9.46514
What	-9.46563
"'	-9.46615
ear	-9.46639
▁men	-9.46677
▁G	-9.46879
LIB	-9.46942
▁OR	-9.47295
15	-9.47303
special	-9.47581
split	-9.47583
PWD	-9.47963
▁death	-9.47963
▁aunt	-9.47972
▁turned	-9.48149
▁var	-9.48219
▁async	-9.48224
word	-9.4847
▁tac	-9.48497
▁continue	-9.48561
stack	-9.48617
▁'1	-9.48651
▁exc	-9.48663
▁near	-9.48739
next	-9.48786
▁www	-9.48902
}')	-9.48923
hook	-9.48987
▁sound	-9.48996
protection	-9.48996
▁hardly	-9.49058
▁appeared	-9.49288
▁ago	-9.49574
But	-9.49693
▁river	-9.50036
▁certainly	-9.50109
▁0)	-9.50131
▁against	-9.50133
▁Then	-9.50165
="$(	-9.50218
▁De	-9.50251
▁years	-9.50265
▁lines	-9.50313
▁real	-9.50475
▁"^	-9.50557
socket	-9.50749
lineno	-9.50858
▁fear	-9.51045
exit	-9.51046
▁yourself	-9.51056
▁conversation	-9.51088
▁everything	-9.51097
[0-9]	-9.51108
▁method	-9.51117
▁'$	-9.51348
part	-9.51398
▁script	-9.51418
[^	-9.51591
▁continued	-9.51603
but	-9.5165
▁talk	-9.51659
▁evening	-9.51707
only	-9.5175
match	-9.51823
▁wait	-9.52003
iter	-9.52119
▁sometimes	-9.52156
ious	-9.52296
ry	-9.52333
▁pretty	-9.52351
▁X	-9.52387
opt	-9.52473
"|	-9.52528
exception	-9.52604
▁trace	-9.52668
__,	-9.52916
msg	-9.52985
lt	-9.53067
3'	-9.53143
ever	-9.53207
▁bool	-9.53233
STATE	-9.53239
rwx	-9.53384
▁opcode	-9.53464
No	-9.53675
J	-9.53794
▁handle	-9.53843
jar	-9.5395
▁attention	-9.53993
▁sense	-9.54314
-1)	-9.54432
media	-9.54454
▁ap	-9.54493
▁exponent	-9.54554
▁sat	-9.54731
ignore	-9.54753
▁sub	-9.54824
▁server	-9.54941
ow	-9.54943
▁immediately	-9.55436
▁rounding	-9.55444
▁"*"	-9.55547
▁pre	-9.55604
sql	-9.55727
cpython	-9.559
IN	-9.55929
$"	-9.5634
make	-9.56402
os	-9.5642
▁"$0"	-9.56582
▁build	-9.56598
can	-9.56724
▁face	-9.56882
▁looking	-9.57004
▁empty	-9.57009
message	-9.57273
END	-9.57448
myfiles	-9.57532
digits	-9.57604
▁coming	-9.57671
▁longer	-9.57867
▁wouldn	-9.58218
▁spoke	-9.58296
auto	-9.58528
▁How	-9.58611
▁R	-9.58631
▁optional	-9.58729
▁among	-9.58763
▁Charlotte	-9.58784
▁Longbourn	-9.58784
property	-9.58826
▁thousand	-9.59006
▁pro	-9.59108
▁field	-9.59113
▁timedelta	-9.59129
▁$0	-9.59391
chars	-9.59415
${	-9.5946
▁\\	-9.59493
▁lo	-9.59504
mount	-9.59609
ld	-9.5963
▁datetime	-9.5969
▁hours	-9.59716
▁operand	-9.59778
gen	-9.59827
▁tmp	-9.59872
LOAD	-9.59933
▁Chapter	-9.59934
▁alone	-9.59939
▁account	-9.59946
daystart	-9.59953
ied	-9.60076
username	-9.60111
▁form	-9.60125
strip	-9.6015
ug	-9.60407
=*.	-9.60503
width	-9.60636
digit	-9.60652
kwargs	-9.60867
opcode	-9.60897
remove	-9.60899
▁parser	-9.60899
sd	-9.60963
In	-9.60973
▁cousin	-9.61096
▁ladies	-9.61096
▁uncle	-9.61104
factory	-9.6111
ROUND	-9.61129
ce	-9.6114
▁dec	-9.61214
iv	-9.61234
);	-9.61252
▁asked	-9.61316
ud	-9.61326
▁20	-9.61452
▁newline	-9.6158
mode	-9.61584
`"	-9.61609
getattr	-9.61817
▁check	-9.61878
uname	-9.6198
fix	-9.62073
▁notice	-9.62089
buf	-9.62194
86_64-	-9.62273
▁became	-9.62273
Do	-9.62288
▁6	-9.6239
▁curl	-9.62413
▁At	-9.62438
▁sum	-9.62557
▁N	-9.62806
win	-9.6286
▁position	-9.6307
OP	-9.63162
▁others	-9.63221
64	-9.63398
▁doubt	-9.63446
▁scene	-9.63463
▁above	-9.63463
pkg	-9.63477
▁finger	-9.63488
▁tmux	-9.63591
▁Lizzy	-9.63675
▁feeling	-9.63701
▁No	-9.63833
ice	-9.63974
sock	-9.64019
vf	-9.6408
▁Well	-9.64081
dump	-9.64149
▁zero	-9.64206
▁range	-9.64275
global	-9.64305
res	-9.64326
css	-9.64343
pop	-9.64402
▁To	-9.64527
▁version	-9.64555
EX	-9.64575
WITH	-9.64668
InvalidOperation	-9.64669
STRING	-9.6467
▁exactly	-9.64727
PID	-9.64808
▁yield	-9.64814
▁child	-9.64848
▁play	-9.6514
//'	-9.6519
]:	-9.65346
▁cause	-9.65411
age	-9.65484
OR	-9.65673
14-	-9.657
▁girl	-9.65709
screen	-9.6572
▁tz	-9.65745
abs	-9.65765
100	-9.65952
▁min	-9.66036
ers	-9.66044
▁air	-9.66051
ated	-9.66107
▁bound	-9.66238
32	-9.6629
▁stream	-9.66349
▁+3	-9.66498
ogg	-9.66651
red	-9.66755
▁".*	-9.66763
▁8	-9.66833
console	-9.6697
argument	-9.66972
▁escape	-9.67066
▁marriage	-9.67122
▁opinion	-9.67122
Yes	-9.67123
]*	-9.6721
▁entered	-9.67251
closed	-9.67387
▁^	-9.6739
▁On	-9.6744
▁exit	-9.67537
▁W	-9.67552
▁-7	-9.67816
▁Do	-9.67851
▁walk	-9.67878
],	-9.67889
▁NaN	-9.68019
▁best	-9.6806
compare	-9.6823
=/	-9.68242
▁process	-9.68358
▁water	-9.68373
timeout	-9.68381
▁implementation	-9.68395
▁python	-9.6846
▁console	-9.68527
▁ten	-9.68557
AT	-9.68621
▁raiseit	-9.68684
▁original	-9.68882
fno	-9.68956
=$	-9.69229
/{	-9.69268
FS	-9.69273
rw	-9.69366
▁William	-9.69638
▁regard	-9.69638
▁thus	-9.69639
ty	-9.69645
▁OF	-9.69706
mydir	-9.6971
▁natural	-9.6972
(0,	-9.69875
▁'[	-9.69958
hi	-9.69987
/*/	-9.70101
▁expected	-9.70121
▁-9	-9.70245
side	-9.7037
▁objects	-9.70402
uid	-9.70432
▁float	-9.70449
▁del	-9.70598
▁stay	-9.70672
▁target	-9.70749
traceback	-9.70799
callback	-9.70828
▁countenance	-9.7092
▁necessary	-9.7092
▁several	-9.7092
BEGIN	-9.7092
triple	-9.70921
▁posix	-9.70921
temp	-9.70932
▁King	-9.71013
▁taken	-9.71055
▁O	-9.7115
lock	-9.71436
▁required	-9.71596
subclass	-9.71747
▁eth	-9.71896
▁equal	-9.72013
tion	-9.72014
▁’	-9.72061
build	-9.72133
▁host	-9.72171
prog	-9.72179
bash	-9.7218
state	-9.72181
▁nature	-9.72219
LOG	-9.72219
insert	-9.72275
location	-9.72286
flto	-9.72386
/%	-9.725
▁src	-9.72542
wm	-9.72602
▁q	-9.72709
().	-9.7294
▁hands	-9.72968
=3	-9.73435
▁minutes	-9.73499
▁Queen	-9.73535
▁honour	-9.73535
Path	-9.73537
ring	-9.73645
▁socket	-9.73847
▁sea	-9.73878
▁";"	-9.73895
vars	-9.73964
▁names	-9.73975
▁V	-9.73994
3"	-9.7404
cvf	-9.74089
▁lost	-9.74171
▁within	-9.74318
▁sisters	-9.74352
▁clear	-9.74372
▁turn	-9.74374
▁rec	-9.74385
▁imp	-9.74474
▁high	-9.74684
▁general	-9.74766
▁talking	-9.75182
▁\+	-9.75261
▁forward	-9.7532
hour	-9.75374
▁whatever	-9.75636
▁task	-9.75773
▁ask	-9.758
▁closed	-9.75825
bo	-9.75844
[0]=1	-9.76004
▁That	-9.76031
▁example	-9.76078
something	-9.76203
struct	-9.76212
LDFLAGS	-9.76219
▁miserable	-9.76219
abstractmethod	-9.76225
]]	-9.76256
▁dead	-9.76269
cmd	-9.76306
▁why	-9.76403
▁hostname	-9.76479
▁precision	-9.76537
do	-9.76565
▁big	-9.7666
▁raw	-9.7673
▁bad	-9.7676
('1	-9.76853
▁prefix	-9.77135
create	-9.77578
minute	-9.77584
▁occasion	-9.77584
▁Netherfield	-9.77589
▁otherwise	-9.77589
▁parallel	-9.77589
▁lady	-9.77589
▁instead	-9.77707
be	-9.77709
▁sight	-9.77726
Dir	-9.77805
▁walked	-9.77857
▁sun	-9.78014
▁avoid	-9.78163
▁false	-9.78245
To	-9.78259
('0')	-9.78409
close	-9.78509
*/	-9.78652
AL	-9.78699
▁convert	-9.78835
db	-9.78837
▁small	-9.78897
▁purpose	-9.78978
Desktop	-9.78978
▁ought	-9.78981
"`	-9.79033
per	-9.79044
nouser	-9.79275
ru	-9.79315
▁dance	-9.79335
▁view	-9.79426
▁methods	-9.79441
localhost	-9.7946
,%	-9.79617
fs	-9.79662
▁pain	-9.79945
cmp	-9.79945
'\	-9.80188
cr	-9.80273
▁Lucas	-9.80349
▁respect	-9.80365
Program	-9.80382
▁brought	-9.80386
precedence	-9.8039
▁information	-9.80393
▁become	-9.80398
stuff	-9.80412
register	-9.80419
▁lib	-9.80453
nonlocal	-9.8061
io	-9.80648
last	-9.80663
▁errors	-9.80812
▁+20	-9.80876
▁"`	-9.80887
~"	-9.81062
▁delight	-9.81185
▁four	-9.81194
/\.	-9.81217
/{}	-9.81296
▁months	-9.81299
▁spirits	-9.81368
▁id	-9.81486
fold	-9.81591
▁certain	-9.81707
▁effect	-9.81815
▁Kitty	-9.81815
▁matter	-9.81817
encoding	-9.81864
obj	-9.81868
▁tried	-9.819
▁followed	-9.81938
String	-9.81966
▁seeing	-9.82038
▁compute	-9.8205
her	-9.82118
▁party	-9.82175
cy	-9.8227
('1')	-9.82376
▁suppose	-9.82792
▁title	-9.82928
▁-10	-9.8293
▁known	-9.82975
▁complete	-9.83021
seconds	-9.83066
▁misery	-9.83264
▁money	-9.83264
flush	-9.83265
▁joy	-9.83266
tzinfo	-9.83338
ba	-9.83532
▁question	-9.83699
aux	-9.8372
▁expression	-9.83747
▁10**	-9.83949
▁-100	-9.8405
▁choice	-9.84116
}{	-9.84298
▁directory	-9.84332
co	-9.84401
go	-9.84522
ial	-9.84593
▁*/	-9.84645
▁'.*'	-9.84668
▁human	-9.84718
▁business	-9.84735
▁companion	-9.84735
▁dark	-9.84802
archive	-9.84831
▁able	-9.84857
decoded	-9.85073
▁resolved	-9.85082
ag	-9.85274
▁../	-9.85352
▁wished	-9.8537
▁thread	-9.85442
GET	-9.8557
▁seek	-9.85575
mov	-9.85617
▁remote	-9.85815
▁search	-9.85823
▁warnings	-9.86018
scp	-9.86041
▁lock	-9.86116
▁globals	-9.86217
▁After	-9.86228
shutdown	-9.86252
▁perfectly	-9.86272
▁operation	-9.86323
stdout	-9.86339
▁address	-9.86375
▁single	-9.86431
256	-9.86434
char	-9.86456
▁free	-9.86476
ge	-9.86491
—”	-9.86508
▁allowed	-9.86755
ING	-9.86832
▁times	-9.86843
▁comp	-9.86915
▁wanted	-9.86989
▁install	-9.87115
.*'	-9.87174
isearch	-9.87201
▁pipe	-9.87243
▁create	-9.87289
▁bc	-9.87352
od	-9.87359
▁saying	-9.87368
▁manners	-9.87516
ub	-9.8755
▁types	-9.87577
SIZE	-9.87706
Music	-9.87743
▁glad	-9.87743
}")	-9.87754
▁"$@"	-9.87754
▁appearance	-9.87759
▁ground	-9.87762
address	-9.87852
=1	-9.87908
ary	-9.8795
▁await	-9.88038
4000	-9.88158
▁waiter	-9.88208
30	-9.88347
▁fire	-9.88509
]"	-9.88599
01	-9.88644
▁hi	-9.88843
ping	-9.88876
same	-9.88897
▁running	-9.88951
▁item	-9.88969
▁tone	-9.89059
seq	-9.89063
▁Colonel	-9.89281
▁London	-9.89281
▁married	-9.89281
▁wife	-9.89281
▁acquaintance	-9.89281
stderr	-9.89433
▁won	-9.89439
protocol	-9.89445
number	-9.89458
▁considered	-9.89495
mb	-9.89572
▁opened	-9.89794
▁lineno	-9.89924
▁File	-9.89999
use	-9.90022
ach	-9.90075
▁parse	-9.9014
starts	-9.90275
cc	-9.90732
▁husband	-9.90843
1"	-9.90859
rc	-9.90866
▁strings	-9.90885
▁five	-9.90896
▁unset	-9.90974
indent	-9.91014
mail	-9.91037
▁greater	-9.91082
UP	-9.91261
▁per	-9.91284
11	-9.91299
▁NR	-9.91446
▁none	-9.91487
▁pwd	-9.91526
▁~/.	-9.91551
lh	-9.91564
ab	-9.91696
port	-9.91698
.*"	-9.91699
▁namespace	-9.918
▁content	-9.91869
▁decimal	-9.91998
▁1:	-9.9206
▁body	-9.92068
▁window	-9.92126
▁char	-9.92143
▁raised	-9.92167
▁itself	-9.92225
==	-9.92268
▁remove	-9.92289
▁+60	-9.92363
▁St	-9.92365
▁behaviour	-9.92431
Infinity	-9.92431
CALL	-9.92464
FTIME	-9.9248
mbox	-9.92487
urandom	-9.92522
▁fixed	-9.92562
Returns	-9.92573
["	-9.92574
ver	-9.92616
▁creature	-9.92624
func	-9.92634
short	-9.92641
update	-9.92714
▁thoughts	-9.92789
/*.	-9.92868
'`	-9.92921
▁ignore	-9.9293
project	-9.92959
used	-9.93011
▁IFS	-9.93106
ER	-9.93167
▁“*.	-9.93204
LC	-9.93285
ick	-9.93392
▁shift	-9.93538
123	-9.93605
▁skip	-9.93723
▁cold	-9.9378
09	-9.93799
done	-9.94037
▁journey	-9.94044
ATTR	-9.94046
pending	-9.9407
▁ma	-9.94073
▁finally	-9.94099
LINE	-9.94163
ize	-9.9419
▁hard	-9.94227
level	-9.94264
That	-9.9428
core	-9.94388
How	-9.94431
▁prompt	-9.94679
[[:	-9.94949
▁cursor	-9.95028
▁options	-9.95073
▁non	-9.95127
▁chars	-9.95176
();	-9.95229
▁Why	-9.95399
▁dare	-9.95412
Of	-9.95443
▁block	-9.95507
▁main	-9.95534
▁degree	-9.95683
▁trouble	-9.95683
executable	-9.95684
▁OSError	-9.95689
▁$5	-9.95705
apache	-9.95709
▁loss	-9.95713
▁deal	-9.95846
stdin	-9.95966
▁By	-9.96032
1,1	-9.96129
main	-9.96205
▁created	-9.96205
=0,	-9.96224
▁keyword	-9.96308
wc	-9.96449
▁-3	-9.96578
tic	-9.96684
apt	-9.9673
▁low	-9.96912
▁frame	-9.97038
▁doesn	-9.97073
▁expect	-9.97181
▁fine	-9.97216
▁1000	-9.97295
▁silence	-9.9735
adjusted	-9.9735
▁written	-9.97576
like	-9.9761
▁success	-9.97619
Why	-9.9764
▁]]	-9.97712
▁raft	-9.97796
second	-9.97956
▁likely	-9.98004
exceptions	-9.98127
▁system	-9.98145
ating	-9.98233
top	-9.98254
▁ro	-9.9826
▁public	-9.98394
("%	-9.9844
ports	-9.98471
long	-9.98486
ord	-9.98514
▁Oh	-9.98579
▁endeavour	-9.988
▁order	-9.98813
▁bit	-9.98924
▁deep	-9.98966
ksh	-9.99044
DAYS	-9.99045
▁Clerval	-9.99045
▁Turtle	-9.99045
▁positive	-9.99045
generic	-9.99045
Copyright	-9.99046
▁plan	-9.9909
wrap	-9.99127
▁following	-9.99195
▁vi	-9.99201
days	-9.99231
▁provided	-9.99331
frame	-9.99365
room	-9.99371
▁talked	-9.99436
ally	-9.99441
▁ready	-9.99565
"]	-9.99666
▁J	-9.99753
▁'0'	-9.99774
▁("	-9.99956
▁category	-10.0008
values	-10.0012
IP	-10.0013
$'\	-10.0015
▁'*/	-10.002
AS	-10.0034
▁obj	-10.0041
CFLAGS	-10.0077
SYS	-10.0077
▁kept	-10.0077
▁knowledge	-10.0078
▁everybody	-10.0079
[-1]	-10.0084
▁update	-10.0089
▁subclass	-10.0089
▁remained	-10.0091
▁30	-10.0094
▁expressed	-10.0096
▁determined	-10.0098
trials	-10.0111
fill	-10.0112
▁master	-10.0113
power	-10.0118
marker	-10.0119
ors	-10.0121
▁divmod	-10.0128
▁offer	-10.0136
ible	-10.0154
Users	-10.0167
env	-10.0186
move	-10.0192
▁consider	-10.0195
IT	-10.0212
▁understand	-10.0227
ard	-10.0252
▁cottage	-10.0252
▁Meryton	-10.0252
▁\{\}	-10.0252
▁advantage	-10.0252
▁beautiful	-10.0252
▁impossible	-10.0252
OUTPUT	-10.0252
▁silent	-10.0252
▁children	-10.0252
▁775	-10.0253
▁Mock	-10.0254
▁Mary	-10.0255
▁max	-10.0258
▁kindness	-10.026
▁>(	-10.0266
'\\',	-10.0273
▁'.*	-10.028
ture	-10.0284
filter	-10.0286
tty	-10.0289
▁mysql	-10.0289
import	-10.029
running	-10.0291
ssl	-10.0302
▁IN	-10.0311
admin	-10.0328
(),	-10.0329
^	-10.0336
▁tea	-10.0342
▁ast	-10.0343
▁google	-10.0349
tee	-10.0361
▁fut	-10.0368
▁believed	-10.0371
exe	-10.0376
▁negative	-10.0377
she	-10.0378
▁seem	-10.0378
▁\*	-10.0382
▁happen	-10.0407
▁reader	-10.0408
▁xc	-10.0425
security	-10.0431
▁beauty	-10.0431
▁horror	-10.0431
▁scarcely	-10.0431
▁despair	-10.0431
▁THE	-10.0431
http	-10.0432
▁sir	-10.0433
▁accept	-10.0441
▁prec	-10.0444
SET	-10.0447
body	-10.0448
▁Tom	-10.0451
classmethod	-10.0453
exc	-10.0453
={	-10.0453
\)	-10.0456
tokens	-10.0465
▁common	-10.0471
▁surprised	-10.0472
Base	-10.0473
title	-10.0475
US	-10.0477
=2	-10.0482
▁groups	-10.0489
PY	-10.0509
▁repr	-10.051
TIME	-10.051
non	-10.0513
▁thank	-10.0522
ily	-10.0526
▁backup	-10.0527
TY	-10.0533
▁limit	-10.0535
▁book	-10.0536
needle	-10.0541
▁owner	-10.056
▁nargs	-10.0562
fields	-10.0567
▁desire	-10.0577
0000	-10.0584
▁An	-10.0585
▁"__	-10.0589
▁seconds	-10.0592
▁remember	-10.0602
block	-10.0605
66	-10.0607
VERSION	-10.0613
Precedence	-10.0613
▁Gryphon	-10.0613
▁Hatter	-10.0613
▁Pemberley	-10.0613
▁carriage	-10.0613
▁garden	-10.0613
▁situation	-10.0613
▁dream	-10.0613
▁fellow	-10.0613
▁afterwards	-10.0614
▁wind	-10.0614
ave	-10.0614
unix	-10.0619
▁ug	-10.0619
▁engaged	-10.0621
▁stop	-10.0622
▁settled	-10.0623
Context	-10.063
▁nearly	-10.0631
ple	-10.0638
▁picture	-10.0643
projects	-10.0647
foobar	-10.0657
family	-10.0658
++	-10.066
29	-10.0668
▁','	-10.0672
rpm	-10.0673
IO	-10.0684
dat	-10.0686
▁cmd	-10.0687
docstring	-10.0691
ber	-10.0705
tom	-10.0719
keymap	-10.0723
tail	-10.0725
▁50	-10.0727
};	-10.073
▁ext	-10.0738
div	-10.0738
bout	-10.0749
▁calc	-10.0753
▁"*/	-10.0753
ight	-10.0756
/^\	-10.0759
$//'	-10.0771
)]	-10.0781
▁tzinfo	-10.0792
▁themselves	-10.0798
slots	-10.0798
FooBar	-10.0798
▁afraid	-10.0798
▁agreeable	-10.0799
▁neither	-10.0799
▁making	-10.0799
*$/	-10.0806
Are	-10.0807
▁RuntimeError	-10.0807
▁attempt	-10.0819
fat	-10.082
invalid	-10.0824
▁pleased	-10.0833
back	-10.0839
▁ball	-10.0841
found	-10.0847
function	-10.0847
This	-10.0851
forward	-10.0853
handler	-10.0854
commands	-10.0857
▁quit	-10.0864
inter	-10.0864
▁met	-10.0877
bind	-10.0882
eof	-10.089
over	-10.0897
He	-10.0956
▁strange	-10.0962
▁lay	-10.0962
▁pattern	-10.0969
▁signal	-10.097
▁Justine	-10.0987
▁pride	-10.0987
▁laid	-10.0987
▁former	-10.0987
board	-10.0988
▁hold	-10.0991
cp	-10.0997
orm	-10.1018
1",	-10.1018
cancelled	-10.1038
decimal	-10.1038
what	-10.1039
▁callback	-10.1049
expr	-10.1053
▁release	-10.1077
▁co	-10.1093
xc	-10.1094
▁'.'	-10.1096
pad	-10.1115
mm	-10.1128
are	-10.1132
▁gr	-10.1142
microseconds	-10.1147
NaN	-10.1155
arch	-10.1162
▁fall	-10.1164
▁George	-10.1179
▁behind	-10.1179
▁satisfied	-10.1179
*10**	-10.1179
▁although	-10.1179
▁court	-10.1179
▁shore	-10.1179
▁gentleman	-10.118
▁instantly	-10.1184
▁unless	-10.1191
▁Huck	-10.1197
▁fortune	-10.1204
If	-10.1219
▁white	-10.1222
▁Your	-10.1224
▁With	-10.1224
sent	-10.1229
▁tears	-10.1235
▁eye	-10.1235
ef	-10.1238
json	-10.1248
task	-10.125
▁usage	-10.1262
tag	-10.127
mon	-10.1277
▁send	-10.1308
keys	-10.131
▁"<	-10.1317
60	-10.1318
-8	-10.1332
theme	-10.1332
vm	-10.135
▁eat	-10.1351
▁images	-10.1359
▁pap	-10.1363
current	-10.1372
snapshot	-10.1375
subdomainA	-10.1375
▁fair	-10.1375
subdomainB	-10.1375
indices	-10.1375
▁700	-10.1375
CVS	-10.1375
▁early	-10.1375
▁2009	-10.1377
▁directly	-10.1379
▁suddenly	-10.1381
▁'+'	-10.1385
def	-10.1392
▁difference	-10.1393
▁ran	-10.1396
▁happened	-10.1402
avz	-10.1409
readable	-10.1413
▁kwargs	-10.1414
▁nobody	-10.1419
")"	-10.1423
position	-10.143
negative	-10.1434
skip	-10.1435
gif	-10.1435
▁vim	-10.1435
transport	-10.1437
logical	-10.1437
Hn	-10.1458
▁wood	-10.146
▁contain	-10.1463
▁blah	-10.1471
reset	-10.1484
▁ho	-10.149
parts	-10.1494
▁'__	-10.1499
18	-10.1505
▁program	-10.1506
▁actions	-10.1521
parents	-10.1523
fail	-10.1523
▁interest	-10.1527
newline	-10.1538
▁doing	-10.1543
tz	-10.1544
▁archive	-10.1565
ten	-10.157
▁comfort	-10.1573
Type	-10.1575
DEPS	-10.1575
graph	-10.1575
▁easy	-10.1575
▁amiable	-10.1575
▁begin	-10.1575
▁Sir	-10.1575
▁entirely	-10.1576
▁greatest	-10.1583
serving	-10.1586
we	-10.1588
▁getting	-10.1589
▁modules	-10.1592
Py	-10.1597
warn	-10.1614
Emax	-10.1629
▁app	-10.163
awaited	-10.1633
▁spirit	-10.1638
shift	-10.1639
coro	-10.1641
▁Now	-10.165
[0-9]*	-10.1658
params	-10.1663
▁daughters	-10.1665
datetime	-10.1672
completer	-10.1675
▁changed	-10.1682
▁depend	-10.1684
waiters	-10.1687
ref	-10.1691
DS	-10.1695
▁needed	-10.1699
1000	-10.1707
▁foot	-10.171
▁woods	-10.1718
}/	-10.1721
▁surprise	-10.1732
wp	-10.1734
▁dat	-10.1736
▁characters	-10.1743
▁sp	-10.175
round	-10.1753
▁-50	-10.1753
▁events	-10.1764
▁$4	-10.1768
▁usual	-10.177
▁bind	-10.1771
▁pleasant	-10.1779
▁Rosings	-10.1779
▁nigger	-10.1779
▁black	-10.1779
brew	-10.1783
▁bank	-10.1783
▁anybody	-10.1785
▁handsome	-10.1786
▁specified	-10.179
▁observed	-10.1795
ile	-10.1798
▁girls	-10.1809
xxx	-10.1812
▁worth	-10.1825
timestamp	-10.1826
▁waiting	-10.1828
▁constant	-10.184
▁'*.[	-10.1841
range	-10.1843
>"	-10.1844
infinity	-10.1845
annotate	-10.1845
progress	-10.1846
▁mile	-10.1848
▁writing	-10.1849
common	-10.185
▁fast	-10.1854
row	-10.1862
De	-10.1863
Can	-10.1866
▁*,	-10.187
▁'\.	-10.1881
999	-10.1883
ble	-10.1899
tab	-10.1899
▁indent	-10.1904
alt	-10.1908
▁asyncio	-10.1914
0-9	-10.1917
object	-10.1919
ID	-10.1925
▁ex	-10.1939
▁assure	-10.194
parser	-10.1961
▁marry	-10.1962
▁token	-10.1965
▁meet	-10.1966
▁sent	-10.1971
▁mine	-10.1984
▁0777	-10.1987
▁convinced	-10.1987
Include	-10.1987
sample	-10.1987
▁evil	-10.1987
▁+90	-10.1988
junk	-10.1988
▁boy	-10.1988
▁easily	-10.1989
▁dinner	-10.1999
low	-10.2008
▁nohup	-10.2013
▁'*'	-10.2029
decode	-10.2034
▁land	-10.2034
lst	-10.2053
section	-10.2058
program	-10.206
▁exceptions	-10.2071
19	-10.2077
rounding	-10.2086
ened	-10.2086
dst	-10.209
▁exact	-10.2096
▁lived	-10.2097
Test	-10.2098
▁24	-10.2104
▁One	-10.2106
▁color	-10.2125
▁*"	-10.2125
}:	-10.213
Eo	-10.2138
▁parts	-10.2162
:]'	-10.2187
▁Rabbit	-10.22
▁conduct	-10.22
▁Yet	-10.22
▁peace	-10.22
writable	-10.22
▁fancy	-10.22
▁sorry	-10.22
Action	-10.22
▁wild	-10.2201
▁chance	-10.2203
▁spent	-10.2203
▁slight	-10.2205
▁report	-10.221
TEST	-10.221
tune	-10.2211
▁below	-10.2223
clash	-10.2229
org	-10.2229
password	-10.2234
▁binary	-10.2236
▁AN	-10.2243
XXXXXX	-10.2254
Un	-10.2255
thread	-10.2259
▁collections	-10.226
+\	-10.2262
▁act	-10.2263
getcontext	-10.2264
▁broken	-10.2264
16	-10.2265
▁den	-10.2265
locale	-10.2265
▁tt	-10.227
content	-10.2276
asyncio	-10.2277
uch	-10.2283
links	-10.2285
▁inter	-10.2291
▁XXX	-10.2292
▁1024	-10.2301
que	-10.2302
▁calling	-10.2314
DB	-10.2323
▁height	-10.2327
▁coro	-10.2351
bit	-10.2355
rel	-10.2356
plt	-10.2356
ock	-10.2363
▁9	-10.2365
("\	-10.2365
rx	-10.2369
nl	-10.2369
▁judge	-10.237
▁promise	-10.237
▁60	-10.2376
▁discover	-10.2382
Handle	-10.2385
▁express	-10.239
open	-10.2416
▁across	-10.2418
▁sweet	-10.2418
▁AttributeError	-10.2418
▁further	-10.2418
Server	-10.2418
refresh	-10.2418
▁widow	-10.2418
scheduled	-10.2418
▁truth	-10.2422
cal	-10.243
▁arrived	-10.2433
march	-10.2443
▁stranger	-10.2448
cell	-10.2454
myfile	-10.2476
▁answered	-10.2485
▁memory	-10.2488
/.*/	-10.2495
music	-10.2498
FOLDER	-10.2498
float	-10.2499
domain	-10.2499
val	-10.25
clear	-10.2501
more	-10.2506
64-	-10.2524
▁reading	-10.2529
▁fail	-10.2546
▁decoder	-10.2558
Their	-10.2569
▁seems	-10.2593
▁comes	-10.2596
lying	-10.2602
FILES	-10.2603
▁se	-10.2606
▁listen	-10.2611
▁core	-10.2614
▁design	-10.2617
mag	-10.2617
$/\	-10.2619
where	-10.262
pair	-10.2625
▁Be	-10.2635
LOCATION	-10.264
recursive	-10.264
▁imagine	-10.264
▁society	-10.264
▁breakfast	-10.264
FOO	-10.264
Store	-10.264
template	-10.264
▁drew	-10.264
specialization	-10.2641
▁island	-10.2641
▁664	-10.2641
▁various	-10.2642
MENT	-10.2645
IFY	-10.2648
▁share	-10.2648
UN	-10.2653
cur	-10.2654
▁Felix	-10.2654
▁son	-10.2655
▁\{}	-10.2657
/^/	-10.2662
▁past	-10.2662
"{	-10.2662
▁Note	-10.2662
upper	-10.2663
Come	-10.2663
/*'	-10.2665
▁compare	-10.2666
▁listened	-10.2667
mo	-10.2676
▁"$2"	-10.2677
▁plain	-10.2677
cgi	-10.2679
▁+50	-10.2679
▁remark	-10.2691
▁pi	-10.2695
▁'\0'	-10.2697
ame	-10.2705
▁reference	-10.2705
▁See	-10.2716
▁[[	-10.2721
▁rawdata	-10.2722
policy	-10.2725
▁inner	-10.2725
strict	-10.2725
zero	-10.2726
▁":"	-10.2727
ations	-10.2728
decoder	-10.2754
place	-10.2762
\$	-10.277
▁meant	-10.277
optional	-10.2779
=""	-10.2781
flv	-10.2784
nargs	-10.2794
[0-9]+	-10.2799
▁sa	-10.2799
cancel	-10.2801
▁-30	-10.2818
SO	-10.2819
fcf	-10.2819
▁col	-10.2824
ian	-10.2827
"):	-10.283
▁level	-10.2835
▁func	-10.2838
/[[:	-10.2852
▁danger	-10.2867
▁luck	-10.2867
▁ANSIColors	-10.2867
▁admire	-10.2867
▁servant	-10.2867
▁earth	-10.2867
▁language	-10.2867
wrapper	-10.2868
▁beyond	-10.2868
New	-10.2868
▁civility	-10.2868
▁forget	-10.2873
▁obliged	-10.2874
▁sick	-10.2876
now	-10.2878
▁acquainted	-10.2883
)))	-10.2887
cyg	-10.2897
col	-10.29
▁news	-10.2913
▁secret	-10.2915
▁ice	-10.2915
▁piece	-10.2918
▁desired	-10.2934
counts	-10.2934
▁removed	-10.2936
▁annotations	-10.2944
▁ip	-10.2946
▁'--	-10.295
category	-10.2959
cursor	-10.2959
fully	-10.2964
point	-10.2967
avi	-10.2975
26	-10.2977
signal	-10.2979
▁export	-10.2997
200	-10.3027
▁hopes	-10.3031
▁abs	-10.3036
▁arch	-10.3036
``	-10.304
Your	-10.3071
▁mention	-10.3077
▁late	-10.3083
▁fact	-10.3099
VALUE	-10.31
▁condition	-10.31
▁giving	-10.31
suffix	-10.31
▁stood	-10.31
▁latter	-10.31
▁merely	-10.31
element	-10.31
▁disposition	-10.3101
▁canoe	-10.3101
▁soul	-10.3102
▁March	-10.3103
▁trees	-10.3106
▁passion	-10.3108
▁enter	-10.3111
▁zip	-10.3118
-10	-10.3126
mod	-10.3127
▁Let	-10.314
▁smile	-10.3147
▁assured	-10.3152
▁visitor	-10.3166
__.__	-10.3168
true	-10.3172
().__	-10.3181
drive	-10.3196
install	-10.3197
integer	-10.3197
nearest	-10.3202
weekday	-10.3211
nj	-10.3212
48	-10.3232
dirty	-10.3237
▁port	-10.3241
usb	-10.3253
▁Re	-10.3262
RAN	-10.3266
web	-10.3268
url	-10.3288
▁400	-10.3296
LD	-10.3298
▁reckon	-10.3313
Only	-10.3325
▁strong	-10.3327
▁infile	-10.3331
▁gentle	-10.3334
htdocs	-10.3338
▁Duchess	-10.3338
▁curiosity	-10.3338
▁opportunity	-10.3338
▁Ladyship	-10.3338
▁health	-10.3338
Round	-10.3338
▁hair	-10.3338
\(.*\)	-10.3338
▁six	-10.3339
Not	-10.3343
▁These	-10.3347
▁wishes	-10.3353
▁proc	-10.3359
▁temper	-10.3361
▁star	-10.3364
▁pushd	-10.3367
▁ffmpeg	-10.3367
▁age	-10.3369
dataclass	-10.3371
▁-20	-10.3384
extend	-10.3387
INT	-10.3387
▁catch	-10.3389
ret	-10.3393
▁FILE	-10.3395
MM	-10.3419
limit	-10.3423
hosts	-10.3425
▁res	-10.3428
▁particular	-10.3428
▁circumstances	-10.3436
▁coroutine	-10.344
Future	-10.344
deprecated	-10.344
▁U	-10.3449
eq	-10.346
▁connections	-10.3461
groups	-10.3465
▁append	-10.3489
▁truncate	-10.349
++)	-10.349
\0"	-10.35
▁learn	-10.3517
▁bear	-10.3519
tex	-10.3519
▁``	-10.3523
▁gen	-10.3526
nans	-10.3528
▁flag	-10.3546
microsecond	-10.3548
▁12	-10.3551
GE	-10.3557
▁trying	-10.3558
token	-10.3562
▁fish	-10.3579
show	-10.3579
pyrepl	-10.3582
▁Bourgh	-10.3582
▁Hertfordshire	-10.3582
▁compliment	-10.3582
▁confess	-10.3582
▁struck	-10.3582
Directory	-10.3582
▁distance	-10.3582
▁gentlemen	-10.3582
▁heaven	-10.3582
utcoffset	-10.3582
('3')	-10.3583
▁taking	-10.3584
||	-10.3584
)$'	-10.3594
EN	-10.3599
▁$'\	-10.36
ACL	-10.3604
objects	-10.3607
rate	-10.3607
▁discovered	-10.3609
▁comparison	-10.3615
fn	-10.362
▁calm	-10.3623
exact	-10.3627
▁simple	-10.3647
▁meaning	-10.3648
▁timeout	-10.3651
eek	-10.3658
▁$$	-10.3667
cb	-10.3667
▁youth	-10.3668
helper	-10.3669
handle	-10.3678
encode	-10.3679
keywords	-10.3682
down	-10.3682
)):	-10.3687
trans	-10.3688
▁attribute	-10.3691
work	-10.3691
label	-10.3691
export	-10.3691
look	-10.3694
▁<<	-10.3695
soon	-10.371
▁grow	-10.3719
header	-10.372
▁proto	-10.3725
net	-10.373
ftp	-10.3731
sync	-10.3735
namespace	-10.3742
▁section	-10.3746
kill	-10.376
▁':'	-10.3763
▁destination	-10.3768
▁include	-10.3778
▁please	-10.3785
pre	-10.3787
▁die	-10.3791
▁thinking	-10.3802
▁quick	-10.3821
TYPE	-10.3823
▁placed	-10.3823
▁proper	-10.3824
▁defaults	-10.3831
GROUP	-10.3832
SEARCH	-10.3832
▁Dormouse	-10.3832
▁admiration	-10.3832
▁arrival	-10.3832
▁Forster	-10.3832
posxy	-10.3832
▁consume	-10.3834
▁tasks	-10.3844
▁beginning	-10.3844
▁locale	-10.3845
utf	-10.3846
▁2)	-10.3855
pager	-10.3856
extended	-10.3857
▁abstract	-10.3861
▁related	-10.3862
boot	-10.387
▁array	-10.388
rvf	-10.3885
>",	-10.3888
▁knowed	-10.3889
▁speaking	-10.3899
perl	-10.3903
▁mountains	-10.391
▁safe	-10.391
0|	-10.392
▁'^\	-10.3925
▁loved	-10.3929
random	-10.3931
▁ye	-10.3941
impl	-10.3945
▁step	-10.3946
terminal	-10.3947
demo	-10.3947
google	-10.3947
msgid	-10.3954
▁law	-10.3955
when	-10.3955
40	-10.3957
▁started	-10.3959
App	-10.3967
ities	-10.3987
ffile	-10.3995
▁abc	-10.4005
▁rows	-10.4017
full	-10.4017
▁val	-10.4024
▁receive	-10.4041
rsa	-10.4057
Invalid	-10.4063
▁###	-10.4063
OS	-10.4066
vz	-10.4079
▁100000	-10.408
Q	-10.4088
▁distress	-10.4088
BINARY	-10.4088
Default	-10.4088
plural	-10.4088
▁modulo	-10.4088
▁study	-10.4088
▁favourite	-10.4088
closing	-10.4088
specialized	-10.4088
Data	-10.4089
stringtofind	-10.4089
▁terms	-10.4092
ably	-10.4093
=%	-10.4094
std	-10.4097
▁park	-10.4099
nogroup	-10.4108
boo	-10.4113
▁mentioned	-10.4115
▁sequence	-10.4116
▁feature	-10.4127
▁compress	-10.4128
copyright	-10.413
▁middle	-10.4131
srv	-10.4131
ends	-10.4138
▁CON	-10.4147
▁$3}'	-10.4148
▁quiet	-10.415
▁mad	-10.4153
ips	-10.4156
builtins	-10.4185
▁Find	-10.419
▁dey	-10.4191
▁died	-10.4194
▁passwd	-10.4198
▁formatter	-10.42
queue	-10.4208
▁cv	-10.4208
Read	-10.4209
tree	-10.421
internal	-10.421
Count	-10.4211
▁formed	-10.4217
\)'	-10.4218
▁22	-10.4224
An	-10.4227
▁$1}	-10.4229
▁terminal	-10.4231
▁]*	-10.4237
▁deprecated	-10.4239
▁width	-10.4245
▁move	-10.4251
1`	-10.4258
▁trans	-10.4264
__",	-10.4265
▁miles	-10.4266
$$	-10.4268
put	-10.4304
-*.	-10.4316
▁comments	-10.4319
.*\.	-10.4323
▁doc	-10.4335
field	-10.434
▁enjoy	-10.435
▁php	-10.435
▁applied	-10.4351
▁cloud	-10.4351
▁invitation	-10.4351
humour	-10.4351
▁chief	-10.4351
Linux	-10.4351
iterator	-10.4351
▁author	-10.4351
▁consequence	-10.4351
▁credit	-10.4351
guard	-10.4351
▁dreadful	-10.4353
▁fiend	-10.4353
environ	-10.4353
Hello	-10.4353
222	-10.4357
msgctxt	-10.4358
▁repeated	-10.4361
BAS	-10.4362
acket	-10.4362
▁particularly	-10.4362
▁callable	-10.4363
AKE	-10.4368
▁whence	-10.4369
▁reached	-10.437
▁perceived	-10.4376
▁reckoned	-10.4378
<=	-10.438
▁endeavoured	-10.4389
@$	-10.4393
▁direction	-10.44
▁31	-10.4401
"&"	-10.4404
▁pr	-10.4404
▁walking	-10.4405
Sh	-10.4414
compile	-10.4417
▁supported	-10.4422
ignored	-10.4424
arr	-10.4429
mar	-10.443
'\''	-10.4433
▁'[:	-10.4439
^\./	-10.445
choices	-10.4463
[1	-10.4466
▁completion	-10.4466
▁Return	-10.4469
relative	-10.4479
package	-10.4479
▁arm	-10.448
whatever	-10.4482
connection	-10.4482
metavar	-10.4483
▁username	-10.4485
visit	-10.4489
▁access	-10.4494
device	-10.4496
▁joined	-10.4497
|\.	-10.4501
▁msgid	-10.4508
User	-10.4528
10(	-10.4534
▁liked	-10.4567
▁$'	-10.4569
▁25	-10.4571
▁throw	-10.4573
Up	-10.4579
\0'	-10.4579
try	-10.4581
ough	-10.4584
▁+0	-10.4587
▁$3	-10.4591
▁xxx	-10.4594
connect	-10.4619
▁warm	-10.462
integral	-10.4621
▁Section	-10.4621
▁conceal	-10.4621
▁hundred	-10.4621
▁niece	-10.4621
▁period	-10.4621
▁living	-10.4621
▁tale	-10.4621
▁logger	-10.4621
incoming	-10.4622
▁officers	-10.4622
▁blame	-10.4623
environment	-10.4623
session	-10.4624
unique	-10.4625
▁status	-10.4625
▁actually	-10.4626
plus	-10.4626
DE	-10.4627
▁reply	-10.4631
▁possessed	-10.4634
▁finished	-10.4643
▁feet	-10.4647
▁regex	-10.465
06	-10.4658
TS	-10.4659
▁delay	-10.4663
3.14	-10.4667
▁boat	-10.4674
"${	-10.4676
company	-10.4677
▁gcc	-10.4691
'{	-10.4692
▁variable	-10.4695
▁pid	-10.4698
▁80	-10.4705
term	-10.4706
▁attr	-10.4718
▁compiler	-10.4722
deb	-10.4734
▁Returns	-10.4739
▁500	-10.474
99	-10.4758
while	-10.476
TH	-10.4765
cap	-10.4767
▁Future	-10.4781
ALL	-10.4782
keep	-10.4783
(0)	-10.4795
page	-10.4799
▁"-"	-10.4801
ich	-10.4803
who	-10.4814
▁led	-10.4823
▁books	-10.4837
pack	-10.4849
▁provide	-10.4852
ax	-10.4858
ESS	-10.4858
▁suffer	-10.4874
ration	-10.4877
▁ctx	-10.4889
▁stand	-10.489
[.][0-9][0-9]*	-10.4892
interrupt	-10.4899
-*2009*	-10.4899
handshake	-10.4899
ubuntu	-10.4899
▁8.8.8.8	-10.4899
▁Fitzwilliam	-10.4899
▁Philips	-10.4899
▁hurry	-10.4899
▁neighbourhood	-10.4899
▁sufficient	-10.4899
▁women	-10.4899
▁afford	-10.4899
vmware	-10.4899
▁Stats	-10.4899
▁1894	-10.4899
client	-10.4899
▁comment	-10.49
\.[^.][^.]*	-10.49
▁fell	-10.49
▁+"%	-10.4901
▁'*~'	-10.4901
▁moon	-10.4902
▁connection	-10.4903
▁0644	-10.4903
▁rich	-10.4905
colorize	-10.4907
cron	-10.491
peter	-10.4915
\""	-10.4919
▁sake	-10.4919
▁unable	-10.4921
▁RS	-10.4922
:]]*$//	-10.4925
FNR	-10.4926
▁*~	-10.4927
▁younger	-10.4931
mac	-10.4933
▁UTC	-10.4933
▁draw	-10.4939
▁Makefile	-10.495
▁tecmint	-10.4958
▁SUM	-10.4958
▁oracle	-10.4958
del	-10.4958
how	-10.4958
apps	-10.4959
1.1	-10.4959
▁aaa	-10.4962
▁mis	-10.4975
OF	-10.4985
▁supposed	-10.4991
▁$0}'	-10.4999
-4	-10.5013
▁ret	-10.5022
▁TI	-10.5029
▁remainder	-10.503
36	-10.5032
▁remount	-10.5036
We	-10.5036
INPUT	-10.5042
▁rand	-10.5042
quote	-10.5043
owner	-10.5044
quit	-10.5045
height	-10.5045
hash	-10.5047
▁internal	-10.5051
▁stats	-10.5054
TM	-10.5066
store	-10.5068
▁weekday	-10.5071
▁bin	-10.5076
▁pair	-10.5076
▁global	-10.5085
▁follow	-10.5087
globals	-10.5088
press	-10.5092
seek	-10.5092
She	-10.5096
▁sn	-10.5098
swp	-10.5107
dig	-10.5109
ince	-10.5124
▁alias	-10.5125
▁keys	-10.5132
▁concern	-10.5135
RT	-10.514
▁su	-10.5146
▁functions	-10.5149
▁opt	-10.5151
▁places	-10.5154
▁+$	-10.5157
IS	-10.5171
light	-10.5173
▁explicit	-10.5174
\([^	-10.5177
▁custom	-10.5179
▁permission	-10.5183
Console	-10.5185
FROM	-10.5185
CLEAN	-10.5185
plugin	-10.5185
verbose	-10.5185
▁astonishment	-10.5185
▁library	-10.5185
▁probably	-10.5185
▁labour	-10.5185
KEY	-10.5185
▁intended	-10.5185
▁superior	-10.5185
quantize	-10.5185
▁existence	-10.5185
▁documentation	-10.5186
▁story	-10.5186
▁absence	-10.5186
▁rose	-10.5186
urllib	-10.5188
▁vain	-10.5193
ical	-10.5198
▁wretched	-10.5199
baz	-10.5201
▁2000	-10.5208
▁makes	-10.5211
▁lot	-10.5213
▁miss	-10.5218
▁java	-10.5224
56	-10.5225
rove	-10.5233
▁classes	-10.5234
▁promised	-10.5248
▁From	-10.5249
▁waited	-10.5252
uuid	-10.5252
▁sensations	-10.5254
quality	-10.5266
peek	-10.5268
▁AST	-10.5269
▁conflict	-10.5274
site	-10.5275
▁Set	-10.529
▁remain	-10.529
▁timezone	-10.5295
▁hearing	-10.5298
▁Don	-10.5303
▁threading	-10.5307
disk	-10.5308
▁mighty	-10.531
repos	-10.5312
1024	-10.5324
right	-10.5324
MAX	-10.5336
overflow	-10.5337
newdir	-10.5337
release	-10.5338
false	-10.5339
idx	-10.5339
column	-10.5339
proto	-10.5348
than	-10.5352
▁prog	-10.5363
ther	-10.5375
4"	-10.5378
way	-10.5379
oop	-10.5396
▁fill	-10.5401
They	-10.5404
▁numbers	-10.5414
▁integers	-10.5429
▁laugh	-10.5431
▁Un	-10.5434
lm	-10.5442
▁represent	-10.5446
▁stderr	-10.545
htm	-10.5452
err	-10.5458
▁mix	-10.5459
den	-10.5461
▁stuff	-10.5476
▁favour	-10.5477
CURSES	-10.5479
cjkcodecs	-10.5479
▁Geneva	-10.5479
▁Hurst	-10.5479
▁courage	-10.5479
▁excellent	-10.5479
▁figure	-10.5479
▁clothes	-10.5479
▁regret	-10.5479
▁whisper	-10.5479
▁spite	-10.5479
morrow	-10.5479
▁begun	-10.5479
▁engagement	-10.5479
▁standard	-10.548
failure	-10.548
▁EOF	-10.548
▁consent	-10.5481
▁taste	-10.5481
enable	-10.5481
▁spot	-10.5484
frac	-10.5487
▁somebody	-10.5488
▁lake	-10.5492
/$(	-10.5493
▁rain	-10.5495
▁attended	-10.5497
▁trust	-10.5497
▁num	-10.5497
▁highly	-10.5502
even	-10.5509
▁mo	-10.5512
▁grave	-10.5513
▁fool	-10.5513
codecs	-10.5514
▁hash	-10.5517
▁Some	-10.5517
'/'	-10.5517
▁final	-10.5518
▁belong	-10.5518
change	-10.5523
this	-10.5531
HAL	-10.5531
Emin	-10.5551
▁err	-10.5556
▁judged	-10.5559
▁maybe	-10.5565
▁'#	-10.5567
▁ABC	-10.5567
▁hate	-10.5567
▁—	-10.5569
trace	-10.5596
lpi	-10.5599
pol	-10.5602
▁19	-10.5606
IF	-10.5617
ION	-10.5625
pm	-10.5628
▁],	-10.5628
▁Event	-10.5631
▁ALL	-10.5635
▁device	-10.5635
ECTION	-10.564
remainder	-10.5641
).__	-10.5644
blah	-10.5646
lost	-10.5649
access	-10.565
Messages	-10.5651
remount	-10.5659
▁sad	-10.5681
pub	-10.5684
▁Here	-10.5689
]*'	-10.5689
▁indicat	-10.5709
▁const	-10.5711
");	-10.5716
▁image	-10.5718
images	-10.5719
Tm	-10.5731
▁art	-10.5734
▁murder	-10.5748
▁debug	-10.5754
lto	-10.576
▁creatures	-10.576
▁anxious	-10.5772
▁bring	-10.5776
▁'<	-10.5777
SCRIPT	-10.5782
▁guess	-10.5782
TARGET	-10.5782
coffee	-10.5782
▁AUTHOR	-10.5782
▁exclaimed	-10.5782
▁speech	-10.5782
▁THIS	-10.5782
▁motive	-10.5782
▁native	-10.5782
▁prospect	-10.5782
photo	-10.5782
▁welcome	-10.5782
▁beheld	-10.5782
▁sky	-10.5782
▁extglob	-10.5782
▁attachment	-10.5783
flac	-10.5783
▁request	-10.5785
setattr	-10.5785
▁fond	-10.5785
▁considerable	-10.5786
AND	-10.5787
▁affectionate	-10.5788
▁$5}'	-10.579
▁suit	-10.5791
▁Head	-10.5796
▁14	-10.5802
▁Hare	-10.5802
▁yesterday	-10.5806
bill	-10.5808
▁someone	-10.5811
▁produced	-10.5813
▁pause	-10.5814
parent	-10.5816
▁shut	-10.5822
older	-10.5827
▁fix	-10.583
▁phrase	-10.5833
comment	-10.584
uz	-10.584
▁lovely	-10.5844
▁'/^\	-10.5849
▁hid	-10.585
uth	-10.5859
menu	-10.586
load	-10.5861
AF	-10.5865
▁dared	-10.5871
STR	-10.5874
▁'$1	-10.5882
▁previous	-10.5882
nce	-10.5882
very	-10.5895
▁passing	-10.5897
futures	-10.5905
▁eval	-10.5909
▁quote	-10.5935
▁uses	-10.5948
process	-10.5948
first	-10.5955
support	-10.5955
▁IO	-10.5962
|%	-10.5962
▁-14	-10.5967
1|	-10.5978
▁FOLDER	-10.5979
cnt	-10.599
tac	-10.5995
sourceDir	-10.6003
/\1	-10.6011
▁$0)	-10.6013
SHA	-10.6016
screeninfo	-10.6023
▁apache	-10.6047
ier	-10.6051
cpu	-10.6058
▁16	-10.6065
warnings	-10.6066
▁hoped	-10.6066
▁operations	-10.6074
zZ	-10.6076
▁earnest	-10.6084
sep	-10.6091
▁civil	-10.6093
origin	-10.6094
Examples	-10.6095
BUFFER	-10.6095
recursion	-10.6095
▁grief	-10.6095
▁ignorant	-10.6095
▁sensible	-10.6095
▁unhappy	-10.6095
▁wrote	-10.6095
▁monster	-10.6095
▁summer	-10.6095
▁capable	-10.6095
▁Sometimes	-10.6095
unsupported	-10.6095
Close	-10.6095
▁sitting	-10.6095
▁available	-10.6096
evaluate	-10.6098
signed	-10.6099
▁calls	-10.61
[2]	-10.6102
▁require	-10.6105
▁quickly	-10.6107
▁expectation	-10.611
▁letters	-10.6127
__)	-10.6129
nas	-10.6129
1\	-10.613
▁recollection	-10.6137
▁DA	-10.6137
dbm	-10.6141
▁USE	-10.6143
▁addressed	-10.6147
▁delighted	-10.6149
yne	-10.615
▁dst	-10.6151
67	-10.6161
}\	-10.6164
▁auto	-10.6173
▁correct	-10.6175
▁cast	-10.6175
▁knowing	-10.6179
errors	-10.618
▁delightful	-10.6184
▁mapping	-10.6192
▁finish	-10.6198
▁ha	-10.6206
▁Exception	-10.6207
▁cf	-10.623
▁looks	-10.623
+1	-10.6241
▁Count	-10.6265
)?	-10.6267
▁$1;	-10.6269
▁sep	-10.627
container	-10.6275
▁32	-10.6275
▁locals	-10.6289
force	-10.629
Comp	-10.6292
XXX	-10.6294
BOS	-10.6296
param	-10.6297
EL	-10.6307
▁mark	-10.6309
half	-10.631
thumb	-10.6316
There	-10.6332
plist	-10.6336
▁200	-10.6338
xe	-10.635
Log	-10.6385
500	-10.6386
his	-10.6388
startup	-10.6396
▁north	-10.6397
▁prevent	-10.6399
▁handler	-10.6414
First	-10.6417
Buffer	-10.6417
PYTHON	-10.6417
Process	-10.6417
▁WAR	-10.6417
▁affair	-10.6417
▁imagination	-10.6417
▁recommend	-10.6417
▁witness	-10.6417
▁twice	-10.6417
▁intention	-10.6417
▁gratitude	-10.6417
THER	-10.6418
▁curious	-10.6418
▁defined	-10.6419
▁quitted	-10.6419
strptime	-10.642
▁game	-10.6421
STD	-10.6422
▁eagerly	-10.6423
▁representation	-10.6424
markdown	-10.6425
forever	-10.6425
profile	-10.6426
▁dearest	-10.6432
DATE	-10.6435
▁repeat	-10.6438
▁objection	-10.6441
+$	-10.6442
▁generally	-10.6442
▁mistaken	-10.6443
readline	-10.6447
▁meeting	-10.6457
1":	-10.6458
▁persuaded	-10.6462
▁600	-10.6462
ory	-10.6465
▁acquire	-10.6467
▁trials	-10.6468
▁floor	-10.6471
flag	-10.6472
▁marked	-10.6474
▁turning	-10.6479
▁sha	-10.6488
▁execution	-10.649
▁relations	-10.649
▁coeff	-10.6495
▁Doc	-10.6498
▁showed	-10.6504
wait	-10.651
▁+1000	-10.6512
▁gw	-10.6518
▁Text	-10.6519
▁buf	-10.6521
errno	-10.6521
thing	-10.6522
scripts	-10.6528
filters	-10.6534
400	-10.6539
tgz	-10.6546
tzname	-10.6553
FF	-10.6565
coroutine	-10.6568
▁"{	-10.6578
off	-10.6587
platform	-10.6607
Event	-10.6607
executor	-10.6608
machine	-10.6608
passwd	-10.6609
▁invalid	-10.661
cup	-10.6636
▁'/^	-10.6646
▁xx	-10.6648
pool	-10.6654
▁repl	-10.6655
ENT	-10.6695
'.'	-10.6703
▁+500	-10.6709
▁destroy	-10.6726
gzip	-10.6728
▁stdout	-10.6728
=0)	-10.6734
▁perfect	-10.674
AGES	-10.6749
▁Use	-10.675
▁speed	-10.675
lan	-10.675
а	-10.675
Download	-10.675
STORE	-10.675
Applications	-10.675
TIES	-10.675
▁ACTION	-10.675
▁JoinMode	-10.675
▁SOFTWARE	-10.675
▁hurried	-10.675
▁virtue	-10.675
▁wrong	-10.675
CHANGE	-10.675
Please	-10.675
START	-10.675
Shared	-10.675
LIST	-10.6751
▁hastily	-10.6751
▁nullglob	-10.6751
▁pull	-10.6751
REPLACE	-10.6751
ascii	-10.6751
▁enabled	-10.6751
▁'+%	-10.6751
query	-10.6752
▁]*\)	-10.6752
▁denied	-10.6752
▁resolution	-10.6752
▁dislike	-10.6753
($0,	-10.6753
▁<<<	-10.6753
▁$9}'	-10.6754
race	-10.6754
▁lips	-10.6756
▁amongst	-10.6757
▁hill	-10.6757
▁bright	-10.6759
{1,	-10.676
▁murderer	-10.6761
aking	-10.6763
▁KeyError	-10.6768
▁praise	-10.6769
▁"#	-10.6769
czf	-10.6782
▁unfortunate	-10.679
TERM	-10.6793
▁interesting	-10.6793
isoformat	-10.6793
▁zsh	-10.6801
▁+20000	-10.6803
\1/'	-10.6805
▁science	-10.6805
npm	-10.6812
▁moved	-10.6814
ler	-10.6814
unlocked	-10.6822
▁prev	-10.6827
real	-10.6832
▁dummy	-10.6836
▁FILENAME	-10.6837
44	-10.6838
▁warning	-10.6841
keyword	-10.6841
▁generator	-10.6845
▁larger	-10.685
▁attentions	-10.6851
▁Files	-10.6863
blast	-10.6873
▁myscript	-10.6879
125	-10.6887
▁watching	-10.6888
SAVE	-10.69
▁wonderful	-10.691
▁$0))	-10.6915
zA	-10.6918
▁xe	-10.6921
▁company	-10.6926
Td	-10.6928
events	-10.6936
[0])	-10.6937
folders	-10.6939
▁slow	-10.6947
attributes	-10.6953
divide	-10.6954
▁circumstance	-10.6954
finish	-10.6955
paste	-10.6956
left	-10.6958
sites	-10.6958
usage	-10.6958
/^[	-10.6958
original	-10.6959
windows	-10.6963
sorted	-10.6963
somehost	-10.6969
▁cell	-10.6969
mpg	-10.697
ES	-10.6982
▁domain	-10.6987
"}'	-10.6996
eval	-10.7007
setup	-10.7008
calc	-10.7013
hal	-10.7029
▁Not	-10.7035
▁digit	-10.7036
▁wor	-10.7037
aws	-10.7041
▁space	-10.7045
▁persuade	-10.7048
has	-10.7057
subl	-10.7062
▁ref	-10.7071
▁reach	-10.7078
▁questions	-10.7084
missing	-10.7084
▁serious	-10.7085
▁sudden	-10.7085
completions	-10.709
▁entreat	-10.7094
generate	-10.7095
ASCII	-10.7095
CONFIG	-10.7095
interleave	-10.7095
▁Austen	-10.7095
▁Sawyer	-10.7095
▁choose	-10.7095
▁compassion	-10.7095
▁consolation	-10.7095
▁inquiries	-10.7095
▁melancholy	-10.7095
▁occupied	-10.7095
▁scheme	-10.7095
▁understood	-10.7095
Warning	-10.7095
▁crime	-10.7095
▁especially	-10.7095
▁exceedingly	-10.7095
storage	-10.7095
▁Mouse	-10.7095
▁horse	-10.7095
▁thick	-10.7095
▁Henry	-10.7095
sqlite	-10.7095
INF	-10.7096
▁rule	-10.7097
unicode	-10.7097
▁fresh	-10.7097
emacs	-10.7097
▁However	-10.7098
▁proud	-10.7099
▁winter	-10.71
▁lose	-10.71
▁frequently	-10.7101
▁commence	-10.7102
AB	-10.7103
▁deeply	-10.7116
▁shook	-10.7118
▁whenever	-10.7118
▁gun	-10.7126
▁suffered	-10.7126
▁drawing	-10.7127
▁anyone	-10.7127
▁private	-10.7138
bus	-10.7143
39	-10.7146
pyc	-10.715
▁forced	-10.715
▁separator	-10.7158
/^.*	-10.717
Add	-10.717
▁declaration	-10.7173
waiter	-10.7187
▁reverse	-10.7192
▁18	-10.7194
hh	-10.7195
iso	-10.7195
▁style	-10.7199
▁fit	-10.72
hain	-10.7202
ank	-10.7204
pass	-10.7209
ual	-10.722
▁wide	-10.7236
▁divide	-10.7239
▁conv	-10.7253
*#	-10.7255
deque	-10.7257
▁container	-10.7261
Inf	-10.7267
▁extract	-10.7269
▁metavar	-10.728
▁post	-10.7283
▁tb	-10.7285
rq	-10.7291
known	-10.7307
Permission	-10.731
kind	-10.731
prompt	-10.7312
Find	-10.7312
When	-10.7313
before	-10.7313
play	-10.7315
▁music	-10.7321
2010	-10.7325
tell	-10.7326
addresses	-10.7332
formatter	-10.7334
▁weeks	-10.7352
=1)	-10.7353
gettext	-10.7354
they	-10.7375
hel	-10.7393
1,2	-10.74
CC	-10.7407
IC	-10.7417
▁due	-10.742
▁reflect	-10.7425
▁lead	-10.7427
▁alarm	-10.7428
",$	-10.7428
▁proceed	-10.7428
track	-10.7429
▁io	-10.7433
Call	-10.7435
[[	-10.7436
somewhere	-10.744
▁instant	-10.7442
glob	-10.7451
mine	-10.7451
SHARED	-10.7452
SOCK	-10.7452
▁Caterpillar	-10.7452
▁England	-10.7452
▁While	-10.7452
▁claim	-10.7452
▁comprehend	-10.7452
▁evident	-10.7452
▁fortnight	-10.7452
▁neighbour	-10.7452
▁quarter	-10.7452
▁satisfaction	-10.7452
mogrify	-10.7452
▁Sunday	-10.7452
▁Victor	-10.7452
▁dropped	-10.7452
▁Bill	-10.7453
▁agony	-10.7453
▁surround	-10.7453
('-1')	-10.7453
Good	-10.7453
Files	-10.7453
MAC	-10.7453
▁connected	-10.7453
SIG	-10.7453
▁wholly	-10.7453
jul	-10.7454
▁sentence	-10.7454
ark	-10.7454
hidden	-10.7454
android	-10.7454
meta	-10.7454
▁road	-10.7455
▁loud	-10.7455
('2')	-10.7455
ialog	-10.7455
▁justice	-10.7459
lang	-10.746
TMP	-10.7461
▁etc	-10.7463
May	-10.7464
▁snow	-10.7464
▁Table	-10.7465
▁blow	-10.7465
▁nice	-10.7466
▁description	-10.7468
▁($	-10.7473
dtstr	-10.7474
▁rendered	-10.7474
▁proceeded	-10.7477
resume	-10.7477
vote	-10.7481
▁whi	-10.7484
▁concerning	-10.7484
▁remembered	-10.7501
httpd	-10.7501
▁display	-10.7503
For	-10.7516
▁microsecond	-10.7517
2.3	-10.7523
▁PS	-10.7525
aving	-10.7528
▁999	-10.7532
▁inputfile	-10.7538
2000	-10.754
▁syntax	-10.7544
HO	-10.7546
Inexact	-10.7546
there	-10.7547
▁accompan	-10.7556
▁mod	-10.7559
▁pow	-10.7579
▁visible	-10.7581
messages	-10.7581
▁positionals	-10.7581
mul	-10.7582
▁stack	-10.7584
BB	-10.7588
▁items	-10.7589
sNaN	-10.7604
DI	-10.7605
Size	-10.7613
▁Cat	-10.7613
arrow	-10.7618
▁cache	-10.7618
▁project	-10.7631
▁pat	-10.7636
▁Read	-10.7644
uff	-10.7645
1-2	-10.7649
▁random	-10.7655
sendfile	-10.7656
▁force	-10.7674
▁leaves	-10.7676
UTF	-10.768
timezone	-10.7681
subprocess	-10.7682
stream	-10.7683
wav	-10.7683
case	-10.7684
▁er	-10.7686
unzip	-10.7691
lab	-10.7692
hoo	-10.7694
▁En	-10.7696
required	-10.7705
▁el	-10.7714
unit	-10.7717
assi	-10.772
▁cancelled	-10.7723
utc	-10.7743
▁iter	-10.7764
);/	-10.7765
sec	-10.7769
▁K	-10.7773
2,2	-10.7784
:"),	-10.7788
▁17	-10.7791
was	-10.7792
▁term	-10.7793
▁cross	-10.7798
▁fetch	-10.7799
▁256	-10.781
▁sorrow	-10.7822
COMMAND	-10.7823
BOOL	-10.7823
Library	-10.7823
volume	-10.7823
DEBUG	-10.7823
ordinal	-10.7823
▁anxiety	-10.7823
▁beloved	-10.7823
▁carried	-10.7823
▁instrument	-10.7823
▁pleasing	-10.7823
▁triumph	-10.7823
john	-10.7823
▁'*/\.*'	-10.7823
▁Iterator	-10.7823
▁inquire	-10.7823
▁regiment	-10.7823
▁sentiment	-10.7823
▁village	-10.7823
Convert	-10.7823
[0-9]+[.]	-10.7823
о	-10.7823
properties	-10.7823
vendor	-10.7823
structure	-10.7823
▁secure	-10.7823
jpeg	-10.7823
Create	-10.7823
▁stopped	-10.7823
▁Rows	-10.7823
▁affected	-10.7823
▁overcome	-10.7823
="{}"	-10.7823
▁disappointment	-10.7823
▁1234	-10.7823
discard	-10.7823
▁hunt	-10.7823
Class	-10.7823
Press	-10.7823
Host	-10.7823
▁deserve	-10.7823
▁pursuit	-10.7823
▁occurred	-10.7823
▁Had	-10.7823
▁dollars	-10.7824
▁Headers	-10.7824
}/${	-10.7824
▁fields	-10.7824
▁compose	-10.7825
httpdocs	-10.7825
IVE	-10.7825
PRO	-10.7826
Move	-10.7826
ADDR	-10.7826
EVENT	-10.7826
ctrl	-10.7827
USERNAME	-10.7828
normalize	-10.783
▁$4}'	-10.783
▁xvf	-10.7834
HOST	-10.7836
Word	-10.7837
Write	-10.7839
▁noble	-10.7839
▁rage	-10.784
▁wise	-10.7844
builtin	-10.7847
▁decided	-10.7847
▁bow	-10.7848
[%	-10.785
▁location	-10.7851
Folder	-10.7852
}1'	-10.7852
▁equally	-10.7852
▁school	-10.7853
comments	-10.7854
▁filled	-10.7855
▁endured	-10.7856
▁setting	-10.7856
box	-10.7861
`/`	-10.7862
▁API	-10.7864
▁creation	-10.7867
▁refuse	-10.7872
▁ob	-10.7872
getstate	-10.788
▁daylight	-10.7884
him	-10.7887
▁universal	-10.7891
220	-10.7892
▁xyz	-10.7896
reading	-10.7899
yank	-10.7907
▁absolute	-10.7907
()`	-10.7912
▁termios	-10.7912
/\//	-10.7924
save	-10.7926
%%	-10.7931
▁lambda	-10.7934
▁occurs	-10.794
▁Enter	-10.7941
▁teste	-10.7943
▁hello	-10.7946
▁Who	-10.7951
94	-10.7951
defines	-10.7954
fraction	-10.7958
▁rate	-10.7979
▁machine	-10.7983
math	-10.7993
37	-10.7999
▁killed	-10.8
seekable	-10.8004
bmp	-10.8004
128	-10.8007
==1	-10.8015
backspace	-10.8018
method	-10.8019
__',	-10.8021
▁steps	-10.8033
="`	-10.8044
unknown	-10.8068
75	-10.807
▁progress	-10.8082
clamp	-10.8085
▁buffering	-10.8092
tter	-10.8106
▁attempts	-10.8112
tmpdir	-10.8127
widths	-10.8128
▁'.*/	-10.8155
▁relate	-10.816
▁determine	-10.816
Set	-10.8163
ready	-10.8181
▁readline	-10.8181
▁oct	-10.8192
▁+100000	-10.8194
▁bla	-10.8196
▁according	-10.8197
▁extreme	-10.8197
hould	-10.8201
▁cheerful	-10.8205
HelpFormatter	-10.8207
▁Frankenstein	-10.8207
▁algorithm	-10.8207
▁anguish	-10.8207
▁barrier	-10.8207
▁blind	-10.8207
▁blood	-10.8207
▁dancing	-10.8207
▁division	-10.8207
▁inclination	-10.8207
▁pounds	-10.8207
▁threw	-10.8207
▁leaving	-10.8207
▁paid	-10.8208
▁habit	-10.8208
▁Every	-10.8208
▁colour	-10.8209
Callable	-10.821
isatty	-10.8211
▁Such	-10.8211
▁besides	-10.8211
▁adj	-10.8213
double	-10.8213
▁duty	-10.8214
▁CO	-10.8216
▁office	-10.8217
▁collect	-10.8219
ridge	-10.822
[1:]	-10.822
inner	-10.8222
▁“‘	-10.8226
▁hint	-10.8226
book	-10.8231
▁destroyed	-10.8236
▁instruction	-10.8239
▁jury	-10.8244
▁lively	-10.8252
bam	-10.8253
▁marrying	-10.8255
▁regular	-10.8255
▁understanding	-10.8264
▁push	-10.8264
="%	-10.8267
▁SSL	-10.8272
▁moments	-10.8278
control	-10.83
▁greatly	-10.8304
▁select	-10.8305
▁par	-10.8311
Mr	-10.8314
cud	-10.8319
rows	-10.8327
022	-10.8352
▁unknown	-10.8355
EVER	-10.8357
warning	-10.8358
<>	-10.836
after	-10.8361
▁row	-10.8364
▁'/'	-10.8367
MD	-10.8373
Exception	-10.8386
fileno	-10.8388
▁overflow	-10.8397
▁store	-10.841
backups	-10.8412
MIN	-10.8414
28	-10.8434
▁PATH	-10.8441
▁ideas	-10.8452
TR	-10.8453
^#	-10.8461
xor	-10.8461
existing	-10.8464
alpha	-10.8465
chunk	-10.8465
▁Co	-10.8466
visible	-10.8466
received	-10.8467
▁powers	-10.8469
positional	-10.8473
extract	-10.8474
▁trial	-10.8483
)/$(	-10.8494
▁cow	-10.8497
One	-10.8504
▁mm	-10.8506
adm	-10.851
eff	-10.8511
pat	-10.8516
agg	-10.8523
('%	-10.8536
will	-10.8544
AIL	-10.8549
somedir	-10.8554
clock	-10.8558
▁attend	-10.8559
ode	-10.8571
▁implement	-10.8575
▁Th	-10.8581
▁cur	-10.8582
▁render	-10.8583
▁dress	-10.8584
▁bestow	-10.8585
▁spend	-10.8589
▁mktemp	-10.8589
▁manage	-10.8599
NET	-10.8602
COM	-10.8607
▁assist	-10.8607
PORT	-10.8607
▁material	-10.8607
▁cook	-10.8607
OBJS	-10.8607
BUILD	-10.8607
declstartpos	-10.8607
possibly	-10.8607
semicolon	-10.8607
▁Derbyshire	-10.8607
▁assurance	-10.8607
▁bottom	-10.8607
▁conceive	-10.8607
▁confirm	-10.8607
▁principal	-10.8607
▁revenge	-10.8607
WorkRep	-10.8607
qualname	-10.8607
▁desert	-10.8607
▁pray	-10.8607
('2.1')	-10.8608
THREAD	-10.8608
▁multiple	-10.8608
VAR	-10.8608
▁executed	-10.8608
▁mouth	-10.8608
▁worse	-10.8608
sqrt	-10.8609
blank	-10.8609
▁enjoyment	-10.861
=1;	-10.861
hashcode	-10.861
▁God	-10.861
▁active	-10.861
dotplace	-10.861
▁representable	-10.861
cuu	-10.8611
▁comfortable	-10.8612
ARGS	-10.8612
ST	-10.8613
▁shock	-10.8615
cuf	-10.8615
▁charge	-10.8616
▁conversion	-10.8616
▁difficulty	-10.8617
▁rock	-10.8617
subnormal	-10.8618
▁positional	-10.8619
▁gained	-10.8622
▁approached	-10.8626
▁"/"	-10.8627
▁discovery	-10.8628
▁implemented	-10.8632
▁asleep	-10.8634
▁leading	-10.8636
▁prevented	-10.8638
▁infinite	-10.8649
▁proved	-10.8649
▁gmtoff	-10.8651
▁alive	-10.8652
▁paper	-10.8656
BL	-10.8657
▁twenty	-10.8657
▁microseconds	-10.8658
▁Yes	-10.8663
URE	-10.8664
="\	-10.8669
▁unexpected	-10.8671
▁reuse	-10.8671
▁objc	-10.868
Sub	-10.8682
bob	-10.8682
▁held	-10.8684
cub	-10.869
PTR	-10.8696
List	-10.8697
▁align	-10.8699
▁operands	-10.87
▁feared	-10.8703
whitespace	-10.8706
Lock	-10.8716
▁$0`	-10.8722
▁important	-10.8722
▁reflections	-10.8735
concurrent	-10.8736
0'))	-10.8742
▁saved	-10.8744
▁job	-10.8747
▁chunk	-10.8752
]+)	-10.8755
+3	-10.8759
writing	-10.8766
▁noticed	-10.8774
▁breath	-10.878
▁executor	-10.8781
▁pay	-10.8789
spool	-10.8792
▁hot	-10.8794
EA	-10.8801
▁cre	-10.8801
}}'	-10.8804
▁forth	-10.8807
▁Ratio	-10.8815
:22	-10.8821
▁relative	-10.8823
ign	-10.8824
']=1	-10.8824
packages	-10.8824
▁fee	-10.8828
▁label	-10.8841
\(.*	-10.8847
▁exist	-10.8854
Mai	-10.8857
770	-10.8859
article	-10.8864
subdirectory	-10.8866
pro	-10.8866
▁inform	-10.888
▁misfortune	-10.8881
DEFAULT	-10.8881
containing	-10.8882
application	-10.8882
127.0.0.1	-10.8882
follow	-10.8882
Who	-10.8883
openssl	-10.8883
else	-10.8883
uniq	-10.8885
span	-10.8885
sudo	-10.8887
ltr	-10.889
▁substr	-10.8895
avoid	-10.8898
▁colors	-10.89
rawdata	-10.8901
escape	-10.8903
ifconfig	-10.8906
▁Message	-10.891
vim	-10.8914
rsync	-10.8928
640	-10.893
linkin	-10.8947
▁blu	-10.8949
▁clean	-10.8957
Nov	-10.8962
▁increase	-10.8977
annotations	-10.8977
▁pursue	-10.8983
▁utter	-10.899
▁explain	-10.8999
▁wretch	-10.9
▁fault	-10.9
binop	-10.9006
▁food	-10.9008
▁wake	-10.901
once	-10.9019
▁solemn	-10.9022
BACK	-10.9024
WHITE	-10.9024
HEAD	-10.9024
semantic	-10.9024
и	-10.9024
????????????????	-10.9024
optimize	-10.9024
▁neglect	-10.9024
DOWN	-10.9024
Object	-10.9024
▁Brighton	-10.9024
▁Hunsford	-10.9024
▁Otherwise	-10.9024
▁Watson	-10.9024
▁conjecture	-10.9024
▁departure	-10.9024
▁dictionary	-10.9024
▁explanation	-10.9024
▁receiving	-10.9024
▁satisfy	-10.9024
▁strength	-10.9024
▁wreck	-10.9024
Etiny	-10.9024
PIPE	-10.9024
▁README	-10.9024
▁correspond	-10.9024
▁service	-10.9024
stringifier	-10.9024
JPG	-10.9024
Unsupported	-10.9024
:]]{1,2}	-10.9024
BOLD	-10.9024
п	-10.9024
▁dotglob	-10.9024
▁angry	-10.9024
entries	-10.9024
▁crowd	-10.9024
▁ease	-10.9024
▁enemy	-10.9024
summary	-10.9024
Tuple	-10.9024
▁knee	-10.9024
▁continually	-10.9024
▁forgotten	-10.9024
david	-10.9025
▁interrupted	-10.9025
▁camp	-10.9025
docker	-10.9025
▁reserve	-10.9025
▁cottagers	-10.9025
▁-444	-10.9025
workspace	-10.9026
cookie	-10.9027
▁rise	-10.9027
Parse	-10.9028
FAST	-10.9029
▁statement	-10.9032
=========	-10.9032
vol	-10.9034
▁charm	-10.9035
▁useful	-10.9035
SON	-10.9035
▁estate	-10.9038
▁gawk	-10.9039
▁excited	-10.9039
delimit	-10.9042
▁performed	-10.9044
▁directed	-10.9045
▁'{}.	-10.9051
encoder	-10.9058
▁compressed	-10.9065
▁fallback	-10.9065
%02	-10.9065
▁learned	-10.9067
▁reli	-10.9068
▁increased	-10.9072
▁SUPPRESS	-10.9076
PER	-10.9087
▁'/./	-10.9088
.*/\1/'	-10.9089
iterable	-10.909
▁restore	-10.9094
compiled	-10.9096
qr	-10.9097
]/{	-10.9099
▁separate	-10.9101
▁converted	-10.9102
▁smiled	-10.911
▁weak	-10.9111
▁"*$	-10.9115
▁failed	-10.9122
▁parameter	-10.9125
▁","	-10.9135
▁'.*\.	-10.9138
▁accident	-10.9148
▁finite	-10.915
▁save	-10.9154
serv	-10.9161
~'	-10.9163
▁127.0.0.1	-10.9167
▁application	-10.9169
▁openssl	-10.9171
▁sit	-10.9177
have	-10.9181
▁painful	-10.9184
pref	-10.9184
uther	-10.9186
plement	-10.9186
▁subprocess	-10.9188
▁watched	-10.9193
historyi	-10.9196
▁2,2	-10.9204
czv	-10.9205
▁compile	-10.9209
▁$0;	-10.9216
dch	-10.9216
$1"	-10.9218
▁Cal	-10.922
pot	-10.9223
comm	-10.9237
lsql	-10.9238
▁dine	-10.9246
[$	-10.9266
logfile	-10.9269
▁10**(	-10.9272
OFS	-10.9277
▁smiles	-10.9283
▁OS	-10.9286
allow	-10.929
tool	-10.9299
▁$9	-10.9305
pow	-10.9307
▁lie	-10.9314
registry	-10.9316
dll	-10.9317
memory	-10.9318
previous	-10.9318
hello	-10.9318
view	-10.9318
expression	-10.9318
▁arr	-10.9321
++}	-10.9322
big	-10.9322
/:$//	-10.9328
traps	-10.9339
most	-10.9342
shp	-10.9348
subset	-10.9369
▁fortunate	-10.9373
Bar	-10.9374
97	-10.94
locked	-10.9408
▁describe	-10.9411
▁mail	-10.9414
cle	-10.9439
)$"	-10.9445
▁bitter	-10.945
▁register	-10.9455
WORD	-10.9457
reduce	-10.9458
github	-10.9459
JUMP	-10.9459
LOCK	-10.9459
Foo	-10.9459
exclusive	-10.9459
MAPPING	-10.9459
Perhaps	-10.9459
WAIT	-10.9459
▁Safie	-10.9459
▁White	-10.9459
▁compatibility	-10.9459
▁innocent	-10.9459
▁nephew	-10.9459
Constant	-10.9459
MESSAGES	-10.9459
specific	-10.9459
▁shadow	-10.9459
▁unwilling	-10.9459
Feature	-10.9459
▁contempt	-10.9459
ERROR	-10.9459
fPIC	-10.9459
▁tolerable	-10.9459
▁sought	-10.9459
▁presence	-10.9459
▁Long	-10.9459
▁pardon	-10.9459
▁ardent	-10.9459
▁drunk	-10.9459
hacl	-10.9459
▁paddle	-10.9459
▁torture	-10.9459
▁ruin	-10.9459
Indeed	-10.946
▁candle	-10.946
FORMA	-10.946
▁esteem	-10.946
▁procure	-10.946
▁spring	-10.946
▁eldest	-10.946
▁firm	-10.9461
▁Right	-10.9461
▁equivalent	-10.9461
▁harm	-10.9462
MOD	-10.9463
scroll	-10.9463
▁passage	-10.9463
Construct	-10.9464
INFO	-10.9464
daily	-10.9466
▁consideration	-10.9472
INET	-10.9474
Gene	-10.9478
▁wlen	-10.948
▁importance	-10.9484
any	-10.9486
▁Any	-10.9488
▁counter	-10.9491
▁rank	-10.9491
▁0.1	-10.9496
▁remaining	-10.9497
▁union	-10.9499
▁pity	-10.9504
+1]	-10.9505
▁parent	-10.9519
▁stacklevel	-10.952
▁header	-10.952
(3,	-10.9521
▁prevail	-10.9524
%03	-10.9525
▁paused	-10.9528
▁front	-10.9532
0000000	-10.9542
\033\[	-10.9543
cho	-10.9549
\)\	-10.9561
{$	-10.9576
ctypes	-10.9578
▁operator	-10.9578
▁registry	-10.9603
00"	-10.9619
miss	-10.9623
▁special	-10.9631
▁escaped	-10.9631
OSS	-10.964
▁tie	-10.9654
blocking	-10.9668
▁MAX	-10.9675
▁lower	-10.9676
▁10000	-10.9677
diff	-10.9694
infile	-10.97
▁arms	-10.9703
▁built	-10.9712
▁particulars	-10.9722
▁shell	-10.9723
sysconfig	-10.973
▁Ro	-10.9732
Be	-10.9733
select	-10.977
▁occur	-10.977
Enter	-10.9772
conflict	-10.9772
terminfo	-10.9772
($0)	-10.9773
safe	-10.9774
▁reflection	-10.9774
large	-10.9774
partial	-10.9774
mapping	-10.9776
▁detail	-10.9777
▁logical	-10.9782
▁mountain	-10.9782
▁rw	-10.9785
▁json	-10.9786
util	-10.9787
cannot	-10.9794
USE	-10.9795
localtime	-10.9797
compiler	-10.9817
LIN	-10.9819
▁stdin	-10.9845
near	-10.9846
ptimization	-10.9857
jobs	-10.986
▁broke	-10.9865
▁drop	-10.9866
erry	-10.9866
▁Even	-10.9874
('\	-10.9877
▁prove	-10.9882
▁tall	-10.9886
▁hat	-10.989
▁recover	-10.9891
▁\"$	-10.9892
▁produce	-10.9896
89	-10.9901
▁difficult	-10.9902
▁attributes	-10.9902
▁initial	-10.9903
INSTRU	-10.991
METHOD	-10.9913
asyncgen	-10.9913
Support	-10.9913
TUPLE	-10.9913
Books	-10.9913
▁Eliza	-10.9913
▁amusement	-10.9913
▁appropriate	-10.9913
▁ashamed	-10.9913
▁conviction	-10.9913
▁disturb	-10.9913
▁fatigue	-10.9913
▁influence	-10.9913
▁intelligence	-10.9913
▁peculiar	-10.9913
▁proposal	-10.9913
▁elevat	-10.9913
▁flatter	-10.9913
▁relieve	-10.9913
Subject	-10.9913
suspend	-10.9913
▁aloud	-10.9913
▁entertain	-10.9913
▁induce	-10.9913
\033	-10.9913
HASH	-10.9913
▁moral	-10.9913
▁covered	-10.9913
suppress	-10.9914
Total	-10.9914
▁demand	-10.9914
▁involv	-10.9914
▁partner	-10.9914
▁exertion	-10.9915
▁Thus	-10.9915
coord	-10.9915
▁shot	-10.9916
▁entry	-10.9917
numeric	-10.9922
alien	-10.9928
▁typing	-10.9929
DEST	-10.993
▁hall	-10.9934
▁recovered	-10.9938
ward	-10.9938
JIT	-10.9939
▁charming	-10.9941
getitem	-10.9947
▁birds	-10.995
▁chosen	-10.9953
▁sockets	-10.9954
▁spread	-10.9955
▁standing	-10.9955
rescale	-10.9962
CAN	-10.9965
▁later	-10.9966
▁descend	-10.9971
hand	-10.9971
▁Nothing	-10.9971
Trace	-10.9974
79	-10.9983
3000	-10.9992
▁asking	-11.0005
▁faint	-11.0008
.*/\1/	-11.0011
buffering	-11.0014
ITER	-11.0016
▁Format	-11.0024
▁cra	-11.0032
78	-11.0035
[0-9][0-9]	-11.0038
see	-11.0049
ember	-11.0054
▁accepted	-11.0068
▁owe	-11.007
▁misfortunes	-11.0072
▁visited	-11.0123
▁Con	-11.0132
ATE	-11.0141
shm	-11.0143
▁queue	-11.0166
55	-11.0174
▁drive	-11.0195
resize	-11.0201
▁policy	-11.0208
instance	-11.0211
finite	-11.0219
VER	-11.0221
▁'-'	-11.0224
▁strict	-11.0224
syslog	-11.0234
▁annotate	-11.0235
reference	-11.0244
strftime	-11.0247
Windows	-11.0247
lambda	-11.0248
constant	-11.0248
style	-11.0249
bound	-11.0249
divmod	-11.025
Get	-11.0253
timedelta	-11.0253
#\	-11.0253
ABC	-11.0256
&&	-11.0262
▁longed	-11.027
▁$0}	-11.0271
▁callbacks	-11.0274
Text	-11.0291
ERS	-11.0299
Now	-11.0304
ane	-11.0339
scale	-11.034
▁declare	-11.0342
▁----	-11.0353
▁reset	-11.0357
todo	-11.036
curl	-11.0375
▁immediate	-11.038
▁../../	-11.038
▁notion	-11.0383
Operation	-11.0389
SUBSCR	-11.039
SPAM	-11.039
[0-9]{1,3}\.	-11.039
Script	-11.039
104-6	-11.039
PATTERN	-11.039
Stringifier	-11.039
Transport	-11.039
\"{}\"	-11.039
closure	-11.039
▁Agatha	-11.039
▁Waldo	-11.039
▁couple	-11.039
▁daniel	-11.039
▁destruction	-11.039
▁globstar	-11.039
▁including	-11.039
▁judgment	-11.039
▁modify	-11.039
▁opposite	-11.039
▁possibility	-11.039
▁significant	-11.039
▁similar	-11.039
▁suspicion	-11.039
▁vengeance	-11.039
▁victim	-11.039
Movies	-11.039
+=$1}	-11.039
Internal	-11.039
▁copies	-11.039
▁cycle	-11.039
HWaddr	-11.039
▁WHE	-11.039
▁apropos	-11.039
▁+365	-11.039
){5}	-11.039
ия	-11.039
'"'"'	-11.039
System	-11.039
▁limb	-11.039
Subnormal	-11.039
tkinter	-11.039
Search	-11.039
▁tender	-11.039
tommye	-11.039
▁agitation	-11.039
TXT	-11.039
NEW	-11.039
shire	-11.039
Very	-11.039
raid	-11.039
debian	-11.0391
Compare	-11.0391
▁"+%	-11.0391
proxy	-11.0391
mkv	-11.0391
▁$'\0'	-11.0391
Mapping	-11.0391
PDF	-11.0391
▁snake	-11.0391
▁DST	-11.0392
▁LC	-11.0392
Will	-11.0393
▁edge	-11.0393
▁branches	-11.0393
SSH	-11.0393
TMPDIR	-11.0394
.[0-9]+"	-11.0394
multiply	-11.0395
▁employed	-11.0395
▁Stri	-11.0398
img	-11.0398
▁unlike	-11.0398
ability	-11.0399
coders	-11.0399
▁+10000	-11.0401
▁hanging	-11.0401
▁extremely	-11.0402
:]]'	-11.0403
▁parents	-11.0405
subfolder	-11.0407
▁acknowledged	-11.0407
notify	-11.0408
UX	-11.041
▁attached	-11.0411
Have	-11.0411
ility	-11.0412
▁+1024	-11.0418
▁card	-11.0419
▁bestowed	-11.0419
initialize	-11.0419
▁Hu	-11.0421
bur	-11.0421
▁ForwardRef	-11.0421
$/{	-11.0425
▁bytearray	-11.0428
▁murdered	-11.0429
▁traceback	-11.0438
▁listening	-11.0445
download	-11.0446
optimization	-11.0449
▁literal	-11.045
▁23	-11.0454
destDir	-11.0458
mutually	-11.0471
upload	-11.0479
▁+600	-11.0481
▁preserve	-11.0487
▁YOUR	-11.0492
srch	-11.0492
buffered	-11.0495
▁checked	-11.0496
texthere	-11.0506
▁ISO	-11.0508
▁soft	-11.0517
dbf	-11.0524
indentation	-11.0535
▁##	-11.0541
▁shoulder	-11.0543
EF	-11.0548
▁traps	-11.0549
▁opening	-11.0556
▁tear	-11.0557
▁PER	-11.0559
▁rounded	-11.0572
mask	-11.0582
▁working	-11.0596
▁'[[:	-11.0598
pem	-11.0606
▁containing	-11.0618
▁gettext	-11.0634
[:]	-11.0636
▁follows	-11.0637
?*'	-11.0639
PROCESS	-11.064
translate	-11.0663
specifier	-11.0663
complete	-11.0674
▁logfile	-11.0677
ask	-11.0678
▁+6	-11.0681
collections	-11.0683
-1]	-11.0714
▁pen	-11.0717
▁blue	-11.0718
▁buffered	-11.0729
▁Sh	-11.0731
agen	-11.0737
-8"	-11.0745
interactive	-11.0747
generator	-11.0748
quiet	-11.0748
trc	-11.0751
week	-11.0755
lane	-11.0759
▁signals	-11.0761
AST	-11.0769
simple	-11.077
two	-11.0771
▁pb	-11.0771
▁suggest	-11.0779
▁rpm	-11.0781
▁...]	-11.0785
elt	-11.0797
feed	-11.0805
ade	-11.0822
ailed	-11.0845
▁direct	-11.0851
▁treat	-11.0867
Na	-11.087
▁guilt	-11.0878
================	-11.088
▁===============	-11.0888
▁encourage	-11.0888
ification	-11.0889
PASS	-11.089
RANDOM	-11.089
_______________	-11.089
Abstract	-11.089
:00:00	-11.089
GenericAlias	-11.089
Number	-11.089
Version	-11.089
▁BlockingIOError	-11.089
▁English	-11.089
▁Maria	-11.089
▁animal	-11.089
▁apprehension	-11.089
▁approximation	-11.089
▁composure	-11.089
▁drink	-11.089
▁familiar	-11.089
▁occupation	-11.089
▁philosophy	-11.089
▁product	-11.089
▁rejoice	-11.089
▁retired	-11.089
▁sympathy	-11.089
▁twelve	-11.089
▁vessel	-11.089
Connect	-11.089
▁neck	-11.089
▁drift	-11.089
▁weather	-11.089
▁During	-11.089
▁grateful	-11.089
MULTI	-11.089
▁padding	-11.089
▁sharp	-11.089
▁excess	-11.089
Simple	-11.089
▁override	-11.089
▁Alas	-11.089
▁anger	-11.089
▁resentment	-11.0891
[:-1]	-11.0891
▁motion	-11.0891
▁nonzero	-11.0891
▁Task	-11.0891
▁HU	-11.0891
▁devil	-11.0891
MEM	-11.0891
NSE	-11.0892
▁madam	-11.0892
▁issue	-11.0893
▁wuz	-11.0894
}:{	-11.0894
Import	-11.0895
▁leg	-11.0895
▁seated	-11.0895
Wait	-11.0897
▁anyway	-11.0898
▁born	-11.0899
DEC	-11.0901
▁reasonable	-11.0902
▁ensure	-11.0902
▁absolutely	-11.0904
Copy	-11.0904
TYPES	-11.0906
nsure	-11.0912
▁outside	-11.0912
Dict	-11.0924
$/'	-11.0928
▁agreed	-11.0928
▁dim	-11.0929
▁TODO	-11.093
(10)	-11.0932
▁laughed	-11.0932
▁concerned	-11.0934
▁branch	-11.0934
▁2**	-11.0936
$9	-11.0938
▁multiline	-11.094
▁goes	-11.0954
NOT	-11.096
▁extension	-11.096
▁'[0-9][0-9]	-11.0963
▁considering	-11.0964
\)"	-11.097
▁apply	-11.0974
▁additional	-11.0975
▁document	-11.0981
▁via	-11.0988
▁bread	-11.0991
▁record	-11.0992
formed	-11.0999
gent	-11.1001
▁sooner	-11.1005
spam	-11.1005
stem	-11.1029
▁Nor	-11.1029
undo	-11.1037
]*"	-11.1039
▁Windows	-11.1042
wards	-11.1048
▁details	-11.105
eries	-11.1055
eml	-11.1071
▁alpha	-11.1072
CHAR	-11.1083
lamp	-11.1084
▁UTF	-11.1087
001	-11.1091
▁adding	-11.1091
▁caused	-11.1092
$|	-11.1093
▁Permission	-11.1095
▁exists	-11.1107
▁spoken	-11.1112
rated	-11.1134
▁remains	-11.1142
elts	-11.1157
|$	-11.1176
▁translat	-11.1181
prod	-11.12
ace	-11.1231
▁infinity	-11.1246
variable	-11.1273
readinto	-11.1273
operator	-11.1273
SING	-11.1274
maybe	-11.1275
push	-11.1275
question	-11.1275
needed	-11.1276
mkdir	-11.1278
though	-11.1279
reverse	-11.128
+1)	-11.1281
restore	-11.1282
prev	-11.1302
pause	-11.1302
▁valid	-11.132
heading	-11.1325
gid	-11.1325
BF	-11.1327
fuse	-11.1338
▁Get	-11.1344
▁flow	-11.136
▁approach	-11.1366
▁prepar	-11.1366
▁endure	-11.1369
▁assume	-11.137
▁possess	-11.1389
▁perform	-11.139
▁jump	-11.1391
▁wander	-11.1391
escription	-11.1394
returncode	-11.1395
aught	-11.1399
▁eager	-11.1403
77	-11.1405
▁violent	-11.1406
▁hung	-11.1409
NCE	-11.1411
equest	-11.1412
ONE	-11.1413
Function	-11.1416
canonical	-11.1416
POSIX	-11.1416
CancelledError	-11.1416
ArgumentParser	-11.1416
century	-11.1416
▁ArgumentError	-11.1416
▁StopIteration	-11.1416
▁advice	-11.1416
▁awoke	-11.1416
▁benefit	-11.1416
▁birth	-11.1416
▁chair	-11.1416
▁confusion	-11.1416
▁corner	-11.1416
▁creator	-11.1416
▁disgrace	-11.1416
▁dæmon	-11.1416
▁education	-11.1416
▁extraordinary	-11.1416
▁fashion	-11.1416
▁innocence	-11.1416
▁intimate	-11.1416
▁leisure	-11.1416
▁observation	-11.1416
▁ourselves	-11.1416
▁smiling	-11.1416
▁solitude	-11.1416
▁tranquillity	-11.1416
▁voyage	-11.1416
WIDTH	-11.1416
increment	-11.1416
▁ImportError	-11.1416
▁Subscript	-11.1416
▁descriptor	-11.1416
▁wedding	-11.1416
▁pretend	-11.1416
▁tired	-11.1416
▁offended	-11.1416
TRACT	-11.1416
▁deliver	-11.1416
itertools	-11.1416
wrapped	-11.1416
▁derive	-11.1416
verse	-11.1416
scope	-11.1416
▁arise	-11.1416
▁Though	-11.1416
▁parsing	-11.1416
▁relief	-11.1417
▁invite	-11.1417
configure	-11.1417
▁fulfil	-11.1417
▁thy	-11.1418
▁pale	-11.1418
▁warmth	-11.1419
▁grant	-11.1419
▁taught	-11.1419
▁favourable	-11.142
jkl	-11.1422
▁shape	-11.1422
▁inspect	-11.1426
▁sank	-11.1426
▁caught	-11.1427
editor	-11.1428
▁eight	-11.1428
hits	-11.1429
▁supper	-11.1432
▁earnestly	-11.1434
▁cabin	-11.1437
▁chain	-11.1438
▁readily	-11.1439
▁usually	-11.1443
Contents	-11.1443
Remove	-11.1444
▁collected	-11.145
mixed	-11.1453
bla	-11.1455
('10')	-11.1458
▁deploy	-11.1459
▁third	-11.1467
▁declared	-11.1469
▁GNU	-11.1475
▁excuse	-11.1476
▁restored	-11.1477
iscoroutine	-11.1481
▁compatible	-11.1482
▁prepared	-11.1484
called	-11.1486
▁laying	-11.1488
▁ferry	-11.1489
▁curse	-11.1489
AVA	-11.1493
ocs	-11.1501
▁emp	-11.1515
▁rid	-11.1524
▁modified	-11.1538
255	-11.1571
▁DEFAULT	-11.1601
▁hide	-11.1606
aix	-11.1618
XXXXXXXXXX	-11.1634
▁platform	-11.1648
READ	-11.1655
▁filters	-11.1657
▁urge	-11.1659
OT	-11.1671
▁load	-11.1674
▁locked	-11.1685
image	-11.1688
▁INPUT	-11.1688
96	-11.172
ayload	-11.1724
closefd	-11.174
="$	-11.1753
▁demo	-11.1806
$1}'	-11.1815
correct	-11.1829
absolute	-11.1829
syntax	-11.183
dummy	-11.183
crontab	-11.1832
house	-11.1832
const	-11.1835
compress	-11.184
CONN	-11.1847
FILENAME	-11.1848
▁mon	-11.1849
await	-11.1856
substr	-11.1859
say	-11.1861
▁shre	-11.1869
nia	-11.1872
()))	-11.1879
0001	-11.188
fallen	-11.1898
threading	-11.1898
stead	-11.1924
ratio	-11.1925
▁chose	-11.1929
RES	-11.1943
scape	-11.1943
▁actual	-11.1962
STAT	-11.1966
\///'	-11.1967
▁communicat	-11.1969
▁prefer	-11.1971
SPACE	-11.1971
fglrx	-11.1971
е	-11.1971
([0-9]{2})	-11.1971
YEAR	-11.1971
BarrierState	-11.1971
▁establish	-11.1971
▁exhibit	-11.1971
▁inhabit	-11.1971
*\.){3}[0-9]*'	-11.1971
ENABLE	-11.1971
EventLoopPolicy	-11.1971
HANDLE	-11.1971
Protocol	-11.1971
SELECT	-11.1971
STORAGEFOLDER	-11.1971
SYSTEM	-11.1971
Sublime	-11.1971
SystemExit	-11.1971
UNDOFILE	-11.1971
ssembly	-11.1971
tHostKeyChecking	-11.1971
▁French	-11.1971
▁RBENV	-11.1971
▁Saturday	-11.1971
▁attentive	-11.1971
▁coefficient	-11.1971
▁conclusion	-11.1971
▁confidence	-11.1971
▁cruel	-11.1971
▁deceived	-11.1971
▁felicity	-11.1971
▁firefox	-11.1971
▁frightened	-11.1971
▁generous	-11.1971
▁improvement	-11.1971
▁mplayer	-11.1971
▁seldom	-11.1971
▁staff	-11.1971
▁thirst	-11.1971
▁upstairs	-11.1971
▁wound	-11.1971
BYTES	-11.1971
CURR	-11.1971
GARD	-11.1971
▁0755	-11.1971
▁BaseException	-11.1971
▁Caroline	-11.1971
▁belief	-11.1971
▁disgust	-11.1971
▁probable	-11.1971
▁seized	-11.1971
▁fracpart	-11.1972
▁Tools	-11.1972
▁convey	-11.1972
▁hurt	-11.1972
▁suspect	-11.1972
▁inherit	-11.1972
brief	-11.1972
▁dwelling	-11.1972
▁Span	-11.1972
/(.*)	-11.1972
andnav	-11.1972
▁tata	-11.1972
▁behold	-11.1972
WHAT	-11.1972
▁preceding	-11.1972
▁Two	-11.1972
▁complain	-11.1972
▁season	-11.1972
▁fastqc	-11.1972
▁distribute	-11.1972
▁leap	-11.1972
▁'.*\.\(	-11.1972
▁confine	-11.1972
unchanged	-11.1972
▁generated	-11.1973
▁sink	-11.1973
▁'127.0.0.1'	-11.1973
▁severe	-11.1973
SRC	-11.1973
antoniod	-11.1973
detach	-11.1974
▁farther	-11.1974
bashrc	-11.1974
▁ncurses	-11.1974
HANT	-11.1974
▁rational	-11.1974
▁stick	-11.1975
▁SEL	-11.1975
deferred	-11.1976
▁possession	-11.1977
.[0-9]*'	-11.1977
Unix	-11.1978
▁smallest	-11.1978
.*/\..*	-11.1979
▁'^$'	-11.1979
▁proof	-11.1979
▁Our	-11.198
▁putting	-11.1982
▁weep	-11.1982
delta	-11.1984
*[.][0-9][0-9]*	-11.1986
▁-002	-11.1986
▁2222	-11.1986
▁parties	-11.1989
▁indifference	-11.199
▁anxiously	-11.1991
showwarning	-11.1992
▁succeeded	-11.1995
▁wandered	-11.1998
▁advanced	-11.2003
=0;	-11.2004
cxy	-11.2004
▁nearer	-11.2007
▁attach	-11.2007
"(?	-11.2008
linker	-11.2008
Sep	-11.2009
▁reflected	-11.2011
\012	-11.2012
rotate	-11.2012
▁somecommand	-11.2017
▁$11}'	-11.2017
▁sunk	-11.2019
▁MY	-11.2023
iconv	-11.2024
recent	-11.2024
▁DATA	-11.2025
▁oldline	-11.2027
▁goodness	-11.2027
▁cry	-11.2027
INTE	-11.2032
▁Found	-11.2034
▁described	-11.2034
pickle	-11.2034
▁tmpfile	-11.2038
▁anaconda	-11.2042
▁interested	-11.2042
▁attempted	-11.2047
patch	-11.2049
askapache	-11.2049
+=$	-11.2058
▁enumerate	-11.2062
▁thrown	-11.2074
▁RES	-11.2075
▁OUT	-11.2076
resolve	-11.2077
▁"0"	-11.2079
▁&>	-11.2081
▁)}'	-11.2082
▁implicit	-11.2084
▁dry	-11.209
Just	-11.2091
▁directive	-11.2102
cond	-11.2102
00000000	-11.2109
IPv	-11.2112
backward	-11.2115
▁readinto	-11.2126
▁interactive	-11.2134
▁/222	-11.2138
incl	-11.2139
▁strftime	-11.2143
==2	-11.2145
▁terminfo	-11.2152
▁partial	-11.2159
^.*	-11.2159
';'	-11.2163
0-9'	-11.2167
▁Jo	-11.217
▁span	-11.2175
▁1000000	-11.2178
▁fileName	-11.2178
Give	-11.2191
Ratio	-11.2205
▁existing	-11.2211
law	-11.2213
▁unzip	-11.2217
▁clock	-11.2222
▁ideal	-11.2229
800	-11.2246
LINK	-11.2258
▁".+	-11.2283
▁dish	-11.2298
window	-11.2305
define	-11.2306
completion	-11.2313
dots	-11.2341
bab	-11.2343
[^/]*	-11.2351
manager	-11.2359
dward	-11.2395
▁anti	-11.2409
prepare	-11.2416
Format	-11.2417
parameter	-11.2417
termios	-11.2418
▁sensation	-11.2418
coeff	-11.2419
With	-11.2419
precision	-11.2419
through	-11.242
always	-11.242
Python	-11.2422
expected	-11.2423
Miss	-11.2426
1/*	-11.243
\\\\	-11.2441
Dear	-11.2479
ORS	-11.248
\&	-11.2485
▁Time	-11.2494
gcc	-11.2498
▁wall	-11.251
▁mistake	-11.2511
1000000	-11.2516
▁sigh	-11.2521
▁addition	-11.2533
▁succeed	-11.2535
orig	-11.2556
▁omit	-11.2559
frozen	-11.256
Argument	-11.256
ARCH	-11.256
BUILTIN	-11.256
DICT	-11.256
Template	-11.256
bootstrap	-11.256
eyboardInterrupt	-11.256
COLUMN	-11.256
PENDING	-11.256
capabilities	-11.256
components	-11.256
visibility	-11.256
▁Michael	-11.256
▁Reserved	-11.256
▁astonished	-11.256
▁beneath	-11.256
▁blanket	-11.256
▁effort	-11.256
▁emotion	-11.256
▁entrance	-11.256
▁evidence	-11.256
▁female	-11.256
▁indifferent	-11.256
▁likewise	-11.256
▁skiff	-11.256
SEEK	-11.256
ascending	-11.256
immutable	-11.256
software	-11.256
virtual	-11.256
▁Monday	-11.256
▁grieve	-11.256
▁smoke	-11.256
▁vanity	-11.256
SOCKET	-11.256
▁prison	-11.256
▁distant	-11.256
▁friendship	-11.256
SUB	-11.256
wheel	-11.256
▁guest	-11.256
▁disposed	-11.256
getaddrinfo	-11.256
▁PEP	-11.256
▁corps	-11.256
▁forgot	-11.256
Could	-11.256
▁aware	-11.256
▁cool	-11.256
▁boast	-11.256
▁employment	-11.256
▁remind	-11.256
▁shove	-11.256
('7')	-11.256
▁lessons	-11.2561
▁profession	-11.2561
▁omitted	-11.2561
▁mouse	-11.2561
▁Mont	-11.2561
▁tokenize	-11.2561
OPEN	-11.2561
▁bore	-11.2561
HOSTNAME	-11.2562
▁politeness	-11.2562
▁torment	-11.2562
▁dining	-11.2562
metaclass	-11.2563
▁avail	-11.2563
▁storm	-11.2564
▁wept	-11.2565
slice	-11.2566
{:02	-11.2566
▁narrow	-11.2566
▁disappointed	-11.2567
▁highest	-11.2567
▁sincerely	-11.2568
▁respectable	-11.2569
▁darkness	-11.257
skin	-11.2572
▁entail	-11.2573
▁stretched	-11.2574
▁shade	-11.2574
GEN	-11.2574
▁subclasses	-11.2575
▁bufsize	-11.2578
▁youngest	-11.2578
▁formal	-11.2578
▁departed	-11.2579
dson	-11.2579
▁300	-11.2579
▁fog	-11.258
▁concluded	-11.2582
▁ceased	-11.2585
▁Result	-11.2591
▁linecache	-11.2591
▁fetched	-11.26
tracking	-11.2602
comps	-11.2608
bel	-11.2622
▁entering	-11.2626
]*\	-11.2629
▁bare	-11.2632
rect	-11.2638
10000	-11.265
▁normal	-11.2653
rbinop	-11.2658
▁learnt	-11.2659
▁scr	-11.2661
▁ABCMeta	-11.2661
▁observe	-11.2665
('.')	-11.2665
▁functools	-11.267
▁Check	-11.2679
▁prepare	-11.2686
]'`	-11.2712
▁song	-11.2717
alloc	-11.2723
minus	-11.2724
▁pig	-11.2735
$0)}'	-11.2748
\1\	-11.2748
dependent	-11.2786
toward	-11.2794
contains	-11.2805
unparse	-11.2812
▁]+	-11.2815
aliases	-11.2824
▁heap	-11.2833
DIRECT	-11.2844
processor	-11.2849
MB	-11.2863
FUT	-11.2886
235	-11.2887
▁wid	-11.2986
▁agree	-11.3015
▁bat	-11.3036
alias	-11.3041
directive	-11.3041
modified	-11.3042
piece	-11.3042
▁relation	-11.3043
declaration	-11.3043
execution	-11.3043
From	-11.3043
annotation	-11.3044
exponent	-11.3044
CHA	-11.3045
worth	-11.3045
important	-11.3046
under	-11.3046
hide	-11.3047
align	-11.3049
#############	-11.3053
('1.0	-11.3062
perf	-11.3071
CU	-11.3072
644	-11.3084
wordlist	-11.3087
APP	-11.31
00')	-11.3122
saved	-11.3128
seen	-11.313
ipc	-11.314
OUS	-11.3166
▁gloom	-11.3173
▁frequent	-11.3175
EVEN	-11.3179
▁complex	-11.3182
calendar	-11.3183
emitted	-11.3184
ULT	-11.3185
CODEC	-11.3185
HTTP	-11.3185
SPECIAL	-11.3185
WRITE	-11.3185
▁Ingolstadt	-11.3185
▁REPL	-11.3185
▁benevolent	-11.3185
▁gratified	-11.3185
▁housekeeper	-11.3185
▁measure	-11.3185
▁necessity	-11.3185
▁nonsense	-11.3185
▁occurrence	-11.3185
▁pronounced	-11.3185
▁proportion	-11.3185
▁quarrel	-11.3185
▁reject	-11.3185
▁uneasy	-11.3185
ColorSpan	-11.3185
kernel	-11.3185
▁detect	-11.3185
▁encounter	-11.3185
▁utmost	-11.3185
SignedInfinity	-11.3185
▁Thatcher	-11.3185
▁devoted	-11.3185
▁thunder	-11.3185
inimum	-11.3185
Pray	-11.3185
▁apartment	-11.3185
▁street	-11.3185
▁accent	-11.3185
▁grass	-11.3185
▁heavy	-11.3185
ROOT	-11.3185
▁steady	-11.3185
▁horrible	-11.3185
▁mild	-11.3185
LIG	-11.3185
▁ARI	-11.3185
▁exceed	-11.3185
▁angel	-11.3185
▁nurse	-11.3185
NEG	-11.3185
IMS	-11.3185
▁rising	-11.3186
▁sufferings	-11.3186
▁pressed	-11.3186
▁FAIL	-11.3186
▁yards	-11.3186
Look	-11.3186
▁accuse	-11.3187
▁magic	-11.3187
MPLI	-11.3188
▁boundary	-11.3188
permissions	-11.3188
nbits	-11.3189
Attribute	-11.3189
▁wretchedness	-11.319
atopen	-11.3193
dotted	-11.3195
enter	-11.32
cart	-11.3201
▁closest	-11.3203
▁distinguished	-11.3203
[3]	-11.3203
▁protest	-11.3205
▁vice	-11.3205
▁obtained	-11.3205
▁recollected	-11.3208
amaz	-11.3208
▁nose	-11.3209
▁quietly	-11.3211
▁shake	-11.3212
▁strongly	-11.3212
▁lately	-11.3213
▁useless	-11.3213
▁==============	-11.3214
mica	-11.3214
▁jumped	-11.3215
▁smaller	-11.3215
evt	-11.3216
782	-11.3217
isysroot	-11.3221
▁deny	-11.3221
▁explained	-11.3223
"\<	-11.3224
▁attending	-11.3225
▁crossed	-11.3227
▁idle	-11.3229
ACT	-11.3231
All	-11.3234
▁KeySpec	-11.3236
▁introduced	-11.3237
▁bringing	-11.3238
▁represented	-11.3239
▁assumed	-11.3244
emea	-11.3246
▁incomplete	-11.3249
750	-11.325
▁Raise	-11.3255
monit	-11.3262
▁"%02	-11.3269
456	-11.327
MAP	-11.3275
▁tempfile	-11.3277
▁stayed	-11.331
DN	-11.3323
("<	-11.3334
travel	-11.3343
▁caller	-11.3354
tude	-11.3388
TIAL	-11.3389
################	-11.3392
▁fearful	-11.3413
/\.([^	-11.3428
\|^	-11.3439
XX	-11.3455
apple	-11.3464
overload	-11.347
1200	-11.3475
kee	-11.3523
TZ	-11.3534
opener	-11.3562
Dis	-11.3573
live	-11.3632
sysroot	-11.3648
‘	-11.368
+$//'	-11.3686
YOUR	-11.3709
tecmint	-11.371
SUM	-11.371
oracle	-11.371
master	-11.3711
secret	-11.3711
heap	-11.3726
Here	-11.373
'{}'	-11.3733
mysql	-11.3734
Jul	-11.3752
resolved	-11.3767
ugo	-11.3775
011	-11.3788
▁INCLUD	-11.3795
▁arrive	-11.3807
▁introduce	-11.3816
▁perceive	-11.3821
▁recollect	-11.3825
▁wha	-11.3834
ORTI	-11.3834
▁Har	-11.3838
soft	-11.3841
▁rapid	-11.3841
▁gain	-11.3846
▁MER	-11.3847
▁happi	-11.3848
▁polite	-11.3849
ization	-11.3849
NTA	-11.385
PROFI	-11.385
▁sess	-11.3851
0-9\-]	-11.3851
Overflow	-11.3851
Interactive	-11.3851
SEQUEN	-11.3851
▁Judge	-11.3851
86_64.	-11.3851
ABILIT	-11.3851
BACKWARD	-11.3851
DIRECTORY	-11.3851
IABLE	-11.3851
JPEG	-11.3851
Pictures	-11.3851
Random	-11.3851
benchmark	-11.3851
comparative	-11.3851
hyphen	-11.3851
myappdata	-11.3851
mywebsite	-11.3851
nginx	-11.3851
practice	-11.3851
synchronous	-11.3851
texturedata	-11.3851
с	-11.3851
▁Georgiana	-11.3851
▁Illinois	-11.3851
▁bottle	-11.3851
▁breeze	-11.3851
▁church	-11.3851
▁conscious	-11.3851
▁disagreeable	-11.3851
▁elegant	-11.3851
▁exercise	-11.3851
▁fifteen	-11.3851
▁humble	-11.3851
▁indignation	-11.3851
▁lantern	-11.3851
▁ootp	-11.3851
▁remorse	-11.3851
▁sacrifice	-11.3851
▁struggle	-11.3851
▁studies	-11.3851
▁supposing	-11.3851
▁trailing	-11.3851
Deprecated	-11.3851
FIND	-11.3851
TEMP	-11.3851
delims	-11.3851
mimalloc	-11.3851
▁advise	-11.3851
▁banish	-11.3851
▁improved	-11.3851
▁scream	-11.3851
▁supply	-11.3851
▁tolerably	-11.3851
Flush	-11.3851
Louis	-11.3851
execute	-11.3851
▁loose	-11.3851
launch	-11.3851
▁grasp	-11.3851
ORIG	-11.3851
chromium	-11.3851
{1..3}	-11.3851
▁hovel	-11.3851
▁straight	-11.3851
▁restrain	-11.3851
▁vivek	-11.3851
▁spell	-11.3851
ц	-11.3851
IEEE	-11.3851
Ignore	-11.3851
ен	-11.3851
▁fifty	-11.3851
▁hack	-11.3851
World	-11.3852
zzz	-11.3852
CLA	-11.3852
▁ruby	-11.3852
▁Poor	-11.3852
▁waves	-11.3852
well	-11.3852
[^=]*	-11.3852
\{3	-11.3852
▁".*\.\(	-11.3852
canonicalize	-11.3852
parens	-11.3852
(?<=	-11.3852
[^/]*$'	-11.3852
▁hatred	-11.3852
pdum	-11.3853
▁solid	-11.3853
▁irre	-11.3853
▁assistance	-11.3853
6\}	-11.3853
OPTS	-11.3853
▁crawl	-11.3853
▁aspect	-11.3853
▁partiality	-11.3853
fink	-11.3853
2080	-11.3854
▁stole	-11.3854
▁roused	-11.3854
PHP	-11.3854
▁merit	-11.3854
▁communication	-11.3854
▁stock	-11.3855
UID	-11.3855
sitesearch	-11.3855
▁DIS	-11.3855
▁+2000	-11.3856
▁incline	-11.3856
▁**/*.	-11.3856
999999999	-11.3856
NEF	-11.3857
▁2013	-11.3857
[0-9]+\.	-11.3858
▁Where	-11.3858
Normal	-11.3858
▁replaced	-11.3858
▁expose	-11.3859
stdlib	-11.3859
▁lean	-11.3859
▁444	-11.386
ENCE	-11.386
▁rapidly	-11.3862
▁addrinfo	-11.3862
Helper	-11.3863
▁vfat	-11.3863
▁awful	-11.3863
COLL	-11.3864
▁argparse	-11.3864
▁violently	-11.3865
▁modern	-11.3865
▁‘*.	-11.3865
weekly	-11.3866
CCS	-11.3867
=$0}	-11.3867
▁shame	-11.3867
scsi	-11.3867
bbb	-11.3868
BASE	-11.3868
▁awkward	-11.3868
:]]+	-11.3869
▁Lucases	-11.387
▁accordingly	-11.387
/$$/	-11.387
▁slowly	-11.3872
delimiter	-11.3873
▁burning	-11.3874
▁altered	-11.3875
="*.	-11.3877
▁msgstr	-11.3881
▁experienced	-11.3883
▁ole	-11.3884
▁approaching	-11.3884
▁higher	-11.3885
▁"$0")"	-11.3886
1102	-11.3888
>5'	-11.3888
551	-11.3889
▁nfs	-11.389
▁+40	-11.3893
▁dressed	-11.3894
▁"${0%.	-11.3895
}${	-11.3897
▁alarmed	-11.3899
▁whoop	-11.39
▁vast	-11.3902
nrz	-11.3903
▁chin	-11.3905
tiful	-11.3908
▁laughing	-11.3911
▁rob	-11.3912
▁'$!	-11.3915
▁+14	-11.3917
[/]	-11.3927
/^[^	-11.3932
▁pursued	-11.3938
Wall	-11.3948
▁ordered	-11.3953
pdv	-11.3955
nrk	-11.3956
▁lit	-11.3976
▁+111	-11.3976
Mic	-11.3989
suggestion	-11.4002
/^\//	-11.401
misses	-11.4021
'<{	-11.4026
▁bent	-11.4037
icate	-11.4051
face	-11.4058
▁Turk	-11.4065
555	-11.4067
"$3"	-11.4102
[0]}"	-11.4145
setdefault	-11.4155
ansi	-11.4243
lica	-11.425
[0-9]?'	-11.4271
▁'([0-9]	-11.4277
prio	-11.4296
5000000	-11.4311
ravel	-11.4329
capitals	-11.4352
.*//	-11.4364
accept	-11.4398
Check	-11.4422
implicit	-11.4422
record	-11.4423
course	-11.4424
array	-11.4424
xyz	-11.4425
broken	-11.4425
character	-11.4425
because	-11.4435
boat	-11.444
▁$2}	-11.4442
made	-11.4446
Clea	-11.4447
accepted	-11.4449
▁consist	-11.4455
▁continu	-11.4462
asia	-11.4464
▁typ	-11.4472
retty	-11.4476
▁desir	-11.4493
▁decide	-11.4518
▁alter	-11.454
▁multi	-11.4554
ARG	-11.4558
ception	-11.4562
mirror	-11.4566
▁thou	-11.4566
MONTH	-11.4566
proactor	-11.4566
Meta	-11.4566
PREFIX	-11.4566
Sequence	-11.4566
multiprocessing	-11.4566
SEQUENCE	-11.4566
ZERO	-11.4566
▁BufferedReader	-11.4566
▁mortal	-11.4566
▁tuck	-11.4566
AssertionError	-11.4566
Compute	-11.4566
Output	-11.4566
STREAM	-11.4566
Would	-11.4566
imaginary	-11.4566
insufficient	-11.4566
natured	-11.4566
peasant	-11.4566
▁Parsonage	-11.4566
▁accomplished	-11.4566
▁altogether	-11.4566
▁believing	-11.4566
▁conscience	-11.4566
▁contrary	-11.4566
▁hitherto	-11.4566
▁increasing	-11.4566
▁magistrate	-11.4566
▁nervous	-11.4566
▁otoff	-11.4566
▁prejudice	-11.4566
▁remembrance	-11.4566
▁residence	-11.4566
▁slept	-11.4566
▁solitary	-11.4566
▁stairs	-11.4566
▁trembling	-11.4566
▁numerically	-11.4566
▁undertaking	-11.4566
▁unjust	-11.4566
▁valley	-11.4566
FILL	-11.4566
Keep	-11.4566
▁inhabitants	-11.4566
('2.50')	-11.4566
negate	-11.4566
▁rotdig	-11.4566
▁wicked	-11.4566
▁arose	-11.4566
▁attack	-11.4566
▁folly	-11.4566
tracemalloc	-11.4566
▁Again	-11.4566
▁green	-11.4566
▁slipped	-11.4566
▁glance	-11.4566
MORE	-11.4566
▁divine	-11.4566
▁burst	-11.4566
▁confused	-11.4566
▁interference	-11.4566
▁gaze	-11.4566
▁grew	-11.4566
▁abode	-11.4566
▁introduction	-11.4566
▁rude	-11.4566
Clamped	-11.4566
CHECKING	-11.4566
Match	-11.4566
▁lament	-11.4566
▁baby	-11.4566
▁memoryview	-11.4566
▁observing	-11.4566
IMPORT	-11.4567
▁interval	-11.4567
Final	-11.4568
▁stripped	-11.4569
▁foolish	-11.4569
localeconv	-11.457
▁slate	-11.457
padded	-11.457
▁Kent	-11.4571
NONE	-11.4571
▁alteration	-11.4571
Else	-11.4572
▁agin	-11.4573
▁gentleness	-11.4574
▁Make	-11.4574
GID	-11.4574
orelse	-11.4575
▁wherever	-11.4577
▁GU	-11.4577
▁gloomy	-11.4579
▁rough	-11.4581
▁scared	-11.4583
argtypes	-11.4585
lilo	-11.4586
▁myoff	-11.4588
Cache	-11.4589
▁intpart	-11.459
▁grin	-11.4591
▁trembled	-11.4593
▁zone	-11.4598
▁ventured	-11.46
Delet	-11.4601
▁spared	-11.4607
▁uttered	-11.4609
▁selected	-11.4613
▁dull	-11.4615
irectories	-11.4618
▁SY	-11.4627
▁powerful	-11.4632
▁deck	-11.4641
▁growing	-11.4641
('2.	-11.4643
▁thankful	-11.4658
▁weight	-11.4659
invert	-11.4668
▁mid	-11.4669
inkin	-11.4695
▁distinct	-11.4695
contextmanager	-11.4704
repo	-11.4709
postg	-11.4744
▁comply	-11.4765
▁attract	-11.4775
Shell	-11.4804
disc	-11.4825
mmm	-11.4833
OUT	-11.4846
▁calculat	-11.4861
▁314	-11.4921
=1}	-11.4966
▁thin	-11.4973
conn	-11.498
III	-11.4989
Jan	-11.5019
Fra	-11.502
▁FI	-11.5094
▁seven	-11.5103
lookup	-11.5106
require	-11.5146
stamp	-11.5161
equal	-11.5175
functools	-11.5191
document	-11.5192
separate	-11.5193
separator	-11.5193
direction	-11.5194
Module	-11.5195
Lizzy	-11.5195
universal	-11.5195
would	-11.5195
Let	-11.52
nobody	-11.5206
isinstance	-11.5207
fire	-11.5235
void	-11.5249
formatted	-11.5255
▁pick	-11.5268
verage	-11.5298
▁obtain	-11.531
68	-11.5311
▁burn	-11.5311
pretty	-11.5313
▁impatient	-11.5324
▁depart	-11.5332
chedule	-11.5334
▁admit	-11.5334
quant	-11.5334
affect	-11.5335
CONTAIN	-11.5335
BROKEN	-11.5335
▁congratulat	-11.5335
PipeTransport	-11.5335
SOME	-11.5335
▁Little	-11.5335
BLUE	-11.5335
CANCELLED	-11.5335
FLOOR	-11.5335
FORWARDREF	-11.5335
GeneratorExit	-11.5335
MAGENTA	-11.5335
OPTIONAL	-11.5335
Socket	-11.5335
TRACE	-11.5335
Underflow	-11.5335
Welcome	-11.5335
daemon	-11.5335
external	-11.5335
precationWarning	-11.5335
tunnel	-11.5335
▁Arabian	-11.5335
▁Ernest	-11.5335
▁GUARD	-11.5335
▁Kirwin	-11.5335
▁Scotland	-11.5335
▁Tuesday	-11.5335
▁accustomed	-11.5335
▁behavior	-11.5335
▁decorator	-11.5335
▁delicacy	-11.5335
▁deprived	-11.5335
▁domestic	-11.5335
▁drownded	-11.5335
▁exhausted	-11.5335
▁impatience	-11.5335
▁impression	-11.5335
▁impulse	-11.5335
▁liberty	-11.5335
▁midnight	-11.5335
▁probability	-11.5335
▁qualities	-11.5335
▁response	-11.5335
▁soldiers	-11.5335
▁supplied	-11.5335
▁thirty	-11.5335
▁tranquil	-11.5335
▁uncomfortable	-11.5335
▁violence	-11.5335
▁Scroll	-11.5335
▁captain	-11.5335
▁patience	-11.5335
▁protectors	-11.5335
▁removal	-11.5335
▁reproach	-11.5335
▁Before	-11.5335
▁frightful	-11.5335
▁underflow	-11.5335
Empty	-11.5335
Trash	-11.5335
▁Street	-11.5335
▁incapable	-11.5335
▁rubb	-11.5335
▁stupid	-11.5335
▁summit	-11.5335
▁disdain	-11.5335
DISPLAY	-11.5335
▁ardour	-11.5335
▁frozenset	-11.5335
SITE	-11.5335
TBD	-11.5335
▁elder	-11.5335
▁retreat	-11.5335
▁duties	-11.5335
▁hastened	-11.5335
▁unittest	-11.5335
candidate	-11.5335
TEXT	-11.5335
▁dataclasses	-11.5335
▁Iterable	-11.5335
▁clever	-11.5335
▁queer	-11.5335
Zero	-11.5335
Insert	-11.5335
▁interface	-11.5335
▁forgive	-11.5336
DESCRIPT	-11.5336
▁defect	-11.5336
▁uncommon	-11.5336
▁Everybody	-11.5336
▁truly	-11.5336
audit	-11.5336
affs	-11.5336
▁hungry	-11.5336
▁united	-11.5336
▁lightning	-11.5336
▁remarkably	-11.5336
('100')	-11.5336
▁speedily	-11.5336
----------------	-11.5336
▁buy	-11.5336
▁hideous	-11.5336
▁slid	-11.5336
UUID	-11.5337
▁moving	-11.5337
lung	-11.5337
▁retain	-11.5337
▁noise	-11.5337
▁occasionally	-11.5338
anna	-11.5338
▁eagerness	-11.5339
▁certainty	-11.5339
▁chile	-11.5339
▁Park	-11.5339
▁bitterness	-11.534
▁Dodo	-11.534
▁reward	-11.534
▁worst	-11.534
GLOBALS	-11.5341
▁pure	-11.5341
Arch	-11.5341
▁sledge	-11.5341
STRUCT	-11.5341
▁OK	-11.5343
▁swell	-11.5343
▁Young	-11.5343
▁latest	-11.5344
▁absent	-11.5344
▁Lord	-11.5344
▁sell	-11.5345
NOTE	-11.5345
▁Take	-11.5346
▁chop	-11.5346
CMD	-11.5347
monday	-11.5349
▁interpreter	-11.5349
▁Reader	-11.5349
▁Xcode	-11.5349
▁condemned	-11.535
customize	-11.535
▁rushed	-11.5352
▁trade	-11.5352
▁guilty	-11.5353
▁largest	-11.5355
▁Soup	-11.5355
weakref	-11.5356
▁Does	-11.536
[5]	-11.536
▁faster	-11.5361
▁explicitly	-11.5364
▁repeatedly	-11.5366
...\	-11.537
▁treated	-11.5374
succ	-11.5374
▁repose	-11.5375
▁formerly	-11.5379
▁teeth	-11.5381
▁cave	-11.5386
invalidated	-11.5387
merge	-11.5388
▁straw	-11.5392
splint	-11.5392
2.7	-11.5395
Timeout	-11.5397
▁sincere	-11.5398
▁Cha	-11.5406
('-0')	-11.5409
ppc	-11.5417
etstate	-11.5438
56789	-11.5457
▁XXI	-11.5477
management	-11.5498
▁sail	-11.5519
tramp	-11.5519
007	-11.552
.$1	-11.5543
/\\\	-11.5558
$2"	-11.5559
prefixes	-11.5712
▁breathe	-11.581
owling	-11.5832
fromutc	-11.5881
hard	-11.5928
ashes	-11.593
▁resolv	-11.5982
▁Arm	-11.5995
normal	-11.6001
8888	-11.6018
ABCMeta	-11.6025
truncate	-11.6026
SSL	-11.6026
phrase	-11.6027
Makefile	-11.6027
middle	-11.6027
front	-11.6027
picture	-11.6027
floor	-11.6028
success	-11.6028
compute	-11.603
plain	-11.6034
song	-11.6035
/*/*/*/*/*	-11.6035
aaa	-11.6044
final	-11.6045
\./\.	-11.6055
▁threat	-11.6057
binary	-11.6059
beta	-11.6076
${0%.	-11.6114
▁advance	-11.612
▁settle	-11.6122
▁spare	-11.6122
▁192.168.	-11.6128
XXXXX	-11.6137
▁distinguish	-11.6143
yard	-11.6145
Aug	-11.6147
[$1]	-11.6155
(.*)/\	-11.6162
quivalent	-11.6164
▁Optional	-11.6166
[^.][^.]*	-11.6166
symbol	-11.6166
------------	-11.6167
16482	-11.6168
н	-11.6168
=$1;	-11.6168
з	-11.6168
ч	-11.6168
){3}[0-9]	-11.6168
NUMBER	-11.6168
DELETE	-11.6168
Syntax	-11.6168
nvalidStateError	-11.6168
CONSOLE	-11.6168
LIBRARY	-11.6168
Method	-11.6168
insanewebproject	-11.6168
showwarnmsg	-11.6168
▁Cairo	-11.6168
▁Majesty	-11.6168
▁consult	-11.6168
▁gracious	-11.6168
▁purchase	-11.6168
#.*/##	-11.6168
*(?==)'	-11.6168
-2.0.0	-11.6168
/(\(.*\)).*/\1/'	-11.6168
16224	-11.6168
WeakSet	-11.6168
[$1,$2]	-11.6168
[^:]*$	-11.6168
\(.*\)\/.*	-11.6168
mongodb	-11.6168
square	-11.6168
symptotic	-11.6168
wiki	-11.6168
─	-11.6168
▁"\000"	-11.6168
▁'-------')	-11.6168
▁2008-09-	-11.6168
▁Denny	-11.6168
▁abhorrence	-11.6168
▁apparently	-11.6168
▁banana	-11.6168
▁bosom	-11.6168
▁chaise	-11.6168
▁clumb	-11.6168
▁coarse	-11.6168
▁consequently	-11.6168
▁eternal	-11.6168
▁expense	-11.6168
▁families	-11.6168
▁furniture	-11.6168
▁gradually	-11.6168
▁hogehoge	-11.6168
▁ignorance	-11.6168
▁incident	-11.6168
▁mistress	-11.6168
▁permitted	-11.6168
▁persuasion	-11.6168
▁poverty	-11.6168
▁quotient	-11.6168
▁relationship	-11.6168
▁sentinel	-11.6168
▁shudder	-11.6168
▁sustain	-11.6168
▁vexation	-11.6168
DESTINATION	-11.6168
ISOLATE	-11.6168
PYREPL	-11.6168
▁2775	-11.6168
▁OverflowError	-11.6168
▁borrow	-11.6168
▁freedom	-11.6168
▁genius	-11.6168
▁glass	-11.6168
▁julian	-11.6168
▁valuable	-11.6168
▁voluntar	-11.6168
HTML	-11.6168
aeiou	-11.6168
pvdm	-11.6168
▁abbr	-11.6168
▁ashore	-11.6168
▁committed	-11.6168
[^\.]*	-11.6168
▁Paris	-11.6168
GHBAG	-11.6168
▁congratulations	-11.6168
album	-11.6168
▁variet	-11.6168
/$1/$	-11.6168
FIELD	-11.6168
symlink	-11.6168
▁govment	-11.6168
▁swim	-11.6168
Which	-11.6168
chrome	-11.6168
LearnAs	-11.6168
▁Heaven	-11.6168
▁interruption	-11.6168
▁declined	-11.6168
.[^.]*	-11.6168
▁Tell	-11.6168
▁lynx	-11.6168
▁AIX	-11.6168
▁silly	-11.6168
BITS	-11.6168
▁ntfs	-11.6168
▁renewed	-11.6168
▁$1,$2	-11.6168
▁CommandName	-11.6168
[/]\(	-11.6168
▁$6}'	-11.6168
▁temptation	-11.6168
PASSWORD	-11.6169
maven	-11.6169
andrewr	-11.6169
▁scalar	-11.6169
unbounded	-11.6169
▁intercourse	-11.6169
▁GetConsole	-11.6169
▁soothe	-11.6169
▁talent	-11.6169
▁Assume	-11.6169
threadsafe	-11.6169
▁Say	-11.6169
▁insist	-11.6169
▁gay	-11.6169
[^/]*\)	-11.6169
▁whilst	-11.6169
('-2')	-11.6169
▁+700	-11.6169
scala	-11.6169
▁lshw	-11.6169
874	-11.6169
Work	-11.6169
▁dreaded	-11.617
▁reduced	-11.617
▁joe	-11.617
▁performance	-11.617
($4,	-11.617
;$!	-11.617
:33	-11.617
▁converse	-11.617
▁edit	-11.6171
▁safety	-11.6171
▁coach	-11.6171
▁YourProgram	-11.6171
▁CPython	-11.6171
dedent	-11.6171
▁wordpress	-11.6172
▁reception	-11.6172
▁fifo	-11.6173
▁woe	-11.6173
??'	-11.6173
▁Never	-11.6174
definition	-11.6174
chomp	-11.6174
checkpoint	-11.6175
▁Letter	-11.6175
{1..5	-11.6175
▁Allow	-11.6175
▁vbox	-11.6175
▁propose	-11.6175
\([0-9]\	-11.6176
▁Once	-11.6176
\([0-9.]	-11.6176
}$.	-11.6176
mapper	-11.6176
▁remarkable	-11.6177
▁professor	-11.6177
▁mankind	-11.6178
▁portion	-11.6178
▁State	-11.6179
▁hunger	-11.6179
cpuset	-11.6179
▁extent	-11.618
splitlines	-11.618
▁slave	-11.618
▁vanished	-11.618
Fltr	-11.6181
[$1][	-11.6182
▁reality	-11.6182
▁puzzled	-11.6183
▁species	-11.6183
gitignore	-11.6183
▁Line	-11.6187
▁bitterly	-11.6189
INTER	-11.6189
▁grand	-11.6189
▁utterly	-11.619
▁resent	-11.619
▁jfs	-11.6191
/../../	-11.6193
\*\.	-11.6193
▁5**	-11.6194
▁seriously	-11.6194
▁^$	-11.6194
▁formatting	-11.6195
▁'"%	-11.6197
arcel	-11.6202
))[$	-11.6207
OVE	-11.6216
blk	-11.6216
ledge	-11.6216
Hash	-11.6246
curses	-11.6246
/(.*\	-11.625
[()]	-11.6258
ropbox	-11.6259
vimrc	-11.6263
$3==	-11.6265
consistent	-11.63
cleanup	-11.6306
grub	-11.6306
*2015	-11.6331
,2.2,2.	-11.6341
mysqldb	-11.6343
443	-11.6397
cfg	-11.6408
▁capital	-11.6426
▁sport	-11.6556
latin	-11.6584
rootfs	-11.6634
etstat	-11.667
remi	-11.6676
▁indulge	-11.6704
mtdbl	-11.6714
^[[:	-11.6726
everyone	-11.6775
Message	-11.6794
▁000	-11.6797
fma	-11.6798
rolled	-11.6852
thousands	-11.6895
acquire	-11.6934
feature	-11.6935
child	-11.6937
daylight	-11.6939
unexpected	-11.6939
may	-11.6942
pstree	-11.6942
etting	-11.696
▁dash	-11.6962
ccess	-11.6985
delay	-11.6996
▁weigh	-11.6996
ADD	-11.7068
esolution	-11.7072
protect	-11.7075
▁exert	-11.7076
SCHED	-11.7077
ALLOC	-11.7077
bracketed	-11.7077
Config	-11.7077
PACK	-11.7077
invocation	-11.7077
5341	-11.7077
MotionCommand	-11.7077
PFLAGS	-11.7077
Parameter	-11.7077
RELEASE	-11.7077
RawIOBase	-11.7077
SYNC	-11.7077
bucket	-11.7077
▁adventure	-11.7077
▁gloves	-11.7077
▁imprudent	-11.7077
▁inflict	-11.7077
▁mournful	-11.7077
▁shriek	-11.7077
▁steamboat	-11.7077
▁unpleasant	-11.7077
-1007')	-11.7077
Container	-11.7077
Continue	-11.7077
FutureCallGraph	-11.7077
GREEN	-11.7077
NegativeOne	-11.7077
PARSER	-11.7077
QUOTES	-11.7077
REMOTE	-11.7077
TERMINAL	-11.7077
gallery	-11.7077
multibytecodec	-11.7077
staticmethod	-11.7077
umbling	-11.7077
▁Pigeon	-11.7077
▁angrily	-11.7077
▁animated	-11.7077
▁animation	-11.7077
▁awakened	-11.7077
▁betray	-11.7077
▁circle	-11.7077
▁commission	-11.7077
▁despise	-11.7077
▁determination	-11.7077
▁disappeared	-11.7077
▁discuss	-11.7077
▁earliest	-11.7077
▁elopement	-11.7077
▁excessively	-11.7077
▁exclamation	-11.7077
▁inquiry	-11.7077
▁intimacy	-11.7077
▁maximum	-11.7077
▁obscure	-11.7077
▁ocean	-11.7077
▁overwhelm	-11.7077
▁perpetual	-11.7077
▁potential	-11.7077
▁ramble	-11.7077
▁swallow	-11.7077
▁thither	-11.7077
▁tongue	-11.7077
▁treasure	-11.7077
▁yonder	-11.7077
KERNEL	-11.7077
UNIX	-11.7077
YYYY	-11.7077
▁cordial	-11.7077
baudrate	-11.7077
knife	-11.7077
▁August	-11.7077
▁begged	-11.7077
▁capture	-11.7077
MATCH	-11.7077
▁ANSI	-11.7077
▁inspire	-11.7077
▁destiny	-11.7077
▁hesitate	-11.7077
▁agitated	-11.7077
▁region	-11.7077
▁terminate	-11.7077
parlour	-11.7078
▁1900	-11.7078
▁abort	-11.7078
WHITESPACE	-11.7078
▁Finn	-11.7078
CLASS	-11.7078
CPU	-11.7078
swift	-11.7078
▁route	-11.7078
NUM	-11.7078
▁shoes	-11.7078
▁abhorred	-11.7078
ATOM	-11.7078
▁Everything	-11.7078
▁liberal	-11.7078
histogram	-11.7078
▁intermixed	-11.7078
▁delicate	-11.7078
dollar	-11.7078
copied	-11.7078
▁creating	-11.7079
▁approve	-11.7079
▁discourse	-11.7079
BSD	-11.7079
▁gown	-11.7079
peak	-11.7079
▁Other	-11.708
TCP	-11.708
assignment	-11.708
▁desirable	-11.708
▁meditat	-11.708
▁successors	-11.708
▁parish	-11.7081
▁unequal	-11.7081
▁complexion	-11.7081
▁Print	-11.7081
▁cents	-11.7081
OTG	-11.7082
▁enthusiasm	-11.7082
DEV	-11.7083
▁expressive	-11.7084
▁heartily	-11.7084
▁income	-11.7084
▁chill	-11.7086
▁grace	-11.7086
▁xgettext	-11.7086
ZIP	-11.7087
▁preference	-11.7088
▁humanity	-11.7088
hpa	-11.7088
▁impatiently	-11.709
▁uncommonly	-11.709
[4]	-11.709
▁series	-11.709
▁tempted	-11.7091
▁doubtless	-11.7092
▁cost	-11.7092
▁careless	-11.7095
Thank	-11.7095
BIN	-11.7097
▁drag	-11.7099
hose	-11.7115
TimeRE	-11.7123
('0.1	-11.7125
team	-11.7132
59,	-11.7137
Help	-11.7147
ipped	-11.717
unpack	-11.721
validation	-11.7246
calculation	-11.7246
expdiff	-11.7248
esides	-11.7331
EST	-11.7344
ablerepo	-11.7404
▁clip	-11.7409
▁specifie	-11.7458
▁#####	-11.749
▁accidental	-11.7779
atalog	-11.7814
conv	-11.7834
sleep	-11.787
▁dwel	-11.7879
▁mutual	-11.7904
▁Tea	-11.7908
▁subparser	-11.7917
illa	-11.7932
extension	-11.7934
comparison	-11.7935
repeat	-11.7936
display	-11.7936
return	-11.7936
wood	-11.7936
written	-11.7937
why	-11.7938
stacklevel	-11.794
ython	-11.7988
instructions	-11.7993
▁perceiv	-11.8027
▁venture	-11.8029
▁experience	-11.8029
▁dependenc	-11.8033
single	-11.8041
OUND	-11.8048
▁hang	-11.8052
▁stretch	-11.8053
ecause	-11.8057
▁Key	-11.807
▁scar	-11.807
[1-9]	-11.8076
CHECK	-11.8077
UNICODE	-11.8077
DocXMLRPC	-11.8077
CONST	-11.8077
Collection	-11.8077
Coroutine	-11.8077
LONG	-11.8077
LogStream	-11.8077
Specializ	-11.8077
msgSend	-11.8077
▁embrac	-11.8077
LookupError	-11.8077
TextIOWrapper	-11.8077
libraries	-11.8077
milliseconds	-11.8077
umulative	-11.8077
▁House	-11.8077
▁Lambton	-11.8077
▁Margaret	-11.8077
▁REMAINDER	-11.8077
▁Reynolds	-11.8077
▁Special	-11.8077
▁Switzerland	-11.8077
▁Wednesday	-11.8077
▁amazement	-11.8077
▁announce	-11.8077
▁arrangement	-11.8077
▁autumn	-11.8077
▁benevolence	-11.8077
▁chimney	-11.8077
▁configuration	-11.8077
▁contrast	-11.8077
▁contrive	-11.8077
▁criminal	-11.8077
▁croquet	-11.8077
▁desolate	-11.8077
▁earlier	-11.8077
▁embarrassment	-11.8077
▁enterprise	-11.8077
▁fancied	-11.8077
▁fuzzy	-11.8077
▁gratify	-11.8077
▁hedgehog	-11.8077
▁ignoring	-11.8077
▁imprudence	-11.8077
▁inconvenience	-11.8077
▁inferior	-11.8077
▁injustice	-11.8077
▁kitchen	-11.8077
▁merchant	-11.8077
▁necessarily	-11.8077
▁philosopher	-11.8077
▁principle	-11.8077
▁scattered	-11.8077
▁secrecy	-11.8077
▁serpent	-11.8077
▁suspense	-11.8077
▁tumult	-11.8077
▁unlucky	-11.8077
▁whisky	-11.8077
DivisionByZero	-11.8077
▁Jackson	-11.8077
▁accomplishment	-11.8077
▁examined	-11.8077
▁falsehood	-11.8077
▁kissed	-11.8077
▁rabbit	-11.8077
▁rails	-11.8077
▁sixteen	-11.8077
▁traveller	-11.8077
minimumwidth	-11.8077
▁abominabl	-11.8077
▁guardian	-11.8077
▁maintain	-11.8077
▁scruple	-11.8077
Interest	-11.8077
gravity	-11.8077
▁WinError	-11.8077
▁lonesome	-11.8077
brackets	-11.8077
▁absurd	-11.8077
▁knock	-11.8077
medium	-11.8077
▁3600	-11.8077
▁peep	-11.8077
PREC	-11.8077
▁ParseError	-11.8077
▁Think	-11.8077
▁groan	-11.8077
▁huge	-11.8077
itemgetter	-11.8077
十	-11.8077
廿	-11.8077
▁precise	-11.8077
▁wealth	-11.8077
▁flirt	-11.8077
▁Turn	-11.8077
▁unicodedata	-11.8077
Express	-11.8078
MSG	-11.8078
▁replacement	-11.8078
▁frost	-11.8078
STOM	-11.8078
▁resist	-11.8078
TAG	-11.8078
Home	-11.8078
▁inches	-11.8078
▁miseries	-11.8078
pilot	-11.8078
▁busy	-11.8078
▁sailors	-11.8078
surmount	-11.8078
▁More	-11.8078
▁handling	-11.8078
▁duck	-11.8078
▁Also	-11.8078
Sendfile	-11.8079
▁cavern	-11.8079
▁admitted	-11.8079
pkgutil	-11.8079
drivers	-11.8079
▁slip	-11.8079
▁prize	-11.8079
CORE	-11.808
▁specification	-11.808
▁happiest	-11.808
▁nonnegative	-11.808
▁encouragement	-11.8081
▁distinction	-11.8081
▁carefully	-11.8081
▁fitted	-11.8081
▁poll	-11.8081
▁DWORD	-11.8081
▁summon	-11.8081
▁entreaties	-11.8082
PROTO	-11.8082
eventqueue	-11.8082
1101)	-11.8082
▁weakness	-11.8084
▁cheerfulness	-11.8084
▁Etop	-11.8085
▁painted	-11.8086
hashlib	-11.8086
iron	-11.8088
▁textwrap	-11.8089
+2')	-11.809
======	-11.8094
▁brav	-11.8096
ulous	-11.8096
diag	-11.8105
▁precede	-11.8114
assuming	-11.8149
usable	-11.8149
▁cele	-11.8152
datagram	-11.8163
gram	-11.8165
Thread	-11.8197
}>'	-11.8206
Reset	-11.8225
▁Hav	-11.8241
DecimalException	-11.8285
▁XII	-11.838
▁VII	-11.8387
humbs	-11.8409
▁swa	-11.8423
validate	-11.8424
rticles	-11.8484
([0-9	-11.8521
\2/'	-11.8528
orbi	-11.854
commit	-11.855
▁truncat	-11.8661
*1"	-11.8711
INIT	-11.8834
▁Ski	-11.8905
job	-11.8931
▁Raw	-11.8951
.1,2.2	-11.896
▁*/*/*	-11.9009
123456	-11.9013
decolor	-11.9022
either	-11.9045
anaconda	-11.9045
compatible	-11.9045
additional	-11.9045
blue	-11.9046
literal	-11.9046
SUPPRESS	-11.9046
twenty	-11.9046
regular	-11.9046
private	-11.9047
Some	-11.9047
abstract	-11.9047
UTC	-11.9047
ffmpeg	-11.9047
nohup	-11.9048
yield	-11.9048
Lady	-11.9049
Nothing	-11.9049
▁Has	-11.9091
vora	-11.9119
$3}'	-11.9126
▁engage	-11.914
▁cease	-11.9141
:]]*$	-11.9147
▁rush	-11.9165
▁ensu	-11.9175
]*$//'	-11.9176
GLOBAL	-11.918
/\.\/	-11.9184
▁serve	-11.9186
Proactor	-11.9188
atitude	-11.9188
▁horri	-11.9188
fastq	-11.9188
meCallGraphEntry	-11.9188
xmlrpc	-11.9188
.*$/\1/	-11.9188
FLOAT	-11.9188
PANEL	-11.9188
▁yyyy	-11.9188
CHUNK	-11.9188
CONTEXT	-11.9188
RECORD	-11.9188
SUPER	-11.9188
gnuplot	-11.9188
▁'2014-0	-11.9188
▁VARIABLE	-11.9188
Column	-11.9188
ContextManager	-11.9188
POLL	-11.9188
TermState	-11.9188
dimensions	-11.9188
regorian	-11.9188
▁BufferedWriter	-11.9188
▁Parts	-11.9188
▁cautious	-11.9188
▁cultivat	-11.9188
▁discern	-11.9188
▁indignant	-11.9188
▁throat	-11.9188
($1=="	-11.9188
('123456789')	-11.9188
('2.17')	-11.9188
([0-9]{4})	-11.9188
){3}[0-9]{1,3}"	-11.9188
,"",$3);	-11.9188
,$2,";"}	-11.9188
/2012/	-11.9188
0.0.0.	-11.9188
255.255	-11.9188
@^@	-11.9188
Certainly	-11.9188
EXCEPTIONS	-11.9188
EXCLUDE	-11.9188
FINISHED	-11.9188
GetLastError	-11.9188
Gracechurch	-11.9188
Modified	-11.9188
SERVER	-11.9188
Video	-11.9188
WORKSTATION	-11.9188
YELLOW	-11.9188
[0-9]\{1,2\}	-11.9188
\([0-9]\{2\}\)	-11.9188
\.[^\.]+$	-11.9188
arranging	-11.9188
bukovina	-11.9188
catalina	-11.9188
enkins	-11.9188
evelopment	-11.9188
ivisionUndefined	-11.9188
netinst	-11.9188
noreport	-11.9188
orschiro	-11.9188
|/[^/]*$||'	-11.9188
к	-11.9188
т	-11.9188
▁'^.*/[	-11.9188
▁10.10.0.255	-11.9188
▁1>&2	-11.9188
▁2012|	-11.9188
▁20238	-11.9188
▁@8.8.8.8	-11.9188
▁Buck	-11.9188
▁IndexError	-11.9188
▁January	-11.9188
▁Jenkinson	-11.9188
▁Krempe	-11.9188
▁Lacey	-11.9188
▁Waldman	-11.9188
▁abandoned	-11.9188
▁alternative	-11.9188
▁approbation	-11.9188
▁architecture	-11.9188
▁assembled	-11.9188
▁automatic	-11.9188
▁beauties	-11.9188
▁bloom	-11.9188
▁changing	-11.9188
▁develope	-11.9188
▁elapsed	-11.9188
▁elegance	-11.9188
▁enemies	-11.9188
▁exquisite	-11.9188
▁magnificent	-11.9188
▁mischief	-11.9188
▁monstrous	-11.9188
▁nocasematch	-11.9188
▁obligation	-11.9188
▁ordinary	-11.9188
▁overridden	-11.9188
▁penetrate	-11.9188
▁problem	-11.9188
▁propriety	-11.9188
▁provoke	-11.9188
▁raising	-11.9188
▁refusal	-11.9188
▁savage	-11.9188
▁separation	-11.9188
▁situated	-11.9188
▁solicitude	-11.9188
▁stuck	-11.9188
▁studied	-11.9188
▁sympathise	-11.9188
▁symptom	-11.9188
▁terrific	-11.9188
▁timidly	-11.9188
▁truck	-11.9188
▁uneasiness	-11.9188
$1,$2)	-11.9188
BufferedIOMixin	-11.9188
ByteString	-11.9188
SPEC	-11.9188
Semaphore	-11.9188
[24~":"	-11.9188
broadcast	-11.9188
energy	-11.9188
stitute	-11.9188
▁'\000	-11.9188
▁*/201111	-11.9188
▁1858	-11.9188
▁Knave	-11.9188
▁ambition	-11.9188
▁majest	-11.9188
▁mamma	-11.9188
▁refuge	-11.9188
▁satisfactory	-11.9188
▁sweat	-11.9188
('1.3')	-11.9188
gateway	-11.9188
▁'.#*'	-11.9188
▁SDK	-11.9188
▁indebted	-11.9188
▁malice	-11.9188
.*/\2/	-11.9188
20140	-11.9188
6.3.3/	-11.9188
:).*?(?=	-11.9188
CASE	-11.9188
disablerepo	-11.9188
▁excludeddir	-11.9188
▁glory	-11.9188
▁persist	-11.9188
▁pyrg	-11.9188
▁subsist	-11.9188
eyeballs	-11.9188
▁XXV	-11.9188
▁macver	-11.9188
▁quantity	-11.9188
##*/}	-11.9188
/[^0-9]	-11.9188
ExampleClass	-11.9188
▁${2:-	-11.9188
▁Hill	-11.9188
▁commendation	-11.9188
▁unfolded	-11.9188
й	-11.9189
▁feverish	-11.9189
▁nounset	-11.9189
▁swear	-11.9189
uplicate	-11.9189
▁crack	-11.9189
▁milk	-11.9189
=","}	-11.9189
MASTER	-11.9189
▁dignity	-11.9189
▁nameoffile	-11.9189
/^([^	-11.9189
PNG	-11.9189
htaccess	-11.9189
Change	-11.9189
blabla	-11.9189
▁",$7	-11.9189
▁gang	-11.9189
COMPA	-11.9189
Pickle	-11.9189
▁shouted	-11.9189
▁1670	-11.9189
evaluation	-11.9189
/2013	-11.9189
"-----------	-11.9189
▁resemblance	-11.9189
65000	-11.9189
\1_\2	-11.9189
▁MYVAR	-11.9189
[12]	-11.9189
2013120	-11.9189
edefg	-11.9189
▁contribute	-11.9189
▁Need	-11.9189
DIST	-11.9189
transient	-11.9189
▁\".*	-11.9189
TIMEOUT	-11.9189
Basic	-11.9189
▁indulgence	-11.9189
==16482	-11.9189
FunctionType	-11.9189
ispell	-11.9189
▁keycodes	-11.9189
STATUS	-11.9189
▁softened	-11.9189
Image	-11.9189
[!.]*	-11.9189
▁punishment	-11.9189
/**/*	-11.919
▁stern	-11.919
sitebuiltins	-11.919
$1=$1	-11.919
:]]\	-11.919
BACKUP	-11.919
dumb	-11.919
\{3\}	-11.919
network	-11.919
kase	-11.919
▁unnatural	-11.919
>1{	-11.919
▁biglogfile	-11.919
="9"	-11.919
zah	-11.919
▁neat	-11.9191
▁infant	-11.9191
ARGV	-11.9191
Icon	-11.9191
symbolic	-11.9191
recv	-11.9191
:)?(	-11.9191
ipcam	-11.9191
repolist	-11.9192
▁errexit	-11.9192
▁sorrowful	-11.9192
/^\([^	-11.9192
tobeexclude	-11.9192
▁becoming	-11.9192
$/\1/'	-11.9193
.*~$	-11.9193
leaf	-11.9193
conquer	-11.9193
▁lift	-11.9193
tcgetattr	-11.9193
Both	-11.9193
▁solemnity	-11.9193
vrtl	-11.9193
gpio	-11.9193
profit	-11.9194
808	-11.9194
[1;3	-11.9194
PLO	-11.9195
hpp	-11.9195
",$1)	-11.9196
+2]	-11.9197
Feb	-11.9198
▁Rig	-11.9198
ragged	-11.9201
\1/;	-11.9202
bang	-11.9202
FUL	-11.9203
▁17—.	-11.9203
uops	-11.9204
/\.\///	-11.9204
▁Lib	-11.9205
▁".*\.$	-11.9208
xsel	-11.9211
cloth	-11.9212
\3\	-11.9214
Tim	-11.9214
192.168.0.	-11.9214
(":")	-11.9219
IZED	-11.922
("{"	-11.9224
▁XLI	-11.9228
.*/\(	-11.9231
$((${	-11.9239
octave	-11.9255
0-9]*\)	-11.9264
OUNT	-11.9266
overwrit	-11.9292
\.\(	-11.9292
eemed	-11.9307
▁threaten	-11.9341
InHandle	-11.9368
]+/,	-11.937
subparsers	-11.9375
{1..	-11.9379
▁flash	-11.9408
reasonably	-11.9417
▁pet	-11.9491
calculate	-11.9708
▁poo	-11.9872
9996	-11.9948
etitem	-12.0153
resently	-12.0155
lro	-12.02
located	-12.0293
Raise	-12.0295
Found	-12.0295
attach	-12.0295
GNU	-12.0295
sequence	-12.0296
gmtoff	-12.0296
API	-12.0298
tmux	-12.0298
break	-12.0298
until	-12.0299
little	-12.0299
Jim	-12.0299
anything	-12.0299
creation	-12.03
their	-12.0301
isoweek	-12.0359
cluded	-12.0361
▁tremble	-12.039
▁conclude	-12.0391
▁acknowledge	-12.0391
▁excite	-12.0393
▁condemn	-12.0413
▁forbid	-12.0431
▁easi	-12.0433
:59	-12.0435
verride	-12.0437
▁despond	-12.0438
interpolation	-12.0438
BufferedIOBase	-12.0438
INSTALL	-12.0438
OptionError	-12.0438
SCREEN	-12.0438
Translat	-12.0438
historical	-12.0438
unterminated	-12.0438
▁Raft	-12.0438
▁lecture	-12.0438
▁primitive	-12.0438
▁punctual	-12.0438
▁sensitive	-12.0438
▁singular	-12.0438
▁subsequent	-12.0438
▁switch	-12.0438
▁syllable	-12.0438
24*3600)	-12.0438
ARCHFLAGS	-12.0438
CEILING	-12.0438
CYAN	-12.0438
FloatOperation	-12.0438
LANG	-12.0438
MODULUS	-12.0438
MandatoryRelease	-12.0438
NodeVisitor	-12.0438
SYMLINK	-12.0438
ScreenBufferInfo	-12.0438
educated	-12.0438
ercentage	-12.0438
tête	-12.0438
▁Agrippa	-12.0438
▁Goshen	-12.0438
▁Rogers	-12.0438
▁Walton	-12.0438
▁advisable	-12.0438
▁arithmetic	-12.0438
▁ceremony	-12.0438
▁circula	-12.0438
▁clergyman	-12.0438
▁condescension	-12.0438
▁convenience	-12.0438
▁dissipate	-12.0438
▁distutils	-12.0438
▁ecstasy	-12.0438
▁elbow	-12.0438
▁eloquence	-12.0438
▁engaging	-12.0438
▁engross	-12.0438
▁flutter	-12.0438
▁folks	-12.0438
▁gallantry	-12.0438
▁gathered	-12.0438
▁glacier	-12.0438
▁governess	-12.0438
▁immortal	-12.0438
▁impertinence	-12.0438
▁impertinent	-12.0438
▁improbable	-12.0438
▁irksome	-12.0438
▁magnitude	-12.0438
▁mortification	-12.0438
▁multiplication	-12.0438
▁mushroom	-12.0438
▁poetry	-12.0438
▁precipita	-12.0438
▁reciprocal	-12.0438
▁refrain	-12.0438
▁romantic	-12.0438
▁scratch	-12.0438
▁shrink	-12.0438
▁stirring	-12.0438
▁survive	-12.0438
▁thorough	-12.0438
▁timber	-12.0438
▁underneath	-12.0438
▁vulgar	-12.0438
▁wigwam	-12.0438
▁wondrous	-12.0438
KeymapTranslator	-12.0438
▁Hooker	-12.0438
▁capability	-12.0438
▁examining	-12.0438
▁oppressed	-12.0438
▁plenty	-12.0438
▁refusing	-12.0438
▁strike	-12.0438
▁yawn	-12.0438
▁Blanc	-12.0438
▁deformity	-12.0438
▁intense	-12.0438
▁pistol	-12.0438
COLOR	-12.0438
▁Callback	-12.0438
▁busily	-12.0438
▁consummat	-12.0438
▁simply	-12.0438
▁SyntaxError	-12.0438
▁dawn	-12.0438
poison	-12.0438
▁basic	-12.0438
▁golden	-12.0438
▁allusion	-12.0438
▁league	-12.0438
▁harsh	-12.0439
▁honest	-12.0439
MASK	-12.0439
▁utility	-12.0439
▁discharg	-12.0439
robot	-12.0439
▁justify	-12.0439
▁Missouri	-12.0439
▁vexed	-12.0439
▁detain	-12.0439
▁texas	-12.0439
▁pygettext	-12.0439
GMT	-12.0439
▁gray	-12.0439
▁steal	-12.0439
▁Doctor	-12.0439
▁Lost	-12.0439
▁allocated	-12.0439
▁repent	-12.0439
▁modesty	-12.0439
▁destined	-12.0439
▁crown	-12.0439
▁oldscr	-12.0439
▁Most	-12.0439
exchanged	-12.0439
ProactorBase	-12.0439
Back	-12.0439
STATIC	-12.0439
bonnet	-12.0439
('-10')	-12.0439
LIMITED	-12.0439
▁Footman	-12.0439
▁drain	-12.0439
1,2,3	-12.0439
▁Pass	-12.0439
▁shining	-12.0439
▁vines	-12.044
▁hut	-12.044
▁EDT	-12.044
▁logging	-12.044
▁logged	-12.044
('-3')	-12.044
▁fidget	-12.044
▁shelter	-12.044
allocations	-12.0441
TERNAL	-12.0441
▁fury	-12.0441
interact	-12.0443
locline	-12.0443
Sure	-12.0444
BOM	-12.0444
withstand	-12.0445
readahead	-12.0447
MiB	-12.0447
[6]	-12.0455
simplefilter	-12.0462
▁substan	-12.0464
Something	-12.0469
▁condescend	-12.0472
▁langu	-12.0483
wakeup	-12.0518
▁doze	-12.0533
INCLUDE	-12.0547
price	-12.0574
#!/	-12.0637
scended	-12.1214
marked	-12.1358
jail	-12.1615
difference	-12.1676
expect	-12.1702
collect	-12.1722
DATA	-12.1724
third	-12.1724
multiline	-12.1724
branch	-12.1724
ideal	-12.1724
jury	-12.1725
fallback	-12.1725
except	-12.1725
Huck	-12.1726
operand	-12.1727
could	-12.1727
tories	-12.1776
solve	-12.1794
NAM	-12.1814
▁oblige	-12.182
▁Memory	-12.1822
▁interprete	-12.184
▁puzzl	-12.1842
Release	-12.1863
ngaged	-12.1863
▁quest	-12.1865
LIMIT	-12.1866
▁abhor	-12.1866
SQLITE	-12.1867
cluster	-12.1867
-3.14.6	-12.1867
LEVEL	-12.1867
UNIVERSAL	-12.1867
YIELD	-12.1867
mutated	-12.1867
symmetr	-12.1867
testlimitedcapi	-12.1867
COORD	-12.1867
EXTENSION	-12.1867
FUNCTION	-12.1867
ONLY	-12.1867
RIGHT	-12.1867
abcdefg	-12.1867
emscripten	-12.1867
▁POINTER	-12.1867
('101.5')	-12.1867
57600	-12.1867
America	-12.1867
BaseEventQueue	-12.1867
CACHE	-12.1867
Farewell	-12.1867
IGNORE	-12.1867
KillCommand	-12.1867
Optimize	-12.1867
OutHandle	-12.1867
PACKAGE	-12.1867
Reference	-12.1867
RuntimeWarning	-12.1867
Stephen	-12.1867
Structure	-12.1867
TermInfo	-12.1867
Variable	-12.1867
[1:-1]	-12.1867
nrecognized	-12.1867
opAsyncIteration	-12.1867
otAvailableError	-12.1867
tparm	-12.1867
ultimate	-12.1867
à	-12.1867
è	-12.1867
▁Beaufort	-12.1867
▁Charles	-12.1867
▁Christmas	-12.1867
▁Eastern	-12.1867
▁Expansion	-12.1867
▁Lodge	-12.1867
▁Moritz	-12.1867
▁PYTHONDUMPREFS	-12.1867
▁Packard	-12.1867
▁Remember	-12.1867
▁ResourceWarning	-12.1867
▁RowCalculator	-12.1867
▁Sarah	-12.1867
▁SetConsoleMode	-12.1867
▁Similar	-12.1867
▁Thursday	-12.1867
▁activity	-12.1867
▁admirable	-12.1867
▁adversary	-12.1867
▁apology	-12.1867
▁assumption	-12.1867
▁bushes	-12.1867
▁conceited	-12.1867
▁confident	-12.1867
▁convenient	-12.1867
▁delirium	-12.1867
▁desperate	-12.1867
▁disadvantage	-12.1867
▁disapprobation	-12.1867
▁disguise	-12.1867
▁eligible	-12.1867
▁embarrassed	-12.1867
▁encouraging	-12.1867
▁epoch	-12.1867
▁extensive	-12.1867
▁forcibly	-12.1867
▁glimpse	-12.1867
▁government	-12.1867
▁guinea	-12.1867
▁immense	-12.1867
▁independence	-12.1867
▁infinities	-12.1867
▁intermediate	-12.1867
▁laboratory	-12.1867
▁lazy	-12.1867
▁malignity	-12.1867
▁nerves	-12.1867
▁numerous	-12.1867
▁palace	-12.1867
▁patroness	-12.1867
▁portrait	-12.1867
▁practical	-12.1867
▁pretension	-12.1867
▁requiring	-12.1867
▁sublime	-12.1867
▁travelling	-12.1867
▁tremendous	-12.1867
▁trifling	-12.1867
▁twinkling	-12.1867
▁unreasonable	-12.1867
▁welfare	-12.1867
Barrier	-12.1867
Execut	-12.1867
Project	-12.1867
ReadConsoleInput	-12.1867
VIRTUAL	-12.1867
identifier	-12.1867
specializable	-12.1867
survey	-12.1867
▁CTRL	-12.1867
▁Rhine	-12.1867
▁abroad	-12.1867
▁berries	-12.1867
▁brass	-12.1867
▁characteristic	-12.1867
▁childhood	-12.1867
▁daisy	-12.1867
▁descent	-12.1867
▁jealous	-12.1867
▁serene	-12.1867
▁silver	-12.1867
▁supposition	-12.1867
▁arranged	-12.1867
▁enchant	-12.1867
▁justified	-12.1867
▁predicate	-12.1867
▁unaffected	-12.1867
▁university	-12.1867
▁withdrew	-12.1867
REQUIRED	-12.1867
SLOT	-12.1867
▁travelled	-12.1867
alaxy	-12.1867
macosx	-12.1867
▁clasp	-12.1867
▁generation	-12.1867
▁macrelease	-12.1867
▁shrill	-12.1867
▁signature	-12.1867
lzma	-12.1867
▁patient	-12.1867
▁puppy	-12.1867
DOUBLE	-12.1867
testcapi	-12.1867
▁France	-12.1867
▁renewal	-12.1867
▁repaired	-12.1867
('3.14')	-12.1867
Control	-12.1867
.333	-12.1867
▁mutable	-12.1867
Known	-12.1867
OGN	-12.1867
▁Currently	-12.1867
Local	-12.1867
▁(+-)	-12.1867
▁hellish	-12.1867
▁obey	-12.1867
▁Still	-12.1867
breeding	-12.1867
▁plead	-12.1867
▁opposed	-12.1867
▁deference	-12.1867
▁stiff	-12.1867
Binary	-12.1867
▁stature	-12.1867
kwds	-12.1867
▁trapped	-12.1867
gnome	-12.1867
▁behaved	-12.1867
▁decay	-12.1867
▁haunt	-12.1867
Second	-12.1867
ague	-12.1868
▁invoke	-12.1868
Balum	-12.1868
▁Till	-12.1868
{1,2}	-12.1868
increfs	-12.1868
▁plate	-12.1868
ernier	-12.1868
▁studio	-12.1868
▁trifle	-12.1869
Load	-12.1869
▁degrad	-12.1869
▁emulat	-12.187
('12')	-12.187
hattered	-12.187
decrefs	-12.1871
isocalendar	-12.1872
univers	-12.1873
coppi	-12.1876
grade	-12.1896
▁poke	-12.1901
histlin	-12.1933
2000000	-12.1935
hoverin	-12.1959
phant	-12.2031
crashe	-12.2045
bench	-12.2077
igging	-12.2096
246	-12.2106
$2}	-12.2355
PROCES	-12.2653
ootman	-12.2688
ETENT	-12.2743
READLIN	-12.2769
▁'*201	-12.3204
sciences	-12.3245
▁enumerat	-12.3251
petition	-12.3295
▁1.1,1.2,1.3,	-12.3332
KeySpec	-12.339
$11}'	-12.339
deploy	-12.3391
▁bird	-12.3391
TODO	-12.3391
exists	-12.3391
bytearray	-12.3391
school	-12.3392
yesterday	-12.3392
remember	-12.3393
feeling	-12.3393
friends	-12.3394
0-9]\+\.[0-9]\+\	-12.3418
xtract	-12.3505
▁vanish	-12.3509
▁profess	-12.3512
▁Writ	-12.3517
▁entire	-12.3524
etween	-12.3526
/^.\{	-12.3531
▁punish	-12.3532
▁interfere	-12.3533
MacVim	-12.3534
:]{2}\	-12.3534
BOOT	-12.3534
redhat	-12.3534
м	-12.3534
??-??	-12.3534
\(.\{15\}\).	-12.3534
INSTANCE	-12.3534
LOCAL	-12.3534
ú	-12.3534
▁/\*\*/	-12.3534
▁CURRENT	-12.3534
BrokenBarrier	-12.3534
EPOCH	-12.3534
KEYWORDS	-12.3534
OPTIONS	-12.3534
STACK	-12.3534
articula	-12.3534
registries	-12.3534
srWindow	-12.3534
GENERAL	-12.3534
ToExclude	-12.3534
\[.*\]	-12.3534
jsmith	-12.3534
‐	-12.3534
▁"2014-0	-12.3534
▁EventQueue	-12.3534
▁HIST	-12.3534
DIGIT	-12.3534
KeysView	-12.3534
NotFoundError	-12.3534
QUEUE	-12.3534
SHIFT	-12.3534
SLICE	-12.3534
lineAlikeReader	-12.3534
weblogic	-12.3534
▁ModuleCompleter	-12.3534
▁SHORT	-12.3534
▁Swift	-12.3534
▁abrupt	-12.3534
▁accurate	-12.3534
▁apprehend	-12.3534
▁barbarous	-12.3534
▁contradict	-12.3534
▁distrust	-12.3534
▁faithful	-12.3534
▁grievous	-12.3534
▁kingdom	-12.3534
▁unusual	-12.3534
${1##*/}	-12.3534
('0.00')	-12.3534
(.*));.*\?>	-12.3534
(<>){	-12.3534
*.???"	-12.3534
.119.175.48:8909	-12.3534
/[^/]\+	-12.3534
/\{\}	-12.3534
1.2,1.3	-12.3534
2.4,2.5	-12.3534
86_64'	-12.3534
ArgumentGroup	-12.3534
BLACK	-12.3534
Beautiful	-12.3534
ConversionSyntax	-12.3534
DELIMITER	-12.3534
Documents	-12.3534
EditCommand	-12.3534
FAILED	-12.3534
ForSingleObject	-12.3534
INDENT	-12.3534
ITLIM	-12.3534
JUKEBOX	-12.3534
LoopBoundMixin	-12.3534
ModuleInfo	-12.3534
PRIORITY	-12.3534
REASON	-12.3534
RESETTING	-12.3534
RESUME	-12.3534
STAMP	-12.3534
SUFFIX	-12.3534
ThemeSection	-12.3534
TokenInfo	-12.3534
Views	-12.3534
WINCH	-12.3534
[0-9]{2,4}	-12.3534
\([^)]*\)	-12.3534
\+:\	-12.3534
abbrev	-12.3534
adequate	-12.3534
ambiguous	-12.3534
bstractEventLoop	-12.3534
channels	-12.3534
dweet	-12.3534
iTunesArtwork	-12.3534
impropriety	-12.3534
javaUsrLib	-12.3534
joomla	-12.3534
kundendienst	-12.3534
license	-12.3534
myArray	-12.3534
qualified	-12.3534
quisition	-12.3534
recognised	-12.3534
schemas	-12.3534
sigwinch	-12.3534
soleScreenBuffer	-12.3534
testclinic	-12.3534
visionImpossible	-12.3534
{1,2,3,4	-12.3534
{1,2,3}	-12.3534
¤	-12.3534
­	-12.3534
▁"/[^/]{0,24}$"	-12.3534
▁$((1024*1024	-12.3534
▁'{$1="";	-12.3534
▁([^)]*)$/	-12.3534
▁+$/,"")}1'	-12.3534
▁1.1,1.2,	-12.3534
▁1316256	-12.3534
▁2007-06-0	-12.3534
▁2013-12-0	-12.3534
▁2014-08-2	-12.3534
▁2655341	-12.3534
▁=",$0}'	-12.3534
▁Christian	-12.3534
▁Completer	-12.3534
▁Cornelius	-12.3534
▁DIGLIM	-12.3534
▁Duke	-12.3534
▁ExpectedResult	-12.3534
▁Field	-12.3534
▁General	-12.3534
▁Leghorn	-12.3534
▁Lizard	-12.3534
▁Lobster	-12.3534
▁Options	-12.3534
▁\*\\?\*	-12.3534
▁abilities	-12.3534
▁accusation	-12.3534
▁acknowledgment	-12.3534
▁analysis	-12.3534
▁appetite	-12.3534
▁associated	-12.3534
▁caution	-12.3534
▁channel	-12.3534
▁cheered	-12.3534
▁chemical	-12.3534
▁computation	-12.3534
▁conjure	-12.3534
▁critical	-12.3534
▁desolation	-12.3534
▁displeasure	-12.3534
▁dungeon	-12.3534
▁elephants	-12.3534
▁envelope	-12.3534
▁estimation	-12.3534
▁flamingo	-12.3534
▁forbearance	-12.3534
▁fortitude	-12.3534
▁furnish	-12.3534
▁gigantic	-12.3534
▁glorious	-12.3534
▁horizon	-12.3534
▁imitate	-12.3534
▁inquiring	-12.3534
▁insensible	-12.3534
▁integrity	-12.3534
▁intellect	-12.3534
▁intolerable	-12.3534
▁jewel	-12.3534
▁likelihood	-12.3534
▁matrimony	-12.3534
▁mercenary	-12.3534
▁militia	-12.3534
▁million	-12.3534
▁mirac	-12.3534
▁mockery	-12.3534
▁mortifie	-12.3534
▁mortifying	-12.3534
▁multiplied	-12.3534
▁murmur	-12.3534
▁narrative	-12.3534
▁noclobber	-12.3534
▁novelty	-12.3534
▁obliging	-12.3534
▁obvious	-12.3534
▁pepper	-12.3534
▁perverseness	-12.3534
▁placid	-12.3534
▁presumption	-12.3534
▁privilege	-12.3534
▁promising	-12.3534
▁prudent	-12.3534
▁regulate	-12.3534
▁repository	-12.3534
▁restriction	-12.3534
▁ridicule	-12.3534
▁rpmfusion	-12.3534
▁scientific	-12.3534
ñ	-12.3534
в	-12.3534
д	-12.3534
一	-12.8034
я	-13.1367
ф	-13.1367
╲	-13.1367
«	-13.1367
»	-13.1367
é	-13.1367
г	-13.1367
л	-13.1367
у	-13.1367
′	-13.1367
╱	-13.1367
九	-13.1367
後	-13.1367
七	-13.1367
八	-13.1367
六	-13.1367
四	-13.1367
р	-13.1367
三	-13.1367
二	-13.1367
五	-13.1367
前	-13.1367
ê	-13.6367
·	-13.6367
æ	-13.6367
ô	-13.6367
ö	-13.6367
卅	-13.6367
置	-14.6365
換	-14.6366
–	-14.6367
â	-14.6367
ù	-14.6367
İ	-14.6367
œ	-14.6367
“	-14.6368
〇	-14.6368
