<pad>	0
<s>	0
</s>	0
<unk>	0
▁-	-0
in	-1
▁t	-2
▁f	-3
▁a	-4
he	-5
▁s	-6
re	-7
me	-8
on	-9
er	-10
at	-11
▁w	-12
ind	-13
▁c	-14
le	-15
or	-16
▁find	-17
▁the	-18
ar	-19
▁d	-20
ou	-21
nd	-22
▁|	-23
is	-24
it	-25
▁"	-26
▁'	-27
ame	-28
▁b	-29
el	-30
ed	-31
▁o	-32
▁m	-33
ec	-34
st	-35
ex	-36
name	-37
pe	-38
ing	-39
▁h	-40
al	-41
▁p	-42
en	-43
▁to	-44
▁.	-45
ty	-46
▁and	-47
as	-48
▁n	-49
int	-50
ot	-51
▁/	-52
▁of	-53
▁re	-54
an	-55
▁g	-56
type	-57
▁l	-58
elf	-59
pr	-60
ion	-61
ad	-62
▁I	-63
et	-64
▁th	-65
es	-66
▁in	-67
▁=	-68
▁he	-69
▁i	-70
▁\	-71
de	-72
ho	-73
ce	-74
mp	-75
ut	-76
{}	-77
ir	-78
ile	-79
▁r	-80
print	-81
ll	-82
ur	-83
exec	-84
*.	-85
ic	-86
arg	-87
▁{}	-88
se	-89
▁$	-90
▁be	-91
▁self	-92
▁1	-93
nt	-94
▁y	-95
om	-96
ld	-97
ow	-98
ver	-99
▁u	-100
▁if	-101
ac	-102
ort	-103
pt	-104
args	-105
ve	-106
▁is	-107
ig	-108
▁#	-109
▁x	-110
▁de	-111
ly	-112
▁\;	-113
rep	-114
one	-115
._	-116
od	-117
id	-118
▁for	-119
▁was	-120
▁“	-121
▁not	-122
▁it	-123
▁_	-124
▁e	-125
ime	-126
▁+	-127
lo	-128
▁xargs	-129
ay	-130
▁you	-131
▁that	-132
im	-133
self	-134
her	-135
▁T	-136
ab	-137
urn	-138
ent	-139
):	-140
▁as	-141
▁grep	-142
00	-143
▁my	-144
▁st	-145
ith	-146
us	-147
ht	-148
▁her	-149
▁so	-150
ch	-151
ext	-152
xt	-153
▁an	-154
▁con	-155
▁me	-156
▁ret	-157
un	-158
▁wh	-159
▁with	-160
ma	-161
ter	-162
ath	-163
▁return	-164
dir	-165
▁su	-166
▁M	-167
ke	-168
iz	-169
ct	-170
ould	-171
▁def	-172
ss	-173
ue	-174
▁on	-175
ri	-176
txt	-177
file	-178
oo	-179
▁"$	-180
ation	-181
▁ha	-182
▁N	-183
▁file	-184
th	-185
▁"*.	-186
ate	-187
our	-188
ff	-189
▁--	-190
out	-191
ul	-192
""	-193
▁pr	-194
()	-195
▁A	-196
il	-197
path	-198
▁v	-199
▁she	-200
co	-201
▁had	-202
ect	-203
▁ex	-204
▁(	-205
▁his	-206
▁we	-207
per	-208
▁co	-209
▁ch	-210
__	-211
ag	-212
▁at	-213
ore	-214
▁S	-215
um	-216
▁le	-217
str	-218
▁tr	-219
▁D	-220
ill	-221
ment	-222
rom	-223
ew	-224
▁2	-225
red	-226
",	-227
▁aw	-228
echo	-229
to	-230
▁sh	-231
os	-232
ck	-233
am	-234
pth	-235
▁E	-236
pp	-237
te	-238
time	-239
▁0	-240
▁C	-241
ass	-242
▁B	-243
ain	-244
▁all	-245
▁rm	-246
▁by	-247
▁but	-248
▁se	-249
▁'*.	-250
so	-251
▁sort	-252
and	-253
all	-254
ich	-255
')	-256
':	-257
ight	-258
sh	-259
ist	-260
ror	-261
▁>	-262
if	-263
ess	-264
▁<	-265
ine	-266
▁do	-267
▁or	-268
text	-269
▁int	-270
able	-271
▁None	-272
qu	-273
▁sed	-274
▁un	-275
ize	-276
▁sa	-277
▁The	-278
art	-279
▁-0	-280
▁no	-281
▁W	-282
▁k	-283
con	-284
▁from	-285
.”	-286
▁H	-287
▁have	-288
ure	-289
mod	-290
cl	-291
ard	-292
.*	-293
▁ls	-294
▁echo	-295
▁awk	-296
',	-297
ise	-298
depth	-299
ther	-300
}'	-301
li	-302
▁him	-303
ast	-304
ust	-305
▁"""	-306
ory	-307
▁whe	-308
▁%	-309
ite	-310
ser	-311
▁ar	-312
ack	-313
▁el	-314
ra	-315
ult	-316
ip	-317
▁which	-318
max	-319
▁F	-320
very	-321
ound	-322
▁*	-323
oug	-324
ire	-325
('	-326
▁j	-327
ase	-328
ive	-329
▁-1	-330
▁ra	-331
▁this	-332
==	-333
iv	-334
▁te	-335
av	-336
▁other	-337
▁L	-338
sp	-339
ount	-340
oc	-341
mtime	-342
read	-343
imal	-344
")	-345
▁str	-346
▁read	-347
size	-348
maxdepth	-349
▁said	-350
iname	-351
--	-352
ant	-353
op	-354
▁Mr	-355
ecimal	-356
[0	-357
ance	-358
su	-359
home	-360
tmp	-361
▁al	-362
wn	-363
act	-364
mple	-365
ption	-366
ell	-367
▁who	-368
end	-369
▁`	-370
▁en	-371
▁time	-372
▁!	-373
for	-374
rror	-375
ro	-376
alue	-377
▁$(	-378
▁sp	-379
Error	-380
▁'{	-381
ink	-382
▁ne	-383
▁could	-384
▁chmod	-385
age	-386
ction	-387
ap	-388
▁some	-389
▁would	-390
▁{	-391
perm	-392
▁they	-393
ER	-394
ong	-395
▁ab	-396
▁ta	-397
ace	-398
dev	-399
not	-400
▁up	-401
get	-402
are	-403
▁[	-404
py	-405
▁were	-406
ity	-407
▁your	-408
▁cat	-409
up	-410
$(	-411
pre	-412
▁per	-413
HA	-414
fo	-415
LE	-416
,”	-417
▁cut	-418
new	-419
▁when	-420
▁man	-421
▁ad	-422
▁wc	-423
IN	-424
ata	-425
com	-426
mat	-427
usr	-428
▁can	-429
other	-430
▁are	-431
▁go	-432
▁lo	-433
▁head	-434
no	-435
own	-436
log	-437
))	-438
▁imp	-439
▁pre	-440
▁P	-441
\.	-442
ls	-443
key	-444
ull	-445
ject	-446
▁out	-447
led	-448
set	-449
une	-450
ign	-451
ond	-452
printf	-453
▁R	-454
▁mo	-455
user	-456
▁else	-457
ous	-458
ge	-459
▁./	-460
▁raise	-461
("	-462
▁them	-463
▁com	-464
▁been	-465
gr	-466
▁any	-467
▁~	-468
ord	-469
ings	-470
tr	-471
min	-472
ix	-473
nc	-474
▁__	-475
▁dir	-476
▁<(	-477
eth	-478
*"	-479
ww	-480
*'	-481
▁will	-482
▁see	-483
-9	-484
/'	-485
▁there	-486
ib	-487
▁more	-488
ak	-489
ml	-490
▁ag	-491
ule	-492
sy	-493
▁one	-494
10	-495
my	-496
▁==	-497
▁O	-498
▁print	-499
.__	-500
▁\(	-501
ST	-502
ers	-503
▁sc	-504
ME	-505
prune	-506
cc	-507
▁El	-508
▁am	-509
▁set	-510
▁what	-511
▁Eliz	-512
▁\)	-513
hed	-514
ph	-515
▁kn	-516
ook	-517
ough	-518
ng	-519
▁ob	-520
au	-521
itt	-522
ays	-523
▁'{}	-524
abeth	-525
var	-526
put	-527
▁Elizabeth	-528
zip	-529
-9]	-530
▁us	-531
do	-532
loc	-533
ated	-534
▁J	-535
▁get	-536
▁7	-537
bin	-538
▁arg	-539
▁very	-540
pro	-541
▁ev	-542
▁their	-543
fore	-544
▁cl	-545
./	-546
irect	-547
▁po	-548
▁'{}'	-549
▁comp	-550
bu	-551
▁cp	-552
mo	-553
ear	-554
ict	-555
▁Decimal	-556
▁pro	-557
ree	-558
ype	-559
RE	-560
find	-561
[0-9]	-562
▁import	-563
▁"*	-564
▁cho	-565
ence	-566
=$(	-567
VE	-568
▁did	-569
XX	-570
▁ho	-571
▁must	-572
▁di	-573
string	-574
ne	-575
pl	-576
AT	-577
▁3	-578
/\	-579
▁dis	-580
▁know	-581
▁context	-582
64	-583
ake	-584
▁ap	-585
gz	-586
▁mv	-587
sc	-588
▁fo	-589
▁then	-590
ry	-591
▁ro	-592
▁than	-593
▁$1	-594
oup	-595
iss	-596
▁~/	-597
ice	-598
rite	-599
ies	-600
▁should	-601
cy	-602
?”	-603
▁*.	-604
ally	-605
▁sudo	-606
html	-607
##	-608
line	-609
▁off	-610
med	-611
rue	-612
data	-613
▁'\	-614
▁He	-615
reat	-616
ions	-617
▁new	-618
▁name	-619
fl	-620
ash	-621
ON	-622
clu	-623
some	-624
ather	-625
ument	-626
mand	-627
Con	-628
ish	-629
▁tail	-630
pend	-631
ved	-632
null	-633
alse	-634
pos	-635
inde	-636
1.	-637
ault	-638
error	-639
mpty	-640
▁add	-641
__(	-642
vers	-643
▁1,	-644
ep	-645
▁>>	-646
irst	-647
▁Th	-648
▁such	-649
conf	-650
ress	-651
="	-652
reg	-653
sult	-654
ms	-655
ought	-656
col	-657
ie	-658
ol	-659
▁gr	-660
iq	-661
000	-662
▁pl	-663
grep	-664
irectory	-665
▁fe	-666
▁qu	-667
fter	-668
▁mk	-669
ily	-670
▁exce	-671
▁G	-672
▁while	-673
),	-674
▁has	-675
//	-676
▁10	-677
thing	-678
▁over	-679
▁too	-680
/*	-681
▁only	-682
▁'*	-683
HAVE	-684
▁&	-685
sort	-686
ning	-687
▁diff	-688
▁again	-689
ND	-690
ely	-691
atter	-692
val	-693
local	-694
OR	-695
tar	-696
uch	-697
▁before	-698
▁li	-699
ait	-700
ary	-701
foo	-702
▁->	-703
back	-704
▁now	-705
▁done	-706
▁mkdir	-707
add	-708
▁how	-709
▁But	-710
stance	-711
▁chown	-712
None	-713
ffer	-714
▁class	-715
pen	-716
ber	-717
php	-718
host	-719
▁every	-720
ere	-721
ick	-722
link	-723
ward	-724
▁"%	-725
▁)	-726
io	-727
▁uniq	-728
ide	-729
▁exp	-730
====	-731
▁look	-732
em	-733
lit	-734
econd	-735
sub	-736
▁>>>	-737
▁first	-738
▁'/	-739
▁much	-740
sync	-741
▁col	-742
odule	-743
ub	-744
etc	-745
arch	-746
▁foo	-747
ittle	-748
▁list	-749
ft	-750
pg	-751
ource	-752
..	-753
▁into	-754
▁It	-755
ness	-756
▁des	-757
ial	-758
▁sho	-759
ection	-760
code	-761
▁about	-762
lder	-763
clude	-764
▁pass	-765
▁Y	-766
thon	-767
format	-768
DI	-769
empty	-770
▁value	-771
▁cont	-772
sum	-773
▁tar	-774
test	-775
▁She	-776
▁2>	-777
▁par	-778
▁little	-779
jpg	-780
2.	-781
▁part	-782
1,	-783
ang	-784
ute	-785
▁V	-786
▁day	-787
files	-788
??	-789
▁tw	-790
class	-791
▁after	-792
we	-793
ILE	-794
date	-795
▁ssh	-796
▁may	-797
▁down	-798
▁sub	-799
ister	-800
lin	-801
▁bu	-802
wh	-803
cat	-804
55	-805
▁ans	-806
AR	-807
ations	-808
directory	-809
oin	-810
arcy	-811
alk	-812
▁pos	-813
▁test	-814
sent	-815
newer	-816
▁Darcy	-817
▁z	-818
▁cur	-819
lete	-820
ose	-821
▁result	-822
[^	-823
▁len	-824
▁wor	-825
!”	-826
its	-827
▁cal	-828
▁key	-829
regex	-830
ended	-831
ert	-832
ild	-833
lice	-834
uture	-835
▁long	-836
12	-837
wd	-838
ach	-839
ition	-840
":	-841
▁call	-842
1)	-843
iel	-844
config	-845
als	-846
▁end	-847
net	-848
write	-849
▁own	-850
ek	-851
"""	-852
▁tee	-853
▁rsync	-854
delete	-855
TI	-856
▁'%	-857
▁sy	-858
OU	-859
node	-860
ible	-861
▁try	-862
rc	-863
ingle	-864
▁never	-865
par	-866
temp	-867
▁object	-868
In	-869
:]	-870
elt	-871
▁type	-872
pd	-873
ade	-874
ful	-875
▁good	-876
▁user	-877
99	-878
▁think	-879
▁Alice	-880
ud	-881
▁most	-882
minde	-883
mindepth	-884
ious	-885
ark	-886
▁might	-887
ave	-888
instance	-889
ced	-890
▁br	-891
ield	-892
ars	-893
vent	-894
ken	-895
nder	-896
▁like	-897
}"	-898
bar	-899
IT	-900
day	-901
▁+1	-902
▁its	-903
▁hand	-904
dirname	-905
▁5	-906
exp	-907
20	-908
ener	-909
SE	-910
▁]	-911
▁node	-912
ans	-913
ied	-914
▁This	-915
arn	-916
heck	-917
group	-918
ample	-919
comp	-920
aw	-921
lic	-922
lob	-923
▁ind	-924
▁feel	-925
▁ent	-926
▁True	-927
Context	-928
▁4	-929
[0]	-930
ail	-931
▁bec	-932
▁soon	-933
▁&&	-934
▁say	-935
▁thought	-936
atch	-937
▁dec	-938
▁action	-939
\)	-940
▁ext	-941
ote	-942
ript	-943
▁ac	-944
lp	-945
hen	-946
hing	-947
▁Ben	-948
▁string	-949
1/	-950
asename	-951
▁isinstance	-952
OD	-953
ins	-954
▁make	-955
ia	-956
ats	-957
$/	-958
▁$2	-959
▁If	-960
▁line	-961
sed	-962
ane	-963
▁Mrs	-964
Decimal	-965
app	-966
▁"$(	-967
context	-968
sv	-969
www	-970
▁two	-971
mplement	-972
DIR	-973
def	-974
FILE	-975
▁Bennet	-976
▁being	-977
hod	-978
ody	-979
ache	-980
▁"\	-981
▁Miss	-982
▁elif	-983
nce	-984
AL	-985
proc	-986
riend	-987
ause	-988
lock	-989
start	-990
anc	-991
▁bel	-992
▁bet	-993
ared	-994
▁rev	-995
attern	-996
▁option	-997
)"	-998
▁comm	-999
▁ln	-1000
sign	-1001
▁except	-1002
▁herself	-1003
ux	-1004
▁ple	-1005
▁mount	-1006
▁sister	-1007
CE	-1008
▁+=	-1009
thod	-1010
from	-1011
ried	-1012
▁got	-1013
▁last	-1014
LO	-1015
who	-1016
reen	-1017
▁friend	-1018
▁argument	-1019
{}"	-1020
▁great	-1021
dest	-1022
▁even	-1023
11	-1024
▁Ext	-1025
▁log	-1026
▁let	-1027
/^	-1028
cod	-1029
0000	-1030
"\	-1031
▁count	-1032
endedContext	-1033
▁back	-1034
).	-1035
60	-1036
▁@	-1037
fix	-1038
ered	-1039
▁supp	-1040
GE	-1041
▁where	-1042
▁ExtendedContext	-1043
ava	-1044
lib	-1045
▁\*.	-1046
oto	-1047
▁bl	-1048
info	-1049
▁rep	-1050
▁come	-1051
rf	-1052
que	-1053
▁'.	-1054
▁beg	-1055
▁old	-1056
ingley	-1057
'))	-1058
by	-1059
▁fl	-1060
ouse	-1061
root	-1062
▁min	-1063
value	-1064
▁well	-1065
▁Bingley	-1066
UT	-1067
▁less	-1068
0.	-1069
yes	-1070
version	-1071
[:	-1072
ner	-1073
less	-1074
onth	-1075
▁"${	-1076
▁ever	-1077
▁;	-1078
▁K	-1079
▁In	-1080
▁del	-1081
▁just	-1082
▁made	-1083
▁}'	-1084
ator	-1085
HO	-1086
tri	-1087
▁went	-1088
-1	-1089
amily	-1090
▁False	-1091
vert	-1092
ower	-1093
1"	-1094
ger	-1095
tes	-1096
ange	-1097
▁Jane	-1098
filename	-1099
**	-1100
append	-1101
▁without	-1102
=`	-1103
air	-1104
▁op	-1105
atime	-1106
umn	-1107
▁appe	-1108
oop	-1109
▁-2	-1110
▁found	-1111
▁format	-1112
▁char	-1113
77	-1114
oy	-1115
fin	-1116
▁${	-1117
▁cd	-1118
isit	-1119
▁here	-1120
▁root	-1121
;'	-1122
cur	-1123
▁dig	-1124
▁way	-1125
alueError	-1126
▁filename	-1127
644	-1128
dec	-1129
here	-1130
ngth	-1131
ving	-1132
▁755	-1133
which	-1134
▁"{}"	-1135
▁split	-1136
LD	-1137
():	-1138
ife	-1139
▁nothing	-1140
▁ValueError	-1141
▁du	-1142
▁md	-1143
folder	-1144
]*	-1145
ob	-1146
tra	-1147
."""	-1148
▁acc	-1149
word	-1150
▁same	-1151
▁under	-1152
gn	-1153
err	-1154
▁happ	-1155
module	-1156
odules	-1157
▁father	-1158
▁reg	-1159
wards	-1160
action	-1161
eturn	-1162
space	-1163
▁shall	-1164
ady	-1165
ived	-1166
java	-1167
▁pleas	-1168
spec	-1169
pattern	-1170
\(	-1171
▁aff	-1172
js	-1173
ative	-1174
LA	-1175
mt	-1176
ret	-1177
▁We	-1178
umber	-1179
▁want	-1180
ern	-1181
▁use	-1182
▁word	-1183
ps	-1184
\|	-1185
init	-1186
mb	-1187
arget	-1188
▁away	-1189
hat	-1190
loop	-1191
ways	-1192
▁spe	-1193
SI	-1194
ows	-1195
ired	-1196
PT	-1197
▁cr	-1198
▁yes	-1199
▁hist	-1200
▁spec	-1201
▁myself	-1202
'),	-1203
▁data	-1204
$'	-1205
ale	-1206
aste	-1207
body	-1208
ever	-1209
rent	-1210
ok	-1211
uple	-1212
xargs	-1213
unction	-1214
md	-1215
sol	-1216
▁round	-1217
▁Co	-1218
▁im	-1219
unt	-1220
ception	-1221
MOD	-1222
pdf	-1223
▁You	-1224
▁start	-1225
len	-1226
▁these	-1227
▁next	-1228
exclude	-1229
▁though	-1230
:/	-1231
NA	-1232
▁0,	-1233
▁our	-1234
30	-1235
▁$0	-1236
▁dear	-1237
▁join	-1238
▁perl	-1239
▁year	-1240
▁loc	-1241
▁default	-1242
▁bre	-1243
default	-1244
vf	-1245
aug	-1246
est	-1247
ags	-1248
ors	-1249
▁0:	-1250
▁poss	-1251
ens	-1252
▁clo	-1253
press	-1254
▁sign	-1255
mmin	-1256
▁history	-1257
MA	-1258
▁Not	-1259
▁wait	-1260
▁family	-1261
prec	-1262
▁inst	-1263
ef	-1264
▁ref	-1265
ected	-1266
ome	-1267
list	-1268
sole	-1269
▁mis	-1270
▁ser	-1271
valid	-1272
ING	-1273
▁always	-1274
SS	-1275
▁pe	-1276
▁oper	-1277
####	-1278
22	-1279
ask	-1280
pwd	-1281
HOME	-1282
▁column	-1283
";	-1284
▁'^	-1285
source	-1286
▁input	-1287
readlink	-1288
AD	-1289
MODU	-1290
=1	-1291
cket	-1292
▁att	-1293
ither	-1294
▁kind	-1295
▁text	-1296
python	-1297
/.	-1298
▁hope	-1299
▁many	-1300
git	-1301
▁644	-1302
std	-1303
▁wr	-1304
▁yet	-1305
▁cons	-1306
▁does	-1307
▁visit	-1308
▁Ch	-1309
----	-1310
part	-1311
▁contin	-1312
▁sm	-1313
▁occ	-1314
ished	-1315
DE	-1316
LI	-1317
TE	-1318
▁df	-1319
sert	-1320
▁".*	-1321
▁And	-1322
count	-1323
iness	-1324
MODULE	-1325
▁belie	-1326
"'	-1327
▁U	-1328
igh	-1329
▁mar	-1330
▁event	-1331
2,	-1332
src	-1333
▁My	-1334
▁open	-1335
ood	-1336
lied	-1337
▁talk	-1338
of	-1339
mer	-1340
ync	-1341
attr	-1342
ination	-1343
▁}	-1344
NAME	-1345
glob	-1346
▁saw	-1347
▁path	-1348
buffer	-1349
option	-1350
0,	-1351
sg	-1352
orm	-1353
Name	-1354
▁';'	-1355
vel	-1356
True	-1357
▁sys	-1358
▁dist	-1359
▁source	-1360
▁"/	-1361
ython	-1362
ertain	-1363
mplemented	-1364
tt	-1365
▁:	-1366
▁felt	-1367
/_	-1368
ead	-1369
move	-1370
▁rem	-1371
▁date	-1372
14	-1373
[1	-1374
The	-1375
▁gzip	-1376
dig	-1377
ipe	-1378
ery	-1379
▁thr	-1380
▁hour	-1381
script	-1382
▁still	-1383
man	-1384
map	-1385
uck	-1386
ansp	-1387
▁'.*	-1388
econds	-1389
▁young	-1390
command	-1391
hes	-1392
▁right	-1393
sq	-1394
ues	-1395
▁bash	-1396
▁loop	-1397
▁+2	-1398
owed	-1399
ssage	-1400
ler	-1401
the	-1402
lect	-1403
▁exc	-1404
▁val	-1405
▁upon	-1406
ffset	-1407
ham	-1408
ush	-1409
▁<=	-1410
hist	-1411
check	-1412
▁tell	-1413
▁temp	-1414
▁dirname	-1415
='	-1416
stats	-1417
▁heard	-1418
ax	-1419
ank	-1420
▁size	-1421
($	-1422
/$	-1423
US	-1424
svn	-1425
uct	-1426
doc	-1427
oub	-1428
▁!=	-1429
File	-1430
ched	-1431
▁100	-1432
▁bot	-1433
▁help	-1434
example	-1435
========	-1436
ised	-1437
▁sat	-1438
acter	-1439
ont	-1440
call	-1441
stem	-1442
▁msg	-1443
▁They	-1444
▁need	-1445
▁turn	-1446
▁For	-1447
▁giv	-1448
▁cour	-1449
▁take	-1450
Return	-1451
▁error	-1452
▁paste	-1453
▁place	-1454
og	-1455
clo	-1456
▁foll	-1457
▁because	-1458
86	-1459
NR	-1460
/.*	-1461
▁sure	-1462
▁conf	-1463
▁life	-1464
▁warn	-1465
ickham	-1466
▁gener	-1467
aint	-1468
ting	-1469
▁When	-1470
▁cannot	-1471
mk	-1472
sl	-1473
raw	-1474
ient	-1475
▁fin	-1476
▁eyes	-1477
GS	-1478
NF	-1479
bo	-1480
ility	-1481
verse	-1482
▁screen	-1483
8.	-1484
ages	-1485
iter	-1486
▁cor	-1487
▁det	-1488
▁lin	-1489
▁left	-1490
▁house	-1491
history	-1492
▁number	-1493
Implemented	-1494
XXXX	-1495
gram	-1496
▁don	-1497
index	-1498
llins	-1499
▁night	-1500
ansport	-1501
▁Collins	-1502
▁Wickham	-1503
▁NotImplemented	-1504
abc	-1505
aut	-1506
▁ask	-1507
▁give	-1508
▁took	-1509
otocol	-1510
']	-1511
56	-1512
uc	-1513
▁ps	-1514
▁rest	-1515
]'	-1516
://	-1517
ream	-1518
▁app	-1519
ments	-1520
reate	-1521
execut	-1522
▁enough	-1523
['	-1524
▁ke	-1525
with	-1526
▁var	-1527
▁walk	-1528
/"	-1529
TR	-1530
son	-1531
▁dat	-1532
▁kill	-1533
alf	-1534
cle	-1535
ten	-1536
unk	-1537
▁od	-1538
▁6	-1539
▁2>/	-1540
▁ter	-1541
lines	-1542
▁month	-1543
▁rename	-1544
▁himself	-1545
▁towards	-1546
ID	-1547
dia	-1548
▁says	-1549
▁week	-1550
▁work	-1551
▁watch	-1552
▁looked	-1553
▁character	-1554
24	-1555
▁ear	-1556
▁mind	-1557
coding	-1558
target	-1559
▁ifconfig	-1560
CK	-1561
▁buffer	-1562
:%	-1563
TO	-1564
ug	-1565
ical	-1566
▁...	-1567
aught	-1568
▁case	-1569
▁dest	-1570
▁express	-1571
2)	-1572
▁+5	-1573
▁fr	-1574
????	-1575
head	-1576
ince	-1577
ature	-1578
.]	-1579
▁('	-1580
▁came	-1581
▁fold	-1582
▁letter	-1583
basename	-1584
▁command	-1585
mag	-1586
ode	-1587
ool	-1588
copy	-1589
omain	-1590
▁hear	-1591
▁group	-1592
▁something	-1593
apt	-1594
sys	-1595
▁run	-1596
quest	-1597
▁$1}'	-1598
ceived	-1599
▁break	-1600
Ex	-1601
be	-1602
sd	-1603
rem	-1604
▁[]	-1605
▁inte	-1606
▁world	-1607
strings	-1608
▁called	-1609
▁certain	-1610
AN	-1611
ami	-1612
bug	-1613
dict	-1614
fort	-1615
ustr	-1616
▁'./	-1617
▁Lady	-1618
▁used	-1619
▁output	-1620
$1	-1621
amp	-1622
ublic	-1623
▁args	-1624
▁egrep	-1625
lection	-1626
hostname	-1627
▁present	-1628
,--	-1629
msg	-1630
uff	-1631
▁Ly	-1632
repl	-1633
▁---	-1634
event	-1635
FS	-1636
▁git	-1637
color	-1638
▁didn	-1639
▁wish	-1640
future	-1641
▁those	-1642
▁mother	-1643
▁\!	-1644
▁rel	-1645
▁inde	-1646
▁Lydia	-1647
▁basename	-1648
▁function	-1649
2-	-1650
PE	-1651
▁'-	-1652
form	-1653
▁room	-1654
MP	-1655
rw	-1656
You	-1657
esc	-1658
sql	-1659
▁sur	-1660
'\	-1661
but	-1662
your	-1663
▁rema	-1664
server	-1665
▁write	-1666
▁another	-1667
TH	-1668
ey	-1669
unc	-1670
▁END	-1671
▁stat	-1672
llustr	-1673
offset	-1674
▁feelings	-1675
▁seq	-1676
▁days	-1677
▁whom	-1678
▁appear	-1679
▁''	-1680
▁os	-1681
▁+10	-1682
▁put	-1683
ision	-1684
search	-1685
whoami	-1686
▁however	-1687
(_	-1688
ros	-1689
ted	-1690
▁nl	-1691
that	-1692
▁Jim	-1693
method	-1694
▁method	-1695
▁differe	-1696
-3	-1697
xml	-1698
▁pur	-1699
ctime	-1700
▁love	-1701
▁true	-1702
▁inter	-1703
▁better	-1704
▁passed	-1705
▁current	-1706
NT	-1707
aps	-1708
idth	-1709
▁mor	-1710
field	-1711
▁"$1"	-1712
▁both	-1713
▁cpio	-1714
▁ping	-1715
umb	-1716
▁top	-1717
▁quite	-1718
llustration	-1719
CH	-1720
\\	-1721
FLA	-1722
ason	-1723
year	-1724
Illustration	-1725
RO	-1726
hy	-1727
OUR	-1728
dat	-1729
ump	-1730
▁+7	-1731
▁>=	-1732
▁also	-1733
▁going	-1734
▁shopt	-1735
2/	-1736
pport	-1737
▁Type	-1738
special	-1739
▁module	-1740
▁exception	-1741
])	-1742
aN	-1743
ATE	-1744
eno	-1745
▁So	-1746
▁sl	-1747
▁ide	-1748
FLAGS	-1749
cache	-1750
xx	-1751
row	-1752
ined	-1753
▁mod	-1754
▁dict	-1755
▁host	-1756
▁bytes	-1757
▁point	-1758
▁replied	-1759
▁inc	-1760
▁acqu	-1761
▁hard	-1762
prefix	-1763
▁heart	-1764
mv	-1765
nr	-1766
rb	-1767
bour	-1768
▁gent	-1769
addr	-1770
avour	-1771
▁seen	-1772
▁told	-1773
▁future	-1774
0'	-1775
ene	-1776
top	-1777
tty	-1778
▁half	-1779
▁larg	-1780
fd	-1781
down	-1782
qual	-1783
▁few	-1784
ommand	-1785
▁through	-1786
'):	-1787
ager	-1788
used	-1789
▁CHA	-1790
▁htt	-1791
icros	-1792
▁+100	-1793
▁till	-1794
▁zcat	-1795
▁files	-1796
▁daught	-1797
▁moment	-1798
▁offset	-1799
ged	-1800
ater	-1801
▁sum	-1802
False	-1803
▁near	-1804
finity	-1805
CT	-1806
most	-1807
▁-60	-1808
▁beh	-1809
ified	-1810
▁once	-1811
▁prec	-1812
▁since	-1813
exception	-1814
▁TypeError	-1815
cls	-1816
use	-1817
ately	-1818
inter	-1819
uring	-1820
▁often	-1821
▁indeed	-1822
0"	-1823
den	-1824
run	-1825
▁20	-1826
otal	-1827
▁proc	-1828
stract	-1829
▁gentle	-1830
ah	-1831
▁1;	-1832
curs	-1833
ider	-1834
▁far	-1835
right	-1836
▁each	-1837
reader	-1838
▁There	-1839
▁super	-1840
convert	-1841
▁comple	-1842
${	-1843
awk	-1844
mon	-1845
ened	-1846
ures	-1847
ween	-1848
▁"./	-1849
▁tou	-1850
▁$2}'	-1851
domain	-1852
▁async	-1853
▁began	-1854
▁child	-1855
execdir	-1856
newermt	-1857
▁support	-1858
old	-1859
ves	-1860
}')	-1861
hand	-1862
inal	-1863
ready	-1864
▁speak	-1865
▁three	-1866
▁anything	-1867
ATH	-1868
▁1)	-1869
▁gl	-1870
▁gu	-1871
base	-1872
ling	-1873
▁env	-1874
andom	-1875
=/	-1876
\*	-1877
ero	-1878
itu	-1879
▁-5	-1880
▁sk	-1881
ices	-1882
icul	-1883
etime	-1884
▁bzip	-1885
▁thing	-1886
);	-1887
],	-1888
▁tz	-1889
PTER	-1890
miss	-1891
▁mean	-1892
▁CHAPTER	-1893
tz	-1894
▁whole	-1895
▁subject	-1896
pm	-1897
rm	-1898
▁‘	-1899
ape	-1900
ven	-1901
▁{}.	-1902
input	-1903
▁imag	-1904
▁town	-1905
▁tree	-1906
▁around	-1907
▁assert	-1908
▁between	-1909
St	-1910
ift	-1911
____	-1912
iled	-1913
arent	-1914
state	-1915
▁creat	-1916
▁attent	-1917
rt	-1918
▁X	-1919
"),	-1920
pid	-1921
▁ph	-1922
imit	-1923
CO	-1924
fs	-1925
[[:	-1926
leep	-1927
load	-1928
usic	-1929
▁777	-1930
ating	-1931
parse	-1932
▁fort	-1933
mktemp	-1934
▁seemed	-1935
SO	-1936
UP	-1937
po	-1938
ued	-1939
cept	-1940
item	-1941
▁bar	-1942
▁gun	-1943
wargs	-1944
arning	-1945
▁happy	-1946
▁either	-1947
▁second	-1948
▁believe	-1949
It	-1950
▁vo	-1951
pped	-1952
▁adv	-1953
▁lib	-1954
▁mode	-1955
length	-1956
▁reason	-1957
.—	-1958
/\.	-1959
mnt	-1960
png	-1961
▁At	-1962
USER	-1963
▁act	-1964
▁div	-1965
▁unt	-1966
debug	-1967
onder	-1968
▁addr	-1969
▁copy	-1970
▁close	-1971
▁given	-1972
iew	-1973
imp	-1974
wer	-1975
▁As	-1976
stat	-1977
▁delight	-1978
▁possible	-1979
/,	-1980
FO	-1981
▁8	-1982
bak	-1983
rew	-1984
ured	-1985
▁ast	-1986
▁ign	-1987
▁tot	-1988
times	-1989
▁allow	-1990
▁cried	-1991
▁local	-1992
▁match	-1993
▁having	-1994
▁things	-1995
traverse	-1996
▁consider	-1997
▁pleasure	-1998
▁returned	-1999
▁affection	-2000
())	-2001
STR	-2002
mpt	-2003
▁av	-2004
xdev	-2005
▁yum	-2006
backup	-2007
gative	-2008
▁Cather	-2009
▁myfile	-2010
▁Catherine	-2011
34	-2012
fe	-2013
fr	-2014
('1	-2015
64-	-2016
ilt	-2017
medi	-2018
▁gir	-2019
▁glob	-2020
▁exact	-2021
▁manner	-2022
▁morning	-2023
\}	-2024
('-	-2025
ier	-2026
join	-2027
ople	-2028
onent	-2029
▁sock	-2030
[0-9]*	-2031
ignore	-2032
▁power	-2033
▁touch	-2034
Command	-2035
$"	-2036
33	-2037
bl	-2038
zy	-2039
▁-3	-2040
ably	-2041
▁tre	-2042
riage	-2043
▁rmdir	-2044
▁tuple	-2045
▁digits	-2046
▁length	-2047
▁integer	-2048
▁arguments	-2049
ove	-2050
haps	-2051
▁home	-2052
modules	-2053
My	-2054
().	-2055
VER	-2056
les	-2057
▁".	-2058
elta	-2059
full	-2060
▁ass	-2061
▁tmp	-2062
lease	-2063
total	-2064
whole	-2065
▁best	-2066
▁show	-2067
▁light	-2068
(1)	-2069
Dir	-2070
cont	-2071
ecess	-2072
▁message	-2073
EN	-2074
grp	-2075
isf	-2076
▁eng	-2077
flags	-2078
▁wind	-2079
▁appro	-2080
0)	-2081
help	-2082
prog	-2083
▁nor	-2084
OURCE	-2085
annot	-2086
ernal	-2087
▁resol	-2088
project	-2089
▁minute	-2090
▁Modules	-2091
destination	-2092
3,	-2093
▁’	-2094
ork	-2095
▁12	-2096
inum	-2097
▁ill	-2098
ontab	-2099
▁requ	-2100
comple	-2101
▁voice	-2102
▁words	-2103
cedence	-2104
▁answer	-2105
▁position	-2106
YS	-2107
xy	-2108
TION	-2109
land	-2110
▁cle	-2111
▁non	-2112
iable	-2113
▁keep	-2114
▁total	-2115
▁rather	-2116
IO	-2117
cp	-2118
oke	-2119
ssh	-2120
ased	-2121
clud	-2122
ided	-2123
▁tri	-2124
width	-2125
▁state	-2126
▁using	-2127
▁direct	-2128
)'	-2129
-%	-2130
3.	-2131
][	-2132
dc	-2133
/*"	-2134
csv	-2135
ian	-2136
non	-2137
▁'$	-2138
▁St	-2139
$//'	-2140
▁lik	-2141
ained	-2142
elled	-2143
round	-2144
▁prov	-2145
▁side	-2146
▁spir	-2147
SOURCE	-2148
▁chgrp	-2149
▁whose	-2150
▁printf	-2151
▁really	-2152
▁already	-2153
wholename	-2154
▁happiness	-2155
++	-2156
AS	-2157
oud	-2158
rap	-2159
ense	-2160
illi	-2161
pipe	-2162
ural	-2163
▁adm	-2164
▁raw	-2165
erest	-2166
month	-2167
▁base	-2168
▁gone	-2169
gether	-2170
▁extra	-2171
▁until	-2172
ref	-2173
itle	-2174
lass	-2175
oman	-2176
repr	-2177
▁How	-2178
bytes	-2179
itted	-2180
linux	-2181
▁conn	-2182
▁door	-2183
▁expl	-2184
▁full	-2185
atever	-2186
illiam	-2187
▁added	-2188
▁among	-2189
replace	-2190
peration	-2191
▁whether	-2192
▁encoding	-2193
cd	-2194
db	-2195
ited	-2196
▁200	-2197
delta	-2198
▁sile	-2199
▁index	-2200
▁folder	-2201
Oh	-2202
der	-2203
▁"^	-2204
▁**	-2205
wise	-2206
▁His	-2207
▁inv	-2208
share	-2209
▁sens	-2210
▁sent	-2211
[0-9]+	-2212
▁field	-2213
▁least	-2214
▁protocol	-2215
▁different	-2216
FOR	-2217
ple	-2218
ray	-2219
TIME	-2220
ific	-2221
port	-2222
▁fre	-2223
ilter	-2224
stree	-2225
ually	-2226
▁task	-2227
process	-2228
▁people	-2229
▁wonder	-2230
((	-2231
EG	-2232
.*'	-2233
flow	-2234
▁+30	-2235
extra	-2236
▁doub	-2237
erence	-2238
▁satisf	-2239
▁country	-2240
PA	-2241
ster	-2242
▁'',	-2243
▁car	-2244
▁doc	-2245
▁flo	-2246
names	-2247
ormal	-2248
▁care	-2249
▁idea	-2250
▁leave	-2251
▁almost	-2252
▁course	-2253
▁person	-2254
▁values	-2255
44	-2256
ES	-2257
ee	-2258
iff	-2259
{1,	-2260
PATH	-2261
bute	-2262
ized	-2263
iting	-2264
raise	-2265
stack	-2266
trace	-2267
public	-2268
result	-2269
▁disco	-2270
▁short	-2271
present	-2272
▁immedi	-2273
▁friends	-2274
▁operand	-2275
▁underst	-2276
Operation	-2277
▁acquaint	-2278
▁therefore	-2279
&1	-2280
=$	-2281
LIB	-2282
PUT	-2283
cpp	-2284
ify	-2285
ots	-2286
▁OR	-2287
aces	-2288
▁men	-2289
▁Long	-2290
▁fear	-2291
▁means	-2292
▁brother	-2293
▁convers	-2294
▁transport	-2295
IL	-2296
any	-2297
▁dr	-2298
alle	-2299
ached	-2300
▁info	-2301
ressed	-2302
▁along	-2303
2"	-2304
`"	-2305
kf	-2306
cor	-2307
▁ut	-2308
mark	-2309
▁hap	-2310
▁hum	-2311
▁std	-2312
ances	-2313
▁high	-2314
▁check	-2315
▁woman	-2316
'.	-2317
,-	-2318
BU	-2319
II	-2320
WD	-2321
bz	-2322
dis	-2323
env	-2324
▁+%	-2325
▁+3	-2326
/*/*	-2327
ains	-2328
ateg	-2329
iment	-2330
▁Char	-2331
▁cond	-2332
▁poor	-2333
▁real	-2334
▁resp	-2335
▁gunzip	-2336
HE	-2337
cr	-2338
__,	-2339
▁AN	-2340
fold	-2341
▁eff	-2342
▁conc	-2343
remote	-2344
▁flags	-2345
▁surpr	-2346
▁table	-2347
########	-2348
No	-2349
(),	-2350
86_	-2351
arm	-2352
▁ri	-2353
iety	-2354
inet	-2355
▁eas	-2356
▁esc	-2357
split	-2358
▁large	-2359
include	-2360
▁represent	-2361
3"	-2362
cf	-2363
▁^	-2364
▁""	-2365
▁met	-2366
▁pop	-2367
▁What	-2368
▁gave	-2369
output	-2370
▁quest	-2371
Invalid	-2372
▁couldn	-2373
▁crontab	-2374
▁together	-2375
▁implement	-2376
90	-2377
:'	-2378
NE	-2379
14-	-2380
=1;	-2381
And	-2382
Pro	-2383
gle	-2384
ssl	-2385
▁bo	-2386
ases	-2387
lent	-2388
ross	-2389
wait	-2390
▁Her	-2391
▁cls	-2392
▁jud	-2393
owing	-2394
types	-2395
▁knew	-2396
Modules	-2397
actions	-2398
ization	-2399
▁necess	-2400
▁pstree	-2401
3}	-2402
]:	-2403
fut	-2404
nan	-2405
ock	-2406
oid	-2407
usb	-2408
▁":	-2409
▁id	-2410
Well	-2411
▁cre	-2412
▁ssl	-2413
ardin	-2414
items	-2415
▁arri	-2416
system	-2417
▁bound	-2418
▁lines	-2419
▁Gardin	-2420
▁during	-2421
▁happen	-2422
▁thread	-2423
lections	-2424
▁received	-2425
IS	-2426
GET	-2427
now	-2428
ton	-2429
▁'1	-2430
▁On	-2431
▁www	-2432
anged	-2433
▁".*"	-2434
▁2>&1	-2435
ategory	-2436
subdomain	-2437
▁daughter	-2438
▁particul	-2439
OF	-2440
tle	-2441
▁",	-2442
▁'[	-2443
▁dev	-2444
tuple	-2445
▁Then	-2446
▁arch	-2447
▁sleep	-2448
▁Python	-2449
▁perhaps	-2450
/(	-2451
7.	-2452
sr	-2453
Bar	-2454
men	-2455
opt	-2456
just	-2457
like	-2458
▁den	-2459
▁hor	-2460
▁pri	-2461
▁sec	-2462
tring	-2463
▁ende	-2464
ousand	-2465
▁deter	-2466
▁trace	-2467
position	-2468
▁Q	-2469
iec	-2470
ips	-2471
▁-7	-2472
amin	-2473
cmin	-2474
fect	-2475
izzy	-2476
utes	-2477
ience	-2478
inary	-2479
screen	-2480
▁others	-2481
▁socket	-2482
15	-2483
16	-2484
AB	-2485
wr	-2486
-1]	-2487
LIN	-2488
PWD	-2489
avi	-2490
lot	-2491
und	-2492
▁Ar	-2493
oogle	-2494
tempt	-2495
▁File	-2496
▁aunt	-2497
▁conv	-2498
▁desc	-2499
▁form	-2500
iginal	-2501
▁death	-2502
▁years	-2503
▁turned	-2504
▁interest	-2505
'|	-2506
Wl	-2507
TER	-2508
LDER	-2509
nded	-2510
▁bus	-2511
▁fix	-2512
▁mak	-2513
gener	-2514
stant	-2515
▁prom	-2516
▁reme	-2517
▁wood	-2518
micros	-2519
proper	-2520
▁exist	-2521
▁obser	-2522
▁sound	-2523
▁hardly	-2524
otection	-2525
▁appeared	-2526
▁continue	-2527
▁yourself	-2528
NO	-2529
PY	-2530
UM	-2531
rn	-2532
//'	-2533
1/'	-2534
aid	-2535
gnu	-2536
odu	-2537
▁$5	-2538
▁',	-2539
▁IN	-2540
="$(	-2541
OUND	-2542
▁"*"	-2543
▁che	-2544
▁cir	-2545
▁empty	-2546
▁against	-2547
▁certainly	-2548
FA	-2549
ns	-2550
But	-2551
rip	-2552
What	-2553
▁Col	-2554
▁tac	-2555
▁code	-2556
▁decl	-2557
actory	-2558
struct	-2559
precated	-2560
▁continued	-2561
▁everything	-2562
/{	-2563
88	-2564
EX	-2565
UL	-2566
kg	-2567
ALL	-2568
ATI	-2569
ual	-2570
you	-2571
ceed	-2572
oder	-2573
pair	-2574
▁ain	-2575
ccess	-2576
level	-2577
▁repe	-2578
lineno	-2579
socket	-2580
support	-2581
▁execut	-2582
▁pretty	-2583
▁script	-2584
▁convert	-2585
▁perfect	-2586
▁Gardiner	-2587
▁sometimes	-2588
"|	-2589
▁,	-2590
.*"	-2591
rwx	-2592
sel	-2593
bash	-2594
ites	-2595
next	-2596
▁../	-2597
vered	-2598
▁server	-2599
▁wouldn	-2600
username	-2601
02	-2602
BO	-2603
ios	-2604
mux	-2605
ren	-2606
only	-2607
pass	-2608
STATE	-2609
ident	-2610
▁10**	-2611
▁book	-2612
▁stay	-2613
outine	-2614
▁occur	-2615
▁stand	-2616
▁change	-2617
▁expect	-2618
▁opcode	-2619
▁exponent	-2620
▁rounding	-2621
/%	-2622
htt	-2623
▁'_	-2624
9999	-2625
token	-2626
▁That	-2627
▁fell	-2628
▁prev	-2629
▁build	-2630
cpython	-2631
▁evening	-2632
▁attention	-2633
▁immediately	-2634
13	-2635
az	-2636
CON	-2637
pec	-2638
upt	-2639
▁'(	-2640
8.8.	-2641
exit	-2642
▁aut	-2643
▁bit	-2644
▁mur	-2645
apter	-2646
▁reck	-2647
▁miser	-2648
tribute	-2649
▁favour	-2650
▁looking	-2651
]+	-2652
gh	-2653
bit	-2654
cut	-2655
del	-2656
eff	-2657
ott	-2658
▁ed	-2659
▁Con	-2660
▁ago	-2661
▁ele	-2662
▁liv	-2663
place	-2664
▁mult	-2665
▁hours	-2666
▁river	-2667
▁coming	-2668
▁longer	-2669
▁thousand	-2670
▁conversation	-2671
PI	-2672
amb	-2673
sho	-2674
▁Al	-2675
▁sw	-2676
nown	-2677
oded	-2678
▁-10	-2679
▁Luc	-2680
▁lad	-2681
▁rec	-2682
bourn	-2683
fully	-2684
ities	-2685
lotte	-2686
lower	-2687
digits	-2688
quence	-2689
▁small	-2690
▁inform	-2691
▁datetime	-2692
protection	-2693
▁Charlotte	-2694
▁Longbourn	-2695
▁timedelta	-2696
,%	-2697
;"	-2698
\"	-2699
=*.	-2700
ITH	-2701
[.]	-2702
abs	-2703
iet	-2704
▁'+	-2705
▁1.	-2706
LOAD	-2707
aged	-2708
auto	-2709
ides	-2710
make	-2711
▁abs	-2712
chars	-2713
shire	-2714
▁FILE	-2715
▁mile	-2716
object	-2717
▁alone	-2718
▁spoke	-2719
message	-2720
myfiles	-2721
▁parser	-2722
daystart	-2723
▁Chapter	-2724
▁account	-2725
▁readlink	-2726
3'	-2727
80	-2728
uz	-2729
▁1:	-2730
▁Do	-2731
▁\\	-2732
User	-2733
canc	-2734
ison	-2735
ship	-2736
▁All	-2737
▁hur	-2738
▁max	-2739
▁sor	-2740
asion	-2741
match	-2742
▁assu	-2743
▁bool	-2744
▁cous	-2745
▁lock	-2746
filter	-2747
▁asked	-2748
▁uncle	-2749
▁ladies	-2750
OP	-2751
Th	-2752
_,	-2753
gen	-2754
▁OS	-2755
ools	-2756
warn	-2757
imple	-2758
swith	-2759
tered	-2760
▁Well	-2761
▁circ	-2762
▁dark	-2763
86_64-	-2764
kwargs	-2765
▁became	-2766
▁notice	-2767
wp	-2768
")"	-2769
/*.	-2770
gex	-2771
ney	-2772
▁||	-2773
0.0.	-2774
aced	-2775
▁obj	-2776
digit	-2777
ingly	-2778
ledge	-2779
▁fing	-2780
▁ment	-2781
▁tmux	-2782
iregex	-2783
remove	-2784
▁Lizzy	-2785
▁above	-2786
????????	-2787
▁instance	-2788
-2	-2789
ZE	-2790
pi	-2791
sk	-2792
For	-2793
arc	-2794
buf	-2795
ces	-2796
nou	-2797
▁("	-2798
hook	-2799
mory	-2800
play	-2801
sock	-2802
▁big	-2803
minal	-2804
icient	-2805
▁sever	-2806
▁yield	-2807
address	-2808
▁exactly	-2809
▁objects	-2810
▁process	-2811
▁understand	-2812
75	-2813
BA	-2814
LL	-2815
\+	-2816
}:	-2817
div	-2818
▁To	-2819
mber	-2820
oney	-2821
▁air	-2822
uname	-2823
▁calc	-2824
▁live	-2825
▁names	-2826
▁range	-2827
▁python	-2828
▁feeling	-2829
▁mention	-2830
CL	-2831
CR	-2832
UN	-2833
sa	-2834
('0	-2835
...	-2836
css	-2837
pkg	-2838
▁-9	-2839
▁Ex	-2840
▁No	-2841
come	-2842
vars	-2843
▁'/^	-2844
▁NaN	-2845
anger	-2846
▁cott	-2847
▁fast	-2848
▁girl	-2849
▁opin	-2850
global	-2851
▁doubt	-2852
▁false	-2853
pending	-2854
▁escape	-2855
▁target	-2856
--------	-2857
▁entered	-2858
▁getattr	-2859
▁respect	-2860
▁marriage	-2861
){	-2862
1'	-2863
TY	-2864
PRE	-2865
Yes	-2866
[1]	-2867
ble	-2868
can	-2869
fno	-2870
opy	-2871
dden	-2872
iron	-2873
king	-2874
over	-2875
wrap	-2876
▁src	-2877
mount	-2878
▁play	-2879
▁suff	-2880
atural	-2881
closed	-2882
▁begin	-2883
▁sense	-2884
console	-2885
ibility	-2886
▁reckon	-2887
▁stream	-2888
▁sudden	-2889
argument	-2890
▁instant	-2891
▁raiseit	-2892
mn	-2893
BEG	-2894
NaN	-2895
ogg	-2896
▁"`	-2897
▁0)	-2898
▁OF	-2899
ners	-2900
pack	-2901
work	-2902
▁bro	-2903
▁cap	-2904
-314-	-2905
async	-2906
▁fire	-2907
▁meet	-2908
▁thus	-2909
▁taken	-2910
mission	-2911
timeout	-2912
▁regard	-2913
▁William	-2914
▁console	-2915
▁sisters	-2916
▁version	-2917
▁expected	-2918
▁particular	-2919
"$	-2920
.1	-2921
IG	-2922
\/	-2923
▁–	-2924
met	-2925
peg	-2926
▁$3	-2927
▁$4	-2928
Base	-2929
cour	-2930
ford	-2931
▁Key	-2932
▁anx	-2933
▁~/.	-2934
ATION	-2935
BEGIN	-2936
CTION	-2937
arest	-2938
▁inqu	-2939
String	-2940
apache	-2941
errupt	-2942
itable	-2943
lected	-2944
▁equal	-2945
▁hands	-2946
▁posix	-2947
▁times	-2948
compare	-2949
▁accept	-2950
▁prefix	-2951
Infinity	-2952
abstract	-2953
▁address	-2954
▁counten	-2955
▁several	-2956
regextype	-2957
▁required	-2958
▁necessary	-2959
IP	-2960
da	-2961
Sub	-2962
cal	-2963
tom	-2964
conn	-2965
ents	-2966
flto	-2967
orth	-2968
▁Que	-2969
close	-2970
essed	-2971
itude	-2972
table	-2973
▁King	-2974
▁fall	-2975
normal	-2976
opcode	-2977
▁destr	-2978
itation	-2979
▁Return	-2980
▁handle	-2981
▁nature	-2982
▁within	-2983
callback	-2984
subclass	-2985
▁example	-2986
traceback	-2987
DS	-2988
GR	-2989
jar	-2990
ley	-2991
▁sn	-2992
Read	-2993
char	-2994
nter	-2995
▁civ	-2996
▁hon	-2997
▁lab	-2998
block	-2999
build	-3000
ether	-3001
oured	-3002
▁exit	-3003
▁face	-3004
▁lost	-3005
▁mark	-3006
selves	-3007
thread	-3008
untime	-3009
▁await	-3010
▁incre	-3011
▁behavi	-3012
▁circum	-3013
▁closed	-3014
▁minutes	-3015
▁determin	-3016
▁hostname	-3017
▁subclass	-3018
(1	-3019
50	-3020
89	-3021
}{	-3022
/*/	-3023
/\(	-3024
XXX	-3025
[^/	-3026
num	-3027
oss	-3028
sec	-3029
▁\+	-3030
(1);	-3031
.*\)	-3032
ates	-3033
iful	-3034
need	-3035
sing	-3036
umer	-3037
week	-3038
▁";"	-3039
▁eth	-3040
media	-3041
mydir	-3042
quent	-3043
strip	-3044
▁atte	-3045
▁curl	-3046
▁stud	-3047
▁wret	-3048
aclass	-3049
import	-3050
▁Queen	-3051
▁human	-3052
▁persu	-3053
current	-3054
▁finger	-3055
▁comfort	-3056
▁contain	-3057
▁general	-3058
▁returns	-3059
▁talking	-3060
▁callback	-3061
▁occasion	-3062
▁whatever	-3063
"`	-3064
(?	-3065
FF	-3066
"):	-3067
CHA	-3068
PID	-3069
cmd	-3070
esk	-3071
rel	-3072
ury	-3073
▁'\\	-3074
▁Tur	-3075
▁why	-3076
ifier	-3077
itten	-3078
▁dead	-3079
▁deep	-3080
▁pain	-3081
indent	-3082
uction	-3083
▁annot	-3084
▁marry	-3085
▁posit	-3086
▁cousin	-3087
▁ignore	-3088
▁newline	-3089
▁directory	-3090
▁miserable	-3091
▁precision	-3092
KE	-3093
UR	-3094
oe	-3095
eor	-3096
▁")	-3097
▁*,	-3098
▁*/	-3099
▁fi	-3100
inte	-3101
itty	-3102
late	-3103
raid	-3104
▁ten	-3105
Event	-3106
allel	-3107
▁hast	-3108
▁lady	-3109
▁sight	-3110
LDFLAGS	-3111
Program	-3112
▁Nether	-3113
▁errors	-3114
▁walked	-3115
▁instead	-3116
▁methods	-3117
something	-3118
▁parallel	-3119
▁otherwise	-3120
▁Netherfield	-3121
aa	-3122
lt	-3123
▁q	-3124
hor	-3125
inc	-3126
pol	-3127
uid	-3128
win	-3129
mode	-3130
ntax	-3131
open	-3132
zone	-3133
▁won	-3134
andle	-3135
inner	-3136
▁-100	-3137
▁able	-3138
▁http	-3139
▁view	-3140
arents	-3141
esktop	-3142
nouser	-3143
triple	-3144
▁agree	-3145
▁known	-3146
▁ought	-3147
▁quick	-3148
factory	-3149
▁descri	-3150
▁months	-3151
=3	-3152
rx	-3153
vm	-3154
();	-3155
ost	-3156
▁<<	-3157
hour	-3158
ines	-3159
raph	-3160
▁lay	-3161
▁sun	-3162
▁four	-3163
common	-3164
ession	-3165
▁Lucas	-3166
▁token	-3167
▁types	-3168
▁become	-3169
▁itself	-3170
▁seeing	-3171
property	-3172
▁brought	-3173
▁opinion	-3174
▁spirits	-3175
▁strings	-3176
▁success	-3177
▁information	-3178
1:	-3179
["	-3180
})	-3181
cmp	-3182
lig	-3183
loy	-3184
pop	-3185
sor	-3186
▁"-	-3187
▁):	-3188
hash	-3189
iece	-3190
pect	-3191
▁bad	-3192
inder	-3193
stuff	-3194
though	-3195
tribut	-3196
▁Kitty	-3197
▁compl	-3198
▁party	-3199
▁tried	-3200
▁effect	-3201
▁matter	-3202
▁remark	-3203
register	-3204
▁attempt	-3205
▁followed	-3206
-8	-3207
To	-3208
Tr	-3209
UE	-3210
gi	-3211
$'\	-3212
(0,	-3213
-1)	-3214
irt	-3215
▁-=	-3216
▁RE	-3217
▁]*	-3218
▁bc	-3219
.*/\	-3220
fast	-3221
osed	-3222
▁"$@	-3223
▁ali	-3224
▁inf	-3225
▁joy	-3226
▁scp	-3227
ailed	-3228
▁'.*'	-3229
▁Some	-3230
▁mist	-3231
▁prob	-3232
▁seek	-3233
▁serv	-3234
utdown	-3235
▁avoid	-3236
▁money	-3237
Desktop	-3238
▁misery	-3239
▁suppose	-3240
▁optional	-3241
▁original	-3242
▁countenance	-3243
abstractmethod	-3244
PS	-3245
ox	-3246
ye	-3247
256	-3248
ITE	-3249
ecs	-3250
▁19	-3251
avar	-3252
iler	-3253
onel	-3254
rary	-3255
▁usu	-3256
exact	-3257
flict	-3258
illed	-3259
▁pipe	-3260
STRING	-3261
tzinfo	-3262
▁beaut	-3263
▁cause	-3264
▁title	-3265
▁compan	-3266
▁remote	-3267
▁wished	-3268
encoding	-3269
▁globals	-3270
▁manners	-3271
▁business	-3272
▁question	-3273
▁resolved	-3274
▁warnings	-3275
SU	-3276
Sh	-3277
wm	-3278
—”	-3279
idd	-3280
joy	-3281
▁//	-3282
▁By	-3283
Path	-3284
SIZE	-3285
last	-3286
rely	-3287
▁ins	-3288
▁pwd	-3289
▁sus	-3290
where	-3291
▁Geor	-3292
▁deal	-3293
parser	-3294
▁After	-3295
▁enter	-3296
▁raised	-3297
▁saying	-3298
▁wanted	-3299
▁allowed	-3300
▁hasattr	-3301
▁keyword	-3302
▁thoughts	-3303
▁perfectly	-3304
*/	-3305
lh	-3306
$//	-3307
.]*	-3308
Foo	-3309
Hel	-3310
\//	-3311
ien	-3312
obj	-3313
orn	-3314
}")	-3315
▁>(	-3316
▁NR	-3317
dump	-3318
race	-3319
▁'\.	-3320
▁-23	-3321
ceive	-3322
▁glad	-3323
▁intr	-3324
▁jour	-3325
7.0.0.	-3326
gument	-3327
idence	-3328
stdout	-3329
▁neigh	-3330
▁oblig	-3331
▁smile	-3332
▁thank	-3333
▁water	-3334
▁former	-3335
▁ground	-3336
▁honour	-3337
▁lineno	-3338
▁natural	-3339
▁running	-3340
▁operation	-3341
"]	-3342
DA	-3343
200	-3344
OUT	-3345
ils	-3346
ATTR	-3347
SION	-3348
fail	-3349
nest	-3350
ract	-3351
same	-3352
▁und	-3353
▁wid	-3354
dered	-3355
ember	-3356
ondon	-3357
▁Your	-3358
▁five	-3359
▁item	-3360
▁none	-3361
▁prog	-3362
▁push	-3363
▁wife	-3364
idered	-3365
ossible	-3366
▁London	-3367
▁opened	-3368
▁single	-3369
________	-3370
▁Colonel	-3371
▁forward	-3372
▁married	-3373
▁considered	-3374
InvalidOperation	-3375
4,	-3376
Un	-3377
Col	-3378
END	-3379
ORD	-3380
cho	-3381
▁An	-3382
▁em	-3383
('2.	-3384
acle	-3385
days	-3386
hood	-3387
▁fan	-3388
▁mon	-3389
▁Just	-3390
▁body	-3391
▁husb	-3392
▁port	-3393
▁repr	-3394
▁situ	-3395
indows	-3396
stderr	-3397
▁unset	-3398
Console	-3399
Returns	-3400
invalid	-3401
keyword	-3402
nonlocal	-3403
▁decimal	-3404
▁greater	-3405
▁husband	-3406
▁options	-3407
▁namespace	-3408
▁neighbour	-3409
'`	-3410
Re	-3411
]"	-3412
wc	-3413
*10	-3414
/$(	-3415
999	-3416
LOC	-3417
LOG	-3418
{\}	-3419
▁*"	-3420
▁Wh	-3421
▁\*	-3422
▁af	-3423
CALL	-3424
enev	-3425
inst	-3426
mbox	-3427
pose	-3428
▁$'\	-3429
▁+60	-3430
▁-12	-3431
▁IFS	-3432
▁“*.	-3433
FTIME	-3434
egrep	-3435
▁heav	-3436
FOLDER	-3437
create	-3438
▁block	-3439
▁chars	-3440
▁dread	-3441
▁eager	-3442
▁enjoy	-3443
▁fixed	-3444
▁recol	-3445
▁separ	-3446
▁troub	-3447
urandom	-3448
▁behaviour	-3449
▁acquaintance	-3450
-*	-3451
af	-3452
bed	-3453
icy	-3454
seq	-3455
▁De	-3456
ants	-3457
▁Why	-3458
▁res	-3459
ading	-3460
aster	-3461
queue	-3462
short	-3463
▁cold	-3464
▁fail	-3465
▁grat	-3466
▁laug	-3467
▁remo	-3468
iously	-3469
values	-3470
▁aston	-3471
▁frame	-3472
▁remove	-3473
location	-3474
▁finally	-3475
▁journey	-3476
▁creature	-3477
▁implementation	-3478
================	-3479
IX	-3480
LC	-3481
Pr	-3482
UU	-3483
br	-3484
/{}	-3485
App	-3486
How	-3487
Not	-3488
SHA	-3489
hel	-3490
ird	-3491
lab	-3492
mov	-3493
▁Oh	-3494
▁]]	-3495
▁ca	-3496
That	-3497
core	-3498
done	-3499
func	-3500
oint	-3501
rive	-3502
tled	-3503
▁CON	-3504
▁deg	-3505
▁fur	-3506
▁ste	-3507
light	-3508
▁1000	-3509
▁dare	-3510
▁loss	-3511
▁zero	-3512
recurs	-3513
▁clear	-3514
▁doesn	-3515
▁scene	-3516
▁trans	-3517
archive	-3518
ections	-3519
▁depend	-3520
▁prompt	-3521
▁public	-3522
▁waiter	-3523
▁OSError	-3524
▁created	-3525
▁appearance	-3526
''	-3527
,$	-3528
/[	-3529
EL	-3530
OT	-3531
]]	-3532
cs	-3533
yp	-3534
100	-3535
:]]	-3536
=0,	-3537
SET	-3538
▁Un	-3539
▁ug	-3540
ARCH	-3541
[0];	-3542
room	-3543
zcat	-3544
▁+20	-3545
▁aux	-3546
▁inn	-3547
▁opt	-3548
▁pat	-3549
▁swe	-3550
Music	-3551
param	-3552
stdin	-3553
▁"$@"	-3554
▁Cler	-3555
▁excl	-3556
▁main	-3557
▁prop	-3558
▁step	-3559
▁tone	-3560
[0]=1;	-3561
itting	-3562
justed	-3563
▁instr	-3564
▁ready	-3565
▁compar	-3566
▁likely	-3567
▁memory	-3568
▁proper	-3569
negative	-3570
protocol	-3571
▁written	-3572
supported	-3573
exceptions	-3574
startswith	-3575
jk	-3576
}.	-3577
AGE	-3578
ULT	-3579
Why	-3580
▁UT	-3581
Type	-3582
lish	-3583
rier	-3584
▁gri	-3585
▁low	-3586
frame	-3587
usion	-3588
▁foot	-3589
▁raft	-3590
▁send	-3591
insert	-3592
▁Turtle	-3593
▁cursor	-3594
▁indent	-3595
▁listen	-3596
▁talked	-3597
opyright	-3598
▁Clerval	-3599
▁silence	-3600
▁category	-3601
▁provided	-3602
▁endeavour	-3603
▁following	-3604
-\	-3605
/`	-3606
2]	-3607
32	-3608
ED	-3609
ET	-3610
\{	-3611
fn	-3612
sn	-3613
};	-3614
▁9	-3615
ARD	-3616
CUR	-3617
Pre	-3618
hup	-3619
▁()	-3620
▁AB	-3621
atio	-3622
▁"__	-3623
▁emp	-3624
▁fut	-3625
await	-3626
erver	-3627
ining	-3628
ports	-3629
stamp	-3630
ution	-3631
▁exec	-3632
▁kept	-3633
▁prep	-3634
▁reco	-3635
000000	-3636
Action	-3637
Werror	-3638
active	-3639
apping	-3640
arcely	-3641
elling	-3642
ically	-3643
locale	-3644
second	-3645
seconds	-3646
▁divmod	-3647
▁groups	-3648
▁multip	-3649
▁strong	-3650
tributes	-3651
▁Runtime	-3652
▁seconds	-3653
▁remained	-3654
precedence	-3655
▁everybody	-3656
▁expressed	-3657
▁knowledge	-3658
▁determined	-3659
6,	-3660
={	-3661
>"	-3662
Hn	-3663
If	-3664
xc	-3665
}/	-3666
)):	-3667
777	-3668
PRO	-3669
SCR	-3670
SYS	-3671
ste	-3672
web	-3673
airs	-3674
icit	-3675
mail	-3676
unic	-3677
uniq	-3678
▁"$1	-3679
▁775	-3680
▁ben	-3681
▁equ	-3682
▁mad	-3683
▁vim	-3684
Users	-3685
[^/]*	-3686
stype	-3687
urity	-3688
ustom	-3689
▁"$0"	-3690
▁Mary	-3691
▁Mery	-3692
▁Mock	-3693
▁\{\}	-3694
▁beau	-3695
▁forg	-3696
trials	-3697
update	-3698
▁https	-3699
▁learn	-3700
▁advant	-3701
▁backup	-3702
▁choice	-3703
▁google	-3704
▁silent	-3705
▁Meryton	-3706
▁complet	-3707
▁compute	-3708
▁install	-3709
▁pattern	-3710
▁believed	-3711
▁children	-3712
▁kindness	-3713
iwholename	-3714
▁impossible	-3715
CS	-3716
OM	-3717
)))	-3718
1",	-3719
iod	-3720
▁24	-3721
DAYS	-3722
long	-3723
phon	-3724
ries	-3725
ware	-3726
▁THE	-3727
▁Tom	-3728
▁cmd	-3729
▁sir	-3730
▁sou	-3731
▁Huck	-3732
▁seem	-3733
CFLAGS	-3734
cluded	-3735
codecs	-3736
▁'\\',	-3737
▁corre	-3738
▁nargs	-3739
▁owner	-3740
running	-3741
▁beauty	-3742
▁entire	-3743
▁horror	-3744
lication	-3745
▁actions	-3746
▁destroy	-3747
▁prevent	-3748
▁proceed	-3749
▁negative	-3750
▁scarcely	-3751
[0-9][0-9]	-3752
▁surprised	-3753
"%	-3754
=0	-3755
>'	-3756
>/	-3757
("%	-3758
Key	-3759
exc	-3760
flo	-3761
iny	-3762
rif	-3763
she	-3764
▁pa	-3765
angu	-3766
aves	-3767
eval	-3768
fill	-3769
mint	-3770
mult	-3771
▁Gry	-3772
▁Let	-3773
▁pow	-3774
▁soc	-3775
abbit	-3776
eness	-3777
▁ANSI	-3778
▁gard	-3779
▁pack	-3780
▁pict	-3781
fields	-3782
isible	-3783
▁parse	-3784
▁quiet	-3785
contain	-3786
▁Hatter	-3787
▁Pember	-3788
▁create	-3789
▁desire	-3790
▁micros	-3791
▁nearly	-3792
▁reader	-3793
▁tzinfo	-3794
▁Gryphon	-3795
▁concern	-3796
▁engaged	-3797
▁settled	-3798
▁document	-3799
▁positive	-3800
▁remember	-3801
Precedence	-3802
▁Pemberley	-3803
▁beautiful	-3804
▁afterwards	-3805
4-	-3806
nl	-3807
},	-3808
222	-3809
ARY	-3810
ics	-3811
itz	-3812
rpm	-3813
▁$'	-3814
▁$9	-3815
[^.]	-3816
alth	-3817
gest	-3818
keys	-3819
ummy	-3820
▁'*'	-3821
▁'__	-3822
▁wis	-3823
[^.]*	-3824
iddle	-3825
ising	-3826
known	-3827
pgrep	-3828
▁ball	-3829
▁skip	-3830
ecmint	-3831
family	-3832
marker	-3833
number	-3834
▁dream	-3835
▁ignor	-3836
▁impro	-3837
VERSION	-3838
environ	-3839
▁accomp	-3840
▁afraid	-3841
▁common	-3842
▁depart	-3843
▁making	-3844
▁modules	-3845
▁neither	-3846
▁pleased	-3847
▁purpose	-3848
[0-9]*[.]	-3849
localhost	-3850
▁agreeable	-3851
▁expression	-3852
▁themselves	-3853
▁RuntimeError	-3854
[0-9][0-9]*[.]	-3855
=2	-3856
RA	-3857
WA	-3858
`;	-3859
dd	-3860
ev	-3861
ts	-3862
=""	-3863
ief	-3864
▁"<	-3865
▁2,	-3866
▁ir	-3867
This	-3868
WITH	-3869
aded	-3870
main	-3871
reme	-3872
▁ang	-3873
▁dot	-3874
▁mot	-3875
found	-3876
ially	-3877
ively	-3878
lname	-3879
lying	-3880
▁draw	-3881
▁fine	-3882
▁hold	-3883
▁laid	-3884
▁late	-3885
▁reli	-3886
achine	-3887
fortun	-3888
▁conse	-3889
▁limit	-3890
▁signal	-3891
expected	-3892
▁Justine	-3893
Exception	-3894
/2	-3895
19	-3896
1_	-3897
40	-3898
5,	-3899
7,	-3900
mm	-3901
~'	-3902
▁es	-3903
▁xc	-3904
Call	-3905
aise	-3906
docs	-3907
ular	-3908
what	-3909
▁','	-3910
▁eye	-3911
▁son	-3912
*10**	-3913
night	-3914
point	-3915
range	-3916
▁With	-3917
ameter	-3918
locked	-3919
▁color	-3920
▁float	-3921
▁offic	-3922
▁pride	-3923
▁shore	-3924
▁stack	-3925
▁tears	-3926
▁usage	-3927
decimal	-3928
handler	-3929
▁George	-3930
▁behind	-3931
▁events	-3932
▁images	-3933
▁kwargs	-3934
▁master	-3935
▁search	-3936
▁unless	-3937
▁update	-3938
function	-3939
rounding	-3940
shutdown	-3941
▁despair	-3942
cancelled	-3943
▁although	-3944
executable	-3945
▁gentleman	-3946
▁instantly	-3947
▁satisfied	-3948
microseconds	-3949
.’	-3950
He	-3951
IR	-3952
TM	-3953
VS	-3954
jo	-3955
tx	-3956
$/\	-3957
/*'	-3958
:]'	-3959
REP	-3960
cap	-3961
cvf	-3962
exe	-3963
ksh	-3964
way	-3965
▁"+	-3966
▁30	-3967
▁50	-3968
▁\"	-3969
4000	-3970
:]]*	-3971
Mode	-3972
aken	-3973
apsh	-3974
json	-3975
mpeg	-3976
roll	-3977
seek	-3978
suff	-3979
task	-3980
zero	-3981
▁700	-3982
▁ABC	-3983
▁Eng	-3984
▁mag	-3985
▁opp	-3986
▁pap	-3987
built	-3988
istry	-3989
nding	-3990
parts	-3991
slots	-3992
store	-3993
▁'*.[	-3994
▁2009	-3995
▁attr	-3996
▁blah	-3997
apshot	-3998
minute	-3999
tokens	-4000
umbers	-4001
▁doing	-4002
▁early	-4003
▁order	-4004
▁parts	-4005
▁shift	-4006
▁attach	-4007
▁compat	-4008
▁garden	-4009
▁nobody	-4010
commands	-4011
irection	-4012
projects	-4013
▁archive	-4014
▁cottage	-4015
▁earnest	-4016
▁program	-4017
▁directly	-4018
▁happened	-4019
▁repeated	-4020
▁suddenly	-4021
▁wretched	-4022
subdomainA	-4023
subdomainB	-4024
▁daughters	-4025
▁characters	-4026
36	-4027
70	-4028
82	-4029
<=	-4030
cu	-4031
ORT	-4032
acc	-4033
inf	-4034
ior	-4035
llo	-4036
xxx	-4037
▁dt	-4038
Cont	-4039
elix	-4040
gers	-4041
http	-4042
mine	-4043
semb	-4044
site	-4045
skip	-4046
sume	-4047
toff	-4048
▁Now	-4049
▁Res	-4050
▁Sir	-4051
▁bin	-4052
▁err	-4053
▁fif	-4054
▁sto	-4055
Store	-4056
abled	-4057
earch	-4058
flush	-4059
inced	-4060
ivers	-4061
reset	-4062
▁Make	-4063
▁bind	-4064
▁easy	-4065
▁free	-4066
▁Every	-4067
▁girls	-4068
▁occup	-4069
▁produ	-4070
▁white	-4071
▁woods	-4072
decoded	-4073
generic	-4074
parents	-4075
reatest	-4076
▁needed	-4077
▁amiable	-4078
▁changed	-4079
▁fortune	-4080
▁getting	-4081
transport	-4082
▁entirely	-4083
▁greatest	-4084
▁situation	-4085
▁exceptions	-4086
▁getcontext	-4087
)]	-4088
."	-4089
Ar	-4090
Co	-4091
Do	-4092
OL	-4093
SH	-4094
ci	-4095
:00	-4096
ony	-4097
uth	-4098
coro	-4099
uled	-4100
▁Ros	-4101
▁nig	-4102
aving	-4103
pping	-4104
shift	-4105
▁bank	-4106
▁miss	-4107
▁padd	-4108
ssages	-4109
strict	-4110
▁admir	-4111
▁coeff	-4112
▁comes	-4113
▁conce	-4114
▁langu	-4115
▁proto	-4116
▁usual	-4117
appoint	-4118
logical	-4119
▁infile	-4120
▁spirit	-4121
▁system	-4122
▁window	-4123
datetime	-4124
▁Rosings	-4125
▁anybody	-4126
▁asyncio	-4127
▁waiting	-4128
▁constant	-4129
▁handsome	-4130
▁observed	-4131
▁surprise	-4132
▁companion	-4133
▁specified	-4134
▁disappoint	-4135
tributeError	-4136
%.	-4137
:\	-4138
?"	-4139
Eo	-4140
QU	-4141
[$	-4142
gs	-4143
ov	-4144
vz	-4145
||	-4146
../	-4147
1..	-4148
Par	-4149
aff	-4150
avz	-4151
lrt	-4152
▁“_	-4153
MAGE	-4154
[-1]	-4155
ises	-4156
look	-4157
urst	-4158
▁"$0	-4159
▁"*/	-4160
▁'+'	-4161
▁-20	-4162
▁-50	-4163
▁One	-4164
▁boy	-4165
▁buf	-4166
▁sea	-4167
ambda	-4168
ering	-4169
limit	-4170
theme	-4171
▁0777	-4172
▁land	-4173
▁prof	-4174
▁sole	-4175
▁term	-4176
▁whis	-4177
Colors	-4178
XXXXXX	-4179
coming	-4180
▁absol	-4181
▁built	-4182
▁lived	-4183
▁mysql	-4184
▁nohup	-4185
▁pursu	-4186
isearch	-4187
ishment	-4188
uffered	-4189
▁degree	-4190
▁easily	-4191
▁suffer	-4192
annotate	-4193
infinity	-4194
progress	-4195
security	-4196
▁reading	-4197
▁writing	-4198
[^.][^.]*	-4199
▁explicit	-4200
▁advantage	-4201
▁convinced	-4202
▁difference	-4203
=-	-4204
MM	-4205
bb	-4206
la	-4207
0-9	-4208
BIN	-4209
lst	-4210
▁0.	-4211
▁60	-4212
▁er	-4213
READ	-4214
THON	-4215
ards	-4216
expr	-4217
ging	-4218
iced	-4219
ives	-4220
resh	-4221
uish	-4222
yond	-4223
▁'--	-4224
▁Par	-4225
▁XXX	-4226
▁Yet	-4227
▁bed	-4228
▁unh	-4229
▁vio	-4230
▁wit	-4231
aring	-4232
ators	-4233
unity	-4234
wered	-4235
▁1024	-4236
▁coro	-4237
▁eval	-4238
▁fair	-4239
▁mine	-4240
▁stop	-4241
▁avail	-4242
▁below	-4243
▁black	-4244
▁fancy	-4245
▁peace	-4246
▁sorry	-4247
▁spent	-4248
forward	-4249
gettext	-4250
program	-4251
▁Rabbit	-4252
▁binary	-4253
▁broken	-4254
▁fellow	-4255
▁height	-4256
▁report	-4257
▁slight	-4258
▁calling	-4259
▁conduct	-4260
▁extreme	-4261
▁strange	-4262
▁trouble	-4263
▁Argument	-4264
▁carriage	-4265
▁collections	-4266
+1	-4267
-0	-4268
("\	-4269
033	-4270
Met	-4271
SES	-4272
TIF	-4273
ech	-4274
mit	-4275
res	-4276
▁16	-4277
▁FO	-4278
▁[[	-4279
▁ce	-4280
Iter	-4281
enge	-4282
prev	-4283
will	-4284
▁eat	-4285
iving	-4286
title	-4287
▁Read	-4288
▁core	-4289
▁iter	-4290
▁safe	-4291
formed	-4292
▁bring	-4293
▁dance	-4294
▁hopes	-4295
▁seems	-4296
▁sweet	-4297
▁truth	-4298
▁widow	-4299
Include	-4300
Warning	-4301
heduled	-4302
waiters	-4303
▁across	-4304
▁assure	-4305
▁design	-4306
▁dinner	-4307
▁forget	-4308
▁inquir	-4309
▁arrived	-4310
▁further	-4311
▁special	-4312
▁answered	-4313
classmethod	-4314
▁AttributeError	-4315
1\	-4316
Bu	-4317
(",	-4318
8.8	-4319
=$1	-4320
IPT	-4321
ann	-4322
gif	-4323
mic	-4324
pha	-4325
▁'0	-4326
▁+0	-4327
▁Ag	-4328
▁Be	-4329
('0.	-4330
/[[:	-4331
arge	-4332
more	-4333
rase	-4334
unix	-4335
ying	-4336
▁'*/	-4337
▁+50	-4338
▁+90	-4339
▁664	-4340
▁\{}	-4341
▁gra	-4342
▁php	-4343
▁typ	-4344
▁zip	-4345
State	-4346
clear	-4347
links	-4348
music	-4349
nargs	-4350
ounds	-4351
trans	-4352
▁'\0'	-4353
▁drew	-4354
▁past	-4355
▁pros	-4356
▁quar	-4357
▁soft	-4358
FooBar	-4359
Format	-4360
Handle	-4361
[0-9]{	-4362
fstype	-4363
groups	-4364
keygen	-4365
myfile	-4366
ounded	-4367
▁Felix	-4368
▁inner	-4369
▁level	-4370
▁meant	-4371
▁trees	-4372
8.8.8.8	-4373
agement	-4374
stances	-4375
▁Future	-4376
▁exceed	-4377
▁island	-4378
▁opport	-4379
LOCATION	-4380
[0-9]{1,	-4381
adjusted	-4382
samefile	-4383
▁content	-4384
▁rawdata	-4385
▁society	-4386
▁various	-4387
▁abstract	-4388
▁compress	-4389
▁discover	-4390
▁frequent	-4391
▁listened	-4392
▁breakfast	-4393
################	-4394
66	-4395
EE	-4396
Py	-4397
Wp	-4398
``	-4399
('3	-4400
86-	-4401
Def	-4402
ORE	-4403
RED	-4404
She	-4405
alt	-4406
cyg	-4407
eof	-4408
fcf	-4409
mut	-4410
plt	-4411
DEPS	-4412
Mess	-4413
TIFY	-4414
bind	-4415
boot	-4416
bout	-4417
ibly	-4418
imed	-4419
inux	-4420
side	-4421
▁dro	-4422
▁fun	-4423
▁gen	-4424
▁hun	-4425
().__	-4426
FAULT	-4427
board	-4428
clash	-4429
ffile	-4430
float	-4431
march	-4432
mtune	-4433
▁Note	-4434
▁luck	-4435
▁sick	-4436
▁slow	-4437
▁stre	-4438
▁virt	-4439
▁warm	-4440
86-64-	-4441
Future	-4442
atform	-4443
fstack	-4444
iosity	-4445
needle	-4446
policy	-4447
▁earth	-4448
▁trunc	-4449
FORTIFY	-4450
Wformat	-4451
decoder	-4452
section	-4453
▁beyond	-4454
▁bitter	-4455
▁export	-4456
▁locale	-4457
▁secret	-4458
▁decoder	-4459
▁desired	-4460
▁introdu	-4461
▁obliged	-4462
▁removed	-4463
completer	-4464
coroutine	-4465
▁civility	-4466
isinfinity	-4467
fexceptions	-4468
▁ANSIColors	-4469
▁acquainted	-4470
▁annotations	-4471
"{	-4472
rl	-4473
>",	-4474
Are	-4475
CLE	-4476
Per	-4477
SPA	-4478
SUB	-4479
__.	-4480
box	-4481
ude	-4482
ulo	-4483
ume	-4484
▁``	-4485
Your	-4486
ches	-4487
held	-4488
hess	-4489
igin	-4490
requ	-4491
tail	-4492
▁'.'	-4493
▁See	-4494
▁hop	-4495
▁ice	-4496
__.__	-4497
anced	-4498
ester	-4499
minfo	-4500
power	-4501
▁canc	-4502
▁disg	-4503
▁fact	-4504
▁hadn	-4505
▁news	-4506
▁wild	-4507
anging	-4508
cursor	-4509
keymap	-4510
▁March	-4511
▁Their	-4512
▁cross	-4513
▁speed	-4514
▁stood	-4515
ability	-4516
newline	-4517
ription	-4518
▁accord	-4519
▁employ	-4520
▁giving	-4521
▁latter	-4522
▁merely	-4523
category	-4524
internal	-4525
▁assured	-4526
▁restore	-4527
▁defaults	-4528
0|	-4529
65	-4530
De	-4531
PP	-4532
].	-4533
_.	-4534
ba	-4535
ze	-4536
▁—	-4537
",$	-4538
/10	-4539
111	-4540
acs	-4541
hil	-4542
iar	-4543
iso	-4544
~",	-4545
▁$$	-4546
▁+6	-4547
▁2)	-4548
▁Re	-4549
▁Sy	-4550
▁ff	-4551
▁ip	-4552
){3}	-4553
2009	-4554
amed	-4555
mend	-4556
ming	-4557
term	-4558
▁-30	-4559
▁400	-4560
▁Duc	-4561
▁Set	-4562
▁abc	-4563
▁glo	-4564
iding	-4565
loads	-4566
▁func	-4567
▁hair	-4568
▁incl	-4569
▁quit	-4570
OUTPUT	-4571
access	-4572
ffered	-4573
tofind	-4574
▁'.*\.	-4575
▁These	-4576
▁canoe	-4577
▁innoc	-4578
▁plain	-4579
▁pushd	-4580
aration	-4581
▁chance	-4582
▁ffmpeg	-4583
▁health	-4584
▁rememb	-4585
▁trying	-4586
▁wishes	-4587
127.0.0.	-4588
snapshot	-4589
▁Duchess	-4590
▁timeout	-4591
▁Ladyship	-4592
▁complete	-4593
▁pleasant	-4594
▁username	-4595
▁curiosity	-4596
▁connections	-4597
▁destination	-4598
▁opportunity	-4599
▁circumstances	-4600
([	-4601
23	-4602
=%	-4603
We	-4604
yn	-4605
ROM	-4606
ims	-4607
pan	-4608
uce	-4609
zen	-4610
▁Fr	-4611
▁py	-4612
('1.	-4613
TEST	-4614
mage	-4615
nans	-4616
odes	-4617
ring	-4618
▁189	-4619
▁est	-4620
▁led	-4621
▁ran	-4622
▁une	-4623
▁wat	-4624
array	-4625
hosts	-4626
iling	-4627
ourgh	-4628
▁Hert	-4629
▁flag	-4630
▁hund	-4631
▁soul	-4632
Buffer	-4633
counts	-4634
▁excel	-4635
▁loved	-4636
▁tasks	-4637
▁worth	-4638
▁youth	-4639
asyncio	-4640
coffset	-4641
objects	-4642
▁Bourgh	-4643
▁forgot	-4644
▁knowed	-4645
▁nigger	-4646
▁placed	-4647
▁struck	-4648
▁taking	-4649
▁unhapp	-4650
▁meaning	-4651
▁promise	-4652
▁release	-4653
fordshire	-4654
namespace	-4655
▁distance	-4656
▁thinking	-4657
deprecated	-4658
▁gentlemen	-4659
▁comparison	-4660
▁compliment	-4661
▁discovered	-4662
▁Hertfordshire	-4663
(*	-4664
3/	-4665
Sc	-4666
dm	-4667
-10	-4668
.*)	-4669
10(	-4670
Int	-4671
SER	-4672
Set	-4673
acy	-4674
lly	-4675
org	-4676
sue	-4677
▁"(	-4678
▁TI	-4679
('10	-4680
SOCK	-4681
ctxt	-4682
ills	-4683
imum	-4684
into	-4685
rate	-4686
show	-4687
soon	-4688
vely	-4689
▁":"	-4690
▁mut	-4691
▁red	-4692
▁six	-4693
aimed	-4694
idden	-4695
label	-4696
older	-4697
▁Dorm	-4698
▁Iter	-4699
▁Text	-4700
▁keys	-4701
▁null	-4702
▁prod	-4703
▁rows	-4704
▁Event	-4705
▁judge	-4706
▁makes	-4707
▁stats	-4708
▁toler	-4709
▁uname	-4710
▁width	-4711
avoured	-4712
awaited	-4713
changed	-4714
integer	-4715
weekday	-4716
▁assist	-4717
▁config	-4718
▁detail	-4719
esterday	-4720
▁arrival	-4721
▁related	-4722
▁started	-4723
▁Dormouse	-4724
▁speaking	-4725
▁beginning	-4726
▁mountains	-4727
microsecond	-4728
▁admiration	-4729
/:	-4730
2_	-4731
;/	-4732
XT	-4733
\-	-4734
_/	-4735
df	-4736
nj	-4737
vn	-4738
-*.	-4739
.*/	-4740
1,1	-4741
dst	-4742
ltr	-4743
ron	-4744
tex	-4745
▁],	-4746
ALUE	-4747
Host	-4748
Loop	-4749
__",	-4750
demo	-4751
dirs	-4752
oper	-4753
perl	-4754
ride	-4755
{1,2	-4756
▁"{}	-4757
▁###	-4758
▁$1}	-4759
▁'[:	-4760
▁/_/	-4761
▁Per	-4762
▁bes	-4763
▁dey	-4764
▁die	-4765
▁dri	-4766
▁isn	-4767
▁pid	-4768
▁ttt	-4769
▁wnj	-4770
admin	-4771
aking	-4772
drive	-4773
ftime	-4774
ighty	-4775
mport	-4776
msgid	-4777
▁Find	-4778
▁died	-4779
▁java	-4780
▁move	-4781
▁park	-4782
▁repl	-4783
decode	-4784
foobar	-4785
google	-4786
sample	-4787
▁ROUND	-4788
▁array	-4789
▁court	-4790
▁liked	-4791
▁miles	-4792
▁recom	-4793
▁terms	-4794
content	-4795
install	-4796
nogroup	-4797
▁100000	-4798
▁danger	-4799
▁formed	-4800
▁middle	-4801
▁modulo	-4802
▁passwd	-4803
▁temper	-4804
readable	-4805
terminal	-4806
▁Forster	-4807
▁feature	-4808
imization	-4809
▁comments	-4810
▁formatter	-4811
▁mentioned	-4812
▁deprecated	-4813
2:	-4814
8,	-4815
AX	-4816
LF	-4817
SL	-4818
wo	-4819
('2	-4820
(10	-4821
GEN	-4822
INT	-4823
OUP	-4824
TRA	-4825
ets	-4826
gry	-4827
rer	-4828
|\.	-4829
▁"[	-4830
▁17	-4831
▁{'	-4832
).__	-4833
Emax	-4834
LINE	-4835
WORD	-4836
diff	-4837
kind	-4838
lanc	-4839
when	-4840
▁Wal	-4841
▁fat	-4842
▁ord	-4843
('1')	-4844
Count	-4845
actor	-4846
posxy	-4847
proto	-4848
▁Phil	-4849
▁clot	-4850
▁cred	-4851
▁desp	-4852
▁disc	-4853
▁rand	-4854
▁wand	-4855
elcome	-4856
▁chief	-4857
▁cloud	-4858
▁fiend	-4859
▁msgid	-4860
▁tremb	-4861
complet	-4862
imation	-4863
itional	-4864
iversal	-4865
▁joined	-4866
▁places	-4867
▁simple	-4868
▁whence	-4869
password	-4870
▁Returns	-4871
▁applied	-4872
▁reached	-4873
▁receive	-4874
▁walking	-4875
▁callable	-4876
▁reckoned	-4877
▁direction	-4878
▁interrupt	-4879
▁perceived	-4880
▁supported	-4881
▁endeavoured	-4882
▁particularly	-4883
-4	-4884
/1	-4885
9,	-4886
An	-4887
PO	-4888
eq	-4889
-2.	-4890
ASH	-4891
MAX	-4892
acl	-4893
off	-4894
pow	-4895
▁'<	-4896
▁11	-4897
▁2.	-4898
▁Sc	-4899
▁TH	-4900
▁cv	-4901
▁fd	-4902
▁hi	-4903
3.14	-4904
Spec	-4905
[0-9	-4906
case	-4907
gral	-4908
itor	-4909
nced	-4910
omen	-4911
ooks	-4912
star	-4913
▁':'	-4914
▁500	-4915
▁ard	-4916
▁gcc	-4917
▁num	-4918
FILES	-4919
ality	-4920
ggest	-4921
mpath	-4922
quant	-4923
▁Join	-4924
▁feet	-4925
cludes	-4926
extend	-4927
finite	-4928
header	-4929
params	-4930
▁alter	-4931
▁books	-4932
▁cheer	-4933
▁delay	-4934
▁impat	-4935
▁regex	-4936
ceiving	-4937
compile	-4938
ilities	-4939
metavar	-4940
▁append	-4941
▁custom	-4942
▁encour	-4943
▁intent	-4944
▁logger	-4945
▁period	-4946
▁status	-4947
complete	-4948
incoming	-4949
whatever	-4950
▁Section	-4951
▁compare	-4952
▁hundred	-4953
▁invalid	-4954
▁numbers	-4955
Copyright	-4956
▁actually	-4957
▁finished	-4958
▁officers	-4959
▁stranger	-4960
▁variable	-4961
connection	-4962
▁functions	-4963
▁possessed	-4964
▁returning	-4965
▁invitation	-4966
specialization	-4967
$2	-4968
&"	-4969
'{	-4970
)/	-4971
2'	-4972
29	-4973
:3	-4974
Of	-4975
sf	-4976
'/'	-4977
(1,	-4978
)$'	-4979
++)	-4980
/$/	-4981
/${	-4982
/./	-4983
:",	-4984
="\	-4985
==1	-4986
AVE	-4987
FNR	-4988
JBO	-4989
LIM	-4990
One	-4991
\)'	-4992
\./	-4993
deb	-4994
kes	-4995
lto	-4996
ntu	-4997
oun	-4998
ras	-4999
srv	-5000
swp	-5001
▁*~	-5002
▁+$	-5003
▁14	-5004
▁IO	-5005
▁RS	-5006
▁cf	-5007
BACK	-5008
Down	-5009
Info	-5010
RECT	-5011
apps	-5012
cell	-5013
decl	-5014
itzw	-5015
tree	-5016
verb	-5017
▁+"%	-5018
▁SUM	-5019
▁UTC	-5020
▁aaa	-5021
▁ack	-5022
▁ant	-5023
▁blo	-5024
▁ctx	-5025
▁van	-5026
('0')	-5027
Gener	-5028
JBOSS	-5029
alent	-5030
binop	-5031
buntu	-5032
dirty	-5033
eneva	-5034
httpd	-5035
incip	-5036
orrow	-5037
shake	-5038
users	-5039
while	-5040
▁"$2"	-5041
▁$0}'	-5042
▁'*~'	-5043
▁0644	-5044
▁1894	-5045
▁evil	-5046
▁fish	-5047
▁moon	-5048
▁uses	-5049
-*2009	-5050
BINARY	-5051
Reader	-5052
SCRIPT	-5053
errors	-5054
handle	-5055
random	-5056
suffix	-5057
▁".*\.	-5058
▁Allen	-5059
▁Fitzw	-5060
▁Stats	-5061
▁contr	-5062
▁hurry	-5063
▁utter	-5064
▁women	-5065
Example	-5066
[0-9]*'	-5067
company	-5068
globals	-5069
serving	-5070
▁acknow	-5071
▁afford	-5072
▁global	-5073
▁living	-5074
▁oracle	-5075
▁please	-5076
▁unable	-5077
cygdrive	-5078
relative	-5079
▁8.8.8.8	-5080
▁Philips	-5081
▁comment	-5082
▁picture	-5083
▁remount	-5084
▁sympath	-5085
▁tecmint	-5086
▁weekday	-5087
▁younger	-5088
▁Makefile	-5089
▁compiler	-5090
▁integers	-5091
▁language	-5092
▁supposed	-5093
▁terminal	-5094
▁favourite	-5095
[^.][^.]*\.	-5096
▁connection	-5097
▁sufficient	-5098
▁Fitzwilliam	-5099
▁neighbourhood	-5100
????????????????	-5101
6/	-5102
?'	-5103
cb	-5104
dt	-5105
zz	-5106
ART	-5107
COD	-5108
HOR	-5109
RAN	-5110
how	-5111
htm	-5112
ons	-5113
rol	-5114
▁"_	-5115
▁'#	-5116
▁80	-5117
▁[_	-5118
('-1	-5119
1234	-5120
STRU	-5121
enty	-5122
llib	-5123
outh	-5124
▁'0'	-5125
▁AST	-5126
▁Sub	-5127
▁age	-5128
▁exh	-5129
▁fam	-5130
▁fig	-5131
▁inh	-5132
▁neg	-5133
▁suc	-5134
('2.1	-5135
INPUT	-5136
antic	-5137
exist	-5138
owner	-5139
ptime	-5140
scale	-5141
using	-5142
▁2000	-5143
▁From	-5144
▁doll	-5145
▁fore	-5146
▁jump	-5147
▁plan	-5148
▁priv	-5149
▁rich	-5150
▁tale	-5151
▁vain	-5152
ancing	-5153
course	-5154
height	-5155
ources	-5156
pyrepl	-5157
urllib	-5158
▁Other	-5159
▁alias	-5160
▁blame	-5161
▁calls	-5162
▁debug	-5163
▁guard	-5164
▁story	-5165
▁stuff	-5166
ivalent	-5167
release	-5168
verbose	-5169
▁access	-5170
▁credit	-5171
▁follow	-5172
▁fright	-5173
▁indiff	-5174
▁mighty	-5175
▁stderr	-5176
▁waited	-5177
keywords	-5178
▁absence	-5179
▁classes	-5180
▁hearing	-5181
▁library	-5182
▁princip	-5183
▁succeed	-5184
▁conflict	-5185
▁intended	-5186
▁probably	-5187
▁promised	-5188
▁timezone	-5189
▁coroutine	-5190
▁existence	-5191
▁threading	-5192
▁sensations	-5193
▁disposition	-5194
▁astonishment	-5195
▁documentation	-5196
)?	-5197
01	-5198
:"	-5199
CA	-5200
DO	-5201
MD	-5202
On	-5203
Sy	-5204
ql	-5205
COM	-5206
Lib	-5207
OTE	-5208
aws	-5209
cjk	-5210
erm	-5211
nde	-5212
vol	-5213
▁25	-5214
▁Is	-5215
▁cy	-5216
▁da	-5217
._]]	-5218
Comp	-5219
LACE	-5220
Test	-5221
They	-5222
abit	-5223
cent	-5224
ffee	-5225
nces	-5226
rehe	-5227
true	-5228
▁EOF	-5229
▁etc	-5230
GROUP	-5231
START	-5232
false	-5233
graph	-5234
imate	-5235
rozen	-5236
under	-5237
▁Call	-5238
▁Here	-5239
▁calm	-5240
▁hash	-5241
▁insp	-5242
▁mort	-5243
▁post	-5244
▁shut	-5245
▁weak	-5246
CURSES	-5247
SEARCH	-5248
column	-5249
export	-5250
mitted	-5251
onical	-5252
▁Hurst	-5253
▁begun	-5254
▁final	-5255
▁indic	-5256
▁looks	-5257
▁maybe	-5258
▁numer	-5259
▁reply	-5260
▁spite	-5261
▁trust	-5262
mainder	-5263
wrapper	-5264
▁belong	-5265
▁compos	-5266
▁highly	-5267
▁interf	-5268
▁judged	-5269
▁regret	-5270
▁remain	-5271
builtins	-5272
overflow	-5273
▁clothes	-5274
▁consent	-5275
▁courage	-5276
▁letters	-5277
▁section	-5278
▁violent	-5279
cjkcodecs	-5280
▁accident	-5281
▁approach	-5282
▁attended	-5283
▁somebody	-5284
▁standard	-5285
▁superior	-5286
▁creatures	-5287
▁excellent	-5288
▁remainder	-5289
'"	-5290
(/	-5291
.)	-5292
03	-5293
As	-5294
TA	-5295
Td	-5296
Tm	-5297
WN	-5298
\;	-5299
aj	-5300
hn	-5301
xB	-5302
zf	-5303
|%	-5304
([^	-5305
.")	-5306
.*\	-5307
/^\	-5308
123	-5309
444	-5310
567	-5311
ABC	-5312
FIN	-5313
FOO	-5314
PAT	-5315
Ref	-5316
TEN	-5317
]*'	-5318
cgi	-5319
ilo	-5320
irm	-5321
ltn	-5322
odo	-5323
oof	-5324
pic	-5325
tgz	-5326
url	-5327
▁$_	-5328
▁>/	-5329
▁AR	-5330
▁DA	-5331
▁Sh	-5332
▁|&	-5333
BASH	-5334
HACL	-5335
HOST	-5336
Meta	-5337
TIES	-5338
Work	-5339
\([^	-5340
anqu	-5341
blah	-5342
cron	-5343
etch	-5344
ffat	-5345
flac	-5346
gsub	-5347
heme	-5348
ixed	-5349
junk	-5350
lost	-5351
pers	-5352
sbin	-5353
than	-5354
this	-5355
uous	-5356
{1..	-5357
▁"",	-5358
▁"\.	-5359
▁$1;	-5360
▁'^\	-5361
▁-14	-5362
▁ALL	-5363
▁AUT	-5364
▁Don	-5365
▁Get	-5366
▁OUT	-5367
▁dst	-5368
▁fer	-5369
▁ite	-5370
▁mat	-5371
▁mer	-5372
▁spr	-5373
▁xxx	-5374
▁{}'	-5375
ARGET	-5376
Linux	-5377
PRESS	-5378
ardon	-5379
ellig	-5380
lence	-5381
licit	-5382
mtoff	-5383
peter	-5384
resol	-5385
sites	-5386
utely	-5387
visit	-5388
▁$5}'	-5389
▁-111	-5390
▁Base	-5391
▁Hare	-5392
▁THIS	-5393
▁bear	-5394
▁cook	-5395
▁init	-5396
▁rend	-5397
\.){3}	-5398
ension	-5399
ertion	-5400
images	-5401
signal	-5402
unique	-5403
▁-4000	-5404
▁dared	-5405
▁hoped	-5406
▁offer	-5407
▁solit	-5408
UPPRESS	-5409
folders	-5410
indices	-5411
logfile	-5412
scripts	-5413
▁AUTHOR	-5414
▁FOLDER	-5415
▁Geneva	-5416
▁apache	-5417
▁beheld	-5418
▁consol	-5419
▁labour	-5420
▁locals	-5421
▁lovely	-5422
▁native	-5423
▁phrase	-5424
▁solemn	-5425
Messages	-5426
▁anxious	-5427
▁extglob	-5428
▁knowing	-5429
▁passing	-5430
▁project	-5431
▁request	-5432
▁someone	-5433
handshake	-5434
ification	-5435
lications	-5436
remainder	-5437
▁communic	-5438
▁produced	-5439
▁prospect	-5440
▁exclaimed	-5441
▁yesterday	-5442
▁operations	-5443
stringtofind	-5444
▁considerable	-5445
)}	-5446
AM	-5447
JS	-5448
hi	-5449
(0)	-5450
Ali	-5451
CLU	-5452
Clo	-5453
Div	-5454
MIN	-5455
YPE	-5456
aud	-5457
big	-5458
els	-5459
utc	-5460
uzz	-5461
}",	-5462
▁"{	-5463
▁dw	-5464
▁ht	-5465
BUFF	-5466
atur	-5467
ency	-5468
iate	-5469
kill	-5470
plug	-5471
safe	-5472
send	-5473
▁USE	-5474
▁arm	-5475
▁arr	-5476
▁hig	-5477
▁oct	-5478
▁rub	-5479
▁sad	-5480
▁wre	-5481
CLEAN	-5482
Check	-5483
atory	-5484
first	-5485
iloso	-5486
pager	-5487
rance	-5488
ulate	-5489
▁boat	-5490
▁byte	-5491
▁cast	-5492
▁dece	-5493
▁rain	-5494
▁sake	-5495
▁trav	-5496
BUFFER	-5497
PYTHON	-5498
cancel	-5499
plural	-5500
▁clean	-5501
▁deser	-5502
▁famil	-5503
▁grief	-5504
▁image	-5505
▁share	-5506
▁wrote	-5507
comment	-5508
▁author	-5509
▁device	-5510
▁murder	-5511
▁resent	-5512
▁summer	-5513
▁tranqu	-5514
▁trials	-5515
colorize	-5516
defaults	-5517
template	-5518
warnings	-5519
▁capable	-5520
▁compass	-5521
▁philoso	-5522
▁quickly	-5523
▁require	-5524
▁sitting	-5525
▁unhappy	-5526
Transport	-5527
▁sensible	-5528
▁Exception	-5529
▁Sometimes	-5530
▁addressed	-5531
▁available	-5532
▁condition	-5533
▁delighted	-5534
▁attachment	-5535
▁consequence	-5536
(-	-5537
0-	-5538
By	-5539
DB	-5540
Is	-5541
PL	-5542
lm	-5543
ln	-5544
pc	-5545
tp	-5546
vt	-5547
wy	-5548
10,	-5549
CHE	-5550
New	-5551
Rep	-5552
VAR	-5553
utf	-5554
yer	-5555
▁"#	-5556
▁.*	-5557
▁..	-5558
▁18	-5559
▁xe	-5560
▁xx	-5561
Exit	-5562
THER	-5563
aved	-5564
hool	-5565
hore	-5566
keep	-5567
lime	-5568
roid	-5569
view	-5570
wyne	-5571
▁600	-5572
▁ANY	-5573
▁CVS	-5574
▁Doc	-5575
▁WAR	-5576
▁art	-5577
▁deb	-5578
▁hat	-5579
▁lot	-5580
▁pay	-5581
▁sep	-5582
▁sty	-5583
▁tea	-5584
ROUND	-5585
There	-5586
bject	-5587
leave	-5588
onday	-5589
plist	-5590
ushed	-5591
▁Aust	-5592
▁Head	-5593
▁fond	-5594
▁game	-5595
▁hide	-5596
▁rose	-5597
▁sing	-5598
▁stri	-5599
▁vent	-5600
▁vill	-5601
Parser	-5602
device	-5603
erning	-5604
events	-5605
locals	-5606
▁Count	-5607
▁Files	-5608
▁comme	-5609
▁consc	-5610
▁espec	-5611
▁floor	-5612
▁murde	-5613
▁press	-5614
▁twice	-5615
LIBHACL	-5616
choices	-5617
filters	-5618
fulness	-5619
futures	-5620
profile	-5621
▁excess	-5622
▁finish	-5623
▁marked	-5624
▁showed	-5625
▁sorrow	-5626
▁stdout	-5627
integral	-5628
writable	-5629
▁Invalid	-5630
▁dearest	-5631
▁defined	-5632
▁eagerly	-5633
▁entreat	-5634
▁imagine	-5635
▁include	-5636
▁quitted	-5637
▁replace	-5638
▁turning	-5639
▁witness	-5640
container	-5641
dataclass	-5642
recursive	-5643
scheduled	-5644
timestamp	-5645
▁ignorant	-5646
▁intellig	-5647
▁internal	-5648
▁mistaken	-5649
[0-9]{1,3}	-5650
▁attribute	-5651
▁copyright	-5652
▁generally	-5653
▁gratitude	-5654
▁persuaded	-5655
▁relations	-5656
▁attentions	-5657
$$	-5658
';	-5659
IF	-5660
IM	-5661
JU	-5662
OB	-5663
SY	-5664
\1	-5665
]/	-5666
_1	-5667
oP	-5668
rs	-5669
zA	-5670
"}'	-5671
'.'	-5672
-*'	-5673
.",	-5674
BUG	-5675
KEY	-5676
Log	-5677
NGE	-5678
OFT	-5679
TMP	-5680
\0'	-5681
arr	-5682
asy	-5683
baz	-5684
cii	-5685
fat	-5686
flv	-5687
ked	-5688
may	-5689
mpg	-5690
npm	-5691
ocs	-5692
pyc	-5693
rev	-5694
}"'	-5695
▁*'	-5696
▁3.	-5697
▁fp	-5698
▁io	-5699
▁ss	-5700
&"/'	-5701
($0)	-5702
($0,	-5703
/../	-5704
168.	-5705
2012	-5706
ABLE	-5707
CONF	-5708
SAVE	-5709
WARE	-5710
akes	-5711
bits	-5712
conv	-5713
disk	-5714
frac	-5715
gzip	-5716
holy	-5717
icon	-5718
ilar	-5719
ones	-5720
repo	-5721
sure	-5722
ties	-5723
urch	-5724
▁'$1	-5725
▁'+%	-5726
▁<<<	-5727
▁DIR	-5728
▁cop	-5729
▁cvf	-5730
▁dos	-5731
▁zsh	-5732
/.*/"	-5733
Files	-5734
MAGES	-5735
STORE	-5736
agers	-5737
alloc	-5738
anges	-5739
arily	-5740
asing	-5741
ences	-5742
posed	-5743
xtype	-5744
▁"${0	-5745
▁$0))	-5746
▁$3}'	-5747
▁$9}'	-5748
▁'/^\	-5749
▁1234	-5750
▁Comp	-5751
▁SOFT	-5752
▁WITH	-5753
▁]*\)	-5754
▁auto	-5755
▁brew	-5756
▁capt	-5757
▁cell	-5758
▁fill	-5759
▁lips	-5760
▁pair	-5761
▁pref	-5762
▁spot	-5763
2.168.	-5764
TARGET	-5765
ctools	-5766
itated	-5767
newdir	-5768
passwd	-5769
ubuntu	-5770
▁+1000	-5771
▁abhor	-5772
▁bless	-5773
▁digit	-5774
▁dummy	-5775
▁exper	-5776
▁gloom	-5777
▁items	-5778
▁moved	-5779
▁rapid	-5780
▁study	-5781
▁weeks	-5782
▁wrong	-5783
.*/\1/'	-5784
/\(.*\)	-5785
Default	-5786
RANTIES	-5787
REPLACE	-5788
[0-9]\+	-5789
reading	-5790
session	-5791
writing	-5792
▁ACTION	-5793
▁bright	-5794
▁denied	-5795
▁domain	-5796
▁larger	-5797
iterator	-5798
platform	-5799
▁DAMAGES	-5800
▁amongst	-5801
▁company	-5802
▁enabled	-5803
▁handler	-5804
▁hastily	-5805
▁hurried	-5806
▁mapping	-5807
▁monster	-5808
▁partial	-5809
▁passion	-5810
▁warning	-5811
/.*/"&"/'	-5812
EventLoop	-5813
recursion	-5814
▁Buffered	-5815
▁FILENAME	-5816
▁JoinMode	-5817
▁KeyError	-5818
▁SOFTWARE	-5819
▁murderer	-5820
▁myscript	-5821
▁nullglob	-5822
▁sequence	-5823
▁unfortun	-5824
▁watching	-5825
▁questions	-5826
▁WARRANTIES	-5827
Applications	-5828
▁instruction	-5829
▁interesting	-5830
________________	-5831
25	-5832
BY	-5833
PG	-5834
cv	-5835
go	-5836
1":	-5837
CII	-5838
Get	-5839
ITS	-5840
Opt	-5841
Wno	-5842
__)	-5843
dom	-5844
imb	-5845
isy	-5846
tee	-5847
▁:=	-5848
▁VK	-5849
▁tb	-5850
Come	-5851
HALF	-5852
QUEN	-5853
TERN	-5854
anch	-5855
atty	-5856
cast	-5857
enry	-5858
erby	-5859
grat	-5860
hens	-5861
llow	-5862
oved	-5863
page	-5864
peek	-5865
pill	-5866
reed	-5867
uuid	-5868
▁-1:	-5869
▁Saw	-5870
▁ban	-5871
▁har	-5872
▁job	-5873
▁obt	-5874
▁rid	-5875
▁spo	-5876
Alias	-5877
Hello	-5878
alend	-5879
fined	-5880
force	-5881
gment	-5882
ictor	-5883
ieces	-5884
orage	-5885
paste	-5886
usage	-5887
usive	-5888
▁Stop	-5889
▁lake	-5890
IOBase	-5891
Python	-5892
encode	-5893
pillar	-5894
signed	-5895
▁Henry	-5896
▁Mouse	-5897
▁amuse	-5898
▁benef	-5899
▁catch	-5900
▁const	-5901
▁crime	-5902
▁pause	-5903
▁piece	-5904
▁polit	-5905
▁quote	-5906
▁shook	-5907
closing	-5908
▁Austen	-5909
▁admire	-5910
▁anyone	-5911
▁deeply	-5912
▁fields	-5913
▁forced	-5914
▁leaves	-5915
▁melanc	-5916
▁scheme	-5917
▁sorted	-5918
▁speech	-5919
▁winter	-5920
executor	-5921
extended	-5922
optional	-5923
original	-5924
▁Heading	-5925
▁However	-5926
▁curious	-5927
▁meeting	-5928
▁metavar	-5929
▁science	-5930
▁serious	-5931
▁suggest	-5932
▁visitor	-5933
utcoffset	-5934
▁occupied	-5935
▁suffered	-5936
▁whenever	-5937
attributes	-5938
▁container	-5939
▁execution	-5940
▁inquiries	-5941
▁compassion	-5942
▁especially	-5943
▁frequently	-5944
▁melancholy	-5945
▁understood	-5946
▁consolation	-5947
▁exceedingly	-5948
▁circumstance	-5949
04	-5950
3-	-5951
59	-5952
<>	-5953
[3	-5954
[@	-5955
eb	-5956
yz	-5957
---	-5958
125	-5959
:--	-5960
EVE	-5961
STD	-5962
\""	-5963
att	-5964
jul	-5965
nas	-5966
sep	-5967
▁':	-5968
▁PS	-5969
▁Se	-5970
▁ye	-5971
:"),	-5972
DEST	-5973
Data	-5974
Help	-5975
ITER	-5976
MAND	-5977
MENT	-5978
Send	-5979
TYPE	-5980
aped	-5981
card	-5982
cher	-5983
eros	-5984
eved	-5985
grif	-5986
oted	-5987
real	-5988
rect	-5989
rows	-5990
sted	-5991
they	-5992
uate	-5993
ught	-5994
▁'/'	-5995
▁10.	-5996
▁256	-5997
▁ann	-5998
▁pec	-5999
▁pen	-6000
▁pun	-6001
▁smo	-6002
▁tor	-6003
grify	-6004
ialog	-6005
infos	-6006
ories	-6007
rible	-6008
there	-6009
▁Bill	-6010
▁Sund	-6011
▁bird	-6012
▁grow	-6013
▁lead	-6014
▁lose	-6015
▁loud	-6016
▁road	-6017
▁shad	-6018
('0'))	-6019
SEQUEN	-6020
SHARED	-6021
accept	-6022
aining	-6023
arched	-6024
before	-6025
divide	-6026
ifying	-6027
imilar	-6028
ionary	-6029
lished	-6030
prompt	-6031
sorted	-6032
vation	-6033
waiter	-6034
▁Cater	-6035
▁Table	-6036
▁While	-6037
▁agony	-6038
▁cases	-6039
▁fresh	-6040
▁gwyne	-6041
▁proud	-6042
▁style	-6043
▁takes	-6044
Barrier	-6045
alendar	-6046
cluding	-6047
ignored	-6048
▁Sawyer	-6049
▁Victor	-6050
▁attemp	-6051
▁preced	-6052
▁random	-6053
▁syntax	-6054
▁wholly	-6055
▁England	-6056
▁disting	-6057
▁drawing	-6058
▁dropped	-6059
▁evident	-6060
▁extract	-6061
▁justice	-6062
▁moments	-6063
▁reflect	-6064
▁visible	-6065
Iteration	-6066
formatter	-6067
▁comprehe	-6068
▁persuade	-6069
▁relation	-6070
▁rendered	-6071
▁truncate	-6072
▁acknowled	-6073
▁cancelled	-6074
▁connected	-6075
▁fortnight	-6076
▁inputfile	-6077
▁proceeded	-6078
▁reference	-6079
▁concerning	-6080
▁delightful	-6081
▁remembered	-6082
▁resolution	-6083
▁Caterpillar	-6084
▁description	-6085
▁microsecond	-6086
▁positionals	-6087
----------------	-6088
.2	-6089
/)	-6090
4"	-6091
5}	-6092
76	-6093
@$	-6094
At	-6095
RC	-6096
TT	-6097
[/	-6098
`/	-6099
gl	-6100
pa	-6101
pv	-6102
rq	-6103
rv	-6104
tk	-6105
xe	-6106
yy	-6107
");	-6108
/^/	-6109
1,$	-6110
:22	-6111
:]*	-6112
="`	-6113
ADD	-6114
MyC	-6115
ONE	-6116
TED	-6117
UTF	-6118
[@]	-6119
asp	-6120
bmp	-6121
cpu	-6122
ded	-6123
emp	-6124
ftp	-6125
gor	-6126
his	-6127
idx	-6128
job	-6129
pet	-6130
phe	-6131
sof	-6132
vim	-6133
}";	-6134
}:{	-6135
▁($	-6136
▁),	-6137
▁/'	-6138
▁15	-6139
▁64	-6140
▁DE	-6141
▁GU	-6142
▁MY	-6143
▁Po	-6144
▁Tr	-6145
▁aa	-6146
▁dd	-6147
"'"'	-6148
$//"	-6149
()):	-6150
/^.*	-6151
8888	-6152
=$1}	-6153
CODE	-6154
Proc	-6155
Text	-6156
Zero	-6157
__',	-6158
arer	-6159
cpio	-6160
ftot	-6161
ixin	-6162
ndor	-6163
onda	-6164
save	-6165
subl	-6166
uted	-6167
}/${	-6168
▁"-"	-6169
▁'/\	-6170
▁API	-6171
▁Ass	-6172
▁Cat	-6173
▁Had	-6174
▁Who	-6175
▁due	-6176
▁inj	-6177
▁mac	-6178
▁rot	-6179
▁rpm	-6180
▁rvf	-6181
▁scr	-6182
▁sky	-6183
▁sli	-6184
▁xvf	-6185
▁xyz	-6186
/\.*'	-6187
="{}"	-6188
PROCE	-6189
Press	-6190
acket	-6191
anken	-6192
ascii	-6193
erred	-6194
ickle	-6195
iline	-6196
osing	-6197
stein	-6198
thumb	-6199
unzip	-6200
▁$4}'	-6201
▁+500	-6202
▁PATH	-6203
▁Rows	-6204
▁drop	-6205
▁fool	-6206
▁hunt	-6207
▁rage	-6208
▁rule	-6209
▁ways	-6210
CHANGE	-6211
Please	-6212
Shared	-6213
aconda	-6214
cmpltn	-6215
getstr	-6216
gorith	-6217
return	-6218
simple	-6219
stream	-6220
vendor	-6221
widths	-6222
▁"$1")	-6223
▁2009.	-6224
▁Enter	-6225
▁alarm	-6226
▁fetch	-6227
▁hello	-6228
▁ideas	-6229
▁invol	-6230
▁knows	-6231
▁laugh	-6232
▁music	-6233
▁renew	-6234
▁steps	-6235
▁stret	-6236
▁teste	-6237
▁thick	-6238
▁valid	-6239
([0-9]{	-6240
0000000	-6241
Library	-6242
backups	-6243
express	-6244
ftotext	-6245
nearest	-6246
storage	-6247
verflow	-6248
▁+20000	-6249
▁../../	-6250
▁distin	-6251
▁figure	-6252
▁filled	-6253
▁fortun	-6254
▁killed	-6255
▁mktemp	-6256
▁occurs	-6257
▁powers	-6258
▁triump	-6259
/*/*/*/*	-6260
Examples	-6261
USERNAME	-6262
comments	-6263
required	-6264
somehost	-6265
▁'*/\.*'	-6266
▁Headers	-6267
▁anxiety	-6268
▁beloved	-6269
▁carried	-6270
▁complex	-6271
▁confess	-6272
▁decided	-6273
▁display	-6274
▁dollars	-6275
▁endured	-6276
▁equally	-6277
▁setting	-6278
▁stopped	-6279
▁termios	-6280
Formatter	-6281
[0-9]+[.]	-6282
▁Iterator	-6283
▁absolute	-6284
▁affected	-6285
▁attempts	-6286
▁daylight	-6287
▁dreadful	-6288
▁occurred	-6289
▁overcome	-6290
▁pleasing	-6291
▁progress	-6292
▁regiment	-6293
MyCProgram	-6294
ankenstein	-6295
subprocess	-6296
▁buffering	-6297
▁sentiment	-6298
▁sourceDir	-6299
▁completion	-6300
▁instrument	-6301
▁imagination	-6302
▁affectionate	-6303
▁satisfaction	-6304
CommandExamples	-6305
".	-6306
28	-6307
3)	-6308
48	-6309
AF	-6310
Ab	-6311
CP	-6312
gt	-6313
sm	-6314
~"	-6315
","	-6316
')"	-6317
-20	-6318
2})	-6319
="%	-6320
BLE	-6321
INF	-6322
ODO	-6323
SIG	-6324
ali	-6325
cud	-6326
dbm	-6327
hum	-6328
ium	-6329
ses	-6330
try	-6331
uns	-6332
was	-6333
▁"'	-6334
▁(_	-6335
▁32	-6336
▁“‘	-6337
Emin	-6338
Find	-6339
PEND	-6340
When	-6341
Word	-6342
calc	-6343
elic	-6344
eper	-6345
flag	-6346
half	-6347
iers	-6348
lamp	-6349
logs	-6350
olon	-6351
post	-6352
pper	-6353
▁SSL	-6354
▁mid	-6355
▁sle	-6356
▁tom	-6357
Trans	-6358
VALUE	-6359
enevo	-6360
separ	-6361
showw	-6362
▁Such	-6363
▁duty	-6364
▁food	-6365
▁hint	-6366
▁infl	-6367
▁jury	-6368
▁paid	-6369
▁pred	-6370
▁wasn	-6371
CONFIG	-6372
Object	-6373
curses	-6374
pening	-6375
plugin	-6376
rehens	-6377
tzname	-6378
▁Derby	-6379
▁based	-6380
▁blind	-6381
▁cache	-6382
▁delic	-6383
▁incon	-6384
▁mater	-6385
▁noble	-6386
▁reach	-6387
▁store	-6388
▁threw	-6389
refresh	-6390
unknown	-6391
unsford	-6392
wardRef	-6393
▁Sunday	-6394
▁benevo	-6395
▁indign	-6396
▁lambda	-6397
▁lively	-6398
▁pounds	-6399
▁preser	-6400
getstate	-6401
timezone	-6402
▁anguish	-6403
▁besides	-6404
▁conject	-6405
▁consist	-6406
▁correct	-6407
▁dancing	-6408
▁finding	-6409
▁greatly	-6410
▁initial	-6411
▁leaving	-6412
▁perform	-6413
▁regular	-6414
▁servant	-6415
▁unknown	-6416
canonical	-6417
docstring	-6418
▁algorith	-6419
▁distress	-6420
▁marrying	-6421
▁operands	-6422
▁previous	-6423
▁readline	-6424
▁according	-6425
▁destroyed	-6426
▁wonderful	-6427
▁permission	-6428
▁underlying	-6429
▁Frankenstein	-6430
▁microseconds	-6431
▁understanding	-6432
▁representation	-6433
%%	-6434
+-	-6435
.,	-6436
1(	-6437
2}	-6438
Be	-6439
EP	-6440
PR	-6441
So	-6442
Su	-6443
YY	-6444
\$	-6445
qr	-6446
()`	-6447
.')	-6448
2.3	-6449
:02	-6450
CLA	-6451
ILD	-6452
PEC	-6453
USE	-6454
aim	-6455
bur	-6456
cub	-6457
cuf	-6458
cuu	-6459
dch	-6460
ixt	-6461
jud	-6462
oot	-6463
ope	-6464
vey	-6465
▁((	-6466
▁13	-6467
▁2:	-6468
▁Pr	-6469
▁XX	-6470
▁vi	-6471
0-9]	-6472
7'),	-6473
DATE	-6474
LINK	-6475
STAT	-6476
View	-6477
afie	-6478
lsql	-6479
mary	-6480
menu	-6481
omin	-6482
ploy	-6483
plus	-6484
sist	-6485
uced	-6486
▁God	-6487
▁Hel	-6488
▁Yes	-6489
▁emb	-6490
▁fit	-6491
▁hot	-6492
▁law	-6493
▁sol	-6494
▁tim	-6495
SSAGE	-6496
[1-9]	-6497
after	-6498
alpha	-6499
chunk	-6500
clock	-6501
indow	-6502
itesp	-6503
sence	-6504
spond	-6505
track	-6506
usted	-6507
▁Mess	-6508
▁Time	-6509
▁educ	-6510
▁held	-6511
▁objc	-6512
▁rate	-6513
▁rock	-6514
▁snow	-6515
('-1')	-6516
client	-6517
iculty	-6518
uished	-6519
▁align	-6520
▁alive	-6521
▁assur	-6522
▁chunk	-6523
▁desir	-6524
▁dress	-6525
▁forth	-6526
▁gives	-6527
▁indul	-6528
▁liber	-6529
▁mouth	-6530
▁niece	-6531
▁oppos	-6532
▁saved	-6533
▁shock	-6534
▁throw	-6535
▁trial	-6536
▁worse	-6537
WorkRep	-6538
extract	-6539
micolon	-6540
warning	-6541
▁Import	-6542
▁active	-6543
▁asleep	-6544
▁attend	-6545
▁bottom	-6546
▁colors	-6547
▁explan	-6548
▁feared	-6549
▁gained	-6550
▁gmtoff	-6551
▁proved	-6552
▁school	-6553
▁struct	-6554
▁twenty	-6555
endswith	-6556
existing	-6557
hashcode	-6558
messages	-6559
qualname	-6560
readline	-6561
received	-6562
startpos	-6563
▁barrier	-6564
▁congrat	-6565
▁leading	-6566
▁noticed	-6567
▁private	-6568
▁quarter	-6569
▁revenge	-6570
Directory	-6571
▁creation	-6572
▁division	-6573
▁executed	-6574
▁interpre	-6575
▁multiple	-6576
▁sentence	-6577
▁dataclass	-6578
▁discovery	-6579
▁important	-6580
▁prevented	-6581
unsupported	-6582
▁Derbyshire	-6583
▁approached	-6584
▁difficulty	-6585
▁positional	-6586
▁unexpected	-6587
▁comfortable	-6588
▁implemented	-6589
▁reflections	-6590
▁unfortunate	-6591
▁representable	-6592
▁disappointment	-6593
#'	-6594
#/	-6595
-/	-6596
/;	-6597
0/	-6598
1`	-6599
2;	-6600
2\	-6601
3_	-6602
4'	-6603
4.	-6604
5]	-6605
=(	-6606
AV	-6607
Ma	-6608
NU	-6609
Se	-6610
WH	-6611
[?	-6612
kw	-6613
rd	-6614
vp	-6615
zo	-6616
":"	-6617
$/{	-6618
(/^	-6619
*$/	-6620
+=$	-6621
+\.	-6622
/[^	-6623
1.1	-6624
2,2	-6625
4-6	-6626
400	-6627
ATA	-6628
COL	-6629
ERS	-6630
JPG	-6631
URE	-6632
Who	-6633
[$1	-6634
[/]	-6635
\0"	-6636
`/`	-6637
bam	-6638
dav	-6639
dll	-6640
emy	-6641
fox	-6642
hal	-6643
pad	-6644
shp	-6645
wav	-6646
}}'	-6647
▁$6	-6648
▁2-	-6649
▁CO	-6650
▁LI	-6651
▁]+	-6652
▁mm	-6653
▁pv	-6654
▁rw	-6655
▁vm	-6656
.*\.	-6657
033\	-6658
2015	-6659
=0):	-6660
ADME	-6661
FAST	-6662
LIST	-6663
OBJS	-6664
PASS	-6665
PIPE	-6666
Temp	-6667
Time	-6668
WARD	-6669
\)\(	-6670
arts	-6671
bozo	-6672
cker	-6673
else	-6674
hold	-6675
izer	-6676
jpeg	-6677
lies	-6678
otes	-6679
phew	-6680
prud	-6681
span	-6682
sudo	-6683
teen	-6684
tiny	-6685
▁$0;	-6686
▁$2,	-6687
▁'1,	-6688
▁-00	-6689
▁2,2	-6690
▁640	-6691
▁999	-6692
▁DIS	-6693
▁ISO	-6694
▁STR	-6695
▁Use	-6696
▁apr	-6697
▁der	-6698
▁iso	-6699
▁row	-6700
▁vex	-6701
▁vol	-6702
/1024	-6703
BUILD	-6704
CHECK	-6705
INTER	-6706
Maild	-6707
\///'	-6708
abase	-6709
alled	-6710
aniel	-6711
atson	-6712
avoid	-6713
codes	-6714
david	-6715
oming	-6716
query	-6717
rence	-6718
repos	-6719
roken	-6720
rsync	-6721
spool	-6722
▁'/./	-6723
▁'{}.	-6724
▁-444	-6725
▁Only	-6726
▁camp	-6727
▁cand	-6728
▁crow	-6729
▁ease	-6730
▁eleg	-6731
▁gawk	-6732
▁hate	-6733
▁mail	-6734
▁pray	-6735
▁pron	-6736
▁rejo	-6737
▁tort	-6738
▁vict	-6739
.*/\1/	-6740
ailing	-6741
colors	-6742
ecause	-6743
escape	-6744
follow	-6745
fprint	-6746
iction	-6747
linkin	-6748
rapper	-6749
xdigit	-6750
▁$2}')	-6751
▁MyApp	-6752
▁angry	-6753
▁blood	-6754
▁desce	-6755
▁eight	-6756
▁enemy	-6757
▁force	-6758
▁httpd	-6759
▁label	-6760
▁liter	-6761
▁lower	-6762
▁plsql	-6763
▁reser	-6764
▁reuse	-6765
▁shred	-6766
▁taste	-6767
▁theme	-6768
▁wants	-6769
▁wreck	-6770
:]]{1,2	-6771
DEFAULT	-6772
Maildir	-6773
[0-9]+"	-6774
attered	-6775
forever	-6776
fortune	-6777
lengths	-6778
machine	-6779
newerct	-6780
openssl	-6781
rawdata	-6782
righton	-6783
somedir	-6784
sources	-6785
ulation	-6786
▁README	-6787
▁Watson	-6788
▁approx	-6789
▁assemb	-6790
▁divide	-6791
▁enumer	-6792
▁failed	-6793
▁finite	-6794
▁header	-6795
▁heaven	-6796
▁origin	-6797
▁praise	-6798
▁propos	-6799
▁smiled	-6800
▁smiles	-6801
▁substr	-6802
▁suspic	-6803
▁vmware	-6804
▁wretch	-6805
99999999	-6806
historyi	-6807
ifconfig	-6808
includes	-6809
quantize	-6810
▁+100000	-6811
▁Command	-6812
▁Message	-6813
▁consume	-6814
▁dislike	-6815
▁dotglob	-6816
▁excited	-6817
▁learned	-6818
▁mogrify	-6819
▁openssl	-6820
▁triumph	-6821
▁village	-6822
▁watched	-6823
Downloads	-6824
scription	-6825
semicolon	-6826
workspace	-6827
▁127.0.0.	-6828
▁Brighton	-6829
▁Hunsford	-6830
▁SUPPRESS	-6831
▁directed	-6832
▁fallback	-6833
▁messages	-6834
▁uncommon	-6835
containing	-6836
properties	-6837
▁Otherwise	-6838
▁converted	-6839
▁cottagers	-6840
▁departure	-6841
▁forgotten	-6842
▁impatient	-6843
▁increased	-6844
▁parameter	-6845
▁performed	-6846
▁receiving	-6847
▁universal	-6848
annotations	-6849
application	-6850
▁comprehend	-6851
▁compressed	-6852
▁correspond	-6853
▁dictionary	-6854
▁misfortune	-6855
▁subprocess	-6856
▁continually	-6857
▁expectation	-6858
▁interrupted	-6859
,)	-6860
06	-6861
0}	-6862
79	-6863
:$	-6864
>5	-6865
Ch	-6866
DF	-6867
gy	-6868
ks	-6869
rh	-6870
('%	-6871
2')	-6872
Doc	-6873
FLO	-6874
III	-6875
PIC	-6876
ROR	-6877
ael	-6878
erv	-6879
tag	-6880
uel	-6881
▁-6	-6882
▁1-	-6883
▁LO	-6884
▁cc	-6885
▁nt	-6886
▁ru	-6887
1111	-6888
INET	-6889
Pipe	-6890
__()	-6891
alls	-6892
cope	-6893
fPIC	-6894
gith	-6895
hacl	-6896
iest	-6897
impl	-6898
olog	-6899
ping	-6900
quit	-6901
well	-6902
▁0.1	-6903
▁Any	-6904
▁Car	-6905
▁FOR	-6906
▁MAX	-6907
▁sit	-6908
▁tow	-6909
PPING	-6910
align	-6911
anter	-6912
aries	-6913
arrow	-6914
asure	-6915
coder	-6916
emacs	-6917
icked	-6918
mixed	-6919
ndeed	-6920
oline	-6921
otion	-6922
setup	-6923
▁arms	-6924
▁json	-6925
▁pity	-6926
▁prot	-6927
▁rank	-6928
▁save	-6929
▁wide	-6930
▁wlen	-6931
Closed	-6932
INSTRU	-6933
SSAGES	-6934
eature	-6935
github	-6936
ichael	-6937
infile	-6938
itions	-6939
memory	-6940
priate	-6941
ulated	-6942
vering	-6943
▁10000	-6944
▁Ratio	-6945
▁Right	-6946
▁Safie	-6947
▁White	-6948
▁blank	-6949
▁fatig	-6950
▁front	-6951
▁guess	-6952
▁ident	-6953
▁influ	-6954
▁polic	-6955
▁shell	-6956
▁sides	-6957
▁stdin	-6958
▁union	-6959
android	-6960
delimit	-6961
ificant	-6962
windows	-6963
▁Format	-6964
▁ardent	-6965
▁desert	-6966
▁eldest	-6967
▁filter	-6968
▁nephew	-6969
▁pardon	-6970
▁parent	-6971
▁paused	-6972
▁pronou	-6973
▁pursue	-6974
▁sought	-6975
▁unwill	-6976
Division	-6977
itespace	-6978
previous	-6979
registry	-6980
strptime	-6981
▁conceal	-6982
▁counter	-6983
▁escaped	-6984
▁improve	-6985
▁inhabit	-6986
▁logical	-6987
▁machine	-6988
▁sockets	-6989
▁contempt	-6990
▁innocent	-6991
▁presence	-6992
▁registry	-6993
▁strength	-6994
▁surround	-6995
expression	-6996
▁determine	-6997
▁remaining	-6998
▁tolerable	-6999
▁tranquill	-7000
checkClosed	-7001
▁attributes	-7002
▁equivalent	-7003
▁importance	-7004
▁stacklevel	-7005
▁particulars	-7006
▁compatibility	-7007
1%	-7008
4)	-7009
63	-7010
Up	-7011
[2	-7012
[[	-7013
`)	-7014
"")	-7015
"))	-7016
)",	-7017
64.	-7018
Add	-7019
BAL	-7020
CAN	-7021
GLO	-7022
ITY	-7023
MEN	-7024
Nov	-7025
PTH	-7026
dot	-7027
edd	-7028
has	-7029
pub	-7030
sen	-7031
tab	-7032
▁21	-7033
▁PY	-7034
COMP	-7035
HASH	-7036
JUMP	-7037
LOCK	-7038
METH	-7039
TERM	-7040
UPLE	-7041
[0],	-7042
[1:]	-7043
atha	-7044
boat	-7045
book	-7046
emon	-7047
gate	-7048
geho	-7049
near	-7050
uded	-7051
vern	-7052
▁AND	-7053
▁Mar	-7054
▁Pro	-7055
▁Str	-7056
▁ash	-7057
▁cow	-7058
56789	-7059
Books	-7060
Enter	-7061
Mixin	-7062
aging	-7063
anted	-7064
armed	-7065
chron	-7066
coord	-7067
dtstr	-7068
erent	-7069
icult	-7070
image	-7071
large	-7072
never	-7073
pense	-7074
pered	-7075
proxy	-7076
quote	-7077
rench	-7078
traps	-7079
uliar	-7080
upper	-7081
▁Even	-7082
▁Move	-7083
▁Thus	-7084
▁burn	-7085
▁coup	-7086
▁fate	-7087
▁frac	-7088
▁gall	-7089
▁hain	-7090
▁hall	-7091
▁inet	-7092
▁pull	-7093
======	-7094
GLOBAL	-7095
MENTED	-7096
METHOD	-7097
ainted	-7098
allest	-7099
cannot	-7100
fileno	-7101
sqlite	-7102
stairs	-7103
▁Block	-7104
▁Eliza	-7105
▁Gener	-7106
▁aloud	-7107
▁apart	-7108
▁birds	-7109
▁broke	-7110
▁civil	-7111
▁decor	-7112
▁drunk	-7113
▁entry	-7114
▁later	-7115
▁param	-7116
▁reset	-7117
▁space	-7118
▁spend	-7119
MAPPING	-7120
getitem	-7121
options	-7122
ordinal	-7123
uration	-7124
▁String	-7125
▁System	-7126
▁affair	-7127
▁asking	-7128
▁beings	-7129
▁breath	-7130
▁chosen	-7131
▁demand	-7132
▁distur	-7133
▁extras	-7134
▁longed	-7135
▁normal	-7136
▁policy	-7137
▁transl	-7138
▁typing	-7139
▁virtue	-7140
blocking	-7141
compiler	-7142
conflict	-7143
evaluate	-7144
fortunes	-7145
terminfo	-7146
▁Nothing	-7147
▁ashamed	-7148
▁compile	-7149
▁covered	-7150
▁parents	-7151
▁pursuit	-7152
▁reverse	-7153
▁visited	-7154
buffering	-7155
interrupt	-7156
▁accepted	-7157
▁annotate	-7158
▁describe	-7159
▁executor	-7160
▁mountain	-7161
▁peculiar	-7162
▁relative	-7163
▁standing	-7164
Permission	-7165
▁Copyright	-7166
▁callbacks	-7167
▁difficult	-7168
▁enjoyment	-7169
▁entertain	-7170
▁fortunate	-7171
▁intention	-7172
▁philosoph	-7173
▁recovered	-7174
▁separator	-7175
▁traceback	-7176
specialized	-7177
▁conviction	-7178
▁engagement	-7179
▁reflection	-7180
INSTRUMENTED	-7181
Optimization	-7182
▁declaration	-7183
▁inclination	-7184
▁misfortunes	-7185
▁intelligence	-7186
▁recollection	-7187
&&	-7188
({	-7189
)\	-7190
09	-7191
0;	-7192
18	-7193
6.	-7194
94	-7195
UX	-7196
WR	-7197
[%	-7198
_2	-7199
`.	-7200
fq	-7201
ik	-7202
kv	-7203
~/	-7204
ия	-7205
"${	-7206
$/'	-7207
$/.	-7208
($1	-7209
('\	-7210
)$"	-7211
).*	-7212
.\{	-7213
/**	-7214
1}'	-7215
2/'	-7216
?*'	-7217
ACK	-7218
BEN	-7219
IAL	-7220
Mov	-7221
Now	-7222
OFS	-7223
[:]	-7224
\)"	-7225
]*"	-7226
_*'	-7227
_.”	-7228
adm	-7229
alc	-7230
arp	-7231
dbf	-7232
ico	-7233
ini	-7234
jav	-7235
mkv	-7236
mye	-7237
pem	-7238
rsa	-7239
tac	-7240
thr	-7241
trc	-7242
vis	-7243
yle	-7244
zvf	-7245
▁##	-7246
▁)"	-7247
▁=~	-7248
▁Ad	-7249
▁LC	-7250
▁NF	-7251
▁Sw	-7252
▁ec	-7253
▁la	-7254
▁pb	-7255
▁ve	-7256
/\1/	-7257
00')	-7258
1,1.	-7259
2,1.	-7260
6482	-7261
:]]+	-7262
="";	-7263
HEAD	-7264
LECT	-7265
Only	-7266
SPAM	-7267
UUUU	-7268
[0])	-7269
arse	-7270
assi	-7271
curl	-7272
elve	-7273
enes	-7274
irth	-7275
john	-7276
left	-7277
odec	-7278
opos	-7279
rass	-7280
sqld	-7281
srch	-7282
uses	-7283
▁"*_	-7284
▁"+%	-7285
▁"/"	-7286
▁$0,	-7287
▁$0}	-7288
▁$1,	-7289
▁'('	-7290
▁+31	-7291
▁./*	-7292
▁Cur	-7293
▁DST	-7294
▁\;|	-7295
▁_('	-7296
▁cab	-7297
▁csp	-7298
▁dog	-7299
▁fee	-7300
▁hid	-7301
▁map	-7302
▁sha	-7303
▁vis	-7304
Graph	-7305
Inter	-7306
TUPLE	-7307
Total	-7308
Waddr	-7309
ajest	-7310
alien	-7311
artic	-7312
asted	-7313
based	-7314
chmod	-7315
gtest	-7316
hello	-7317
hours	-7318
isnan	-7319
jassi	-7320
myDir	-7321
ously	-7322
phtml	-7323
pipes	-7324
prefs	-7325
rying	-7326
shtml	-7327
sumed	-7328
▁'[[:	-7329
▁+365	-7330
▁----	-7331
▁2013	-7332
▁FROM	-7333
▁YOUR	-7334
▁blue	-7335
▁exam	-7336
▁nice	-7337
▁shot	-7338
▁shri	-7339
('1'))	-7340
/:$//'	-7341
Movies	-7342
SUBSCR	-7343
Script	-7344
anches	-7345
coders	-7346
coffee	-7347
divmod	-7348
enable	-7349
htdocs	-7350
lambda	-7351
resize	-7352
riptor	-7353
tmpdir	-7354
tuples	-7355
▁$'\0'	-7356
▁+1024	-7357
▁10**(	-7358
▁Waldo	-7359
▁conde	-7360
▁cycle	-7361
▁earli	-7362
▁fears	-7363
▁grate	-7364
▁grave	-7365
▁mydir	-7366
▁north	-7367
▁pract	-7368
▁traps	-7369
▁venge	-7370
▁zeros	-7371
COMMAND	-7372
Convert	-7373
IOError	-7374
PATTERN	-7375
Subject	-7376
Windows	-7377
ational	-7378
counter	-7379
discard	-7380
fprintf	-7381
minutes	-7382
msgctxt	-7383
remount	-7384
tkinter	-7385
▁+10000	-7386
▁Agatha	-7387
▁Option	-7388
▁bestow	-7389
▁choose	-7390
▁colour	-7391
▁contri	-7392
▁copies	-7393
▁daniel	-7394
▁expand	-7395
▁getent	-7396
▁htdocs	-7397
▁imprud	-7398
▁modify	-7399
▁motive	-7400
▁raises	-7401
▁render	-7402
▁spring	-7403
▁threat	-7404
▁undert	-7405
▁useful	-7406
.[0-9]+"	-7407
Checking	-7408
XXXXXXXX	-7409
buffered	-7410
markdown	-7411
packages	-7412
strftime	-7413
structor	-7414
▁apropos	-7415
▁changes	-7416
▁checked	-7417
▁declare	-7418
▁environ	-7419
▁follows	-7420
▁gettext	-7421
▁hanging	-7422
▁logfile	-7423
▁opening	-7424
▁persons	-7425
▁profess	-7426
▁protect	-7427
▁rounded	-7428
▁satisfy	-7429
▁signals	-7430
▁similar	-7431
▁welcome	-7432
▁windows	-7433
▁working	-7434
pdftotext	-7435
subfolder	-7436
timedelta	-7437
▁attached	-7438
▁bestowed	-7439
▁branches	-7440
▁buffered	-7441
▁employed	-7442
▁globstar	-7443
▁judgment	-7444
▁murdered	-7445
▁opposite	-7446
▁starting	-7447
127.0.0.1'	-7448
interleave	-7449
▁127.0.0.1	-7450
▁algorithm	-7451
▁apprehens	-7452
▁bytearray	-7453
▁extremely	-7454
▁immediate	-7455
▁including	-7456
▁listening	-7457
▁vengeance	-7458
Stringifier	-7459
aliencoders	-7460
completions	-7461
▁ForwardRef	-7462
▁concurrent	-7463
▁containing	-7464
[0-9]*\.){3}	-7465
▁application	-7466
▁appropriate	-7467
▁destruction	-7468
▁explanation	-7469
▁possibility	-7470
▁significant	-7471
HelpFormatter	-7472
▁acknowledged	-7473
'%	-7474
*(	-7475
0\	-7476
35	-7477
38	-7478
74	-7479
::	-7480
</	-7481
Al	-7482
CC	-7483
EF	-7484
EM	-7485
Mr	-7486
hh	-7487
lf	-7488
qc	-7489
td	-7490
tw	-7491
uv	-7492
xb	-7493
'];	-7494
()]	-7495
2))	-7496
CVS	-7497
MAC	-7498
OPT	-7499
Res	-7500
[2]	-7501
cnt	-7502
cre	-7503
eck	-7504
erc	-7505
ina	-7506
inn	-7507
let	-7508
lse	-7509
mac	-7510
mar	-7511
mas	-7512
rec	-7513
see	-7514
ung	-7515
▁%(	-7516
▁*=	-7517
▁1]	-7518
▁HU	-7519
BYTE	-7520
INFO	-7521
NDOM	-7522
STOR	-7523
ULTI	-7524
comm	-7525
ctrl	-7526
izes	-7527
mbol	-7528
mest	-7529
rief	-7530
tell	-7531
æmon	-7532
▁","	-7533
▁('-	-7534
▁2**	-7535
▁LIN	-7536
▁Out	-7537
▁UTF	-7538
▁ama	-7539
▁cli	-7540
▁ful	-7541
▁nur	-7542
▁sac	-7543
▁sel	-7544
▁wuz	-7545
']=1;	-7546
PTION	-7547
allen	-7548
asant	-7549
icode	-7550
igned	-7551
ipath	-7552
itate	-7553
sroot	-7554
uther	-7555
▁'0',	-7556
▁Alas	-7557
▁TODO	-7558
▁Task	-7559
▁depr	-7560
▁firm	-7561
▁forb	-7562
▁goes	-7563
▁harm	-7564
▁limb	-7565
▁logs	-7566
▁magn	-7567
▁mour	-7568
▁neck	-7569
▁rapt	-7570
▁sets	-7571
▁vess	-7572
:00:00	-7573
ersion	-7574
helper	-7575
isatty	-7576
ittest	-7577
parent	-7578
pected	-7579
reduce	-7580
repare	-7581
▁Maria	-7582
▁alpha	-7583
▁anger	-7584
▁bread	-7585
▁cheek	-7586
▁drift	-7587
▁drink	-7588
▁fault	-7589
▁fever	-7590
▁guilt	-7591
▁madam	-7592
▁quant	-7593
▁track	-7594
▁treat	-7595
cending	-7596
icAlias	-7597
initial	-7598
manager	-7599
missing	-7600
▁During	-7601
▁adding	-7602
▁agreed	-7603
▁animal	-7604
▁apolog	-7605
▁branch	-7606
▁caused	-7607
▁distri	-7608
▁engage	-7609
▁estate	-7610
▁exists	-7611
▁record	-7612
▁relate	-7613
▁seated	-7614
▁secure	-7615
▁sooner	-7616
▁sounds	-7617
▁spoken	-7618
▁termin	-7619
▁twelve	-7620
addrinfo	-7621
▁English	-7622
▁Windows	-7623
▁collect	-7624
▁condemn	-7625
▁details	-7626
▁explain	-7627
▁futures	-7628
▁isearch	-7629
▁laughed	-7630
▁nonzero	-7631
▁outside	-7632
▁package	-7633
▁padding	-7634
▁painful	-7635
▁possess	-7636
▁remains	-7637
▁results	-7638
▁retired	-7639
▁service	-7640
▁weather	-7641
▁whisper	-7642
CallGraph	-7643
▁Blocking	-7644
▁apparent	-7645
▁charming	-7646
▁cheerful	-7647
▁commands	-7648
▁commence	-7649
▁familiar	-7650
▁increase	-7651
▁infinity	-7652
▁material	-7653
▁overflow	-7654
▁override	-7655
▁sympathy	-7656
▁agitation	-7657
▁composure	-7658
▁concerned	-7659
▁generator	-7660
▁multiline	-7661
environment	-7662
interactive	-7663
▁Permission	-7664
▁absolutely	-7665
▁philosophy	-7666
▁reasonable	-7667
▁considering	-7668
▁approximation	-7669
▁consideration	-7670
▁BlockingIOError	-7671
.0	-7672
IE	-7673
ML	-7674
Ne	-7675
OS	-7676
TB	-7677
TS	-7678
[4	-7679
fi	-7680
gu	-7681
ny	-7682
zv	-7683
(":	-7684
0')	-7685
10.	-7686
=1)	-7687
ARG	-7688
BLA	-7689
MAT	-7690
MEM	-7691
PER	-7692
Pol	-7693
SIX	-7694
Str	-7695
WID	-7696
_,”	-7697
__:	-7698
agr	-7699
eml	-7700
eve	-7701
fmt	-7702
ica	-7703
isp	-7704
ois	-7705
ops	-7706
shm	-7707
uge	-7708
uly	-7709
whe	-7710
xor	-7711
▁"1	-7712
▁(?	-7713
▁22	-7714
▁31	-7715
▁4-	-7716
▁Ab	-7717
▁DO	-7718
▁En	-7719
▁IP	-7720
▁Py	-7721
▁TO	-7722
▁WH	-7723
▁_,	-7724
▁ow	-7725
▁ur	-7726
▁yc	-7727
▁“—	-7728
()))	-7729
ARGS	-7730
Copy	-7731
IELD	-7732
REEN	-7733
brew	-7734
capi	-7735
hest	-7736
phen	-7737
unch	-7738
▁"),	-7739
▁"="	-7740
▁Int	-7741
▁Raw	-7742
▁adj	-7743
▁dim	-7744
▁gaz	-7745
▁lie	-7746
▁loo	-7747
▁med	-7748
▁pal	-7749
▁pig	-7750
▁thy	-7751
▁via	-7752
▁voy	-7753
▁{}"	-7754
('-1.	-7755
Async	-7756
Class	-7757
LINUX	-7758
TRACT	-7759
WIDTH	-7760
[:-1]	-7761
acing	-7762
ament	-7763
aming	-7764
anied	-7765
apped	-7766
ashes	-7767
blank	-7768
isure	-7769
maybe	-7770
mkdir	-7771
otent	-7772
quiet	-7773
▁beat	-7774
▁fash	-7775
▁furn	-7776
▁hung	-7777
▁nons	-7778
▁note	-7779
▁puzz	-7780
▁sank	-7781
▁stir	-7782
▁tall	-7783
▁wedd	-7784
▁wise	-7785
('3'))	-7786
Create	-7787
compar	-7788
ending	-7789
etched	-7790
needed	-7791
origin	-7792
rapped	-7793
solute	-7794
versed	-7795
▁INPUT	-7796
▁birth	-7797
▁charm	-7798
▁disap	-7799
▁dæmon	-7800
▁ferry	-7801
▁nodes	-7802
▁prete	-7803
▁prove	-7804
▁third	-7805
▁tired	-7806
▁works	-7807
▁yours	-7808
PTHREAD	-7809
STORAGE	-7810
Version	-7811
barrass	-7812
erences	-7813
ertools	-7814
methods	-7815
quality	-7816
quences	-7817
restore	-7818
unicode	-7819
▁advice	-7820
▁anyway	-7821
▁assume	-7822
▁candle	-7823
▁caught	-7824
▁couple	-7825
▁deploy	-7826
▁endure	-7827
▁laying	-7828
▁locked	-7829
▁notion	-7830
▁precip	-7831
▁relief	-7832
▁scenes	-7833
▁select	-7834
▁strict	-7835
▁supper	-7836
▁taught	-7837
▁tender	-7838
▁thanks	-7839
▁warmth	-7840
00000000	-7841
Argument	-7842
Proactor	-7843
ancelled	-7844
constant	-7845
irective	-7846
missions	-7847
ordinary	-7848
question	-7849
readinto	-7850
variable	-7851
▁DEFAULT	-7852
▁acquire	-7853
▁columns	-7854
▁filters	-7855
▁leisure	-7856
▁parsing	-7857
▁readily	-7858
▁recomme	-7859
▁setattr	-7860
▁usually	-7861
▁wedding	-7862
abilities	-7863
backspace	-7864
localtime	-7865
normalize	-7866
▁contains	-7867
▁contents	-7868
▁declared	-7869
▁modified	-7870
▁offended	-7871
▁operator	-7872
▁possibly	-7873
▁prepared	-7874
▁restored	-7875
escription	-7876
▁collected	-7877
▁confusion	-7878
▁earnestly	-7879
▁influence	-7880
▁innocence	-7881
▁objection	-7882
▁ourselves	-7883
collections	-7884
▁additional	-7885
▁companions	-7886
▁compatible	-7887
▁conversion	-7888
▁favourable	-7889
▁resentment	-7890
▁surrounded	-7891
▁ImportError	-7892
▁completions	-7893
ancelledError	-7894
▁tranquillity	-7895
▁ArgumentError	-7896
▁StopIteration	-7897
▁extraordinary	-7898
!'	-7899
&/	-7900
&\	-7901
'_	-7902
+=	-7903
-$	-7904
.'	-7905
.+	-7906
1-	-7907
6]	-7908
=[	-7909
>\	-7910
Ee	-7911
MO	-7912
SD	-7913
VI	-7914
Za	-7915
\:	-7916
\”	-7917
_”	-7918
aq	-7919
dl	-7920
nk	-7921
qi	-7922
zZ	-7923
{$	-7924
|/	-7925
|\	-7926
▁Z	-7927
"(?	-7928
##'	-7929
':'	-7930
)),	-7931
++}	-7932
,""	-7933
/..	-7934
012	-7935
1')	-7936
1*"	-7937
1-2	-7938
755	-7939
="$	-7940
=${	-7941
=0;	-7942
=="	-7943
==2	-7944
AVA	-7945
All	-7946
EAR	-7947
IFS	-7948
ILL	-7949
ILT	-7950
NDO	-7951
UNI	-7952
\*.	-7953
\|^	-7954
]*)	-7955
]/{	-7956
aby	-7957
enk	-7958
fgl	-7959
him	-7960
img	-7961
ipc	-7962
ius	-7963
nav	-7964
oth	-7965
pat	-7966
rnw	-7967
unn	-7968
vcf	-7969
vor	-7970
▁+4	-7971
▁/0	-7972
▁/\	-7973
▁09	-7974
▁=>	-7975
▁BO	-7976
▁SC	-7977
▁[:	-7978
▁[^	-7979
▁];	-7980
▁dc	-7981
▁fa	-7982
")")	-7983
$1}'	-7984
//'|	-7985
0-9'	-7986
2013	-7987
BENV	-7988
CURR	-7989
DIRE	-7990
DOWN	-7991
REPL	-7992
STEM	-7993
Then	-7994
WAIT	-7995
\}\)	-7996
aled	-7997
aven	-7998
conc	-7999
emlx	-8000
hits	-8001
idge	-8002
inel	-8003
jobs	-8004
mong	-8005
oses	-8006
pdfs	-8007
pher	-8008
prod	-8009
sqrt	-8010
ters	-8011
todo	-8012
▁",$	-8013
▁$0`	-8014
▁$1'	-8015
▁$_;	-8016
▁''.	-8017
▁'[^	-8018
▁)}'	-8019
▁-13	-8020
▁IMP	-8021
▁MER	-8022
▁Our	-8023
▁PER	-8024
▁	-8025
e	-8026
t	-8027
n	-8028
a	-8029
i	-8030
o	-8031
r	-8032
s	-8033
d	-8034
l	-8035
h	-8036
f	-8037
-	-8038
m	-8039
c	-8040
p	-8041
u	-8042
.	-8043
g	-8044
y	-8045
w	-8046
"	-8047
,	-8048
_	-8049
'	-8050
/	-8051
b	-8052
x	-8053
v	-8054
(	-8055
)	-8056
|	-8057
k	-8058
0	-8059
=	-8060
1	-8061
:	-8062
I	-8063
\	-8064
*	-8065
$	-8066
E	-8067
;	-8068
{	-8069
}	-8070
T	-8071
2	-8072
A	-8073
S	-8074
N	-8075
R	-8076
D	-8077
M	-8078
z	-8079
O	-8080
C	-8081
[	-8082
+	-8083
]	-8084
L	-8085
#	-8086
F	-8087
H	-8088
P	-8089
j	-8090
>	-8091
“	-8092
”	-8093
3	-8094
%	-8095
B	-8096
q	-8097
’	-8098
5	-8099
4	-8100
`	-8101
W	-8102
U	-8103
!	-8104
6	-8105
9	-8106
7	-8107
G	-8108
<	-8109
?	-8110
Y	-8111
V	-8112
8	-8113
X	-8114
^	-8115
&	-8116
@	-8117
~	-8118
J	-8119
K	-8120
—	-8121
Z	-8122
Q	-8123
‘	-8124
–	-8125
и	-8126
е	-8127
а	-8128
н	-8129
о	-8130
п	-8131
я	-8132
æ	-8133
с	-8134
ц	-8135
ê	-8136
з	-8137
ч	-8138
─	-8139
十	-8140
廿	-8141
й	-8142
к	-8143
т	-8144
à	-8145
è	-8146
¤	-8147
­	-8148
ñ	-8149
ú	-8150
в	-8151
д	-8152
м	-8153
‐	-8154
換	-8155
置	-8156
一	-8157
«	-8158
»	-8159
é	-8160
г	-8161
л	-8162
р	-8163
у	-8164
ф	-8165
′	-8166
╱	-8167
╲	-8168
七	-8169
三	-8170
九	-8171
二	-8172
五	-8173
八	-8174
六	-8175
前	-8176
四	-8177
後	-8178
·	-8179
ô	-8180
ö	-8181
卅	-8182
â	-8183
ù	-8184
İ	-8185
œ	-8186
〇	-8187
