<pad>	0
<s>	0
</s>	0
<unk>	0
▁t	-0
he	-1
▁a	-2
in	-3
▁s	-4
re	-5
at	-6
or	-7
▁m	-8
er	-9
is	-10
▁w	-11
on	-12
ou	-13
▁the	-14
▁b	-15
nd	-16
▁d	-17
▁f	-18
it	-19
▁c	-20
▁n	-21
en	-22
▁th	-23
▁l	-24
ar	-25
ll	-26
▁h	-27
an	-28
es	-29
om	-30
▁p	-31
▁I	-32
▁o	-33
▁to	-34
▁in	-35
al	-36
se	-37
▁T	-38
▁=	-39
ing	-40
▁and	-41
--	-42
le	-43
ot	-44
st	-45
ce	-46
▁he	-47
▁is	-48
▁of	-49
▁e	-50
▁re	-51
ur	-52
ed	-53
ve	-54
==	-55
ti	-56
▁#	-57
▁A	-58
if	-59
▁y	-60
ra	-61
▁g	-62
et	-63
ig	-64
ow	-65
▁be	-66
""	-67
▁de	-68
▁S	-69
ch	-70
ent	-71
ad	-72
im	-73
▁you	-74
▁W	-75
▁for	-76
ith	-77
ap	-78
▁R	-79
um	-80
▁F	-81
ut	-82
urn	-83
▁me	-84
##	-85
ay	-86
ld	-87
▁C	-88
▁if	-89
▁that	-90
▁it	-91
▁not	-92
ul	-93
._	-94
▁N	-95
id	-96
od	-97
▁M	-98
un	-99
ome	-100
ht	-101
▁1	-102
ator	-103
▁(	-104
▁my	-105
▁with	-106
am	-107
turn	-108
▁return	-109
▁*	-110
----	-111
all	-112
as	-113
▁B	-114
ion	-115
ill	-116
ri	-117
▁lo	-118
tion	-119
ter	-120
====	-121
▁st	-122
el	-123
ver	-124
▁O	-125
▁k	-126
▁_	-127
▁r	-128
▁thou	-129
ight	-130
ir	-131
hat	-132
▁sh	-133
▁ha	-134
):	-135
ak	-136
pe	-137
▁And	-138
ata	-139
▁P	-140
one	-141
"""	-142
>>	-143
▁L	-144
▁we	-145
▁u	-146
ET	-147
▁v	-148
▁H	-149
ue	-150
her	-151
os	-152
UL	-153
ic	-154
ly	-155
▁as	-156
▁this	-157
▁The	-158
op	-159
▁'	-160
▁J	-161
ction	-162
ort	-163
▁[	-164
ace	-165
ath	-166
▁-	-167
lo	-168
th	-169
▁so	-170
▁def	-171
▁+	-172
hi	-173
rom	-174
▁"""	-175
ord	-176
ation	-177
▁ne	-178
▁an	-179
▁x	-180
####	-181
ore	-182
ain	-183
ine	-184
our	-185
▁will	-186
erator	-187
il	-188
▁Th	-189
ME	-190
MEO	-191
res	-192
▁RO	-193
▁ROMEO	-194
ab	-195
ac	-196
ge	-197
ance	-198
and	-199
▁her	-200
▁thy	-201
qu	-202
sel	-203
▁se	-204
▁2	-205
est	-206
▁li	-207
ould	-208
▁/	-209
EN	-210
▁G	-211
▁heap	-212
omeo	-213
▁from	-214
▁0	-215
▁Romeo	-216
ise	-217
▁go	-218
▁or	-219
em	-220
ex	-221
ts	-222
▁su	-223
▁are	-224
▁do	-225
▁love	-226
ell	-227
.0	-228
▁have	-229
ate	-230
self	-231
▁ex	-232
enom	-233
ist	-234
▁data	-235
raction	-236
▁mu	-237
▁thee	-238
enomin	-239
enominator	-240
▁D	-241
▁com	-242
▁con	-243
--------	-244
IO	-245
▁ch	-246
========	-247
▁E	-248
ast	-249
ple	-250
▁el	-251
▁on	-252
▁all	-253
▁his	-254
▁by	-255
umerator	-256
▁<	-257
elf	-258
ror	-259
▁self	-260
__	-261
▁[_	-262
▁ra	-263
pp	-264
ear	-265
ive	-266
▁>>	-267
▁no	-268
._]	-269
IET	-270
▁at	-271
▁JUL	-272
▁JULIET	-273
Er	-274
Error	-275
▁>>>	-276
art	-277
▁but	-278
RS	-279
ks	-280
ult	-281
ound	-282
))	-283
ma	-284
ro	-285
▁"	-286
out	-287
pl	-288
ake	-289
ind	-290
orm	-291
us	-292
ant	-293
▁whe	-294
ER	-295
▁ar	-296
▁him	-297
▁What	-298
df	-299
are	-300
ber	-301
▁she	-302
ame	-303
ign	-304
▁LA	-305
▁up	-306
ct	-307
▁tr	-308
▁Fraction	-309
oth	-310
▁al	-311
▁int	-312
denominator	-313
AR	-314
ol	-315
▁can	-316
▁man	-317
▁val	-318
ous	-319
data	-320
▁your	-321
',	-322
AP	-323
APUL	-324
APULET	-325
▁CAPULET	-326
nt	-327
ard	-328
▁3	-329
tic	-330
▁le	-331
loat	-332
▁else	-333
▁To	-334
numerator	-335
ho	-336
iv	-337
ari	-338
▁==	-339
oin	-340
pos	-341
▁shall	-342
()	-343
ady	-344
RSE	-345
▁NU	-346
nter	-347
▁NURSE	-348
▁there	-349
ie	-350
▁St	-351
ep	-352
ess	-353
')	-354
ag	-355
we	-356
pt	-357
hich	-358
########	-359
de	-360
ke	-361
ass	-362
lem	-363
▁Ty	-364
▁That	-365
▁j	-366
▁__	-367
▁But	-368
ule	-369
▁If	-370
▁kn	-371
▁more	-372
('	-373
00	-374
ack	-375
alt	-376
ext	-377
▁num	-378
ong	-379
▁raise	-380
),	-381
ime	-382
▁fa	-383
▁night	-384
RI	-385
▁un	-386
atis	-387
heap	-388
▁one	-389
esp	-390
ity	-391
▁For	-392
▁here	-393
iet	-394
▁ke	-395
▁res	-396
au	-397
▁tw	-398
ther	-399
▁am	-400
▁Cap	-401
▁len	-402
▁good	-403
▁Enter	-404
▁float	-405
5,	-406
CE	-407
ers	-408
ure	-409
idth	-410
▁than	-411
eg	-412
row	-413
▁im	-414
▁Capule	-415
uliet	-416
▁death	-417
ok	-418
TIO	-419
▁sp	-420
▁then	-421
▁Y	-422
ven	-423
atch	-424
▁out	-425
other	-426
▁what	-427
▁Juliet	-428
Ex	-429
▁4	-430
end	-431
ern	-432
tics	-433
▁now	-434
OL	-435
ff	-436
put	-437
▁co	-438
▁mean	-439
▁should	-440
atistics	-441
ERC	-442
edi	-443
hit	-444
▁new	-445
▁spe	-446
ENV	-447
OLIO	-448
▁say	-449
ormal	-450
▁BENV	-451
stance	-452
▁BENVOLIO	-453
ERCU	-454
able	-455
▁Whe	-456
▁This	-457
▁MERCU	-458
▁other	-459
▁Capulet	-460
▁MERCUTIO	-461
cl	-462
balt	-463
urse	-464
▁value	-465
▁V	-466
RIAR	-467
fore	-468
ines	-469
▁let	-470
▁pos	-471
ernel	-472
▁FRIAR	-473
▁Tybalt	-474
ry	-475
▁qu	-476
▁day	-477
▁number	-478
//	-479
1,	-480
nce	-481
▁op	-482
aris	-483
▁our	-484
▁str	-485
▁poin	-486
ariance	-487
hy	-488
ere	-489
▁us	-490
igma	-491
ount	-492
▁come	-493
▁must	-494
▁word	-495
hitesp	-496
aw	-497
ght	-498
▁ty	-499
imal	-500
▁bre	-501
▁sir	-502
▁too	-503
▁two	-504
▁know	-505
WR	-506
ite	-507
▁fo	-508
▁ho	-509
▁mo	-510
▁pl	-511
ENCE	-512
▁ear	-513
▁may	-514
cimal	-515
▁LAWR	-516
▁would	-517
hitespace	-518
▁LAWRENCE	-519
▁ab	-520
▁mar	-521
▁Nurse	-522
▁result	-523
================	-524
ck	-525
iz	-526
eth	-527
ide	-528
▁sl	-529
unks	-530
▁pro	-531
▁use	-532
▁hath	-533
▁some	-534
▁when	-535
▁Statistics	-536
erc	-537
ife	-538
▁My	-539
▁was	-540
place	-541
▁item	-542
▁where	-543
▁’	-544
rou	-545
▁In	-546
▁sc	-547
ence	-548
ment	-549
▁they	-550
▁which	-551
..	-552
])	-553
me	-554
ble	-555
ust	-556
very	-557
▁art	-558
▁chi	-559
▁cur	-560
▁hand	-561
ational	-562
▁StatisticsError	-563
DY	-564
ps	-565
ub	-566
ful	-567
▁en	-568
▁ey	-569
ress	-570
▁dead	-571
▁child	-572
▁inter	-573
dd	-574
age	-575
ase	-576
ies	-577
rib	-578
▁Go	-579
▁mad	-580
▁pre	-581
▁LADY	-582
▁sign	-583
▁them	-584
▁their	-585
▁i	-586
ose	-587
val	-588
▁ag	-589
▁cl	-590
ears	-591
ince	-592
edian	-593
((	-594
0]	-595
rt	-596
ty	-597
▁5	-598
cdf	-599
own	-600
▁key	-601
▁such	-602
▁>	-603
ire	-604
ish	-605
ues	-606
▁pr	-607
▁wor	-608
▁fair	-609
▁lady	-610
▁sort	-611
----------------	-612
ON	-613
gh	-614
ave	-615
max	-616
▁bl	-617
ault	-618
ouse	-619
▁see	-620
▁Thou	-621
▁line	-622
__(	-623
zer	-624
▁//	-625
▁ma	-626
▁sm	-627
riar	-628
weet	-629
▁sum	-630
ample	-631
▁comp	-632
▁well	-633
ix	-634
[0]	-635
▁It	-636
cept	-637
▁Mon	-638
▁fun	-639
▁hea	-640
▁isin	-641
▁make	-642
▁much	-643
▁supp	-644
▁Friar	-645
-1	-646
▁As	-647
ange	-648
port	-649
▁dis	-650
▁ord	-651
width	-652
▁these	-653
da	-654
abs	-655
▁br	-656
ings	-657
ower	-658
▁1.0	-659
▁bet	-660
▁yet	-661
▁None	-662
▁hast	-663
.2	-664
ng	-665
▁U	-666
add	-667
ale	-668
ink	-669
tag	-670
unt	-671
▁Is	-672
▁So	-673
▁bo	-674
▁did	-675
▁exp	-676
io	-677
hed	-678
ift	-679
▁<=	-680
▁fl	-681
ents	-682
▁tell	-683
▁time	-684
▁were	-685
▁again	-686
▁Montag	-687
▁median	-688
▁isinstance	-689
AL	-690
AN	-691
ft	-692
pr	-693
ank	-694
ash	-695
its	-696
qrt	-697
▁10	-698
line	-699
▁lam	-700
▁par	-701
ethod	-702
▁Come	-703
▁back	-704
▁gent	-705
▁like	-706
▁light	-707
▁import	-708
▁function	-709
ang	-710
ilt	-711
ins	-712
int	-713
ond	-714
sum	-715
way	-716
▁(?	-717
▁Be	-718
▁De	-719
ated	-720
▁0.0	-721
▁any	-722
▁dist	-723
▁give	-724
▁list	-725
▁text	-726
▁upon	-727
▁Paris	-728
▁order	-729
▁stand	-730
▁sweet	-731
ci	-732
ss	-733
▁%	-734
ode	-735
ove	-736
ray	-737
▁em	-738
▁sw	-739
▁wo	-740
hile	-741
▁How	-742
▁Not	-743
sigma	-744
▁call	-745
▁need	-746
▁true	-747
################	-748
("	-749
([	-750
tt	-751
ody	-752
rap	-753
rel	-754
▁inv	-755
▁old	-756
▁who	-757
ather	-758
▁both	-759
▁doth	-760
▁elem	-761
▁input	-762
▁lines	-763
).	-764
.5	-765
mu	-766
.__	-767
Exe	-768
ici	-769
mon	-770
orn	-771
tim	-772
ves	-773
▁By	-774
▁We	-775
▁po	-776
orrow	-777
▁look	-778
Exeunt	-779
▁denominator	-780
ice	-781
ize	-782
pop	-783
pty	-784
▁Or	-785
▁da	-786
pend	-787
zero	-788
▁how	-789
class	-790
eturn	-791
ither	-792
verse	-793
▁gone	-794
▁take	-795
kernel	-796
▁There	-797
▁Where	-798
▁values	-799
variance	-800
▁support	-801
▁Montague	-802
**	-803
``	-804
ef	-805
iss	-806
opr	-807
▁No	-808
▁Pr	-809
Exit	-810
item	-811
ures	-812
ution	-813
▁elif	-814
▁find	-815
of	-816
▁6	-817
▁‘	-818
ALT	-819
arg	-820
com	-821
ens	-822
ick	-823
▁Sh	-824
▁db	-825
▁Why	-826
▁end	-827
▁Then	-828
▁With	-829
▁long	-830
▁part	-831
▁pass	-832
▁type	-833
oprime	-834
▁Which	-835
▁heaven	-836
▁points	-837
▁numerator	-838
0,	-839
▁q	-840
ans	-841
ert	-842
les	-843
ree	-844
ush	-845
▁**	-846
▁0:	-847
▁hi	-848
None	-849
ving	-850
▁rem	-851
ative	-852
ights	-853
▁cont	-854
▁eyes	-855
▁fall	-856
▁into	-857
▁same	-858
▁heart	-859
▁marri	-860
▁speak	-861
▁while	-862
▁width	-863
▁whitespace	-864
IS	-865
ied	-866
igh	-867
itt	-868
not	-869
▁1:	-870
▁Sc	-871
▁fe	-872
eger	-873
from	-874
llow	-875
▁You	-876
▁app	-877
▁cor	-878
▁giv	-879
▁gra	-880
▁men	-881
▁try	-882
▁When	-883
▁hear	-884
▁lamb	-885
▁over	-886
▁very	-887
▁break	-888
▁empty	-889
▁match	-890
plement	-891
replace	-892
OR	-893
up	-894
ach	-895
bar	-896
exp	-897
raw	-898
rue	-899
str	-900
tio	-901
▁3,	-902
▁Of	-903
ific	-904
▁God	-905
▁ind	-906
aught	-907
onent	-908
▁keep	-909
▁name	-910
resent	-911
▁count	-912
▁point	-913
▁except	-914
▁method	-915
▁	-916
e	-917
t	-918
a	-919
o	-920
n	-921
i	-922
r	-923
s	-924
h	-925
l	-926
d	-927
u	-928
m	-929
,	-930
.	-931
c	-932
f	-933
p	-934
y	-935
w	-936
g	-937
b	-938
_	-939
=	-940
)	-941
(	-942
v	-943
I	-944
-	-945
k	-946
T	-947
E	-948
A	-949
"	-950
#	-951
R	-952
:	-953
O	-954
x	-955
’	-956
0	-957
1	-958
'	-959
S	-960
N	-961
C	-962
L	-963
M	-964
*	-965
2	-966
W	-967
/	-968
U	-969
F	-970
>	-971
?	-972
[	-973
]	-974
P	-975
5	-976
3	-977
B	-978
;	-979
H	-980
!	-981
+	-982
D	-983
q	-984
4	-985
7	-986
J	-987
G	-988
8	-989
6	-990
9	-991
<	-992
V	-993
Y	-994
z	-995
j	-996
`	-997
%	-998
—	-999
\	-1000
{	-1001
}	-1002
‘	-1003
X	-1004
K	-1005
|	-1006
@	-1007
Z	-1008
Q	-1009
&	-1010
^	-1011
±	-1012
~	-1013
æ	-1014
ç	-1015
–	-1016
“	-1017
”	-1018
≈	-1019
