<pad>	0
<s>	0
</s>	0
<unk>	0
▁t	-0
he	-1
▁a	-2
in	-3
▁the	-4
▁o	-5
re	-6
▁s	-7
▁w	-8
er	-9
nd	-10
at	-11
is	-12
on	-13
▁b	-14
ou	-15
it	-16
en	-17
▁h	-18
▁f	-19
ed	-20
▁of	-21
▁c	-22
▁m	-23
or	-24
es	-25
ar	-26
▁to	-27
▁and	-28
▁p	-29
an	-30
ing	-31
▁d	-32
▁in	-33
ll	-34
▁th	-35
as	-36
▁l	-37
▁n	-38
om	-39
ic	-40
le	-41
▁he	-42
▁I	-43
al	-44
▁be	-45
ot	-46
▁g	-47
ion	-48
▁e	-49
ad	-50
st	-51
ut	-52
▁T	-53
se	-54
ve	-55
ow	-56
ent	-57
im	-58
▁re	-59
ly	-60
ce	-61
et	-62
id	-63
ld	-64
▁wh	-65
▁y	-66
ur	-67
▁that	-68
gh	-69
ay	-70
▁on	-71
▁A	-72
ir	-73
▁it	-74
▁for	-75
ct	-76
▁u	-77
▁is	-78
ver	-79
▁was	-80
ith	-81
▁S	-82
am	-83
ro	-84
--	-85
▁as	-86
▁you	-87
▁with	-88
ch	-89
▁st	-90
ri	-91
▁C	-92
▁we	-93
▁"	-94
▁M	-95
▁his	-96
▁The	-97
if	-98
ra	-99
▁ha	-100
ght	-101
▁not	-102
her	-103
▁H	-104
▁se	-105
od	-106
▁an	-107
ter	-108
▁B	-109
pe	-110
▁de	-111
ill	-112
il	-113
▁at	-114
all	-115
▁_	-116
ke	-117
▁W	-118
ain	-119
ul	-120
▁P	-121
▁1	-122
▁su	-123
ould	-124
▁sh	-125
rom	-126
▁had	-127
ore	-128
▁by	-129
ol	-130
ess	-131
ation	-132
▁me	-133
ge	-134
ich	-135
red	-136
th	-137
▁her	-138
▁con	-139
us	-140
ac	-141
and	-142
▁F	-143
▁L	-144
qu	-145
▁or	-146
▁from	-147
▁v	-148
res	-149
est	-150
▁him	-151
▁which	-152
▁have	-153
ab	-154
▁D	-155
▁N	-156
▁ex	-157
▁so	-158
um	-159
lf	-160
ome	-161
un	-162
▁k	-163
ist	-164
ard	-165
ers	-166
▁all	-167
ate	-168
▁G	-169
ant	-170
ight	-171
▁this	-172
▁ne	-173
pp	-174
▁but	-175
▁r	-176
▁my	-177
▁(	-178
os	-179
em	-180
▁“	-181
▁=	-182
▁are	-183
ust	-184
▁R	-185
▁E	-186
el	-187
ous	-188
▁sa	-189
ame	-190
ig	-191
art	-192
▁O	-193
our	-194
▁ch	-195
nt	-196
▁whe	-197
ort	-198
pt	-199
ie	-200
one	-201
▁up	-202
▁were	-203
ast	-204
▁do	-205
▁they	-206
▁she	-207
▁com	-208
▁lo	-209
ind	-210
▁who	-211
▁al	-212
▁go	-213
▁if	-214
ive	-215
▁man	-216
iv	-217
▁int	-218
▁one	-219
out	-220
ong	-221
op	-222
▁pro	-223
ak	-224
▁their	-225
ok	-226
._	-227
ound	-228
▁them	-229
▁no	-230
urn	-231
very	-232
▁wor	-233
ck	-234
ue	-235
ity	-236
▁J	-237
ap	-238
▁le	-239
▁ar	-240
ell	-241
▁ab	-242
self	-243
lo	-244
ure	-245
ies	-246
▁He	-247
ry	-248
▁will	-249
▁pl	-250
ect	-251
▁kn	-252
▁out	-253
ine	-254
ther	-255
ass	-256
ment	-257
▁[	-258
▁Th	-259
ag	-260
ough	-261
▁there	-262
ff	-263
▁would	-264
▁been	-265
reat	-266
▁2	-267
ance	-268
own	-269
▁j	-270
."	-271
▁im	-272
▁'	-273
ost	-274
▁said	-275
able	-276
ide	-277
pl	-278
ace	-279
ack	-280
itt	-281
ake	-282
▁un	-283
au	-284
▁when	-285
ish	-286
▁can	-287
ond	-288
ci	-289
hed	-290
av	-291
ty	-292
▁fe	-293
cc	-294
ice	-295
are	-296
▁li	-297
▁qu	-298
▁It	-299
ime	-300
per	-301
▁more	-302
▁your	-303
ord	-304
ence	-305
▁sp	-306
ud	-307
▁us	-308
..	-309
▁has	-310
----	-311
▁ag	-312
▁other	-313
te	-314
▁And	-315
ions	-316
▁tr	-317
▁en	-318
ire	-319
ep	-320
▁ad	-321
ose	-322
▁#	-323
▁some	-324
▁ret	-325
▁any	-326
age	-327
▁am	-328
ans	-329
ally	-330
ber	-331
ars	-332
▁into	-333
ree	-334
▁In	-335
ount	-336
▁dis	-337
ite	-338
▁tw	-339
▁than	-340
▁ro	-341
▁what	-342
ary	-343
ile	-344
,"	-345
ath	-346
ven	-347
ble	-348
int	-349
▁pr	-350
ade	-351
iz	-352
ress	-353
ays	-354
▁Y	-355
nder	-356
▁cl	-357
00	-358
ult	-359
fore	-360
▁our	-361
ens	-362
ated	-363
▁per	-364
▁could	-365
▁time	-366
ings	-367
▁V	-368
▁But	-369
fter	-370
wn	-371
ng	-372
▁bo	-373
▁co	-374
▁self	-375
▁return	-376
other	-377
▁imp	-378
▁gr	-379
▁*	-380
▁know	-381
▁br	-382
▁its	-383
we	-384
▁def	-385
▁very	-386
▁great	-387
cl	-388
▁K	-389
ach	-390
▁over	-391
act	-392
ise	-393
ick	-394
ip	-395
ink	-396
▁now	-397
ang	-398
▁like	-399
▁then	-400
.”	-401
▁pre	-402
▁part	-403
ne	-404
▁po	-405
▁only	-406
▁should	-407
ought	-408
ere	-409
▁fo	-410
▁ra	-411
▁see	-412
▁Ch	-413
▁3	-414
▁off	-415
ign	-416
end	-417
ious	-418
▁upon	-419
▁Wh	-420
▁cont	-421
▁about	-422
ER	-423
▁res	-424
ru	-425
ied	-426
▁may	-427
▁hand	-428
de	-429
ife	-430
▁sc	-431
ild	-432
▁did	-433
▁again	-434
bl	-435
),	-436
ull	-437
hing	-438
▁Mr	-439
ved	-440
ittle	-441
ple	-442
ict	-443
ather	-444
▁must	-445
orm	-446
▁des	-447
):	-448
irst	-449
ert	-450
uch	-451
▁|	-452
▁spe	-453
ward	-454
ction	-455
▁after	-456
▁two	-457
▁little	-458
▁thr	-459
▁pe	-460
ful	-461
ark	-462
ory	-463
ood	-464
▁ri	-465
▁made	-466
▁good	-467
▁rem	-468
▁St	-469
▁fl	-470
▁ye	-471
▁under	-472
▁look	-473
ia	-474
ft	-475
▁these	-476
▁such	-477
ors	-478
ph	-479
▁before	-480
▁how	-481
▁bl	-482
ness	-483
ase	-484
ition	-485
ave	-486
▁ob	-487
ian	-488
hen	-489
▁first	-490
▁bet	-491
==	-492
▁where	-493
ons	-494
▁long	-495
▁down	-496
,”	-497
ces	-498
▁U	-499
▁str	-500
▁bec	-501
oss	-502
iss	-503
get	-504
▁-	-505
▁much	-506
orn	-507
▁19	-508
ex	-509
▁every	-510
▁comm	-511
ove	-512
▁sm	-513
▁old	-514
▁well	-515
▁men	-516
▁cons	-517
▁0	-518
ady	-519
man	-520
air	-521
▁acc	-522
ew	-523
▁say	-524
ations	-525
ater	-526
so	-527
▁most	-528
▁aw	-529
_,	-530
▁own	-531
▁comp	-532
hes	-533
ener	-534
▁here	-535
▁wr	-536
oth	-537
▁pass	-538
▁call	-539
ced	-540
▁She	-541
ject	-542
iff	-543
ical	-544
▁work	-545
▁think	-546
▁att	-547
▁day	-548
▁ho	-549
▁never	-550
▁even	-551
""	-552
sh	-553
▁4	-554
▁come	-555
▁This	-556
og	-557
▁shall	-558
ren	-559
ial	-560
▁app	-561
▁back	-562
mer	-563
▁way	-564
>>	-565
▁pres	-566
▁sl	-567
▁let	-568
The	-569
ily	-570
▁through	-571
ouse	-572
▁ke	-573
▁those	-574
ix	-575
▁ent	-576
arg	-577
les	-578
▁too	-579
▁make	-580
",	-581
du	-582
▁life	-583
▁ap	-584
ause	-585
aw	-586
▁get	-587
IN	-588
led	-589
▁being	-590
ents	-591
▁ser	-592
▁might	-593
rib	-594
ves	-595
land	-596
ving	-597
HE	-598
?"	-599
pect	-600
ax	-601
ered	-602
▁el	-603
▁sub	-604
▁ey	-605
▁None	-606
▁18	-607
▁same	-608
▁seem	-609
▁rep	-610
▁new	-611
igh	-612
ON	-613
atter	-614
ank	-615
ont	-616
▁came	-617
ower	-618
▁fri	-619
',	-620
▁himself	-621
ried	-622
ail	-623
▁dist	-624
▁just	-625
▁many	-626
▁thought	-627
▁op	-628
▁bel	-629
.,	-630
less	-631
▁found	-632
the	-633
its	-634
val	-635
ange	-636
not	-637
▁We	-638
vers	-639
arn	-640
▁gl	-641
▁end	-642
li	-643
▁import	-644
llow	-645
▁They	-646
▁beg	-647
ible	-648
▁set	-649
▁last	-650
▁You	-651
form	-652
▁tra	-653
▁word	-654
AN	-655
▁without	-656
▁rec	-657
▁exp	-658
▁As	-659
▁`	-660
row	-661
▁count	-662
▁There	-663
ys	-664
▁right	-665
▁inst	-666
AR	-667
omet	-668
▁supp	-669
cept	-670
alk	-671
cess	-672
ates	-673
▁head	-674
ared	-675
att	-676
ople	-677
ms	-678
▁If	-679
ode	-680
ince	-681
▁em	-682
▁To	-683
▁take	-684
).	-685
uth	-686
▁te	-687
ished	-688
▁still	-689
ps	-690
▁love	-691
▁5	-692
▁"""	-693
gg	-694
ale	-695
ret	-696
▁wom	-697
▁diff	-698
EN	-699
ib	-700
▁friend	-701
ures	-702
▁turn	-703
xt	-704
eth	-705
▁away	-706
aking	-707
ened	-708
▁follow	-709
▁place	-710
▁act	-711
der	-712
sel	-713
▁char	-714
▁while	-715
▁appe	-716
▁rel	-717
ray	-718
▁gra	-719
ual	-720
▁+	-721
ape	-722
▁ac	-723
ertain	-724
▁reg	-725
▁car	-726
ined	-727
▁name	-728
ever	-729
▁giv	-730
▁sec	-731
oy	-732
▁For	-733
put	-734
▁people	-735
▁ask	-736
▁nat	-737
▁ear	-738
▁cour	-739
▁ass	-740
▁also	-741
to	-742
pr	-743
_.	-744
ym	-745
ub	-746
▁far	-747
und	-748
▁THE	-749
▁went	-750
--------	-751
ins	-752
▁Se	-753
▁tell	-754
▁That	-755
up	-756
▁val	-757
▁6	-758
type	-759
oc	-760
▁ind	-761
ently	-762
OR	-763
▁pers	-764
ss	-765
atch	-766
▁heart	-767
vent	-768
▁years	-769
!"	-770
()	-771
▁child	-772
▁num	-773
▁yet	-774
ither	-775
▁left	-776
▁An	-777
▁want	-778
ited	-779
▁eyes	-780
▁put	-781
ize	-782
ody	-783
▁house	-784
▁young	-785
imes	-786
▁night	-787
▁form	-788
▁gener	-789
hat	-790
ES	-791
▁mar	-792
▁three	-793
▁find	-794
▁poss	-795
cy	-796
▁somet	-797
ern	-798
ute	-799
▁each	-800
ier	-801
▁What	-802
▁another	-803
▁:	-804
▁conf	-805
0,	-806
▁ever	-807
ular	-808
ween	-809
▁world	-810
▁At	-811
▁Eng	-812
aint	-813
▁Ar	-814
ense	-815
▁sur	-816
▁once	-817
▁cr	-818
aut	-819
▁else	-820
▁though	-821
ror	-822
▁give	-823
▁against	-824
▁add	-825
ways	-826
ata	-827
▁inc	-828
vel	-829
apt	-830
▁light	-831
▁ple	-832
▁Q	-833
▁When	-834
old	-835
ner	-836
ob	-837
▁inter	-838
ained	-839
▁God	-840
▁min	-841
▁don	-842
here	-843
▁between	-844
ield	-845
▁ref	-846
▁gu	-847
▁sw	-848
▁nothing	-849
▁use	-850
?”	-851
▁inf	-852
co	-853
▁mind	-854
▁read	-855
▁happ	-856
▁occ	-857
ments	-858
den	-859
▁col	-860
aster	-861
gr	-862
ott	-863
als	-864
ract	-865
▁pur	-866
▁war	-867
ubl	-868
ows	-869
▁father	-870
alf	-871
▁rest	-872
▁few	-873
par	-874
1,	-875
▁bre	-876
▁bu	-877
▁kind	-878
ired	-879
▁face	-880
▁art	-881
ffect	-882
▁)	-883
▁x	-884
AT	-885
▁His	-886
▁unt	-887
▁i	-888
aught	-889
▁ter	-890
osed	-891
▁So	-892
▁Then	-893
▁Be	-894
▁8	-895
ating	-896
ised	-897
],	-898
▁ev	-899
▁On	-900
▁cur	-901
ting	-902
▁point	-903
ene	-904
▁saw	-905
thing	-906
▁always	-907
▁©	-908
▁near	-909
irect	-910
aps	-911
com	-912
▁Re	-913
__	-914
ived	-915
ched	-916
▁ins	-917
aken	-918
ross	-919
▁things	-920
▁called	-921
▁che	-922
▁took	-923
▁{	-924
oh	-925
▁both	-926
▁stre	-927
▁No	-928
most	-929
▁feel	-930
akes	-931
▁because	-932
con	-933
▁side	-934
▁ext	-935
aid	-936
▁Br	-937
▁De	-938
ault	-939
====	-940
▁thou	-941
▁belie	-942
▁inde	-943
pend	-944
ser	-945
rew	-946
ines	-947
▁Al	-948
▁does	-949
ote	-950
▁nor	-951
▁present	-952
AL	-953
▁certain	-954
▁mom	-955
▁whole	-956
▁7	-957
ype	-958
▁dra	-959
iness	-960
▁‘	-961
▁hands	-962
▁->	-963
▁Sh	-964
▁small	-965
ason	-966
▁country	-967
▁mon	-968
ug	-969
##	-970
med	-971
▁water	-972
▁done	-973
▁del	-974
ution	-975
▁Fr	-976
ities	-977
ters	-978
▁fr	-979
▁sent	-980
▁hum	-981
arge	-982
pped	-983
▁thing	-984
irl	-985
ool	-986
set	-987
ues	-988
ully	-989
oun	-990
str	-991
▁>>	-992
▁cle	-993
az	-994
▁seen	-995
ks	-996
▁stand	-997
0.	-998
2,	-999
▁fact	-1000
amp	-1001
be	-1002
ton	-1003
▁fell	-1004
▁got	-1005
▁cond	-1006
▁>>>	-1007
ices	-1008
ants	-1009
▁ele	-1010
ains	-1011
▁soon	-1012
▁home	-1013
ari	-1014
ames	-1015
▁play	-1016
▁best	-1017
uring	-1018
▁care	-1019
▁mo	-1020
.]	-1021
rue	-1022
selves	-1023
▁[_	-1024
vern	-1025
▁sou	-1026
▁est	-1027
rist	-1028
▁whom	-1029
bt	-1030
▁among	-1031
wards	-1032
▁Un	-1033
▁going	-1034
ods	-1035
▁par	-1036
▁having	-1037
▁wind	-1038
▁land	-1039
▁ed	-1040
TER	-1041
▁given	-1042
▁fam	-1043
▁ans	-1044
▁need	-1045
▁list	-1046
py	-1047
alse	-1048
▁better	-1049
▁(_	-1050
▁sk	-1051
▁17	-1052
▁half	-1053
▁adv	-1054
▁less	-1055
▁woman	-1056
▁told	-1057
ule	-1058
▁used	-1059
els	-1060
read	-1061
▁power	-1062
▁keep	-1063
▁det	-1064
▁hour	-1065
▁sim	-1066
▁16	-1067
▁heard	-1068
▁moment	-1069
▁room	-1070
unt	-1071
▁fore	-1072
▁death	-1073
))	-1074
ning	-1075
any	-1076
name	-1077
ling	-1078
▁course	-1079
▁dou	-1080
▁sat	-1081
▁high	-1082
▁mod	-1083
▁matter	-1084
ery	-1085
▁hard	-1086
oint	-1087
▁state	-1088
▁thy	-1089
rig	-1090
ives	-1091
ches	-1092
▁Com	-1093
▁dr	-1094
ably	-1095
▁Mrs	-1096
elt	-1097
ison	-1098
....	-1099
ged	-1100
iew	-1101
uck	-1102
iter	-1103
▁Ind	-1104
ative	-1105
▁cor	-1106
orch	-1107
ption	-1108
ific	-1109
me	-1110
oll	-1111
ude	-1112
ured	-1113
osition	-1114
▁days	-1115
ief	-1116
▁ste	-1117
▁enough	-1118
oice	-1119
▁large	-1120
lock	-1121
▁vis	-1122
▁class	-1123
▁looked	-1124
▁contin	-1125
▁..	-1126
gether	-1127
▁bro	-1128
You	-1129
▁something	-1130
of	-1131
▁Lord	-1132
ohn	-1133
▁sil	-1134
▁mother	-1135
lish	-1136
erest	-1137
▁tre	-1138
▁ph	-1139
▁show	-1140
ident	-1141
IS	-1142
args	-1143
▁suff	-1144
▁asked	-1145
inal	-1146
ird	-1147
tend	-1148
▁door	-1149
▁heav	-1150
▁differe	-1151
▁hel	-1152
ock	-1153
ately	-1154
▁knew	-1155
▁pleas	-1156
▁const	-1157
▁seemed	-1158
▁words	-1159
1.	-1160
▁beaut	-1161
▁beh	-1162
▁girl	-1163
▁arm	-1164
▁mean	-1165
▁Mar	-1166
▁cannot	-1167
ider	-1168
▁How	-1169
▁open	-1170
▁dec	-1171
▁trans	-1172
nce	-1173
▁Christ	-1174
oud	-1175
II	-1176
▁My	-1177
ash	-1178
▁rece	-1179
LE	-1180
eng	-1181
ets	-1182
▁full	-1183
▁hon	-1184
ety	-1185
▁order	-1186
ury	-1187
ah	-1188
▁With	-1189
ention	-1190
ides	-1191
▁four	-1192
▁Is	-1193
▁interest	-1194
▁Pro	-1195
▁however	-1196
▁publ	-1197
haps	-1198
▁Pr	-1199
!”	-1200
▁es	-1201
men	-1202
▁disc	-1203
▁serv	-1204
▁taken	-1205
▁fun	-1206
IT	-1207
▁almost	-1208
ister	-1209
▁cent	-1210
``	-1211
▁real	-1212
▁object	-1213
2.	-1214
ized	-1215
▁dep	-1216
sc	-1217
ances	-1218
▁hor	-1219
▁quite	-1220
ages	-1221
▁X	-1222
ided	-1223
▁law	-1224
▁person	-1225
▁charact	-1226
▁9	-1227
▁until	-1228
▁true	-1229
gs	-1230
▁since	-1231
aring	-1232
AP	-1233
▁swe	-1234
▁gave	-1235
▁fall	-1236
▁15	-1237
ceed	-1238
meric	-1239
▁bus	-1240
▁adm	-1241
entle	-1242
▁pri	-1243
▁whose	-1244
▁quest	-1245
▁Par	-1246
▁John	-1247
▁Sir	-1248
▁brought	-1249
ey	-1250
▁All	-1251
ee	-1252
▁run	-1253
ually	-1254
ensor	-1255
▁wa	-1256
▁dev	-1257
▁thee	-1258
by	-1259
▁Sp	-1260
▁sing	-1261
ians	-1262
ric	-1263
ook	-1264
19	-1265
▁clo	-1266
▁others	-1267
▁morn	-1268
16	-1269
▁case	-1270
4,	-1271
4.	-1272
day	-1273
▁direct	-1274
▁prop	-1275
mon	-1276
▁round	-1277
ustr	-1278
ient	-1279
▁met	-1280
▁OF	-1281
ts	-1282
▁spir	-1283
▁result	-1284
▁mem	-1285
▁``	-1286
IC	-1287
ator	-1288
▁next	-1289
▁sure	-1290
▁Americ	-1291
oke	-1292
▁mil	-1293
fe	-1294
ung	-1295
3.	-1296
iting	-1297
▁CH	-1298
ann	-1299
▁produ	-1300
oney	-1301
right	-1302
▁opp	-1303
▁start	-1304
ats	-1305
▁talk	-1306
▁inv	-1307
io	-1308
▁year	-1309
▁pol	-1310
ering	-1311
▁king	-1312
empt	-1313
▁New	-1314
▁auth	-1315
stand	-1316
ten	-1317
ane	-1318
app	-1319
▁speak	-1320
▁number	-1321
Er	-1322
▁themselves	-1323
▁sign	-1324
▁morning	-1325
urch	-1326
fully	-1327
▁prom	-1328
used	-1329
che	-1330
▁myself	-1331
▁rather	-1332
ressed	-1333
ature	-1334
EL	-1335
▁thus	-1336
▁desc	-1337
irc	-1338
ached	-1339
▁requ	-1340
ec	-1341
ET	-1342
▁poor	-1343
▁white	-1344
raph	-1345
ask	-1346
▁sun	-1347
undred	-1348
▁ill	-1349
,--	-1350
▁dear	-1351
erm	-1352
▁sym	-1353
tern	-1354
▁sir	-1355
Error	-1356
▁feet	-1357
▁son	-1358
▁plac	-1359
pro	-1360
▁subject	-1361
for	-1362
15	-1363
▁ide	-1364
.'	-1365
▁air	-1366
uff	-1367
outh	-1368
uss	-1369
aim	-1370
▁King	-1371
▁hold	-1372
ued	-1373
▁lay	-1374
.)	-1375
▁turned	-1376
▁tri	-1377
▁together	-1378
▁till	-1379
▁dark	-1380
▁wife	-1381
▁By	-1382
▁except	-1383
3,	-1384
▁above	-1385
▁necess	-1386
ted	-1387
▁second	-1388
ility	-1389
▁hundred	-1390
▁voice	-1391
▁line	-1392
cial	-1393
▁help	-1394
▁book	-1395
ctor	-1396
▁doubt	-1397
ccess	-1398
▁fire	-1399
▁sle	-1400
▁Of	-1401
ism	-1402
▁known	-1403
▁along	-1404
▁==	-1405
.--	-1406
▁Miss	-1407
ream	-1408
▁hope	-1409
▁repl	-1410
▁equ	-1411
▁says	-1412
▁gentle	-1413
▁reason	-1414
▁means	-1415
▁body	-1416
("	-1417
▁prov	-1418
ready	-1419
▁bra	-1420
▁Not	-1421
▁value	-1422
fort	-1423
ork	-1424
▁short	-1425
▁began	-1426
It	-1427
br	-1428
▁English	-1429
ying	-1430
▁mer	-1431
▁aff	-1432
▁try	-1433
▁within	-1434
▁felt	-1435
▁Will	-1436
18	-1437
▁raise	-1438
▁sum	-1439
▁hear	-1440
rench	-1441
▁wond	-1442
▁often	-1443
US	-1444
IL	-1445
ope	-1446
▁Now	-1447
▁Le	-1448
▁Her	-1449
▁author	-1450
▁&	-1451
▁character	-1452
ilt	-1453
une	-1454
UR	-1455
ased	-1456
use	-1457
anc	-1458
add	-1459
▁flo	-1460
yn	-1461
▁ground	-1462
▁.	-1463
▁strong	-1464
oot	-1465
▁12	-1466
ards	-1467
▁town	-1468
▁passed	-1469
▁soul	-1470
ring	-1471
▁Sc	-1472
▁walk	-1473
▁Con	-1474
▁abs	-1475
▁fin	-1476
▁consider	-1477
lect	-1478
ural	-1479
ius	-1480
▁effect	-1481
utes	-1482
▁0.	-1483
▁mus	-1484
▁believe	-1485
▁lead	-1486
▁prin	-1487
▁10	-1488
▁Ex	-1489
▁Cl	-1490
▁children	-1491
▁dead	-1492
1]	-1493
▁stood	-1494
▁circ	-1495
▁blo	-1496
▁div	-1497
reen	-1498
▁times	-1499
▁already	-1500
▁stru	-1501
▁coll	-1502
enty	-1503
fect	-1504
iet	-1505
ING	-1506
ience	-1507
▁different	-1508
▁Ph	-1509
stance	-1510
ists	-1511
▁money	-1512
▁either	-1513
7.	-1514
")	-1515
▁comple	-1516
▁anything	-1517
atic	-1518
▁least	-1519
ples	-1520
▁leave	-1521
▁spec	-1522
▁itself	-1523
sp	-1524
▁AN	-1525
▁during	-1526
aj	-1527
▁alone	-1528
▁close	-1529
▁story	-1530
▁sch	-1531
▁One	-1532
▁gone	-1533
0]	-1534
ousand	-1535
ek	-1536
▁appear	-1537
▁general	-1538
▁sever	-1539
illed	-1540
▁fur	-1541
▁six	-1542
▁obser	-1543
▁@	-1544
▁Do	-1545
▁common	-1546
▁orig	-1547
▁question	-1548
uc	-1549
▁boy	-1550
▁nature	-1551
dden	-1552
owed	-1553
▁meet	-1554
▁appro	-1555
anger	-1556
▁Or	-1557
▁success	-1558
wer	-1559
▁proper	-1560
ef	-1561
▁expect	-1562
▁deep	-1563
▁earth	-1564
▁fair	-1565
ils	-1566
▁view	-1567
OL	-1568
resent	-1569
AS	-1570
▁fre	-1571
▁perhaps	-1572
tt	-1573
▁herself	-1574
▁thousand	-1575
wh	-1576
▁expl	-1577
▁tem	-1578
8,	-1579
itted	-1580
▁public	-1581
▁free	-1582
▁live	-1583
▁sudden	-1584
▁spirit	-1585
ley	-1586
▁eas	-1587
▁mis	-1588
▁black	-1589
▁ve	-1590
▁cap	-1591
▁prof	-1592
RE	-1593
//	-1594
▁learn	-1595
▁French	-1596
▁sound	-1597
▁brother	-1598
OM	-1599
▁lau	-1600
▁Ed	-1601
▁Ad	-1602
no	-1603
aughter	-1604
arent	-1605
▁pat	-1606
ination	-1607
iam	-1608
▁exc	-1609
que	-1610
▁fa	-1611
ember	-1612
▁bring	-1613
10	-1614
alt	-1615
bers	-1616
aves	-1617
▁ir	-1618
▁lab	-1619
▁command	-1620
▁exam	-1621
▁express	-1622
ger	-1623
AM	-1624
aptain	-1625
▁ship	-1626
▁possible	-1627
▁sn	-1628
▁held	-1629
▁human	-1630
12	-1631
▁offic	-1632
▁respect	-1633
▁dri	-1634
▁stra	-1635
iving	-1636
▁fear	-1637
enn	-1638
No	-1639
▁friends	-1640
He	-1641
iful	-1642
6.	-1643
▁bur	-1644
ops	-1645
▁therefore	-1646
5.	-1647
▁torch	-1648
▁...	-1649
▁indeed	-1650
ior	-1651
itions	-1652
▁bed	-1653
▁conc	-1654
▁several	-1655
▁women	-1656
▁dro	-1657
▁prob	-1658
▁England	-1659
▁sea	-1660
ster	-1661
ots	-1662
ethod	-1663
▁mark	-1664
What	-1665
ified	-1666
iled	-1667
▁Nor	-1668
▁understand	-1669
_]	-1670
alth	-1671
orrow	-1672
▁sort	-1673
▁letter	-1674
▁super	-1675
▁why	-1676
▁Go	-1677
path	-1678
ics	-1679
5,	-1680
▁account	-1681
pper	-1682
000	-1683
▁lady	-1684
▁whether	-1685
▁wood	-1686
▁sol	-1687
ength	-1688
▁fort	-1689
.;	-1690
▁eng	-1691
▁fav	-1692
▁lost	-1693
▁True	-1694
▁dest	-1695
▁--	-1696
▁pap	-1697
▁city	-1698
way	-1699
▁port	-1700
▁govern	-1701
band	-1702
▁truth	-1703
▁stud	-1704
▁clear	-1705
▁become	-1706
arch	-1707
▁possess	-1708
ining	-1709
▁wish	-1710
▁arg	-1711
▁hist	-1712
▁behind	-1713
8.	-1714
arr	-1715
▁mid	-1716
▁Oh	-1717
▁ten	-1718
ored	-1719
ality	-1720
▁type	-1721
▁partic	-1722
ship	-1723
17	-1724
ION	-1725
▁ut	-1726
▁around	-1727
▁mount	-1728
well	-1729
▁Cor	-1730
▁purp	-1731
▁cut	-1732
▁exper	-1733
▁enem	-1734
▁Co	-1735
▁master	-1736
ases	-1737
ney	-1738
None	-1739
▁became	-1740
And	-1741
▁Col	-1742
hy	-1743
":	-1744
9.	-1745
▁perfect	-1746
▁following	-1747
▁sit	-1748
▁oper	-1749
text	-1750
iment	-1751
ken	-1752
oup	-1753
▁np	-1754
▁vol	-1755
son	-1756
▁bes	-1757
cious	-1758
llustr	-1759
ught	-1760
▁hus	-1761
In	-1762
▁Char	-1763
like	-1764
oura	-1765
ising	-1766
ext	-1767
6,	-1768
▁table	-1769
▁seems	-1770
ones	-1771
▁fig	-1772
bs	-1773
▁past	-1774
▁Ge	-1775
iously	-1776
32	-1777
fun	-1778
rs	-1779
ument	-1780
▁low	-1781
side	-1782
▁five	-1783
that	-1784
▁diffic	-1785
ED	-1786
▁wall	-1787
head	-1788
▁sold	-1789
ma	-1790
ges	-1791
▁cried	-1792
▁step	-1793
ead	-1794
▁really	-1795
anged	-1796
▁replied	-1797
asion	-1798
amed	-1799
▁gold	-1800
▁jud	-1801
▁loc	-1802
idence	-1803
▁incl	-1804
▁Why	-1805
▁begin	-1806
▁ver	-1807
▁Let	-1808
▁har	-1809
ole	-1810
▁These	-1811
▁manner	-1812
▁bar	-1813
But	-1814
▁sy	-1815
ision	-1816
ls	-1817
owing	-1818
ler	-1819
####	-1820
▁Z	-1821
▁z	-1822
▁red	-1823
▁business	-1824
attle	-1825
tered	-1826
ording	-1827
ivers	-1828
▁From	-1829
def	-1830
▁stri	-1831
▁coming	-1832
ams	-1833
▁move	-1834
▁family	-1835
▁arri	-1836
▁er	-1837
._]	-1838
▁mere	-1839
▁quick	-1840
▁returned	-1841
gy	-1842
Yes	-1843
▁remark	-1844
▁See	-1845
▁ca	-1846
ection	-1847
cul	-1848
▁road	-1849
lu	-1850
Th	-1851
▁foot	-1852
airs	-1853
with	-1854
▁able	-1855
ush	-1856
reg	-1857
▁excl	-1858
▁making	-1859
medi	-1860
▁sweet	-1861
▁arms	-1862
▁Ger	-1863
▁fine	-1864
Oh	-1865
num	-1866
fact	-1867
rent	-1868
ries	-1869
yp	-1870
▁ord	-1871
▁LP	-1872
▁1,	-1873
mod	-1874
▁After	-1875
▁later	-1876
sequ	-1877
▁blood	-1878
ament	-1879
▁field	-1880
**	-1881
bed	-1882
ctions	-1883
resh	-1884
▁worth	-1885
▁towards	-1886
owers	-1887
eneral	-1888
▁month	-1889
lled	-1890
sem	-1891
▁cause	-1892
▁14	-1893
▁Well	-1894
▁kept	-1895
▁pract	-1896
▁CHAP	-1897
▁dem	-1898
▁Inc	-1899
▁decl	-1900
14	-1901
OT	-1902
Illustr	-1903
▁princi	-1904
▁force	-1905
▁prot	-1906
itten	-1907
bert	-1908
▁sight	-1909
though	-1910
body	-1911
ational	-1912
▁comes	-1913
▁192	-1914
ission	-1915
▁exist	-1916
▁received	-1917
,'	-1918
▁husband	-1919
▁looking	-1920
▁pie	-1921
ustom	-1922
▁wonder	-1923
▁twenty	-1924
▁early	-1925
Illustration	-1926
▁Am	-1927
▁break	-1928
▁draw	-1929
AD	-1930
ron	-1931
ondon	-1932
otion	-1933
▁treat	-1934
▁mist	-1935
bo	-1936
▁mag	-1937
▁sense	-1938
▁school	-1939
▁bit	-1940
▁Here	-1941
St	-1942
▁var	-1943
Ex	-1944
AC	-1945
min	-1946
▁trou	-1947
itude	-1948
▁bad	-1949
stem	-1950
▁pray	-1951
▁eye	-1952
▁horse	-1953
▁front	-1954
▁emp	-1955
▁position	-1956
▁chief	-1957
but	-1958
▁pay	-1959
col	-1960
▁dim	-1961
▁1.	-1962
▁accom	-1963
▁cal	-1964
irt	-1965
ony	-1966
▁av	-1967
▁cast	-1968
eter	-1969
▁CHAPTER	-1970
iar	-1971
uted	-1972
olog	-1973
where	-1974
▁age	-1975
▁represent	-1976
▁beautiful	-1977
inary	-1978
▁lim	-1979
▁et	-1980
▁cross	-1981
▁hast	-1982
13	-1983
▁regard	-1984
inter	-1985
7,	-1986
▁anim	-1987
▁followed	-1988
▁hur	-1989
▁faith	-1990
cient	-1991
wered	-1992
▁ready	-1993
let	-1994
▁Pl	-1995
▁Per	-1996
▁necessary	-1997
▁fail	-1998
▁pop	-1999
wise	-2000
▁squ	-2001
▁build	-2002
▁support	-2003
▁20	-2004
9,	-2005
▁ax	-2006
▁tou	-2007
aving	-2008
▁answer	-2009
instance	-2010
▁pict	-2011
▁Bl	-2012
▁cold	-2013
▁length	-2014
itting	-2015
▁won	-2016
ift	-2017
▁Mad	-2018
▁ign	-2019
["	-2020
antly	-2021
▁answered	-2022
▁eff	-2023
aining	-2024
ii	-2025
▁May	-2026
▁13	-2027
▁across	-2028
rans	-2029
▁wild	-2030
▁Car	-2031
▁dut	-2032
▁False	-2033
dtype	-2034
shape	-2035
rit	-2036
▁vill	-2037
.[	-2038
▁sleep	-2039
▁strange	-2040
"]	-2041
oly	-2042
angu	-2043
▁(2	-2044
▁mine	-2045
▁London	-2046
▁esc	-2047
▁sometimes	-2048
▁lord	-2049
▁peace	-2050
▁idea	-2051
dom	-2052
':	-2053
▁evening	-2054
▁occasion	-2055
ledge	-2056
ina	-2057
ises	-2058
----------------	-2059
array	-2060
ume	-2061
ounded	-2062
OD	-2063
size	-2064
▁Brit	-2065
▁forth	-2066
ounds	-2067
▁Dr	-2068
iers	-2069
▁__	-2070
▁ce	-2071
▁lad	-2072
▁forward	-2073
ency	-2074
pre	-2075
▁print	-2076
ires	-2077
ested	-2078
opy	-2079
alue	-2080
gan	-2081
▁creat	-2082
erv	-2083
vol	-2084
▁data	-2085
▁carry	-2086
my	-2087
▁path	-2088
▁bene	-2089
▁affect	-2090
cle	-2091
▁particular	-2092
iver	-2093
▁imag	-2094
▁river	-2095
▁quiet	-2096
▁watch	-2097
▁193	-2098
▁further	-2099
uk	-2100
key	-2101
fl	-2102
▁inform	-2103
▁relig	-2104
64	-2105
▁secret	-2106
▁acqu	-2107
▁carried	-2108
▁pret	-2109
▁cre	-2110
▁fif	-2111
bit	-2112
▁enc	-2113
IG	-2114
▁’	-2115
ump	-2116
▁satis	-2117
▁fight	-2118
ike	-2119
▁forg	-2120
▁mat	-2121
▁mur	-2122
▁Ro	-2123
orge	-2124
▁purpose	-2125
▁fellow	-2126
oman	-2127
IR	-2128
▁big	-2129
ours	-2130
mp	-2131
Well	-2132
▁AND	-2133
riage	-2134
su	-2135
▁IN	-2136
▁entire	-2137
▁Don	-2138
uous	-2139
▁daughter	-2140
rand	-2141
▁priv	-2142
erence	-2143
▁longer	-2144
▁immedi	-2145
ager	-2146
▁isinstance	-2147
▁send	-2148
▁attempt	-2149
inf	-2150
ences	-2151
▁quar	-2152
OU	-2153
▁German	-2154
▁reached	-2155
);	-2156
cially	-2157
what	-2158
loy	-2159
▁arr	-2160
▁dream	-2161
▁happy	-2162
inct	-2163
▁miles	-2164
▁Ne	-2165
▁disp	-2166
uct	-2167
yond	-2168
over	-2169
oe	-2170
idge	-2171
▁breat	-2172
▁post	-2173
uke	-2174
usion	-2175
▁<	-2176
▁Ab	-2177
▁natural	-2178
▁church	-2179
▁sett	-2180
▁Cred	-2181
▁danger	-2182
▁change	-2183
▁ann	-2184
ixed	-2185
▁stay	-2186
▁soft	-2187
▁Some	-2188
▁glad	-2189
▁obt	-2190
▁peri	-2191
▁France	-2192
We	-2193
▁perform	-2194
▁mad	-2195
▁hours	-2196
urs	-2197
▁Pe	-2198
amb	-2199
▁determ	-2200
▁appeared	-2201
night	-2202
▁enemy	-2203
▁shape	-2204
▁none	-2205
▁eight	-2206
▁American	-2207
iling	-2208
▁court	-2209
ource	-2210
▁Credits	-2211
eturn	-2212
bled	-2213
▁didn	-2214
▁%	-2215
========	-2216
uple	-2217
▁Qu	-2218
▁hair	-2219
▁everything	-2220
▁tro	-2221
▁Man	-2222
▁incre	-2223
▁ought	-2224
cks	-2225
▁sac	-2226
CH	-2227
▁party	-2228
▁added	-2229
▁wit	-2230
▁late	-2231
25	-2232
▁makes	-2233
irm	-2234
▁nearly	-2235
▁function	-2236
na	-2237
])	-2238
ories	-2239
ham	-2240
.’	-2241
room	-2242
▁former	-2243
▁system	-2244
▁slow	-2245
▁Can	-2246
ript	-2247
ze	-2248
▁music	-2249
▁taking	-2250
▁25	-2251
ement	-2252
▁probably	-2253
▁med	-2254
▁service	-2255
▁Har	-2256
▁company	-2257
dle	-2258
▁vari	-2259
class	-2260
itive	-2261
('	-2262
▁fast	-2263
ENT	-2264
ivid	-2265
▁single	-2266
ital	-2267
value	-2268
itor	-2269
__(	-2270
cend	-2271
▁appl	-2272
af	-2273
rodu	-2274
▁opin	-2275
umn	-2276
▁cry	-2277
default	-2278
▁William	-2279
▁len	-2280
ically	-2281
rest	-2282
▁written	-2283
:`	-2284
off	-2285
ighb	-2286
▁remember	-2287
▁hill	-2288
oper	-2289
ingly	-2290
ald	-2291
▁cra	-2292
▁heaven	-2293
▁according	-2294
▁jo	-2295
True	-2296
▁latter	-2297
▁array	-2298
note	-2299
▁prison	-2300
▁tree	-2301
▁delight	-2302
ites	-2303
▁fac	-2304
▁scar	-2305
orts	-2306
▁surpr	-2307
Ar	-2308
bol	-2309
ests	-2310
▁id	-2311
line	-2312
aged	-2313
rect	-2314
▁living	-2315
▁hig	-2316
▁influ	-2317
▁circum	-2318
aimed	-2319
▁proceed	-2320
▁complete	-2321
▁da	-2322
▁deg	-2323
▁continued	-2324
▁corn	-2325
▁poet	-2326
ha	-2327
cell	-2328
▁Eur	-2329
ended	-2330
ected	-2331
▁suddenly	-2332
data	-2333
▁prev	-2334
▁led	-2335
▁history	-2336
▁Where	-2337
iol	-2338
▁emb	-2339
opt	-2340
▁Yes	-2341
▁sugg	-2342
ands	-2343
ID	-2344
▁suppose	-2345
oes	-2346
▁beyond	-2347
▁streng	-2348
▁window	-2349
dim	-2350
That	-2351
▁pain	-2352
ization	-2353
▁army	-2354
▁desp	-2355
▁hot	-2356
▁mor	-2357
wargs	-2358
▁dict	-2359
▁greater	-2360
hood	-2361
met	-2362
▁Lady	-2363
uly	-2364
▁tit	-2365
▁parts	-2366
▁accept	-2367
▁coun	-2368
▁top	-2369
ogn	-2370
▁und	-2371
▁pretty	-2372
▁deal	-2373
ciety	-2374
▁occup	-2375
lement	-2376
▁Phil	-2377
▁MP	-2378
▁crow	-2379
index	-2380
gar	-2381
▁Fl	-2382
──	-2383
▁Bar	-2384
▁placed	-2385
▁action	-2386
20	-2387
▁rose	-2388
▁sto	-2389
UL	-2390
▁distance	-2391
▁langu	-2392
▁died	-2393
▁conn	-2394
▁spoke	-2395
[0]	-2396
▁den	-2397
▁joy	-2398
▁input	-2399
▁knowledge	-2400
anced	-2401
race	-2402
▁feeling	-2403
ST	-2404
▁conv	-2405
overed	-2406
▁wrong	-2407
kn	-2408
ables	-2409
▁sens	-2410
▁bright	-2411
▁belong	-2412
ruct	-2413
ening	-2414
▁lines	-2415
pon	-2416
▁leg	-2417
ulation	-2418
por	-2419
▁attack	-2420
uture	-2421
▁compl	-2422
ache	-2423
▁mention	-2424
▁perm	-2425
▁toward	-2426
pecially	-2427
▁rich	-2428
asure	-2429
▁Gr	-2430
▁bound	-2431
▁saying	-2432
▁af	-2433
▁pal	-2434
▁laugh	-2435
▁fil	-2436
▁Captain	-2437
▁repe	-2438
loc	-2439
▁original	-2440
▁plain	-2441
eness	-2442
▁General	-2443
▁grand	-2444
▁States	-2445
velop	-2446
▁Ap	-2447
rif	-2448
▁ang	-2449
anch	-2450
ev	-2451
vere	-2452
▁period	-2453
▁George	-2454
▁beauty	-2455
▁neighb	-2456
▁important	-2457
▁key	-2458
▁fool	-2459
ipp	-2460
▁ago	-2461
▁neg	-2462
wo	-2463
fer	-2464
ify	-2465
▁enj	-2466
▁bird	-2467
init	-2468
version	-2469
you	-2470
▁pen	-2471
anks	-2472
▁bear	-2473
▁El	-2474
▁doing	-2475
▁Europe	-2476
inner	-2477
▁bool	-2478
▁gentleman	-2479
▁employ	-2480
aching	-2481
ium	-2482
reet	-2483
▁York	-2484
yr	-2485
▁commun	-2486
hip	-2487
▁dtype	-2488
yl	-2489
▁save	-2490
cer	-2491
urg	-2492
▁laid	-2493
itary	-2494
▁yourself	-2495
▁contr	-2496
([	-2497
ptional	-2498
▁although	-2499
▁imm	-2500
Type	-2501
▁note	-2502
back	-2503
▁concern	-2504
ming	-2505
▁entered	-2506
▁youth	-2507
ech	-2508
▁Who	-2509
▁polit	-2510
oon	-2511
▁describ	-2512
iding	-2513
▁trust	-2514
▁stage	-2515
▁instead	-2516
▁wat	-2517
▁pleasure	-2518
ik	-2519
▁intell	-2520
cing	-2521
▁mouth	-2522
vert	-2523
▁gri	-2524
▁gard	-2525
ales	-2526
▁compan	-2527
▁neither	-2528
▁Govern	-2529
▁hath	-2530
ancy	-2531
▁Count	-2532
▁Christian	-2533
▁grow	-2534
▁plan	-2535
▁weight	-2536
▁frequ	-2537
▁En	-2538
road	-2539
ously	-2540
▁conce	-2541
▁difficult	-2542
▁ST	-2543
▁Hen	-2544
,’	-2545
▁below	-2546
ny	-2547
acy	-2548
▁process	-2549
▁la	-2550
▁suffic	-2551
▁opened	-2552
▁slight	-2553
2]	-2554
▁attention	-2555
▁Yet	-2556
isc	-2557
▁government	-2558
▁attend	-2559
▁Rome	-2560
asp	-2561
ords	-2562
▁paper	-2563
▁size	-2564
="	-2565
▁comfort	-2566
port	-2567
▁trees	-2568
▁gun	-2569
pid	-2570
▁method	-2571
▁obl	-2572
▁separ	-2573
▁visit	-2574
▁goes	-2575
oses	-2576
▁battle	-2577
▁recogn	-2578
ias	-2579
pond	-2580
irty	-2581
ootnote	-2582
▁bri	-2583
▁die	-2584
▁persons	-2585
▁especially	-2586
▁$	-2587
dered	-2588
▁various	-2589
▁gen	-2590
ilar	-2591
▁America	-2592
▁Gree	-2593
▁boys	-2594
oured	-2595
teen	-2596
▁chance	-2597
aul	-2598
▁Paris	-2599
irection	-2600
node	-2601
▁Church	-2602
▁2.	-2603
▁exact	-2604
ivil	-2605
rel	-2606
▁certainly	-2607
▁wanted	-2608
ushed	-2609
append	-2610
▁lie	-2611
hern	-2612
▁depart	-2613
eb	-2614
spe	-2615
ems	-2616
rix	-2617
umb	-2618
TH	-2619
np	-2620
▁resol	-2621
lling	-2622
▁names	-2623
▁default	-2624
odes	-2625
▁camp	-2626
▁crowd	-2627
arp	-2628
▁estab	-2629
ford	-2630
aded	-2631
▁generally	-2632
▁green	-2633
▁vict	-2634
tic	-2635
▁enjoy	-2636
▁gall	-2637
▁194	-2638
▁Que	-2639
▁remain	-2640
▁condition	-2641
light	-2642
▁duty	-2643
ral	-2644
29	-2645
▁desire	-2646
osing	-2647
▁consequ	-2648
▁Was	-2649
come	-2650
▁wide	-2651
uation	-2652
ension	-2653
▁tried	-2654
▁strength	-2655
▁dress	-2656
▁mess	-2657
▁---	-2658
▁island	-2659
unk	-2660
24	-2661
eg	-2662
esh	-2663
face	-2664
place	-2665
ston	-2666
▁Return	-2667
▁II	-2668
▁heavy	-2669
.__	-2670
▁safe	-2671
ruction	-2672
▁prep	-2673
')	-2674
▁weak	-2675
yle	-2676
▁opinion	-2677
▁minutes	-2678
▁ran	-2679
1)	-2680
▁Ital	-2681
▁drink	-2682
mat	-2683
rey	-2684
ouses	-2685
▁cost	-2686
▁concl	-2687
▁jour	-2688
▁dom	-2689
▁24	-2690
▁Gu	-2691
RI	-2692
ication	-2693
▁viol	-2694
▁anx	-2695
isted	-2696
rop	-2697
icate	-2698
▁Corp	-2699
▁blue	-2700
▁immediately	-2701
▁scene	-2702
▁sal	-2703
▁burn	-2704
atever	-2705
▁comb	-2706
ucky	-2707
SE	-2708
▁elif	-2709
▁yes	-2710
▁lived	-2711
bu	-2712
To	-2713
comp	-2714
play	-2715
▁Em	-2716
▁mass	-2717
ero	-2718
▁capt	-2719
CT	-2720
▁grad	-2721
▁inqu	-2722
cience	-2723
▁write	-2724
▁fle	-2725
aff	-2726
roy	-2727
spect	-2728
▁noble	-2729
▁mill	-2730
▁bott	-2731
icked	-2732
▁2,	-2733
eters	-2734
oted	-2735
▁check	-2736
▁appearance	-2737
ref	-2738
sub	-2739
athe	-2740
▁Rich	-2741
aste	-2742
▁Jack	-2743
▁places	-2744
▁letters	-2745
▁Tom	-2746
▁future	-2747
ging	-2748
▁title	-2749
point	-2750
▁sister	-2751
imate	-2752
▁Mary	-2753
RO	-2754
▁lips	-2755
aled	-2756
▁Ste	-2757
aten	-2758
▁liter	-2759
ividual	-2760
▁wis	-2761
▁north	-2762
3]	-2763
▁glo	-2764
new	-2765
▁British	-2766
▁knows	-2767
ille	-2768
idered	-2769
ession	-2770
▁custom	-2771
▁30	-2772
▁sin	-2773
▁group	-2774
▁--------	-2775
jo	-2776
dict	-2777
rupt	-2778
▁third	-2779
ively	-2780
▁assert	-2781
▁develop	-2782
▁imposs	-2783
▁direction	-2784
erc	-2785
bling	-2786
▁Charles	-2787
▁MR	-2788
▁months	-2789
orses	-2790
▁whis	-2791
ression	-2792
▁happened	-2793
input	-2794
_)	-2795
▁South	-2796
raid	-2797
▁beginning	-2798
eds	-2799
irth	-2800
▁Thus	-2801
▁guard	-2802
▁remained	-2803
▁expression	-2804
lly	-2805
▁figure	-2806
iant	-2807
▁extre	-2808
▁mater	-2809
itution	-2810
▁trouble	-2811
▁meant	-2812
een	-2813
▁lower	-2814
king	-2815
rible	-2816
30	-2817
uments	-2818
▁ru	-2819
ception	-2820
▁expected	-2821
atures	-2822
esty	-2823
28	-2824
istic	-2825
▁Pres	-2826
▁Prince	-2827
False	-2828
▁week	-2829
▁simple	-2830
ograph	-2831
inite	-2832
▁grace	-2833
▁afterwards	-2834
▁fresh	-2835
--"	-2836
▁Your	-2837
▁**	-2838
now	-2839
oid	-2840
▁Ag	-2841
eks	-2842
▁pun	-2843
▁occur	-2844
▁Thom	-2845
If	-2846
▁scarce	-2847
▁hop	-2848
▁warm	-2849
ov	-2850
▁individual	-2851
▁aut	-2852
▁straight	-2853
▁standing	-2854
ajor	-2855
anish	-2856
▁trib	-2857
ourage	-2858
lem	-2859
▁century	-2860
▁extra	-2861
▁thick	-2862
▁language	-2863
▁example	-2864
▁works	-2865
ama	-2866
attr	-2867
▁hardly	-2868
ander	-2869
known	-2870
▁food	-2871
▁ancient	-2872
▁enter	-2873
▁convers	-2874
▁virt	-2875
▁(200	-2876
[_	-2877
gment	-2878
▁color	-2879
essel	-2880
▁conduct	-2881
reed	-2882
▁cove	-2883
▁----	-2884
▁mult	-2885
iles	-2886
iced	-2887
——	-2888
27	-2889
▁shad	-2890
▁office	-2891
Ch	-2892
▁wrote	-2893
field	-2894
▁suc	-2895
▁fat	-2896
▁influence	-2897
list	-2898
osp	-2899
▁liber	-2900
itable	-2901
My	-2902
▁introdu	-2903
▁succeed	-2904
arrow	-2905
ett	-2906
▁grave	-2907
▁depend	-2908
bles	-2909
oken	-2910
._)	-2911
▁organ	-2912
uded	-2913
▁broken	-2914
▁test	-2915
▁married	-2916
IV	-2917
lin	-2918
▁hat	-2919
ching	-2920
stances	-2921
▁honour	-2922
▁Sw	-2923
▁main	-2924
▁/	-2925
graph	-2926
ription	-2927
▁raised	-2928
▁prevent	-2929
fig	-2930
▁presence	-2931
orted	-2932
▁Comm	-2933
cil	-2934
▁cases	-2935
▁sd	-2936
▁clot	-2937
UT	-2938
aped	-2939
▁easy	-2940
▁instance	-2941
pes	-2942
▁hung	-2943
amples	-2944
▁stone	-2945
eal	-2946
▁values	-2947
▁node	-2948
Why	-2949
▁becom	-2950
▁tears	-2951
tis	-2952
▁pos	-2953
▁horses	-2954
▁afraid	-2955
▁West	-2956
yal	-2957
▁Me	-2958
▁Russ	-2959
info	-2960
▁famil	-2961
▁silence	-2962
▁thoughts	-2963
▁news	-2964
▁typ	-2965
▁ii	-2966
▁impossible	-2967
▁unc	-2968
▁filled	-2969
▁exclaimed	-2970
▁design	-2971
▁thinking	-2972
▁fing	-2973
▁furn	-2974
GE	-2975
AND	-2976
▁civil	-2977
▁piece	-2978
onel	-2979
▁forget	-2980
Con	-2981
ails	-2982
▁Comp	-2983
▁glass	-2984
ox	-2985
▁23	-2986
▁south	-2987
45	-2988
ortun	-2989
▁warn	-2990
▁Henry	-2991
acher	-2992
▁State	-2993
▁considered	-2994
▁rapid	-2995
ien	-2996
▁demand	-2997
▁boat	-2998
▁La	-2999
cket	-3000
▁wid	-3001
▁quickly	-3002
▁28	-3003
▁smile	-3004
▁Value	-3005
▁shore	-3006
▁Come	-3007
▁please	-3008
▁26	-3009
gress	-3010
▁born	-3011
erve	-3012
max	-3013
▁United	-3014
▁sad	-3015
▁built	-3016
▁moved	-3017
ules	-3018
▁allowed	-3019
▁bless	-3020
▁max	-3021
▁host	-3022
▁Any	-3023
▁hero	-3024
ashion	-3025
▁Tr	-3026
▁trem	-3027
▁broad	-3028
▁wait	-3029
▁allow	-3030
ding	-3031
▁Pict	-3032
call	-3033
▁merely	-3034
▁gives	-3035
func	-3036
ned	-3037
▁dog	-3038
olute	-3039
▁exec	-3040
There	-3041
▁giving	-3042
▁>	-3043
go	-3044
▁Our	-3045
▁arrived	-3046
▁memory	-3047
▁somewhat	-3048
▁formed	-3049
ids	-3050
▁phys	-3051
▁similar	-3052
::	-3053
▁North	-3054
orth	-3055
soci	-3056
UN	-3057
▁kiss	-3058
▁Dav	-3059
cher	-3060
▁11	-3061
ishing	-3062
She	-3063
▁loved	-3064
osop	-3065
▁race	-3066
▁spring	-3067
▁special	-3068
▁vessel	-3069
▁lives	-3070
raw	-3071
▁pure	-3072
▁Ant	-3073
▁Sch	-3074
▁House	-3075
▁tuple	-3076
▁inn	-3077
▁struck	-3078
▁Cr	-3079
▁pra	-3080
▁passion	-3081
ributes	-3082
enth	-3083
▁entirely	-3084
▁27	-3085
ellow	-3086
▁disco	-3087
▁TO	-3088
▁Every	-3089
▁Queen	-3090
▁easily	-3091
aval	-3092
aries	-3093
▁drew	-3094
26	-3095
▁mut	-3096
▁equal	-3097
▁due	-3098
37	-3099
under	-3100
kwargs	-3101
do	-3102
▁cloud	-3103
loat	-3104
da	-3105
▁dread	-3106
▁fit	-3107
▁Their	-3108
▁slowly	-3109
▁breath	-3110
▁press	-3111
▁output	-3112
mber	-3113
uses	-3114
▁Good	-3115
▁mot	-3116
▁range	-3117
▁picture	-3118
rap	-3119
▁rid	-3120
▁seeing	-3121
38	-3122
▁maid	-3123
▁song	-3124
ux	-3125
oking	-3126
▁Che	-3127
▁started	-3128
▁experience	-3129
▁caught	-3130
▁books	-3131
LO	-3132
▁200	-3133
▁remo	-3134
▁fru	-3135
ulty	-3136
state	-3137
▁getting	-3138
hold	-3139
ators	-3140
lend	-3141
▁file	-3142
35	-3143
ply	-3144
▁ball	-3145
▁greatest	-3146
▁redu	-3147
---	-3148
ibly	-3149
hand	-3150
itation	-3151
▁material	-3152
▁tot	-3153
▁excell	-3154
▁etc	-3155
▁text	-3156
▁board	-3157
▁origin	-3158
▁SE	-3159
ingu	-3160
▁non	-3161
▁advant	-3162
▁Lou	-3163
▁paid	-3164
▁sharp	-3165
▁appears	-3166
▁War	-3167
house	-3168
▁evil	-3169
▁outside	-3170
zz	-3171
hab	-3172
torch	-3173
9]	-3174
▁seven	-3175
lls	-3176
zen	-3177
CE	-3178
En	-3179
▁space	-3180
anted	-3181
▁height	-3182
▁earn	-3183
▁sick	-3184
▁modern	-3185
▁Mon	-3186
▁points	-3187
▁takes	-3188
rol	-3189
▁phil	-3190
view	-3191
esc	-3192
ourt	-3193
########	-3194
▁charge	-3195
from	-3196
AY	-3197
▁stop	-3198
isp	-3199
▁miss	-3200
▁village	-3201
ameters	-3202
Wh	-3203
▁chair	-3204
▁whatever	-3205
▁cru	-3206
▁axis	-3207
▁society	-3208
▁cou	-3209
▁required	-3210
▁learned	-3211
▁ValueError	-3212
▁fly	-3213
▁leaves	-3214
▁rock	-3215
▁covered	-3216
ked	-3217
▁index	-3218
▁29	-3219
▁marriage	-3220
icks	-3221
▁walked	-3222
How	-3223
ye	-3224
work	-3225
aven	-3226
▁Cal	-3227
▁fra	-3228
▁summer	-3229
▁garden	-3230
▁observed	-3231
ribute	-3232
▁street	-3233
▁Indian	-3234
▁Ear	-3235
▁loss	-3236
▁utter	-3237
sec	-3238
▁private	-3239
▁Great	-3240
bar	-3241
arget	-3242
▁Duke	-3243
▁reels	-3244
▁yield	-3245
▁circumstances	-3246
▁kill	-3247
▁paint	-3248
▁usual	-3249
▁current	-3250
sy	-3251
▁girls	-3252
ades	-3253
Not	-3254
cast	-3255
▁Roman	-3256
▁prec	-3257
▁fill	-3258
OP	-3259
rict	-3260
▁Sm	-3261
FF	-3262
▁gaz	-3263
▁drawn	-3264
▁looks	-3265
...	-3266
▁di	-3267
ghed	-3268
▁dinner	-3269
lex	-3270
▁parent	-3271
▁property	-3272
respond	-3273
▁der	-3274
ointed	-3275
▁copy	-3276
50	-3277
▁forms	-3278
▁troops	-3279
▁produced	-3280
▁rule	-3281
pping	-3282
order	-3283
▁III	-3284
ishop	-3285
ublic	-3286
▁amount	-3287
▁changed	-3288
ags	-3289
erved	-3290
▁191	-3291
▁cover	-3292
ague	-3293
umed	-3294
▁impro	-3295
▁speech	-3296
▁health	-3297
ait	-3298
▁MAR	-3299
orough	-3300
▁tender	-3301
gu	-3302
▁Such	-3303
▁pull	-3304
▁Frank	-3305
]:	-3306
▁strugg	-3307
36	-3308
gin	-3309
wood	-3310
▁bank	-3311
▁oblig	-3312
▁cho	-3313
▁foreign	-3314
▁fixed	-3315
▁favour	-3316
ibility	-3317
▁box	-3318
▁middle	-3319
▁killed	-3320
▁Thomas	-3321
▁DE	-3322
▁spr	-3323
▁walls	-3324
how	-3325
▁content	-3326
appe	-3327
▁Po	-3328
▁admir	-3329
▁bill	-3330
hib	-3331
cont	-3332
▁log	-3333
▁stopped	-3334
▁\	-3335
icated	-3336
▁Bo	-3337
tree	-3338
▁James	-3339
▁sympy	-3340
▁Pictures	-3341
▁While	-3342
ternal	-3343
▁hang	-3344
▁wise	-3345
hest	-3346
▁acquaint	-3347
▁officers	-3348
arm	-3349
▁waiting	-3350
▁educ	-3351
ification	-3352
iny	-3353
▁Old	-3354
otten	-3355
40	-3356
▁pecul	-3357
_).	-3358
▁forest	-3359
▁tensor	-3360
▁absolute	-3361
rid	-3362
▁reve	-3363
▁Aug	-3364
▁larg	-3365
tensor	-3366
▁notice	-3367
▁passage	-3368
▁flowers	-3369
▁supposed	-3370
emb	-3371
▁magn	-3372
▁degree	-3373
hel	-3374
▁iss	-3375
▁firm	-3376
▁satisf	-3377
▁Just	-3378
▁false	-3379
▁3.	-3380
▁cat	-3381
▁Rep	-3382
▁base	-3383
▁surr	-3384
▁beside	-3385
▁peculiar	-3386
lass	-3387
▁apparent	-3388
dev	-3389
▁extend	-3390
▁accomp	-3391
▁opportun	-3392
▁cit	-3393
gged	-3394
▁soldiers	-3395
IM	-3396
anges	-3397
▁Even	-3398
▁claim	-3399
▁members	-3400
bly	-3401
▁inj	-3402
."""	-3403
▁results	-3404
▁thirty	-3405
▁Sam	-3406
▁elect	-3407
vation	-3408
46	-3409
▁!	-3410
▁crown	-3411
▁ant	-3412
▁escape	-3413
AB	-3414
len	-3415
▁Direct	-3416
▁houses	-3417
▁leaving	-3418
▁study	-3419
ique	-3420
lected	-3421
uge	-3422
▁iron	-3423
▁sitting	-3424
ani	-3425
▁storm	-3426
▁floor	-3427
uten	-3428
noon	-3429
▁Je	-3430
amm	-3431
unction	-3432
▁Thou	-3433
▁tone	-3434
Tensor	-3435
▁temper	-3436
▁speaking	-3437
▁minute	-3438
11	-3439
▁stream	-3440
▁shown	-3441
rees	-3442
▁discovered	-3443
▁lif	-3444
▁reach	-3445
trans	-3446
▁ep	-3447
▁showed	-3448
▁distingu	-3449
iction	-3450
▁doctor	-3451
▁running	-3452
▁Ah	-3453
itch	-3454
▁Produ	-3455
▁crit	-3456
▁numer	-3457
Footnote	-3458
morrow	-3459
▁mel	-3460
▁sail	-3461
vey	-3462
▁Mor	-3463
▁closed	-3464
ipe	-3465
▁eat	-3466
▁tong	-3467
▁conversation	-3468
▁information	-3469
osite	-3470
▁Returns	-3471
cent	-3472
antic	-3473
▁laughed	-3474
▁named	-3475
▁Call	-3476
▁Father	-3477
▁artic	-3478
ration	-3479
▁spread	-3480
▁shout	-3481
log	-3482
fast	-3483
▁determined	-3484
▁}	-3485
▁correspond	-3486
4]	-3487
▁spot	-3488
▁Sec	-3489
▁mountain	-3490
▁species	-3491
▁scarcely	-3492
▁arch	-3493
aced	-3494
▁assist	-3495
elve	-3496
▁steps	-3497
▁wel	-3498
▁block	-3499
▁winter	-3500
▁descend	-3501
ERS	-3502
▁mach	-3503
▁star	-3504
▁marry	-3505
▁train	-3506
▁journey	-3507
arily	-3508
stant	-3509
▁receive	-3510
▁float	-3511
rence	-3512
IA	-3513
▁revol	-3514
▁captain	-3515
▁unless	-3516
▁empt	-3517
ners	-3518
▁22	-3519
▁writing	-3520
▁Min	-3521
▁decided	-3522
▁eager	-3523
▁sword	-3524
dd	-3525
▁0,	-3526
IE	-3527
▁fifty	-3528
▁grew	-3529
▁'\	-3530
▁cult	-3531
▁vain	-3532
"),	-3533
clock	-3534
99	-3535
▁discuss	-3536
verse	-3537
`.	-3538
▁edge	-3539
▁source	-3540
bb	-3541
▁appre	-3542
▁birth	-3543
▁narrow	-3544
hens	-3545
ival	-3546
▁shot	-3547
▁silent	-3548
▁destroy	-3549
▁ones	-3550
▁philosop	-3551
names	-3552
▁event	-3553
▁terms	-3554
IO	-3555
▁chap	-3556
?'	-3557
▁orders	-3558
ILL	-3559
ores	-3560
▁fem	-3561
quence	-3562
▁passing	-3563
Att	-3564
▁broke	-3565
oked	-3566
▁simply	-3567
▁fashion	-3568
rec	-3569
▁extreme	-3570
sk	-3571
▁fro	-3572
▁moon	-3573
▁ess	-3574
check	-3575
▁likely	-3576
▁sor	-3577
▁rise	-3578
▁touch	-3579
▁honest	-3580
▁!=	-3581
ributed	-3582
▁mort	-3583
sl	-3584
umph	-3585
▁cab	-3586
▁quant	-3587
wr	-3588
stood	-3589
▁MRS	-3590
▁god	-3591
▁maint	-3592
▁lot	-3593
:--	-3594
▁3,	-3595
▁TH	-3596
▁fol	-3597
▁snow	-3598
▁building	-3599
pir	-3600
nal	-3601
▁cand	-3602
was	-3603
▁using	-3604
▁dry	-3605
03	-3606
,—	-3607
mit	-3608
umber	-3609
▁neck	-3610
arer	-3611
▁style	-3612
▁usually	-3613
They	-3614
illy	-3615
▁interesting	-3616
▁wine	-3617
code	-3618
ancing	-3619
This	-3620
▁sake	-3621
].	-3622
▁inhab	-3623
▁offered	-3624
map	-3625
oul	-3626
ustri	-3627
▁unto	-3628
▁motion	-3629
▁fortune	-3630
▁Jan	-3631
▁pot	-3632
▁Ir	-3633
aces	-3634
▁higher	-3635
▁officer	-3636
▁Su	-3637
▁afternoon	-3638
III	-3639
▁proud	-3640
▁stock	-3641
▁deli	-3642
,[	-3643
edy	-3644
module	-3645
▁moral	-3646
▁nation	-3647
▁beneath	-3648
▁Paul	-3649
▁reading	-3650
retched	-3651
▁Jud	-3652
▁guess	-3653
▁prove	-3654
▁match	-3655
▁personal	-3656
▁ladies	-3657
48	-3658
file	-3659
▁rank	-3660
▁meaning	-3661
05	-3662
▁search	-3663
thon	-3664
▁Fil	-3665
▁Peter	-3666
▁sky	-3667
▁level	-3668
ishment	-3669
▁bread	-3670
▁finally	-3671
float	-3672
▁fright	-3673
▁wealth	-3674
▁existence	-3675
2)	-3676
▁doll	-3677
▁sufficient	-3678
uls	-3679
amber	-3680
▁coast	-3681
▁column	-3682
▁religious	-3683
▁XX	-3684
▁bow	-3685
proper	-3686
▁perfectly	-3687
.—	-3688
▁correct	-3689
▁popular	-3690
can	-3691
fit	-3692
▁sorrow	-3693
tes	-3694
▁Jes	-3695
▁apart	-3696
▁mentioned	-3697
▁pale	-3698
▁terrible	-3699
ample	-3700
▁considerable	-3701
▁trying	-3702
asc	-3703
ipped	-3704
ability	-3705
▁lies	-3706
▁surface	-3707
▁dam	-3708
▁prepared	-3709
▁sand	-3710
▁offer	-3711
▁serious	-3712
ares	-3713
output	-3714
▁186	-3715
▁thank	-3716
Sh	-3717
time	-3718
utation	-3719
peror	-3720
load	-3721
▁SC	-3722
▁authority	-3723
ANT	-3724
▁[]	-3725
▁189	-3726
▁favor	-3727
An	-3728
▁Two	-3729
▁flat	-3730
ips	-3731
igned	-3732
erable	-3733
urd	-3734
▁pack	-3735
▁shut	-3736
▁happiness	-3737
▁Government	-3738
▁political	-3739
47	-3740
oo	-3741
rc	-3742
▁ordered	-3743
▁worse	-3744
▁difficulty	-3745
▁(?	-3746
ormal	-3747
▁ears	-3748
▁desert	-3749
▁corner	-3750
▁otherwise	-3751
▁habit	-3752
▁ourselves	-3753
▁events	-3754
▁regular	-3755
olly	-3756
ardon	-3757
▁August	-3758
kind	-3759
▁term	-3760
ensive	-3761
akespe	-3762
▁aud	-3763
ATION	-3764
▁breast	-3765
▁distinct	-3766
EM	-3767
!--	-3768
sym	-3769
▁religion	-3770
ios	-3771
▁bold	-3772
▁args	-3773
▁tend	-3774
part	-3775
▁upper	-3776
▁ring	-3777
▁reply	-3778
alley	-3779
▁native	-3780
▁pleasant	-3781
iversal	-3782
▁splend	-3783
adata	-3784
ta	-3785
▁brave	-3786
▁wished	-3787
ernel	-3788
▁conqu	-3789
▁bas	-3790
▁situation	-3791
▁conditions	-3792
iments	-3793
▁princip	-3794
▁bitter	-3795
ese	-3796
CK	-3797
▁sides	-3798
▁military	-3799
▁Jew	-3800
▁trave	-3801
UM	-3802
▁Im	-3803
▁Te	-3804
▁trade	-3805
▁turning	-3806
▁believed	-3807
▁meeting	-3808
gen	-3809
▁suggest	-3810
▁declared	-3811
ajesty	-3812
▁repeated	-3813
▁threat	-3814
isters	-3815
Do	-3816
▁Port	-3817
ALL	-3818
idden	-3819
▁clean	-3820
▁evidence	-3821
▁User	-3822
........	-3823
▁Ser	-3824
▁heat	-3825
▁rare	-3826
▁difference	-3827
eed	-3828
▁Louis	-3829
▁Tur	-3830
▁Coll	-3831
ergy	-3832
▁susp	-3833
▁Which	-3834
org	-3835
▁accompl	-3836
▁working	-3837
result	-3838
▁justice	-3839
plit	-3840
▁pet	-3841
▁rob	-3842
▁calm	-3843
▁Richard	-3844
▁witness	-3845
ril	-3846
▁proved	-3847
▁Court	-3848
▁local	-3849
ARD	-3850
▁satisfact	-3851
▁thin	-3852
▁Robert	-3853
▁advantage	-3854
▁stir	-3855
Then	-3856
▁game	-3857
▁ignor	-3858
▁intellig	-3859
▁provided	-3860
ounced	-3861
▁Law	-3862
▁importance	-3863
ara	-3864
date	-3865
values	-3866
▁silver	-3867
▁opportunity	-3868
▁possession	-3869
▁doct	-3870
RA	-3871
▁blind	-3872
▁stat	-3873
she	-3874
▁amb	-3875
▁wouldn	-3876
▁gentlemen	-3877
akespeare	-3878
▁matters	-3879
▁ende	-3880
▁associ	-3881
▁Indians	-3882
▁seat	-3883
▁heads	-3884
ology	-3885
▁continue	-3886
▁bod	-3887
▁promise	-3888
▁cred	-3889
▁opt	-3890
▁First	-3891
▁imper	-3892
▁station	-3893
▁ways	-3894
ESS	-3895
▁dare	-3896
▁35	-3897
▁Island	-3898
▁obtained	-3899
▁Af	-3900
iden	-3901
▁agree	-3902
▁string	-3903
▁addition	-3904
▁twelve	-3905
▁exactly	-3906
▁report	-3907
iently	-3908
▁worthy	-3909
▁fier	-3910
▁steam	-3911
▁talking	-3912
▁theat	-3913
▁understood	-3914
property	-3915
ica	-3916
icy	-3917
start	-3918
▁earli	-3919
▁isn	-3920
urb	-3921
▁address	-3922
76	-3923
▁bottom	-3924
▁progress	-3925
fortun	-3926
▁argument	-3927
▁spite	-3928
ailed	-3929
▁taste	-3930
idently	-3931
▁measure	-3932
▁rate	-3933
▁spent	-3934
39	-3935
▁Ducky	-3936
▁animal	-3937
▁record	-3938
ially	-3939
▁Spanish	-3940
▁described	-3941
iqu	-3942
cked	-3943
▁pieces	-3944
▁vast	-3945
▁JO	-3946
▁du	-3947
▁gro	-3948
▁west	-3949
orious	-3950
▁capital	-3951
▁stro	-3952
▁sav	-3953
▁writ	-3954
▁More	-3955
Is	-3956
omin	-3957
▁speed	-3958
axis	-3959
method	-3960
nes	-3961
Tis	-3962
▁courage	-3963
(_	-3964
▁prince	-3965
▁exerc	-3966
ois	-3967
▁Mc	-3968
utions	-3969
ITH	-3970
▁element	-3971
vention	-3972
▁ordinary	-3973
Op	-3974
ram	-3975
oups	-3976
▁laws	-3977
▁royal	-3978
▁serve	-3979
▁movement	-3980
▁opposite	-3981
▁collect	-3982
▁affection	-3983
▁188	-3984
▁pred	-3985
icious	-3986
ded	-3987
▁social	-3988
▁rail	-3989
▁empty	-3990
just	-3991
▁freed	-3992
▁Nap	-3993
▁instant	-3994
▁remains	-3995
▁fate	-3996
▁vent	-3997
▁intended	-3998
▁Greek	-3999
▁confess	-4000
▁conscious	-4001
▁curious	-4002
ai	-4003
▁prim	-4004
▁sacrif	-4005
types	-4006
▁Director	-4007
――	-4008
oles	-4009
▁surprise	-4010
urally	-4011
lay	-4012
▁"_	-4013
▁drawing	-4014
▁prepar	-4015
math	-4016
▁hall	-4017
▁faint	-4018
▁RO	-4019
▁engaged	-4020
ental	-4021
▁quarter	-4022
49	-4023
▁share	-4024
▁Hel	-4025
▁py	-4026
▁entr	-4027
▁graph	-4028
▁excellent	-4029
ae	-4030
▁entertain	-4031
exp	-4032
_;	-4033
▁AL	-4034
▁pleased	-4035
▁leading	-4036
▁Shakespeare	-4037
▁forty	-4038
Now	-4039
▁code	-4040
▁wonderful	-4041
▁IV	-4042
▁PR	-4043
▁ships	-4044
▁frequently	-4045
▁reb	-4046
://	-4047
omen	-4048
75	-4049
bre	-4050
▁doc	-4051
▁disappe	-4052
ees	-4053
pered	-4054
▁reel	-4055
worth	-4056
▁grass	-4057
NE	-4058
▁yellow	-4059
asing	-4060
▁ignore	-4061
▁stands	-4062
acke	-4063
▁judge	-4064
▁portion	-4065
▁win	-4066
arsh	-4067
▁honor	-4068
ns	-4069
▁rend	-4070
▁wear	-4071
▁fully	-4072
▁lying	-4073
▁trad	-4074
▁version	-4075
▁rain	-4076
▁caused	-4077
▁published	-4078
▁Lu	-4079
ims	-4080
▁sorry	-4081
▁square	-4082
▁follows	-4083
irgin	-4084
▁ris	-4085
▁Mont	-4086
▁Pal	-4087
ville	-4088
May	-4089
▁tall	-4090
▁season	-4091
▁proport	-4092
▁Madame	-4093
▁tongue	-4094
['	-4095
▁couldn	-4096
▁fish	-4097
▁powers	-4098
▁arrange	-4099
oms	-4100
▁dece	-4101
rors	-4102
hs	-4103
▁servant	-4104
▁total	-4105
abel	-4106
lict	-4107
▁error	-4108
idx	-4109
using	-4110
▁loud	-4111
estern	-4112
Enter	-4113
▁removed	-4114
erson	-4115
ege	-4116
▁suppl	-4117
ential	-4118
idenote	-4119
▁00	-4120
ashed	-4121
valid	-4122
gypt	-4123
▁Are	-4124
host	-4125
▁cell	-4126
Sidenote	-4127
▁aston	-4128
▁fault	-4129
uding	-4130
▁lose	-4131
▁fallen	-4132
!'	-4133
▁carefully	-4134
asons	-4135
quis	-4136
▁jax	-4137
▁seek	-4138
lished	-4139
▁thrown	-4140
▁Mag	-4141
▁dwell	-4142
IST	-4143
orne	-4144
▁Gl	-4145
atory	-4146
▁transl	-4147
▁animals	-4148
erry	-4149
▁burst	-4150
▁Pat	-4151
▁feelings	-4152
▁pick	-4153
▁van	-4154
ds	-4155
ELL	-4156
kes	-4157
▁independ	-4158
▁assem	-4159
▁pair	-4160
▁Cast	-4161
▁advance	-4162
see	-4163
▁questions	-4164
▁env	-4165
▁birds	-4166
▁Him	-4167
apping	-4168
▁Bel	-4169
▁relations	-4170
▁Colonel	-4171
▁sympath	-4172
8]	-4173
aker	-4174
▁endeav	-4175
▁symbol	-4176
▁dism	-4177
unch	-4178
cur	-4179
////	-4180
▁spoken	-4181
aked	-4182
All	-4183
▁transform	-4184
▁brown	-4185
▁presented	-4186
▁description	-4187
▁cheer	-4188
▁gar	-4189
▁qual	-4190
33	-4191
lib	-4192
ulated	-4193
▁triumph	-4194
HT	-4195
cture	-4196
▁catch	-4197
▁proof	-4198
▁fruit	-4199
▁forced	-4200
▁liberty	-4201
▁Bra	-4202
▁citiz	-4203
▁compar	-4204
▁pride	-4205
▁refer	-4206
▁directly	-4207
together	-4208
▁advent	-4209
():	-4210
▁Act	-4211
▁Vol	-4212
Mar	-4213
grad	-4214
▁nice	-4215
▁Roy	-4216
▁affairs	-4217
▁familiar	-4218
▁greatly	-4219
fn	-4220
▁Fred	-4221
rate	-4222
▁soldier	-4223
▁Oct	-4224
▁blow	-4225
▁effort	-4226
▁famous	-4227
▁played	-4228
▁employed	-4229
aches	-4230
▁clothes	-4231
▁March	-4232
▁mode	-4233
▁ow	-4234
▁Ben	-4235
▁aid	-4236
▁fancy	-4237
ear	-4238
▁suffer	-4239
7]	-4240
ENE	-4241
etch	-4242
▁ideas	-4243
▁cow	-4244
▁egg	-4245
OW	-4246
▁darkness	-4247
▁thorough	-4248
▁clim	-4249
cip	-4250
hem	-4251
▁bab	-4252
▁rough	-4253
▁date	-4254
▁finished	-4255
Al	-4256
▁weeks	-4257
▁objects	-4258
ora	-4259
pet	-4260
▁ur	-4261
agon	-4262
▁mask	-4263
▁21	-4264
lection	-4265
ulous	-4266
▁Have	-4267
▁diss	-4268
▁plant	-4269
▁double	-4270
▁prefer	-4271
▁bare	-4272
▁cott	-4273
▁occupied	-4274
▁cool	-4275
▁besides	-4276
plic	-4277
▁produce	-4278
▁High	-4279
▁pictures	-4280
eder	-4281
▁Mac	-4282
ocr	-4283
▁east	-4284
▁dram	-4285
▁+=	-4286
empl	-4287
▁Master	-4288
▁numbers	-4289
▁highest	-4290
▁inhabit	-4291
ulf	-4292
▁gate	-4293
▁Franc	-4294
▁shame	-4295
▁mountains	-4296
5]	-4297
aph	-4298
eper	-4299
▁thro	-4300
▁David	-4301
▁innoc	-4302
▁becomes	-4303
▁message	-4304
▁]	-4305
▁tea	-4306
▁Before	-4307
ented	-4308
pected	-4309
▁Egypt	-4310
Value	-4311
IP	-4312
6]	-4313
▁June	-4314
▁unf	-4315
▁opening	-4316
▁CAP	-4317
rem	-4318
▁nine	-4319
▁pity	-4320
arse	-4321
▁adopt	-4322
▁earnest	-4323
▁Tra	-4324
iance	-4325
Ind	-4326
▁threw	-4327
▁states	-4328
▁attract	-4329
icense	-4330
Don	-4331
▁Cong	-4332
▁grat	-4333
device	-4334
▁dign	-4335
enc	-4336
ETTER	-4337
▁Edward	-4338
▁device	-4339
▁hearts	-4340
▁extent	-4341
▁Street	-4342
▁wounded	-4343
lemn	-4344
▁holy	-4345
▁4.	-4346
▁perce	-4347
▁Spe	-4348
▁scen	-4349
▁President	-4350
▁gods	-4351
▁init	-4352
▁fond	-4353
▁spect	-4354
▁interp	-4355
▁Pope	-4356
▁Fort	-4357
iring	-4358
yd	-4359
▁Mat	-4360
▁weather	-4361
omy	-4362
▁Only	-4363
essor	-4364
▁facts	-4365
▁Wor	-4366
arest	-4367
▁cruel	-4368
▁Did	-4369
ette	-4370
oned	-4371
▁(?),	-4372
▁colour	-4373
▁mir	-4374
▁Afric	-4375
param	-4376
▁----------	-4377
▁golden	-4378
▁population	-4379
▁roof	-4380
aud	-4381
▁Jul	-4382
▁numerous	-4383
non	-4384
block	-4385
▁tim	-4386
isions	-4387
▁needed	-4388
▁Company	-4389
▁features	-4390
▁glory	-4391
01	-4392
▁resp	-4393
▁shows	-4394
▁practice	-4395
gel	-4396
▁resem	-4397
▁ident	-4398
▁agreed	-4399
▁director	-4400
▁lean	-4401
ambda	-4402
▁series	-4403
▁band	-4404
vo	-4405
▁yours	-4406
▁anxious	-4407
▁("	-4408
▁holding	-4409
och	-4410
van	-4411
▁hills	-4412
▁subjects	-4413
▁Heaven	-4414
▁succeeded	-4415
▁Had	-4416
▁instr	-4417
▁Wal	-4418
▁mighty	-4419
▁sought	-4420
23	-4421
▁Pol	-4422
expr	-4423
▁Int	-4424
▁page	-4425
▁smiled	-4426
▁FR	-4427
▁module	-4428
▁actually	-4429
▁illustr	-4430
attered	-4431
~~	-4432
ints	-4433
▁Ham	-4434
▁streets	-4435
▁particularly	-4436
▁plays	-4437
▁watched	-4438
uary	-4439
▁marked	-4440
())	-4441
▁Love	-4442
((	-4443
▁screen	-4444
▁promised	-4445
▁dat	-4446
Ah	-4447
will	-4448
▁Whe	-4449
▁rising	-4450
gl	-4451
▁pa	-4452
▁contrary	-4453
lder	-4454
▁Perhaps	-4455
count	-4456
▁solemn	-4457
AV	-4458
▁Ven	-4459
▁Spain	-4460
▁price	-4461
▁judgment	-4462
▁established	-4463
aling	-4464
const	-4465
▁altogether	-4466
rame	-4467
jax	-4468
▁fields	-4469
▁shoulder	-4470
ribution	-4471
▁accompan	-4472
eping	-4473
▁Mo	-4474
▁July	-4475
▁aside	-4476
▁distant	-4477
which	-4478
▁Alex	-4479
▁Prin	-4480
▁papers	-4481
▁settled	-4482
▁characters	-4483
spec	-4484
▁hes	-4485
▁Scot	-4486
▁dise	-4487
▁throughout	-4488
▁RE	-4489
▁exped	-4490
▁stranger	-4491
Un	-4492
▁Hall	-4493
outhern	-4494
step	-4495
▁shadow	-4496
▁rad	-4497
▁useful	-4498
weight	-4499
▁forgotten	-4500
▁Ber	-4501
▁CON	-4502
▁Many	-4503
izes	-4504
▁LETTER	-4505
▁BO	-4506
▁Bur	-4507
▁proble	-4508
INE	-4509
▁elements	-4510
format	-4511
▁superior	-4512
osen	-4513
▁larger	-4514
▁meth	-4515
ky	-4516
▁40	-4517
▁om	-4518
params	-4519
▁brief	-4520
▁uncle	-4521
▁dust	-4522
equ	-4523
▁desired	-4524
ada	-4525
cles	-4526
▁Reg	-4527
▁compe	-4528
▁glance	-4529
▁resist	-4530
ana	-4531
▁LU	-4532
ilities	-4533
▁served	-4534
▁pit	-4535
▁doesn	-4536
ieve	-4537
▁meas	-4538
▁writer	-4539
▁"'	-4540
▁dropped	-4541
▁Lie	-4542
▁pocket	-4543
mas	-4544
▁avoid	-4545
nat	-4546
▁Jose	-4547
ground	-4548
▁freedom	-4549
▁histor	-4550
▁sacred	-4551
▁constant	-4552
orthern	-4553
▁pounds	-4554
▁remarkable	-4555
rab	-4556
▁shook	-4557
pri	-4558
uel	-4559
▁Lat	-4560
▁cup	-4561
AG	-4562
``.	-4563
▁beast	-4564
▁confidence	-4565
▁devil	-4566
▁keeping	-4567
▁optional	-4568
▁Dor	-4569
▁bull	-4570
[1]	-4571
▁farm	-4572
▁inside	-4573
function	-4574
▁fingers	-4575
▁task	-4576
embered	-4577
▁principal	-4578
acity	-4579
arged	-4580
▁scale	-4581
▁novel	-4582
uce	-4583
berg	-4584
▁row	-4585
▁grown	-4586
ensions	-4587
▁obtain	-4588
▁East	-4589
▁saved	-4590
arding	-4591
atives	-4592
mented	-4593
▁Red	-4594
operation	-4595
▁consequence	-4596
▁185	-4597
00,	-4598
chief	-4599
22	-4600
izing	-4601
▁disg	-4602
▁hate	-4603
context	-4604
▁woods	-4605
▁hither	-4606
▁sevent	-4607
▁pointed	-4608
▁Mal	-4609
▁purch	-4610
omm	-4611
mark	-4612
umes	-4613
▁consist	-4614
iform	-4615
▁appointed	-4616
lt	-4617
▁establish	-4618
la	-4619
▁187	-4620
utenant	-4621
────	-4622
▁slave	-4623
▁creature	-4624
▁evidently	-4625
ackend	-4626
▁naturally	-4627
▁que	-4628
▁welcome	-4629
hus	-4630
▁neighbour	-4631
▁Jim	-4632
},	-4633
parse	-4634
▁beat	-4635
▁travel	-4636
▁principle	-4637
acle	-4638
group	-4639
▁preced	-4640
plex	-4641
▁spirits	-4642
▁companion	-4643
orous	-4644
▁engine	-4645
▁disapp	-4646
▁Never	-4647
ivity	-4648
▁alive	-4649
▁hence	-4650
▁Er	-4651
after	-4652
tering	-4653
PE	-4654
lebr	-4655
▁Mil	-4656
hington	-4657
▁failed	-4658
word	-4659
66	-4660
▁Part	-4661
ieur	-4662
▁param	-4663
▁obliged	-4664
▁Prof	-4665
▁applied	-4666
▁exhib	-4667
▁supply	-4668
▁powerful	-4669
▁):	-4670
'),	-4671
▁rout	-4672
▁advanced	-4673
▁regarded	-4674
▁pp	-4675
▁happen	-4676
▁grief	-4677
oph	-4678
then	-4679
astic	-4680
1;	-4681
▁equally	-4682
pos	-4683
▁discover	-4684
▁ge	-4685
▁flower	-4686
[:	-4687
ousin	-4688
▁lack	-4689
▁invol	-4690
▁taught	-4691
rose	-4692
▁White	-4693
nces	-4694
▁Sund	-4695
▁brill	-4696
▁exceed	-4697
▁However	-4698
KE	-4699
▁virtue	-4700
▁AR	-4701
▁editor	-4702
▁district	-4703
▁fart	-4704
▁Black	-4705
ads	-4706
▁Val	-4707
▁listen	-4708
▁refused	-4709
▁shoulders	-4710
▁enemies	-4711
ilst	-4712
▁growing	-4713
▁tor	-4714
▁knowing	-4715
enced	-4716
ufact	-4717
▁drop	-4718
▁necessity	-4719
rine	-4720
rows	-4721
range	-4722
▁vig	-4723
▁frame	-4724
▁divine	-4725
So	-4726
rt	-4727
aved	-4728
▁major	-4729
▁Rom	-4730
ushing	-4731
▁kingdom	-4732
va	-4733
▁mistress	-4734
▁completely	-4735
▁remembered	-4736
▁4,	-4737
▁exception	-4738
inity	-4739
udes	-4740
▁Div	-4741
▁depth	-4742
▁noise	-4743
▁Parameters	-4744
doc	-4745
rain	-4746
▁willing	-4747
▁severe	-4748
pace	-4749
▁Bet	-4750
▁hide	-4751
▁Ass	-4752
▁education	-4753
As	-4754
Im	-4755
het	-4756
urse	-4757
config	-4758
ealous	-4759
▁unknown	-4760
▁handsome	-4761
enance	-4762
-1	-4763
▁calls	-4764
▁afford	-4765
▁servants	-4766
rant	-4767
▁Py	-4768
ttps	-4769
▁Cont	-4770
▁needs	-4771
▁respons	-4772
▁cere	-4773
▁dangerous	-4774
inent	-4775
▁inhabitants	-4776
lor	-4777
▁labor	-4778
▁celebr	-4779
change	-4780
athered	-4781
Exit	-4782
uated	-4783
"""	-4784
EST	-4785
▁Though	-4786
▁quietly	-4787
OME	-4788
▁pardon	-4789
▁final	-4790
▁unh	-4791
▁female	-4792
▁satisfied	-4793
44	-4794
mony	-4795
abeth	-4796
▁doth	-4797
▁worked	-4798
▁windows	-4799
▁carrying	-4800
cre	-4801
udd	-4802
leep	-4803
▁Enter	-4804
▁control	-4805
▁April	-4806
▁render	-4807
▁faces	-4808
▁apparently	-4809
mask	-4810
▁Dick	-4811
▁daily	-4812
▁knight	-4813
▁display	-4814
▁explained	-4815
▁increased	-4816
DE	-4817
▁Mer	-4818
▁teeth	-4819
▁project	-4820
▁expressed	-4821
dir	-4822
▁Like	-4823
bal	-4824
▁San	-4825
ading	-4826
▁Eliz	-4827
▁coat	-4828
▁calling	-4829
iversity	-4830
▁wasn	-4831
▁suspect	-4832
▁brain	-4833
▁tele	-4834
3)	-4835
onsieur	-4836
._,	-4837
Int	-4838
▁dig	-4839
▁myst	-4840
▁reven	-4841
▁Med	-4842
▁throw	-4843
▁matrix	-4844
rier	-4845
▁proportion	-4846
pass	-4847
stit	-4848
▁ban	-4849
▁salt	-4850
For	-4851
▁suit	-4852
▁Francis	-4853
▁Sept	-4854
▁soil	-4855
▁India	-4856
▁dollars	-4857
▁hom	-4858
mo	-4859
ffic	-4860
▁buy	-4861
liament	-4862
▁angry	-4863
▁drive	-4864
▁distinguished	-4865
='	-4866
▁tired	-4867
▁classes	-4868
uries	-4869
▁palace	-4870
▁Germany	-4871
▁Washington	-4872
▁Ff	-4873
▁knock	-4874
▁merch	-4875
▁forces	-4876
wid	-4877
Array	-4878
ertion	-4879
▁Hon	-4880
▁joined	-4881
▁national	-4882
▁possessed	-4883
Let	-4884
▁bal	-4885
▁rev	-4886
▁stars	-4887
▁truly	-4888
▁rights	-4889
sq	-4890
▁carriage	-4891
▁murm	-4892
▁murder	-4893
vals	-4894
▁Mart	-4895
▁harm	-4896
▁Bes	-4897
▁seized	-4898
▁worship	-4899
▁suggested	-4900
zer	-4901
▁Look	-4902
built	-4903
▁cro	-4904
▁gather	-4905
▁Still	-4906
ariable	-4907
▁mission	-4908
▁Harry	-4909
appy	-4910
0,000	-4911
▁Mark	-4912
▁reck	-4913
▁Somet	-4914
▁noticed	-4915
▁Film	-4916
▁store	-4917
▁During	-4918
▁priest	-4919
ober	-4920
ourse	-4921
inet	-4922
▁require	-4923
▁breakfast	-4924
usted	-4925
▁join	-4926
▁reader	-4927
▁supported	-4928
fix	-4929
▁1:	-4930
alar	-4931
▁indu	-4932
▁Smith	-4933
▁swift	-4934
▁details	-4935
▁q	-4936
▁Sim	-4937
▁centre	-4938
▁rapidly	-4939
▁telling	-4940
▁connected	-4941
▁surely	-4942
▁wed	-4943
▁manif	-4944
▁intellect	-4945
▁actual	-4946
98	-4947
ris	-4948
▁Its	-4949
▁legs	-4950
▁1)	-4951
inate	-4952
string	-4953
▁Joseph	-4954
cause	-4955
▁Italy	-4956
▁driven	-4957
ais	-4958
▁36	-4959
▁Rob	-4960
▁ash	-4961
iety	-4962
law	-4963
▁skin	-4964
▁strict	-4965
▁directed	-4966
▁0:	-4967
▁purs	-4968
▁Again	-4969
▁secure	-4970
▁treated	-4971
ols	-4972
▁Virgin	-4973
▁remarked	-4974
ADY	-4975
▁twice	-4976
▁wants	-4977
▁rub	-4978
▁Dist	-4979
▁finding	-4980
lease	-4981
▁surprised	-4982
▁('	-4983
▁aband	-4984
▁Life	-4985
itated	-4986
▁Jesus	-4987
▁lovely	-4988
▁bodies	-4989
▁principles	-4990
IGHT	-4991
▁FOR	-4992
▁rom	-4993
▁entrance	-4994
BER	-4995
iece	-4996
▁contains	-4997
▁flesh	-4998
HER	-4999
ula	-5000
▁tail	-5001
▁persu	-5002
▁clearly	-5003
HN	-5004
lim	-5005
rim	-5006
▁hosp	-5007
▁undert	-5008
▁Those	-5009
▁previous	-5010
oleon	-5011
terday	-5012
indices	-5013
▁waters	-5014
================	-5015
mem	-5016
▁guns	-5017
0)	-5018
▁gain	-5019
▁belief	-5020
ools	-5021
▁Ver	-5022
07	-5023
▁bore	-5024
▁Nature	-5025
Function	-5026
ml	-5027
aret	-5028
▁impl	-5029
▁occurred	-5030
15.	-5031
▁hun	-5032
umm	-5033
▁Acc	-5034
▁Cam	-5035
▁haven	-5036
▁labour	-5037
▁accepted	-5038
▁32	-5039
▁containing	-5040
▁Men	-5041
▁splendid	-5042
▁inte	-5043
▁volume	-5044
▁suffered	-5045
▁ain	-5046
▁sche	-5047
▁hurt	-5048
Dec	-5049
▁watching	-5050
34	-5051
▁City	-5052
ago	-5053
var	-5054
RY	-5055
▁pursu	-5056
▁hearing	-5057
rad	-5058
ynam	-5059
nn	-5060
tx	-5061
▁calcul	-5062
▁dressed	-5063
1:	-5064
▁pu	-5065
▁Cent	-5066
']	-5067
▁Bro	-5068
▁science	-5069
ico	-5070
▁march	-5071
cts	-5072
▁spend	-5073
cean	-5074
elle	-5075
▁wand	-5076
▁avail	-5077
while	-5078
▁Another	-5079
▁waited	-5080
theless	-5081
▁genius	-5082
▁Italian	-5083
ulate	-5084
▁flight	-5085
▁moving	-5086
bur	-5087
gor	-5088
iest	-5089
oring	-5090
▁valley	-5091
ogue	-5092
▁Napoleon	-5093
▁*,	-5094
▁enthus	-5095
SS	-5096
gn	-5097
dist	-5098
▁Emperor	-5099
▁introduced	-5100
gging	-5101
ources	-5102
rat	-5103
▁—	-5104
cknow	-5105
▁fortun	-5106
▁rocks	-5107
verage	-5108
▁shoot	-5109
▁farther	-5110
abled	-5111
burg	-5112
Pro	-5113
▁bearing	-5114
▁spiritual	-5115
▁wra	-5116
▁returns	-5117
oding	-5118
▁touched	-5119
▁represented	-5120
five	-5121
▁Thr	-5122
▁Fa	-5123
▁conj	-5124
▁obey	-5125
▁saf	-5126
▁Brown	-5127
▁Mother	-5128
▁delay	-5129
▁Cap	-5130
▁queen	-5131
olf	-5132
▁withd	-5133
▁explan	-5134
▁prayer	-5135
▁nations	-5136
dat	-5137
aine	-5138
▁region	-5139
low	-5140
plot	-5141
▁lod	-5142
▁figures	-5143
88	-5144
ixt	-5145
▁flag	-5146
(*	-5147
▁acknow	-5148
uting	-5149
▁thread	-5150
imum	-5151
▁increase	-5152
stone	-5153
▁SCENE	-5154
▁bent	-5155
▁busy	-5156
(),	-5157
utils	-5158
▁Majesty	-5159
▁imagine	-5160
▁positive	-5161
▁5.	-5162
aper	-5163
isher	-5164
▁Wood	-5165
▁trace	-5166
▁struggle	-5167
▁extraord	-5168
▁Art	-5169
▁coff	-5170
anging	-5171
▁faithful	-5172
▁fighting	-5173
▁unfortun	-5174
▁presently	-5175
▁development	-5176
erate	-5177
▁absence	-5178
▁hurried	-5179
55	-5180
omp	-5181
▁Sunday	-5182
▁request	-5183
▁bid	-5184
sey	-5185
▁BR	-5186
iber	-5187
▁closely	-5188
Se	-5189
▁Grand	-5190
▁estim	-5191
▁minds	-5192
▁talked	-5193
▁nose	-5194
▁Other	-5195
▁printed	-5196
▁milk	-5197
angers	-5198
▁smoke	-5199
▁accompanied	-5200
▁worst	-5201
▁ice	-5202
▁erect	-5203
▁chosen	-5204
97	-5205
amma	-5206
▁Each	-5207
chen	-5208
more	-5209
▁instinct	-5210
.=	-5211
▁efforts	-5212
▁operation	-5213
▁ends	-5214
▁shel	-5215
▁desper	-5216
ourable	-5217
▁Des	-5218
▁Hist	-5219
▁dull	-5220
ishes	-5221
estic	-5222
▁Hill	-5223
▁crime	-5224
▁dance	-5225
▁tempt	-5226
▁putting	-5227
194	-5228
OUN	-5229
▁ere	-5230
▁Trans	-5231
pute	-5232
▁impression	-5233
▁Jo	-5234
▁myster	-5235
ooth	-5236
▁Nay	-5237
▁Sat	-5238
▁invest	-5239
▁manufact	-5240
▁male	-5241
core	-5242
▁Cur	-5243
▁arguments	-5244
utch	-5245
96	-5246
▁Sen	-5247
▁excit	-5248
agg	-5249
enny	-5250
gments	-5251
▁Mount	-5252
▁admin	-5253
▁cultiv	-5254
▁relief	-5255
IF	-5256
▁Def	-5257
▁member	-5258
▁regret	-5259
▁Elizabeth	-5260
▁profession	-5261
`,	-5262
▁nod	-5263
▁Lo	-5264
kin	-5265
▁Ma	-5266
▁demanded	-5267
apan	-5268
▁Fig	-5269
▁Cath	-5270
▁Doctor	-5271
▁wisdom	-5272
▁cop	-5273
▁sugar	-5274
▁reference	-5275
anches	-5276
▁wicked	-5277
aming	-5278
▁WITH	-5279
▁October	-5280
▁arrival	-5281
▁gradually	-5282
iation	-5283
▁possibly	-5284
▁Coun	-5285
▁River	-5286
onds	-5287
▁assured	-5288
▁proceeded	-5289
▁Den	-5290
▁sons	-5291
▁Philip	-5292
▁connection	-5293
OV	-5294
▁whispered	-5295
ses	-5296
▁protect	-5297
▁vo	-5298
arted	-5299
▁active	-5300
▁relation	-5301
▁gathered	-5302
▁aware	-5303
ORD	-5304
▁admitted	-5305
UE	-5306
ilty	-5307
▁pill	-5308
Come	-5309
onder	-5310
▁absolutely	-5311
▁mercy	-5312
▁fifteen	-5313
erves	-5314
isl	-5315
▁recall	-5316
▁Out	-5317
▁prisoners	-5318
cript	-5319
▁crim	-5320
▁flour	-5321
▁divided	-5322
▁bell	-5323
▁stones	-5324
uable	-5325
▁burning	-5326
▁friendship	-5327
▁crossed	-5328
▁retreat	-5329
▁doors	-5330
▁loose	-5331
▁excited	-5332
this	-5333
▁contract	-5334
▁100	-5335
lessly	-5336
▁bridge	-5337
▁{}	-5338
▁ing	-5339
▁LADY	-5340
▁choice	-5341
▁contain	-5342
▁Nat	-5343
▁butter	-5344
▁190	-5345
▁composed	-5346
▁physical	-5347
ndarray	-5348
▁prints	-5349
▁suspic	-5350
▁Bill	-5351
attern	-5352
▁dying	-5353
▁advice	-5354
▁nearer	-5355
▁changes	-5356
ivered	-5357
▁Would	-5358
▁Sal	-5359
▁separate	-5360
axes	-5361
▁colon	-5362
▁pretend	-5363
▁Nove	-5364
▁jump	-5365
▁cloth	-5366
▁consideration	-5367
▁obst	-5368
▁skill	-5369
▁stick	-5370
▁Nothing	-5371
▁singular	-5372
▁successful	-5373
▁methods	-5374
stract	-5375
▁fierce	-5376
▁38	-5377
chan	-5378
orse	-5379
▁tum	-5380
▁careful	-5381
--_	-5382
▁literature	-5383
Le	-5384
▁mile	-5385
▁weap	-5386
▁highly	-5387
,)	-5388
▁san	-5389
▁Also	-5390
sper	-5391
inc	-5392
▁souls	-5393
▁orn	-5394
▁image	-5395
▁walking	-5396
=-	-5397
Mr	-5398
ker	-5399
who	-5400
ounding	-5401
▁sympathy	-5402
allel	-5403
▁strike	-5404
▁machine	-5405
mm	-5406
ench	-5407
▁infer	-5408
▁lover	-5409
oration	-5410
▁slaves	-5411
▁earlier	-5412
Attr	-5413
edge	-5414
▁tells	-5415
UD	-5416
▁reign	-5417
pu	-5418
▁ble	-5419
▁amongst	-5420
▁Marg	-5421
cember	-5422
astern	-5423
▁million	-5424
▁accident	-5425
otes	-5426
▁Cape	-5427
▁partly	-5428
▁quality	-5429
▁Pers	-5430
▁midst	-5431
agement	-5432
ological	-5433
▁interrupt	-5434
▁defe	-5435
▁couple	-5436
▁aim	-5437
▁yards	-5438
▁arrest	-5439
▁prisoner	-5440
▁Ke	-5441
inks	-5442
▁Since	-5443
fle	-5444
▁Cons	-5445
src	-5446
uts	-5447
long	-5448
▁chamber	-5449
▁imagination	-5450
See	-5451
▁valid	-5452
▁Republic	-5453
▁official	-5454
▁excitement	-5455
table	-5456
there	-5457
▁target	-5458
▁oil	-5459
▁hopes	-5460
▁lands	-5461
▁created	-5462
▁falling	-5463
omb	-5464
bury	-5465
▁Del	-5466
▁Prov	-5467
▁Irish	-5468
▁Ac	-5469
▁Royal	-5470
▁Saint	-5471
▁bos	-5472
▁prompt	-5473
▁complex	-5474
AIN	-5475
▁context	-5476
▁approach	-5477
▁notes	-5478
▁duties	-5479
ped	-5480
▁Ell	-5481
looking	-5482
▁performed	-5483
▁types	-5484
▁unable	-5485
▁Examples	-5486
annel	-5487
▁Among	-5488
mode	-5489
antry	-5490
olic	-5491
▁remind	-5492
▁parents	-5493
obj	-5494
▁minister	-5495
95	-5496
▁LA	-5497
▁despair	-5498
▁Ann	-5499
▁mal	-5500
▁behold	-5501
print	-5502
tr	-5503
▁mistake	-5504
ART	-5505
▁smooth	-5506
▁victory	-5507
▁root	-5508
▁satisfaction	-5509
▁Both	-5510
▁Upon	-5511
▁praise	-5512
▁reasons	-5513
▁explain	-5514
Re	-5515
▁Feb	-5516
▁Thy	-5517
▁deeply	-5518
▁terror	-5519
]]	-5520
16.	-5521
▁deb	-5522
▁sigh	-5523
▁curt	-5524
▁circle	-5525
▁showing	-5526
LET	-5527
ller	-5528
▁supper	-5529
bits	-5530
▁Arch	-5531
▁Take	-5532
▁vers	-5533
▁safety	-5534
lers	-5535
▁wore	-5536
▁sovere	-5537
▁interested	-5538
enge	-5539
only	-5540
▁constit	-5541
▁Japan	-5542
▁thine	-5543
▁choose	-5544
▁begun	-5545
▁playing	-5546
▁concerned	-5547
▁defend	-5548
▁huge	-5549
▁countries	-5550
▁capable	-5551
▁ma	-5552
▁lat	-5553
▁fold	-5554
▁adapt	-5555
▁apply	-5556
▁Little	-5557
On	-5558
mb	-5559
▁jealous	-5560
▁concerning	-5561
▁Fri	-5562
▁gained	-5563
▁conver	-5564
▁Tw	-5565
▁cousin	-5566
▁territ	-5567
▁thinks	-5568
▁Type	-5569
▁condem	-5570
▁suffering	-5571
▁lifted	-5572
Optional	-5573
▁smiling	-5574
▁yesterday	-5575
unning	-5576
▁commer	-5577
▁LE	-5578
▁structure	-5579
bid	-5580
▁App	-5581
▁Ire	-5582
▁deck	-5583
▁meat	-5584
board	-5585
▁model	-5586
Be	-5587
▁asc	-5588
▁teach	-5589
▁clouds	-5590
uns	-5591
▁extraordinary	-5592
tra	-5593
▁Du	-5594
▁OR	-5595
▁hidden	-5596
▁inches	-5597
▁poetry	-5598
▁teacher	-5599
▁JOHN	-5600
▁Union	-5601
▁buried	-5602
▁proposed	-5603
▁fellows	-5604
▁statement	-5605
▁Tensor	-5606
▁kindly	-5607
▁traged	-5608
▁whilst	-5609
▁fairly	-5610
▁reward	-5611
▁intention	-5612
90	-5613
▁affair	-5614
▁XV	-5615
▁Wil	-5616
▁knees	-5617
▁moments	-5618
▁resolved	-5619
fil	-5620
▁),	-5621
▁growth	-5622
▁seated	-5623
▁narr	-5624
▁citizens	-5625
OS	-5626
rie	-5627
▁net	-5628
▁fought	-5629
lyph	-5630
▁Rem	-5631
▁devoted	-5632
attributes	-5633
▁companions	-5634
UB	-5635
▁37	-5636
▁policy	-5637
▁stories	-5638
▁turns	-5639
▁create	-5640
▁interests	-5641
▁BE	-5642
▁Far	-5643
▁parties	-5644
▁liked	-5645
▁Ay	-5646
▁admit	-5647
▁attributes	-5648
▁appreci	-5649
▁uniform	-5650
▁branches	-5651
▁destroyed	-5652
▁conscience	-5653
uer	-5654
▁effects	-5655
▁50	-5656
▁tal	-5657
▁ens	-5658
▁Long	-5659
▁amaz	-5660
▁dish	-5661
▁dozen	-5662
?’	-5663
pha	-5664
▁credit	-5665
▁temple	-5666
▁contempt	-5667
▁rendered	-5668
▁surrounded	-5669
▁gray	-5670
▁laughing	-5671
▁kinds	-5672
box	-5673
apes	-5674
▁arranged	-5675
▁quantity	-5676
▁diam	-5677
▁inner	-5678
▁counter	-5679
▁ride	-5680
IES	-5681
vis	-5682
▁cattle	-5683
_:	-5684
▁hell	-5685
▁Dem	-5686
▁stern	-5687
erer	-5688
▁Earl	-5689
▁shock	-5690
▁wholly	-5691
▁Governor	-5692
When	-5693
join	-5694
▁December	-5695
Of	-5696
**2	-5697
▁disci	-5698
}"	-5699
iot	-5700
ync	-5701
▁Jer	-5702
standing	-5703
gend	-5704
▁gle	-5705
▁Fe	-5706
▁Society	-5707
▁rul	-5708
▁plot	-5709
▁throne	-5710
▁Ly	-5711
▁Cle	-5712
▁rode	-5713
▁trial	-5714
▁Russia	-5715
transform	-5716
▁listened	-5717
SON	-5718
▁dawn	-5719
▁energy	-5720
▁audience	-5721
▁September	-5722
win	-5723
▁Sy	-5724
▁Indeed	-5725
wick	-5726
inging	-5727
▁vision	-5728
oubt	-5729
▁Pet	-5730
urity	-5731
▁pron	-5732
▁worn	-5733
▁pan	-5734
▁attached	-5735
▁Jac	-5736
eding	-5737
▁conven	-5738
▁critic	-5739
Who	-5740
▁ruin	-5741
▁patient	-5742
TY	-5743
cope	-5744
▁pars	-5745
▁subm	-5746
▁January	-5747
▁setting	-5748
▁learning	-5749
▁brilliant	-5750
eless	-5751
▁immense	-5752
De	-5753
they	-5754
inese	-5755
Good	-5756
▁Under	-5757
▁consent	-5758
▁theory	-5759
▁BY	-5760
ounce	-5761
▁understanding	-5762
imp	-5763
▁sheep	-5764
▁ceased	-5765
▁recomm	-5766
68	-5767
▁magnific	-5768
▁SH	-5769
▁phr	-5770
▁uns	-5771
▁wound	-5772
▁asleep	-5773
▁guilty	-5774
▁SM	-5775
▁vessels	-5776
▁odd	-5777
▁ahead	-5778
▁wings	-5779
expected	-5780
▁UN	-5781
▁pil	-5782
ittee	-5783
▁acts	-5784
▁demon	-5785
▁market	-5786
itate	-5787
▁debt	-5788
▁seed	-5789
▁Shall	-5790
▁drove	-5791
▁adopted	-5792
otted	-5793
▁loves	-5794
▁foolish	-5795
▁bringing	-5796
▁Once	-5797
▁keen	-5798
atively	-5799
▁constantly	-5800
▁police	-5801
▁sooner	-5802
▁Besides	-5803
▁escaped	-5804
OND	-5805
▁tale	-5806
IAN	-5807
ena	-5808
▁obv	-5809
▁goods	-5810
▁Professor	-5811
▁sacrifice	-5812
copy	-5813
?--	-5814
▁contained	-5815
▁dignity	-5816
▁standard	-5817
▁libr	-5818
▁hyp	-5819
▁Conf	-5820
▁repro	-5821
▁crew	-5822
▁causes	-5823
``,	-5824
▁Aunt	-5825
60	-5826
ca	-5827
uit	-5828
kins	-5829
Where	-5830
rated	-5831
▁constitution	-5832
▁treatment	-5833
▁visited	-5834
▁addressed	-5835
▁sentiment	-5836
▁anal	-5837
▁Mur	-5838
write	-5839
IX	-5840
father	-5841
▁disease	-5842
▁privile	-5843
▁November	-5844
▁pin	-5845
orter	-5846
▁Three	-5847
▁acted	-5848
thur	-5849
▁hit	-5850
▁wishes	-5851
▁-------	-5852
▁CO	-5853
uffer	-5854
▁Holy	-5855
▁castle	-5856
sm	-5857
▁xx	-5858
▁thoroughly	-5859
UST	-5860
▁Gra	-5861
▁kit	-5862
▁shop	-5863
Or	-5864
▁delicate	-5865
▁precious	-5866
▁dogs	-5867
▁greet	-5868
▁limit	-5869
▁poison	-5870
▁feature	-5871
▁immediate	-5872
▁plants	-5873
▁valuable	-5874
▁guide	-5875
▁5,	-5876
gram	-5877
▁Van	-5878
▁shr	-5879
▁stated	-5880
▁variety	-5881
avery	-5882
▁ease	-5883
▁anger	-5884
▁theatre	-5885
xy	-5886
lie	-5887
By	-5888
ACK	-5889
cho	-5890
▁iii	-5891
▁administ	-5892
▁informed	-5893
test	-5894
▁amid	-5895
▁luck	-5896
▁fleet	-5897
▁solid	-5898
▁visible	-5899
offset	-5900
keys	-5901
▁Mex	-5902
▁pressed	-5903
▁singing	-5904
LY	-5905
▁econ	-5906
▁explanation	-5907
inte	-5908
▁une	-5909
▁smaller	-5910
requ	-5911
▁Cat	-5912
▁hoped	-5913
pi	-5914
▁Tem	-5915
agger	-5916
▁descr	-5917
ih	-5918
aks	-5919
▁exha	-5920
▁Array	-5921
ustomed	-5922
PER	-5923
ructed	-5924
▁sentence	-5925
asy	-5926
outs	-5927
▁sex	-5928
▁returning	-5929
Mod	-5930
width	-5931
▁Romeo	-5932
Oct	-5933
▁invent	-5934
▁services	-5935
▁spo	-5936
▁impat	-5937
43	-5938
don	-5939
▁Ye	-5940
cache	-5941
▁sounds	-5942
42	-5943
▁Green	-5944
▁Major	-5945
arewell	-5946
unted	-5947
▁towns	-5948
▁practical	-5949
▁kwargs	-5950
80	-5951
▁Sil	-5952
▁31	-5953
pack	-5954
▁Emp	-5955
▁gay	-5956
})	-5957
amps	-5958
▁bay	-5959
▁rooms	-5960
▁exercise	-5961
▁Christmas	-5962
inger	-5963
nodes	-5964
tle	-5965
▁iv	-5966
▁thrust	-5967
sum	-5968
▁Pri	-5969
▁buff	-5970
▁gets	-5971
inking	-5972
▁functions	-5973
TON	-5974
▁fever	-5975
▁views	-5976
▁bought	-5977
▁convey	-5978
▁speaks	-5979
▁evident	-5980
▁everywhere	-5981
▁pour	-5982
▁compelled	-5983
▁thousands	-5984
▁Ca	-5985
▁fan	-5986
asant	-5987
▁chiefly	-5988
▁reflect	-5989
65	-5990
▁Dev	-5991
ocation	-5992
▁slightly	-5993
▁Mass	-5994
▁grey	-5995
▁curios	-5996
oused	-5997
▁rules	-5998
▁finger	-5999
ician	-6000
▁Bell	-6001
Mrs	-6002
▁rear	-6003
▁sees	-6004
▁friendly	-6005
bon	-6006
▁tur	-6007
▁liqu	-6008
▁scorn	-6009
▁stuff	-6010
▁gently	-6011
▁indign	-6012
▁Russian	-6013
▁Congress	-6014
arning	-6015
four	-6016
orus	-6017
▁purposes	-6018
▁execution	-6019
▁eggs	-6020
▁lake	-6021
67	-6022
▁based	-6023
▁indiff	-6024
▁normal	-6025
▁conclusion	-6026
▁Res	-6027
▁prospect	-6028
▁countenance	-6029
▁Met	-6030
porary	-6031
▁blank	-6032
▁convin	-6033
################	-6034
THE	-6035
eunt	-6036
▁assistance	-6037
net	-6038
ruary	-6039
▁Death	-6040
zy	-6041
With	-6042
mond	-6043
ourn	-6044
▁older	-6045
▁shri	-6046
teenth	-6047
▁newsp	-6048
▁plate	-6049
onscious	-6050
▁branch	-6051
▁impress	-6052
▁NE	-6053
omer	-6054
▁dreadful	-6055
ATE	-6056
ieved	-6057
▁pause	-6058
arts	-6059
register	-6060
▁License	-6061
▁Ireland	-6062
▁regiment	-6063
▁Gen	-6064
▁baby	-6065
▁bosom	-6066
asped	-6067
▁betray	-6068
▁Chinese	-6069
atus	-6070
▁protection	-6071
▁IS	-6072
book	-6073
▁everybody	-6074
df	-6075
MAN	-6076
▁fourth	-6077
▁improve	-6078
ients	-6079
ilder	-6080
▁artist	-6081
▁Bob	-6082
▁nobody	-6083
▁groups	-6084
▁Serv	-6085
▁Tell	-6086
▁cook	-6087
▁nodes	-6088
▁performance	-6089
▁glorious	-6090
acon	-6091
▁ended	-6092
raction	-6093
jud	-6094
▁Pre	-6095
▁jew	-6096
ponse	-6097
▁Book	-6098
▁Latin	-6099
irs	-6100
▁cler	-6101
▁Having	-6102
▁wretched	-6103
▁disappeared	-6104
lose	-6105
▁Mid	-6106
▁innocent	-6107
▁qualities	-6108
has	-6109
arry	-6110
ensors	-6111
▁scenes	-6112
▁Fin	-6113
▁enorm	-6114
▁aspect	-6115
▁indust	-6116
fall	-6117
items	-6118
▁Note	-6119
▁Const	-6120
▁accur	-6121
▁recon	-6122
▁enum	-6123
▁asking	-6124
▁feast	-6125
▁thanks	-6126
base	-6127
▁Land	-6128
▁extended	-6129
born	-6130
▁alt	-6131
▁bride	-6132
ldom	-6133
▁hurry	-6134
▁remove	-6135
▁emotion	-6136
pop	-6137
edly	-6138
rous	-6139
▁voy	-6140
▁Arab	-6141
▁pulled	-6142
____	-6143
reek	-6144
ulse	-6145
upid	-6146
▁Wall	-6147
bro	-6148
▁sole	-6149
pel	-6150
adel	-6151
▁acquaintance	-6152
orial	-6153
▁Bishop	-6154
▁National	-6155
AME	-6156
▁issue	-6157
▁signs	-6158
▁observ	-6159
▁Fer	-6160
▁abund	-6161
▁arose	-6162
ua	-6163
▁VI	-6164
▁Jean	-6165
▁operations	-6166
▁45	-6167
arded	-6168
▁phot	-6169
▁sell	-6170
▁plenty	-6171
▁Hol	-6172
▁voices	-6173
▁European	-6174
▁laughter	-6175
▁Day	-6176
▁Mus	-6177
▁caut	-6178
▁permitted	-6179
cus	-6180
aset	-6181
ifying	-6182
▁thunder	-6183
dy	-6184
▁os	-6185
▁awful	-6186
▁falls	-6187
▁problem	-6188
length	-6189
▁abroad	-6190
illa	-6191
▁pow	-6192
▁pipe	-6193
awn	-6194
▁scient	-6195
▁signific	-6196
▁recent	-6197
▁Ter	-6198
▁ctx	-6199
▁reality	-6200
anny	-6201
▁MAN	-6202
▁cities	-6203
▁runs	-6204
▁ded	-6205
▁Columb	-6206
Jan	-6207
ointment	-6208
ino	-6209
itect	-6210
▁intelligence	-6211
▁ach	-6212
▁Most	-6213
▁waste	-6214
▁sufficiently	-6215
real	-6216
▁violent	-6217
ICK	-6218
▁Add	-6219
▁Prot	-6220
▁definite	-6221
▁remaining	-6222
ww	-6223
PH	-6224
color	-6225
▁stead	-6226
▁track	-6227
▁instrument	-6228
▁Ros	-6229
erent	-6230
▁Gold	-6231
▁drama	-6232
hend	-6233
lines	-6234
▁bones	-6235
iture	-6236
▁Park	-6237
▁warning	-6238
▁including	-6239
lands	-6240
▁becoming	-6241
▁Vict	-6242
▁LAT	-6243
istry	-6244
▁proc	-6245
▁tight	-6246
▁brothers	-6247
▁jnp	-6248
▁disch	-6249
70	-6250
item	-6251
▁plans	-6252
▁contro	-6253
▁extremely	-6254
mosp	-6255
▁Lin	-6256
enger	-6257
▁Chap	-6258
▁Uncle	-6259
▁reduced	-6260
▁Inst	-6261
▁indic	-6262
▁infinite	-6263
▁begins	-6264
▁assumed	-6265
▁counsel	-6266
▁instantly	-6267
▁rage	-6268
▁charming	-6269
▁bew	-6270
▁fled	-6271
▁tort	-6272
▁handle	-6273
▁February	-6274
At	-6275
▁excuse	-6276
leg	-6277
▁grant	-6278
▁preserved	-6279
Any	-6280
arl	-6281
▁Son	-6282
▁Tim	-6283
shire	-6284
▁signal	-6285
ste	-6286
▁prosper	-6287
▁Ha	-6288
"{	-6289
process	-6290
▁Spir	-6291
▁manners	-6292
dims	-6293
Sir	-6294
abs	-6295
ICE	-6296
his	-6297
▁Rh	-6298
builtins	-6299
▁kitchen	-6300
▁commission	-6301
▁wet	-6302
▁Princess	-6303
▁Ty	-6304
▁Through	-6305
'.	-6306
inction	-6307
▁occasionally	-6308
▁(18	-6309
Res	-6310
▁(0	-6311
ties	-6312
▁hal	-6313
▁formerly	-6314
▁miserable	-6315
▁Squ	-6316
▁boats	-6317
▁mental	-6318
▁consult	-6319
left	-6320
▁include	-6321
ka	-6322
level	-6323
▁Fair	-6324
▁nerv	-6325
▁literary	-6326
QU	-6327
ura	-6328
rian	-6329
▁ghost	-6330
▁granted	-6331
retch	-6332
▁kindness	-6333
▁collection	-6334
▁dreams	-6335
▁degrees	-6336
▁expedition	-6337
scale	-6338
target	-6339
▁Britain	-6340
▁Op	-6341
▁aunt	-6342
▁edition	-6343
armed	-6344
▁recoll	-6345
▁columns	-6346
bel	-6347
iana	-6348
▁film	-6349
▁accomplished	-6350
Ad	-6351
IND	-6352
atform	-6353
▁article	-6354
▁job	-6355
▁Arthur	-6356
▁governor	-6357
▁weary	-6358
▁defence	-6359
▁division	-6360
▁CL	-6361
ends	-6362
▁indul	-6363
▁rushed	-6364
▁atmosp	-6365
▁painted	-6366
Sc	-6367
source	-6368
▁pages	-6369
owned	-6370
▁thri	-6371
▁procl	-6372
▁loving	-6373
acles	-6374
▁leaf	-6375
▁score	-6376
▁Universal	-6377
▁approached	-6378
▁destruction	-6379
parent	-6380
▁striking	-6381
▁Rev	-6382
85	-6383
iable	-6384
▁articles	-6385
▁inquired	-6386
▁properly	-6387
▁rejo	-6388
▁ON	-6389
._--	-6390
usive	-6391
▁recognized	-6392
▁mechan	-6393
LES	-6394
ige	-6395
lyn	-6396
lope	-6397
eenth	-6398
▁haste	-6399
options	-6400
▁horror	-6401
plemented	-6402
ael	-6403
▁Mich	-6404
▁obed	-6405
▁veget	-6406
▁clever	-6407
cs	-6408
().	-6409
itz	-6410
▁Ep	-6411
▁tow	-6412
▁dramatic	-6413
Per	-6414
---+	-6415
rot	-6416
▁islands	-6417
▁observe	-6418
IONS	-6419
▁tyr	-6420
ashing	-6421
cls	-6422
rical	-6423
▁seldom	-6424
▁chapter	-6425
▁younger	-6426
▁admiration	-6427
▁screenplay	-6428
▁excess	-6429
▁subsequ	-6430
▁training	-6431
Here	-6432
▁COM	-6433
▁raw	-6434
▁batt	-6435
▁compre	-6436
▁curiosity	-6437
▁interpret	-6438
▁Dan	-6439
force	-6440
▁savage	-6441
▁Alexander	-6442
▁PE	-6443
▁184	-6444
▁lux	-6445
▁ridic	-6446
avy	-6447
abor	-6448
▁charm	-6449
▁CAR	-6450
▁pup	-6451
▁interf	-6452
▁whence	-6453
pent	-6454
▁poem	-6455
▁banks	-6456
▁flying	-6457
Jul	-6458
▁ascend	-6459
vest	-6460
▁bree	-6461
▁hotel	-6462
[-	-6463
▁6.	-6464
▁Africa	-6465
▁accustomed	-6466
bridge	-6467
▁waves	-6468
olid	-6469
▁About	-6470
▁picked	-6471
▁requires	-6472
held	-6473
▁180	-6474
▁1915.	-6475
▁softly	-6476
pless	-6477
▁patri	-6478
▁saint	-6479
▁Producer	-6480
▁decor	-6481
▁(19	-6482
▁Sea	-6483
fulness	-6484
▁production	-6485
oria	-6486
▁discovery	-6487
▁sem	-6488
▁Scott	-6489
▁Young	-6490
▁doctrine	-6491
▁families	-6492
▁solution	-6493
▁toler	-6494
▁section	-6495
▁developed	-6496
▁Hu	-6497
▁armed	-6498
▁chest	-6499
▁impr	-6500
▁Freder	-6501
▁amuse	-6502
▁finds	-6503
▁inquir	-6504
▁appropri	-6505
Go	-6506
nan	-6507
▁horiz	-6508
▁stiff	-6509
▁accord	-6510
▁attended	-6511
▁Therefore	-6512
fa	-6513
▁Ele	-6514
▁contrast	-6515
▁vac	-6516
arrison	-6517
inth	-6518
▁harb	-6519
▁committed	-6520
yer	-6521
▁fame	-6522
▁lest	-6523
▁wheel	-6524
▁hollow	-6525
▁stepped	-6526
za	-6527
split	-6528
Look	-6529
▁rum	-6530
Aug	-6531
▁summ	-6532
▁humble	-6533
Can	-6534
▁sovereign	-6535
▁fer	-6536
urance	-6537
CHE	-6538
wind	-6539
▁JUL	-6540
▁throat	-6541
▁AT	-6542
▁fatal	-6543
▁spark	-6544
▁Johnson	-6545
comm	-6546
▁obsc	-6547
▁https	-6548
▁Footnote	-6549
▁attitude	-6550
▁furnished	-6551
▁ast	-6552
▁fund	-6553
▁LATIN	-6554
▁intense	-6555
▁commanded	-6556
4;	-6557
ribed	-6558
asions	-6559
▁config	-6560
▁Parliament	-6561
Like	-6562
▁Austri	-6563
▁mankind	-6564
▁Bu	-6565
erences	-6566
▁regions	-6567
▁shade	-6568
▁surre	-6569
ename	-6570
▁elder	-6571
ndim	-6572
▁bend	-6573
▁independent	-6574
ba	-6575
iveness	-6576
▁forgot	-6577
po	-6578
▁Bay	-6579
▁ideal	-6580
▁extract	-6581
▁Dep	-6582
Index	-6583
lower	-6584
osure	-6585
▁Mill	-6586
▁gift	-6587
▁leader	-6588
▁reputation	-6589
▁vic	-6590
▁kings	-6591
▁appeal	-6592
▁confusion	-6593
▁Sl	-6594
▁gas	-6595
▁map	-6596
▁ages	-6597
▁Secret	-6598
▁indices	-6599
▁Mess	-6600
▁emer	-6601
▁oath	-6602
▁blessed	-6603
loved	-6604
▁helped	-6605
▁reform	-6606
▁writers	-6607
▁essential	-6608
▁difficulties	-6609
master	-6610
oston	-6611
▁profound	-6612
▁fix	-6613
======	-6614
▁delivered	-6615
cest	-6616
sign	-6617
orage	-6618
▁cabin	-6619
▁compet	-6620
▁strongly	-6621
▁lights	-6622
▁sprang	-6623
bra	-6624
▁surv	-6625
▁merry	-6626
▁founded	-6627
emed	-6628
tuple	-6629
▁cord	-6630
▁load	-6631
▁average	-6632
▁movements	-6633
ingle	-6634
▁career	-6635
ography	-6636
ums	-6637
oser	-6638
▁card	-6639
▁holds	-6640
_{	-6641
izer	-6642
▁meal	-6643
▁investig	-6644
▁gif	-6645
stairs	-6646
▁Flore	-6647
▁centuries	-6648
▁somewhere	-6649
▁unfortunate	-6650
▁Args	-6651
▁portra	-6652
▁settle	-6653
▁Council	-6654
zero	-6655
▁outer	-6656
▁World	-6657
ini	-6658
ria	-6659
full	-6660
meta	-6661
eties	-6662
▁initial	-6663
▁unhappy	-6664
▁universal	-6665
▁celebrated	-6666
OK	-6667
▁fulf	-6668
ipping	-6669
▁acting	-6670
▁cheeks	-6671
▁shouted	-6672
▁scattered	-6673
▁flow	-6674
▁absurd	-6675
▁stairs	-6676
mir	-6677
▁profess	-6678
;--	-6679
orig	-6680
▁<=	-6681
quet	-6682
▁ignorant	-6683
iron	-6684
▁hole	-6685
▁frequent	-6686
One	-6687
▁affected	-6688
▁announced	-6689
▁implement	-6690
ACE	-6691
sell	-6692
▁fee	-6693
inputs	-6694
▁Lake	-6695
▁Sant	-6696
▁flame	-6697
▁EN	-6698
cker	-6699
▁Gard	-6700
▁pier	-6701
symbol	-6702
▁spare	-6703
▁specim	-6704
▁delighted	-6705
AST	-6706
Qu	-6707
▁MA	-6708
ienced	-6709
▁schol	-6710
▁scheme	-6711
ructions	-6712
▁acquainted	-6713
▁padd	-6714
pers	-6715
▁comfortable	-6716
▁ROME	-6717
▁philosophy	-6718
▁resc	-6719
▁departure	-6720
atched	-6721
▁mystery	-6722
▁schools	-6723
▁slavery	-6724
▁whisper	-6725
▁Ang	-6726
ato	-6727
▁AP	-6728
urches	-6729
▁natives	-6730
▁utterly	-6731
Your	-6732
▁Rose	-6733
▁unus	-6734
▁grate	-6735
▁architect	-6736
▁buildings	-6737
Par	-6738
▁eternal	-6739
▁majority	-6740
ulations	-6741
▁related	-6742
ros	-6743
▁fest	-6744
▁tribes	-6745
▁WH	-6746
iated	-6747
Com	-6748
eral	-6749
▁Walter	-6750
▁guests	-6751
Will	-6752
▁cas	-6753
▁uses	-6754
▁Spani	-6755
olation	-6756
▁frightened	-6757
▁xp	-6758
aign	-6759
▁inclined	-6760
▁instances	-6761
77	-6762
Nov	-6763
▁alike	-6764
▁swell	-6765
▁rand	-6766
)]	-6767
_1	-6768
phe	-6769
▁lun	-6770
▁punishment	-6771
update	-6772
▁Although	-6773
▁approaching	-6774
ola	-6775
▁horn	-6776
▁mixed	-6777
▁sixty	-6778
iate	-6779
stack	-6780
▁mood	-6781
▁verse	-6782
▁Norm	-6783
▁breaking	-6784
=-=-	-6785
avalry	-6786
cipy	-6787
last	-6788
▁Off	-6789
▁sen	-6790
▁perpet	-6791
▁anxiety	-6792
▁opposition	-6793
▁Sav	-6794
▁bul	-6795
▁Step	-6796
▁enjoyed	-6797
▁decision	-6798
fty	-6799
▁sadd	-6800
▁collected	-6801
ita	-6802
▁kernel	-6803
▁disturb	-6804
▁library	-6805
▁vote	-6806
▁entit	-6807
▁ocean	-6808
▁refuse	-6809
▁incident	-6810
▁creatures	-6811
▁characteristic	-6812
Py	-6813
▁available	-6814
▁atmosphere	-6815
▁tu	-6816
▁forehead	-6817
▁probable	-6818
▁Ev	-6819
omed	-6820
▁altern	-6821
▁deliver	-6822
▁specified	-6823
▁anybody	-6824
eval	-6825
▁rude	-6826
▁Sometimes	-6827
Ph	-6828
▁Corn	-6829
action	-6830
▁benefit	-6831
▁separated	-6832
andy	-6833
▁tent	-6834
▁compared	-6835
%,	-6836
ibr	-6837
case	-6838
mean	-6839
▁supre	-6840
▁reject	-6841
▁monarch	-6842
two	-6843
▁iter	-6844
▁silk	-6845
▁Peace	-6846
ws	-6847
aus	-6848
▁34	-6849
▁Dis	-6850
1-	-6851
▁33	-6852
▁6,	-6853
▁HE	-6854
pring	-6855
acious	-6856
▁access	-6857
▁conflict	-6858
▁likewise	-6859
▁slept	-6860
▁managed	-6861
▁manifest	-6862
Feb	-6863
▁Camp	-6864
▁Time	-6865
▁Virginia	-6866
▁contempl	-6867
▁Bab	-6868
ighed	-6869
lying	-6870
▁steel	-6871
▁Lieutenant	-6872
cut	-6873
icit	-6874
▁Key	-6875
▁habits	-6876
error	-6877
▁gaze	-6878
▁compass	-6879
rog	-6880
▁mounted	-6881
0000	-6882
encies	-6883
▁enormous	-6884
RAN	-6885
upon	-6886
urely	-6887
yard	-6888
▁182	-6889
▁paused	-6890
[0	-6891
enses	-6892
uster	-6893
Exeunt	-6894
▁lately	-6895
▁domestic	-6896
▁generous	-6897
▁included	-6898
▁selected	-6899
=_	-6900
atis	-6901
▁Whether	-6902
▁Alf	-6903
▁gent	-6904
▁lone	-6905
▁lambda	-6906
ht	-6907
bac	-6908
rag	-6909
supp	-6910
▁risk	-6911
▁ROMEO	-6912
▁borne	-6913
post	-6914
▁Sud	-6915
▁wave	-6916
ona	-6917
▁km	-6918
MENT	-6919
oped	-6920
▁sed	-6921
▁tax	-6922
▁Pass	-6923
▁anch	-6924
annels	-6925
▁Brother	-6926
AGE	-6927
▁blame	-6928
▁brings	-6929
▁completed	-6930
▁distribution	-6931
▁swept	-6932
▁tragedy	-6933
▁desperate	-6934
ario	-6935
bing	-6936
▁Inf	-6937
▁industry	-6938
asm	-6939
dig	-6940
▁178	-6941
▁renew	-6942
▁trick	-6943
▁coffee	-6944
▁pushed	-6945
▁parameter	-6946
when	-6947
apers	-6948
untime	-6949
rection	-6950
▁distress	-6951
▁tradition	-6952
▁Lee	-6953
▁Mod	-6954
pher	-6955
umption	-6956
LD	-6957
▁Sub	-6958
Return	-6959
▁doubtless	-6960
▁“_	-6961
▁remarks	-6962
▁freely	-6963
▁wooden	-6964
▁community	-6965
▁mysterious	-6966
▁16,	-6967
▁cig	-6968
▁Dutch	-6969
▁dancing	-6970
din	-6971
angle	-6972
illery	-6973
samples	-6974
▁referred	-6975
cel	-6976
▁8,	-6977
List	-6978
▁nest	-6979
▁experiment	-6980
▁observation	-6981
▁rush	-6982
▁treasure	-6983
▁pist	-6984
▁rope	-6985
▁writes	-6986
▁measures	-6987
▁attempted	-6988
▁convinced	-6989
metadata	-6990
IET	-6991
ugg	-6992
▁0),	-6993
ington	-6994
▁issued	-6995
▁northern	-6996
▁attribute	-6997
▁suspicion	-6998
▁magnificent	-6999
▁[5	-7000
Cl	-7001
icial	-7002
▁swear	-7003
▁union	-7004
▁misery	-7005
▁deliber	-7006
▁quarters	-7007
Apr	-7008
ORT	-7009
norm	-7010
▁club	-7011
assad	-7012
▁anyone	-7013
▁lin	-7014
▁intent	-7015
▁perman	-7016
▁sust	-7017
▁Scotland	-7018
▁oh	-7019
▁ric	-7020
▁Kent	-7021
▁beloved	-7022
▁60	-7023
ENCE	-7024
othe	-7025
▁hers	-7026
▁Water	-7027
▁expense	-7028
▁insp	-7029
ateg	-7030
▁tub	-7031
label	-7032
▁University	-7033
▁interrupted	-7034
bell	-7035
▁area	-7036
volution	-7037
▁council	-7038
END	-7039
00\	-7040
OUR	-7041
▁knife	-7042
▁token	-7043
▁Joe	-7044
▁Martin	-7045
▁insult	-7046
▁tables	-7047
▁corresponding	-7048
▁”	-7049
▁Very	-7050
uration	-7051
▁,	-7052
▁feared	-7053
▁retired	-7054
▁adventure	-7055
poly	-7056
roll	-7057
▁interior	-7058
▁relative	-7059
▁Dou	-7060
▁pound	-7061
▁specific	-7062
!_	-7063
▁SEE	-7064
aughters	-7065
aws	-7066
ipt	-7067
▁Jane	-7068
inder	-7069
▁According	-7070
▁arrangement	-7071
war	-7072
▁Page	-7073
▁numpy	-7074
▁exposed	-7075
▁forgive	-7076
IZ	-7077
aux	-7078
▁NA	-7079
▁whenever	-7080
▁chain	-7081
▁effic	-7082
▁Sus	-7083
▁dil	-7084
▁shalt	-7085
▁transport	-7086
▁cheek	-7087
▁label	-7088
▁noted	-7089
▁territory	-7090
▁uncertain	-7091
▁[1]	-7092
▁intim	-7093
ella	-7094
▁failure	-7095
▁Monsieur	-7096
▁antic	-7097
IFF	-7098
allow	-7099
urbed	-7100
▁enterpr	-7101
▁existing	-7102
▁elsewhere	-7103
omic	-7104
▁GRE	-7105
▁Give	-7106
omial	-7107
idents	-7108
▁Boston	-7109
▁rolled	-7110
▁wing	-7111
▁passes	-7112
Sep	-7113
mes	-7114
element	-7115
▁western	-7116
▁belonging	-7117
▁household	-7118
▁revolution	-7119
ran	-7120
▁Att	-7121
▁madam	-7122
▁thence	-7123
▁Because	-7124
▁captured	-7125
▁actions	-7126
vari	-7127
▁Hor	-7128
▁cam	-7129
▁ren	-7130
▁presents	-7131
▁lit	-7132
oping	-7133
▁domin	-7134
▁eleven	-7135
▁consciousness	-7136
▁ta	-7137
rael	-7138
▁Sol	-7139
▁legisl	-7140
▁pressure	-7141
ctx	-7142
rived	-7143
▁bears	-7144
▁mortal	-7145
▁convention	-7146
▁Auth	-7147
▁precise	-7148
▁China	-7149
▁Jones	-7150
▁listening	-7151
/2	-7152
▁],	-7153
▁cotton	-7154
▁belonged	-7155
▁(2004	-7156
▁coach	-7157
▁provin	-7158
Implemented	-7159
withstanding	-7160
:—	-7161
Set	-7162
▁Hence	-7163
"],	-7164
Met	-7165
Spe	-7166
▁Present	-7167
78	-7168
▁179	-7169
▁Sher	-7170
▁roll	-7171
▁Second	-7172
▁patience	-7173
Did	-7174
▁Without	-7175
▁central	-7176
raint	-7177
▁brow	-7178
▁expr	-7179
▁alarm	-7180
▁behav	-7181
▁ignorance	-7182
▁supplied	-7183
down	-7184
Trans	-7185
▁Poor	-7186
▁vague	-7187
▁People	-7188
▁batter	-7189
rep	-7190
iour	-7191
gorith	-7192
▁defined	-7193
▁occasions	-7194
▁tick	-7195
kernel	-7196
▁kissed	-7197
▁random	-7198
▁delightful	-7199
▁previously	-7200
▁ft	-7201
▁bark	-7202
ancholy	-7203
eries	-7204
▁Spirit	-7205
▁provide	-7206
▁parallel	-7207
▁distinction	-7208
▁Boy	-7209
layout	-7210
▁~	-7211
▁demonstr	-7212
ONT	-7213
make	-7214
rank	-7215
stri	-7216
▁Dun	-7217
▁bind	-7218
▁intellectual	-7219
▁PL	-7220
ante	-7221
▁merit	-7222
▁utmost	-7223
▁magic	-7224
▁estate	-7225
////////	-7226
▁hanging	-7227
▁readily	-7228
▁SP	-7229
aping	-7230
itors	-7231
▁bask	-7232
▁unexpected	-7233
bool	-7234
chess	-7235
▁Pier	-7236
▁stable	-7237
▁hy	-7238
ampl	-7239
▁Gre	-7240
▁cart	-7241
ailing	-7242
▁desir	-7243
▁shining	-7244
▁Sym	-7245
▁awa	-7246
▁enl	-7247
▁owing	-7248
▁steep	-7249
▁detect	-7250
mult	-7251
▁Mem	-7252
▁limited	-7253
▁secured	-7254
"--	-7255
tag	-7256
▁blaz	-7257
▁inher	-7258
▁cher	-7259
▁frank	-7260
▁winds	-7261
alled	-7262
▁loyal	-7263
▁lighted	-7264
▁Up	-7265
▁Rel	-7266
▁CHAR	-7267
Module	-7268
uda	-7269
▁college	-7270
▁acknowled	-7271
iasm	-7272
▁Pen	-7273
▁Field	-7274
▁plainly	-7275
▁province	-7276
▁scientific	-7277
▁Four	-7278
icable	-7279
▁penet	-7280
▁generation	-7281
▁authorities	-7282
▁183	-7283
▁lou	-7284
▁Judge	-7285
▁nodded	-7286
▁tear	-7287
▁absor	-7288
▁Andrew	-7289
▁violence	-7290
▁Fore	-7291
▁weakness	-7292
▁bag	-7293
▁Night	-7294
▁mistaken	-7295
othy	-7296
▁errors	-7297
ican	-7298
▁deed	-7299
▁func	-7300
▁offset	-7301
▁marks	-7302
▁shell	-7303
▁trembling	-7304
▁construction	-7305
;"	-7306
iii	-7307
▁Germ	-7308
▁negro	-7309
▁useless	-7310
▁Catholic	-7311
▁humanity	-7312
bose	-7313
▁slain	-7314
▁immort	-7315
▁uttered	-7316
▁Bon	-7317
▁ancest	-7318
olk	-7319
▁Bi	-7320
▁leaders	-7321
▁ours	-7322
▁maiden	-7323
▁derived	-7324
▁shed	-7325
zed	-7326
▁ult	-7327
resses	-7328
▁cries	-7329
▁entitled	-7330
▁stretched	-7331
▁circumstance	-7332
eys	-7333
▁fid	-7334
▁Army	-7335
▁joint	-7336
▁crowded	-7337
▁Ol	-7338
▁Luc	-7339
▁Mel	-7340
▁rust	-7341
▁7.	-7342
vant	-7343
▁expand	-7344
▁product	-7345
jac	-7346
▁AM	-7347
▁encl	-7348
▁nights	-7349
ras	-7350
▁lust	-7351
▁instit	-7352
▁millions	-7353
!’	-7354
AK	-7355
vas	-7356
▁Say	-7357
erted	-7358
▁stim	-7359
▁dared	-7360
▁prize	-7361
▁senses	-7362
▁troubles	-7363
▁Row	-7364
▁bath	-7365
▁flew	-7366
omatic	-7367
▁concluded	-7368
▁39	-7369
anned	-7370
etime	-7371
▁widow	-7372
▁multip	-7373
ATH	-7374
▁sus	-7375
ulgar	-7376
▁Bern	-7377
▁drift	-7378
▁smell	-7379
▁Portug	-7380
▁eagerly	-7381
Are	-7382
arling	-7383
▁southern	-7384
▁Mos	-7385
rained	-7386
▁voyage	-7387
apel	-7388
▁deny	-7389
▁gates	-7390
▁select	-7391
▁experienced	-7392
igs	-7393
▁8.	-7394
▁DU	-7395
alia	-7396
quar	-7397
▁hadn	-7398
▁info	-7399
▁actor	-7400
▁dimin	-7401
▁uncom	-7402
operands	-7403
▁pir	-7404
Frame	-7405
▁ranks	-7406
▁convert	-7407
▁reported	-7408
▁disposition	-7409
".	-7410
▁Set	-7411
▁Madam	-7412
▁glanced	-7413
▁melancholy	-7414
▁Di	-7415
adem	-7416
arian	-7417
▁gest	-7418
▁width	-7419
▁summon	-7420
▁od	-7421
bacco	-7422
▁brid	-7423
liness	-7424
▁prophe	-7425
▁president	-7426
▁Penn	-7427
▁Turn	-7428
▁eleg	-7429
▁sore	-7430
▁ornament	-7431
incl	-7432
uman	-7433
▁grim	-7434
bet	-7435
▁7,	-7436
▁haue	-7437
▁shru	-7438
▁Faith	-7439
▁beings	-7440
▁united	-7441
▁contents	-7442
▁commenced	-7443
▁recently	-7444
dess	-7445
lets	-7446
▁Max	-7447
▁marched	-7448
▁document	-7449
▁Ob	-7450
▁Inter	-7451
▁center	-7452
▁History	-7453
sol	-7454
inted	-7455
▁Leon	-7456
▁detail	-7457
features	-7458
▁churches	-7459
▁enthusiasm	-7460
▁answ	-7461
▁boast	-7462
▁emph	-7463
▁fired	-7464
▁candid	-7465
▁midnight	-7466
amped	-7467
▁Over	-7468
▁axes	-7469
▁handed	-7470
▁apt	-7471
▁wondered	-7472
ho	-7473
▁GE	-7474
▁Ox	-7475
▁spl	-7476
▁rival	-7477
▁prayers	-7478
▁additional	-7479
▁substance	-7480
▁dimensions	-7481
Aside	-7482
▁whist	-7483
▁Gentle	-7484
▁election	-7485
▁yard	-7486
▁neighbor	-7487
2:	-7488
fo	-7489
▁alter	-7490
▁split	-7491
▁Arg	-7492
numpy	-7493
▁subs	-7494
create	-7495
▁owner	-7496
▁belongs	-7497
VER	-7498
▁AD	-7499
Node	-7500
gger	-7501
itan	-7502
umin	-7503
▁VIII	-7504
▁1916.	-7505
▁deeds	-7506
atten	-7507
▁comr	-7508
▁este	-7509
▁zero	-7510
ingham	-7511
▁multi	-7512
▁sport	-7513
▁Tre	-7514
▁lamp	-7515
▁gracious	-7516
some	-7517
▁wives	-7518
▁firmly	-7519
▁strain	-7520
▁teaching	-7521
eps	-7522
yes	-7523
▁ham	-7524
mother	-7525
▁Carol	-7526
▁32,	-7527
▁Till	-7528
▁Castle	-7529
▁propri	-7530
▁conceal	-7531
▁inse	-7532
▁anticip	-7533
▁platform	-7534
▁trip	-7535
▁bottle	-7536
▁feather	-7537
▁discussion	-7538
▁NotImplemented	-7539
alm	-7540
Base	-7541
agraph	-7542
▁Bible	-7543
▁invited	-7544
aft	-7545
▁Bre	-7546
▁puzz	-7547
▁maintain	-7548
▁variable	-7549
▁unconscious	-7550
lle	-7551
▁>=	-7552
root	-7553
▁county	-7554
▁crying	-7555
ICH	-7556
From	-7557
IRST	-7558
▁roads	-7559
▁authors	-7560
▁Sk	-7561
anes	-7562
icken	-7563
▁duke	-7564
▁distributed	-7565
▁neighbourhood	-7566
▁Sar	-7567
▁genu	-7568
▁SMALL	-7569
▁enabled	-7570
run	-7571
gels	-7572
▁keys	-7573
▁medic	-7574
▁accordingly	-7575
69	-7576
oral	-7577
▁drunk	-7578
▁Series	-7579
dot	-7580
olate	-7581
▁application	-7582
hers	-7583
▁mart	-7584
▁flung	-7585
▁directions	-7586
GER	-7587
ISH	-7588
illes	-7589
▁borrow	-7590
▁protest	-7591
uity	-7592
▁VII	-7593
frame	-7594
▁rows	-7595
▁Margaret	-7596
▁sleeping	-7597
▁depos	-7598
▁nevertheless	-7599
(-	-7600
59	-7601
AX	-7602
ila	-7603
▁Default	-7604
▁nervous	-7605
div	-7606
▁coal	-7607
▁Should	-7608
▁hitherto	-7609
▁daughters	-7610
▁representation	-7611
▁Bas	-7612
▁rent	-7613
▁confined	-7614
look	-7615
wing	-7616
▁angel	-7617
18.	-7618
cond	-7619
▁stack	-7620
▁warri	-7621
▁beaten	-7622
▁interview	-7623
\\	-7624
rels	-7625
riff	-7626
icing	-7627
ensity	-7628
▁brand	-7629
▁County	-7630
▁stupid	-7631
▁priests	-7632
▁activity	-7633
▁prejud	-7634
Pl	-7635
icted	-7636
▁Number	-7637
▁profit	-7638
▁disposed	-7639
21	-7640
▁Turk	-7641
adelph	-7642
▁recovered	-7643
OG	-7644
UG	-7645
geon	-7646
▁Get	-7647
▁ard	-7648
▁basis	-7649
piration	-7650
▁hunting	-7651
▁consists	-7652
▁fears	-7653
ala	-7654
▁Name	-7655
▁connect	-7656
}")	-7657
▁flock	-7658
▁urged	-7659
General	-7660
Jun	-7661
▁Wr	-7662
ader	-7663
desc	-7664
object	-7665
▁enable	-7666
▁ndarray	-7667
▁revenge	-7668
azz	-7669
wra	-7670
▁bi	-7671
gate	-7672
▁inev	-7673
engers	-7674
▁legal	-7675
▁masters	-7676
▁shortly	-7677
▁murmured	-7678
ront	-7679
▁wilt	-7680
▁scream	-7681
▁conception	-7682
▁increasing	-7683
89	-7684
----"	-7685
▁Wind	-7686
▁vert	-7687
▁permit	-7688
▁ceremony	-7689
▁NOT	-7690
▁wre	-7691
▁Anne	-7692
▁Notes	-7693
▁nurse	-7694
▁riding	-7695
▁devotion	-7696
▁inferior	-7697
TR	-7698
bler	-7699
▁mild	-7700
ending	-7701
▁transfer	-7702
▁communication	-7703
▁leads	-7704
79	-7705
fold	-7706
▁Jacob	-7707
▁grounds	-7708
▁partial	-7709
▁wedding	-7710
▁descended	-7711
▁Qq	-7712
▁minor	-7713
changed	-7714
▁resolution	-7715
▁phrase	-7716
▁=======	-7717
▁charged	-7718
▁merchant	-7719
water	-7720
▁lofty	-7721
▁favourite	-7722
osh	-7723
orable	-7724
▁Param	-7725
▁keeps	-7726
▁limits	-7727
▁painful	-7728
uate	-7729
▁Chic	-7730
random	-7731
▁practically	-7732
"):	-7733
_--	-7734
▁Rog	-7735
ertainly	-7736
.")	-7737
▁tied	-7738
ispatch	-7739
▁seriously	-7740
▁Hal	-7741
▁phen	-7742
▁steady	-7743
▁Imp	-7744
▁Card	-7745
▁Jews	-7746
▁Helen	-7747
▁entering	-7748
▁abandoned	-7749
)),	-7750
▁inch	-7751
▁entry	-7752
▁dimension	-7753
pic	-7754
▁SIR	-7755
▁TOD	-7756
▁feed	-7757
▁grav	-7758
▁Romans	-7759
▁actors	-7760
▁opinions	-7761
▁restored	-7762
▁Mah	-7763
▁Wes	-7764
▁tower	-7765
▁forever	-7766
▁acquired	-7767
▁starting	-7768
▁suggestion	-7769
iler	-7770
▁brig	-7771
▁shoes	-7772
▁nearest	-7773
▁burden	-7774
▁agreeable	-7775
OOD	-7776
▁ecc	-7777
istent	-7778
▁inputs	-7779
▁heavens	-7780
16,	-7781
ronic	-7782
hearted	-7783
▁neat	-7784
▁gazed	-7785
▁retire	-7786
▁shelter	-7787
coln	-7788
▁external	-7789
▁sq	-7790
iast	-7791
eline	-7792
▁burned	-7793
greg	-7794
▁cls	-7795
batch	-7796
▁tomb	-7797
▁stronger	-7798
19.	-7799
unic	-7800
▁mock	-7801
ARY	-7802
foot	-7803
▁Fle	-7804
▁flood	-7805
▁roots	-7806
unn	-7807
▁Ref	-7808
ushes	-7809
▁intr	-7810
inations	-7811
▁somehow	-7812
▁resistance	-7813
_),	-7814
▁Sur	-7815
▁landed	-7816
▁ashamed	-7817
▁sincere	-7818
ORY	-7819
ball	-7820
▁prud	-7821
adelphia	-7822
▁continually	-7823
vi	-7824
▁PRO	-7825
▁tide	-7826
▁Southern	-7827
(0,	-7828
▁GR	-7829
▁——	-7830
~~~~	-7831
▁shake	-7832
▁eating	-7833
▁horrible	-7834
▁Christians	-7835
▁consequently	-7836
jit	-7837
▁mud	-7838
▁ped	-7839
▁stout	-7840
▁begged	-7841
▁humour	-7842
▁provisions	-7843
87	-7844
▁idle	-7845
ocratic	-7846
▁farmer	-7847
▁Cre	-7848
▁route	-7849
▁safely	-7850
▁existed	-7851
▁maintained	-7852
God	-7853
car	-7854
▁clergy	-7855
▁encoura	-7856
▁erected	-7857
▁goodness	-7858
={	-7859
opes	-7860
ionary	-7861
▁assume	-7862
▁hastily	-7863
▁shadows	-7864
TE	-7865
ISS	-7866
static	-7867
▁sorts	-7868
abb	-7869
▁dense	-7870
▁quarrel	-7871
▁capacity	-7872
▁comparison	-7873
iverse	-7874
▁contact	-7875
▁missing	-7876
▁err	-7877
▁Were	-7878
groups	-7879
▁exists	-7880
▁Islands	-7881
▁ascertain	-7882
neg	-7883
pose	-7884
vars	-7885
iforn	-7886
▁Holl	-7887
▁benef	-7888
▁fearful	-7889
▁attacked	-7890
▁phenomen	-7891
-3	-7892
▁“‘	-7893
▁Rad	-7894
omach	-7895
▁signed	-7896
▁drinking	-7897
Col	-7898
imal	-7899
▁sets	-7900
plicity	-7901
▁font	-7902
▁annoy	-7903
▁treas	-7904
.-	-7905
bye	-7906
west	-7907
▁Fox	-7908
▁lock	-7909
▁merc	-7910
▁repeat	-7911
▁combined	-7912
NA	-7913
ASS	-7914
diff	-7915
▁Has	-7916
▁XXX	-7917
gener	-7918
▁Canada	-7919
▁permission	-7920
▁astonishment	-7921
uan	-7922
▁Vit	-7923
▁curs	-7924
▁craft	-7925
▁poets	-7926
replace	-7927
▁Knight	-7928
▁venture	-7929
andas	-7930
iences	-7931
▁internal	-7932
▁assure	-7933
Variable	-7934
▁pursued	-7935
backend	-7936
▁Temple	-7937
▁lonely	-7938
▁colored	-7939
▁troubled	-7940
▁pref	-7941
aclass	-7942
▁bowed	-7943
▁elected	-7944
▁individuals	-7945
▁10.	-7946
▁Child	-7947
▁clock	-7948
▁tribe	-7949
▁marble	-7950
▁Americans	-7951
▁End	-7952
▁maybe	-7953
▁hungry	-7954
▁Callable	-7955
▁campaign	-7956
▁preserve	-7957
▁instructions	-7958
azy	-7959
first	-7960
▁torn	-7961
)/	-7962
▁Tri	-7963
number	-7964
return	-7965
▁format	-7966
▁materials	-7967
({	-7968
▁PH	-7969
▁claims	-7970
▁propos	-7971
▁helpless	-7972
sw	-7973
dis	-7974
▁Data	-7975
istics	-7976
steps	-7977
▁corp	-7978
▁limbs	-7979
▁sample	-7980
▁prevented	-7981
▁residence	-7982
04	-7983
top	-7984
▁[1	-7985
rage	-7986
ospel	-7987
amation	-7988
▁Israel	-7989
▁necessarily	-7990
ado	-7991
▁studied	-7992
▁situated	-7993
Get	-7994
▁ACT	-7995
style	-7996
▁trail	-7997
▁Shak	-7998
▁aloud	-7999
natural	-8000
fx	-8001
wd	-8002
ITAL	-8003
olph	-8004
▁obj	-8005
▁dost	-8006
ixture	-8007
quisite	-8008
▁poured	-8009
▁cavalry	-8010
▁gratitude	-8011
cia	-8012
match	-8013
▁PRIN	-8014
▁queer	-8015
▁Western	-8016
▁Ward	-8017
▁wire	-8018
▁endure	-8019
▁flatter	-8020
▁tobacco	-8021
▁perceived	-8022
wor	-8023
▁fury	-8024
▁grasp	-8025
▁empire	-8026
▁TypeError	-8027
chn	-8028
coll	-8029
aniel	-8030
bytes	-8031
▁contem	-8032
▁interval	-8033
▁Presented	-8034
bow	-8035
▁ME	-8036
▁Adam	-8037
ignment	-8038
▁departed	-8039
▁(1,	-8040
child	-8041
▁1914.	-8042
▁genuine	-8043
▁ip	-8044
▁TODO	-8045
aments	-8046
ulating	-8047
▁legend	-8048
▁passages	-8049
▁examination	-8050
▁Grace	-8051
▁incom	-8052
▁largely	-8053
▁Japanese	-8054
ele	-8055
denly	-8056
power	-8057
quant	-8058
▁KING	-8059
▁Mean	-8060
complex	-8061
▁wrath	-8062
aration	-8063
▁seeking	-8064
▁indicated	-8065
63	-8066
IUS	-8067
▁ga	-8068
Data	-8069
ector	-8070
ifies	-8071
learn	-8072
▁anywhere	-8073
tha	-8074
eman	-8075
LEY	-8076
▁48	-8077
▁drag	-8078
▁forb	-8079
▁guest	-8080
▁comment	-8081
▁assembled	-8082
rer	-8083
▁EL	-8084
ouch	-8085
▁Post	-8086
▁ingen	-8087
reshold	-8088
▁response	-8089
▁ED	-8090
▁Supp	-8091
▁edges	-8092
▁rises	-8093
▁slipped	-8094
▁originally	-8095
IB	-8096
des	-8097
stream	-8098
▁comedy	-8099
▁prepare	-8100
▁ambition	-8101
▁imagined	-8102
▁Productions	-8103
2;	-8104
▁Kh	-8105
iency	-8106
▁folks	-8107
▁sisters	-8108
ieu	-8109
alty	-8110
ckets	-8111
▁WILL	-8112
arrass	-8113
▁Right	-8114
▁feels	-8115
▁entreat	-8116
verty	-8117
▁Austr	-8118
▁chose	-8119
▁songs	-8120
▁happens	-8121
▁opposed	-8122
build	-8123
URE	-8124
▁["	-8125
▁Make	-8126
▁Next	-8127
▁ming	-8128
▁preceding	-8129
▁BL	-8130
▁elo	-8131
▁cliff	-8132
▁poems	-8133
▁rarely	-8134
▁exchange	-8135
▁receiving	-8136
Bu	-8137
fg	-8138
mul	-8139
open	-8140
uing	-8141
▁SER	-8142
▁Sun	-8143
estion	-8144
▁FIRST	-8145
▁peril	-8146
▁patron	-8147
cap	-8148
ida	-8149
acing	-8150
▁Juliet	-8151
▁refuge	-8152
CC	-8153
▁rig	-8154
▁tiny	-8155
buffer	-8156
▁dissol	-8157
▁concealed	-8158
▁historical	-8159
DER	-8160
▁EX	-8161
▁['	-8162
achment	-8163
alem	-8164
ayed	-8165
▁conquer	-8166
▁poverty	-8167
▁Florence	-8168
▁AS	-8169
▁MU	-8170
▁Net	-8171
pended	-8172
▁capture	-8173
▁electric	-8174
msg	-8175
▁Win	-8176
▁rat	-8177
▁JULIET	-8178
▁accounts	-8179
▁Secretary	-8180
▁accompany	-8181
req	-8182
▁murd	-8183
▁Philadelphia	-8184
ULT	-8185
eff	-8186
▁obvious	-8187
ga	-8188
weet	-8189
geant	-8190
shine	-8191
▁admire	-8192
▁realized	-8193
bes	-8194
▁177	-8195
▁Town	-8196
▁revel	-8197
▁parish	-8198
▁remote	-8199
▁somebody	-8200
▁establishment	-8201
06	-8202
▁List	-8203
ounter	-8204
▁landl	-8205
▁stared	-8206
▁unlike	-8207
▁Californ	-8208
▁creation	-8209
▁princess	-8210
rick	-8211
usions	-8212
▁recover	-8213
cat	-8214
▁noon	-8215
resents	-8216
▁commander	-8217
bug	-8218
lla	-8219
▁absent	-8220
▁beheld	-8221
▁reasonable	-8222
aly	-8223
pline	-8224
▁Admir	-8225
▁naked	-8226
▁staff	-8227
▁cutting	-8228
▁suitable	-8229
57	-8230
rac	-8231
irmed	-8232
tw	-8233
afe	-8234
seen	-8235
▁Pray	-8236
▁channel	-8237
▁unusual	-8238
▁Ill	-8239
inson	-8240
▁Point	-8241
▁disgu	-8242
▁commonly	-8243
▁conducted	-8244
ertionError	-8245
sg	-8246
▁MER	-8247
▁sang	-8248
▁backward	-8249
▁reaching	-8250
▁revealed	-8251
▁HER	-8252
▁sequence	-8253
▁lap	-8254
().__	-8255
▁Down	-8256
▁cure	-8257
▁mead	-8258
▁seats	-8259
▁driving	-8260
▁conviction	-8261
repr	-8262
▁venge	-8263
▁fitted	-8264
ributing	-8265
▁Germans	-8266
▁respond	-8267
▁translation	-8268
▁woe	-8269
▁dismiss	-8270
▁pattern	-8271
▁deserted	-8272
rd	-8273
matrix	-8274
▁decide	-8275
▁lesson	-8276
dep	-8277
▁DR	-8278
ricult	-8279
▁sending	-8280
▁wanting	-8281
,_	-8282
impl	-8283
▁seas	-8284
▁folly	-8285
▁attempts	-8286
▁foundation	-8287
pton	-8288
▁puts	-8289
▁agent	-8290
▁simpl	-8291
▁terrif	-8292
▁College	-8293
▁forming	-8294
▁impulse	-8295
▁largest	-8296
▁AssertionError	-8297
mann	-8298
▁cave	-8299
▁integr	-8300
mesh	-8301
▁Cross	-8302
▁Earth	-8303
▁crack	-8304
▁grateful	-8305
emon	-8306
added	-8307
▁Gall	-8308
▁elev	-8309
▁integer	-8310
▁agricult	-8311
eous	-8312
racy	-8313
▁grain	-8314
▁bishop	-8315
▁ability	-8316
▁readers	-8317
Attribute	-8318
▁Spaniards	-8319
▁Put	-8320
▁toss	-8321
▁examined	-8322
▁possibility	-8323
▁echo	-8324
▁fasc	-8325
▁gifts	-8326
▁exquisite	-8327
▁threatened	-8328
olas	-8329
▁foe	-8330
▁Hell	-8331
▁aven	-8332
▁item	-8333
▁supreme	-8334
▁insisted	-8335
vell	-8336
▁quoted	-8337
▁examples	-8338
▁tendency	-8339
bound	-8340
▁hunt	-8341
general	-8342
▁autumn	-8343
▁Lawrence	-8344
▁exceedingly	-8345
▁artillery	-8346
AA	-8347
aur	-8348
cor	-8349
▁irrit	-8350
▁vivid	-8351
▁shield	-8352
▁victim	-8353
▁composition	-8354
'\	-8355
iah	-8356
▁pains	-8357
▁extensive	-8358
zo	-8359
▁Jeff	-8360
▁Nich	-8361
▁sale	-8362
▁coward	-8363
lot	-8364
▁straw	-8365
08	-8366
)):	-8367
acc	-8368
ggy	-8369
sar	-8370
aging	-8371
▁temp	-8372
▁desires	-8373
even	-8374
▁cease	-8375
▁suspected	-8376
imony	-8377
▁Being	-8378
▁Empire	-8379
▁CAPITAL	-8380
▁concent	-8381
bad	-8382
▁Poly	-8383
▁finish	-8384
OUS	-8385
irk	-8386
oting	-8387
▁core	-8388
▁awake	-8389
▁rivers	-8390
▁preferred	-8391
▁parameters	-8392
▁64,	-8393
lambda	-8394
▁manager	-8395
▁stomach	-8396
▁perfection	-8397
▁organization	-8398
03\	-8399
OLD	-8400
▁mas	-8401
arser	-8402
▁jest	-8403
▁sank	-8404
hedral	-8405
▁flash	-8406
▁declare	-8407
andal	-8408
keeper	-8409
normal	-8410
▁Could	-8411
▁heavily	-8412
▁Columbia	-8413
▁disgrace	-8414
▁slightest	-8415
uv	-8416
▁avo	-8417
▁bon	-8418
mar	-8419
▁9.	-8420
▁notion	-8421
▁gallant	-8422
tte	-8423
▁TR	-8424
▁Gil	-8425
▁Mist	-8426
▁user	-8427
▁powder	-8428
▁throwing	-8429
▁CallFunction	-8430
Gr	-8431
▁65	-8432
▁Cy	-8433
▁purple	-8434
▁emperor	-8435
▁Est	-8436
▁bloss	-8437
nx	-8438
Name	-8439
▁Bert	-8440
▁bade	-8441
▁========	-8442
▁reflection	-8443
akers	-8444
trace	-8445
▁vary	-8446
▁Sever	-8447
▁batch	-8448
▁hatred	-8449
▁resting	-8450
)))	-8451
env	-8452
char	-8453
▁128,	-8454
▁rele	-8455
current	-8456
▁Greeks	-8457
▁warrant	-8458
▁Sequence	-8459
▁blessing	-8460
▁crossing	-8461
▁exhausted	-8462
:_	-8463
=[	-8464
avig	-8465
▁mob	-8466
▁Lincoln	-8467
▁earliest	-8468
--+	-8469
api	-8470
▁55	-8471
▁Fel	-8472
ivalent	-8473
▁determine	-8474
▁civilization	-8475
▁PAR	-8476
▁Buck	-8477
▁vice	-8478
▁overcome	-8479
Man	-8480
ORE	-8481
sqrt	-8482
▁Haw	-8483
▁plun	-8484
▁accum	-8485
forward	-8486
▁thirst	-8487
▁Chicago	-8488
▁procession	-8489
▁Les	-8490
▁Tro	-8491
▁eval	-8492
▁wash	-8493
▁abrupt	-8494
▁intervals	-8495
▁strangers	-8496
▁Han	-8497
event	-8498
▁folk	-8499
classes	-8500
▁reckon	-8501
▁Michael	-8502
▁describe	-8503
▁obedience	-8504
anting	-8505
worthy	-8506
▁Crown	-8507
onsense	-8508
▁masses	-8509
quarters	-8510
▁records	-8511
▁villages	-8512
Pr	-8513
hlo	-8514
▁ju	-8515
▁Ho	-8516
agle	-8517
▁Pan	-8518
▁Alice	-8519
▁Short	-8520
▁shill	-8521
▁depends	-8522
▁primitive	-8523
Have	-8524
▁swim	-8525
▁embra	-8526
▁gloom	-8527
ODS	-8528
unks	-8529
woman	-8530
▁perceive	-8531
▁afterward	-8532
may	-8533
iary	-8534
▁hym	-8535
▁rot	-8536
ashes	-8537
▁lion	-8538
▁scru	-8539
atherine	-8540
▁patriot	-8541
▁settlement	-8542
▁[2	-8543
▁tag	-8544
▁Head	-8545
success	-8546
▁dwelling	-8547
▁railroad	-8548
ez	-8549
▁(1	-8550
ithe	-8551
▁leis	-8552
▁lift	-8553
▁sits	-8554
▁charg	-8555
▁yonder	-8556
▁hundreds	-8557
▁manufacture	-8558
▁ox	-8559
iger	-8560
▁cloak	-8561
uscript	-8562
▁condemned	-8563
▁wondering	-8564
▁nay	-8565
agues	-8566
▁rested	-8567
▁eighteen	-8568
gly	-8569
▁Si	-8570
anim	-8571
▁Atl	-8572
▁chem	-8573
▁fetch	-8574
▁musical	-8575
▁probability	-8576
)(	-8577
▁cu	-8578
▁grows	-8579
▁colony	-8580
▁Stephen	-8581
▁railway	-8582
▁weapons	-8583
▁associated	-8584
▁astonished	-8585
▁Constitution	-8586
▁introduction	-8587
glo	-8588
wart	-8589
▁wake	-8590
▁groan	-8591
▁imprison	-8592
▁positions	-8593
eq	-8594
His	-8595
▁Greece	-8596
▁sailed	-8597
▁pursuit	-8598
inst	-8599
▁fires	-8600
burgh	-8601
ifier	-8602
sparse	-8603
▁sins	-8604
▁curse	-8605
oiselle	-8606
▁Mexico	-8607
▁leather	-8608
▁embarrass	-8609
▁combination	-8610
lab	-8611
▁idx	-8612
▁arts	-8613
▁chim	-8614
▁altar	-8615
▁cheap	-8616
▁mostly	-8617
di	-8618
▁substit	-8619
xp	-8620
ptions	-8621
▁rifle	-8622
▁involved	-8623
▁moreover	-8624
▁consequences	-8625
4)	-8626
local	-8627
▁grin	-8628
uction	-8629
▁Chief	-8630
▁thereby	-8631
▁Rock	-8632
lessness	-8633
▁Northern	-8634
▁employment	-8635
tri	-8636
▁2:	-8637
▁Ra	-8638
▁hid	-8639
▁majesty	-8640
▁wrought	-8641
Very	-8642
pred	-8643
▁Must	-8644
▁Python	-8645
▁rebell	-8646
sharding	-8647
▁sensible	-8648
▁permanent	-8649
-+	-8650
3;	-8651
ribe	-8652
whel	-8653
column	-8654
▁waist	-8655
▁magist	-8656
▁termin	-8657
PR	-8658
▁Es	-8659
▁Arn	-8660
Point	-8661
▁math	-8662
uously	-8663
▁motive	-8664
▁supplies	-8665
.).	-8666
▁Eve	-8667
phone	-8668
▁heed	-8669
isation	-8670
.”[	-8671
next	-8672
eling	-8673
rices	-8674
▁acid	-8675
▁homes	-8676
▁overt	-8677
▁princes	-8678
▁villain	-8679
▁California	-8680
uish	-8681
▁Ign	-8682
▁vex	-8683
▁contrad	-8684
▁demands	-8685
▁wearing	-8686
86	-8687
=1	-8688
augh	-8689
results	-8690
▁relieved	-8691
▁complaint	-8692
▁lightning	-8693
▁urg	-8694
▁vel	-8695
▁Soon	-8696
▁barbar	-8697
▁farewell	-8698
▁converted	-8699
thren	-8700
▁clay	-8701
▁hook	-8702
compile	-8703
▁enters	-8704
▁Chapter	-8705
▁cunning	-8706
▁customs	-8707
▁politics	-8708
▁enumerate	-8709
iege	-8710
uming	-8711
acific	-8712
▁stayed	-8713
▁cheerful	-8714
ulp	-8715
▁AB	-8716
▁Str	-8717
asted	-8718
going	-8719
▁defin	-8720
▁satisfy	-8721
▁Play	-8722
▁optim	-8723
▁lovers	-8724
▁encourage	-8725
IVE	-8726
Tra	-8727
URSE	-8728
▁10,	-8729
▁prey	-8730
▁corps	-8731
ruption	-8732
▁Moreover	-8733
break	-8734
▁yell	-8735
▁modest	-8736
▁precip	-8737
▁shaking	-8738
ONE	-8739
▁Than	-8740
ynamic	-8741
▁School	-8742
-2	-8743
wa	-8744
vin	-8745
rily	-8746
uctor	-8747
▁adjust	-8748
▁sounded	-8749
▁vengeance	-8750
_.]	-8751
▁slip	-8752
memory	-8753
otions	-8754
▁cottage	-8755
.),	-8756
▁0)	-8757
pool	-8758
▁von	-8759
oster	-8760
▁mast	-8761
▁ward	-8762
points	-8763
▁dragged	-8764
▁touching	-8765
▁represents	-8766
▁intelligent	-8767
anda	-8768
▁Hand	-8769
▁Hard	-8770
▁fert	-8771
▁knee	-8772
▁annot	-8773
Context	-8774
▁border	-8775
▁Constant	-8776
Fl	-8777
era	-8778
▁NEW	-8779
▁Associ	-8780
▁raising	-8781
▁Countess	-8782
▁passions	-8783
02	-8784
Ab	-8785
(1,	-8786
unc	-8787
Inte	-8788
enna	-8789
empty	-8790
▁arrive	-8791
▁recorded	-8792
▁Divine	-8793
▁fruits	-8794
▁lament	-8795
▁Revolution	-8796
▁fet	-8797
Graph	-8798
▁Dave	-8799
blance	-8800
artment	-8801
][	-8802
_2	-8803
uf	-8804
▁zeal	-8805
▁selfish	-8806
▁175	-8807
inery	-8808
▁thir	-8809
▁colors	-8810
▁Christianity	-8811
([[	-8812
isk	-8813
ibus	-8814
▁SEC	-8815
▁gre	-8816
▁badly	-8817
▁wrapped	-8818
▁hospital	-8819
-18	-8820
▁vulgar	-8821
▁student	-8822
▁withdraw	-8823
▁distinctly	-8824
94	-8825
uther	-8826
utive	-8827
icians	-8828
▁realize	-8829
▁displayed	-8830
ITY	-8831
anqu	-8832
▁armies	-8833
▁beasts	-8834
▁corpor	-8835
▁portrait	-8836
▁Ned	-8837
▁tones	-8838
▁deeper	-8839
▁succession	-8840
▁administration	-8841
ysis	-8842
bbing	-8843
▁Lucy	-8844
▁Pruss	-8845
▁furniture	-8846
▁notwithstanding	-8847
ialect	-8848
▁boots	-8849
▁clerk	-8850
▁colours	-8851
▁strings	-8852
▁apprehens	-8853
)}	-8854
izz	-8855
▁Sid	-8856
▁WAR	-8857
▁eld	-8858
▁GEOR	-8859
▁Ruth	-8860
▁bone	-8861
python	-8862
▁cared	-8863
▁angels	-8864
▁ruined	-8865
▁_(	-8866
▁pace	-8867
▁fathers	-8868
▁streams	-8869
▁considering	-8870
ulus	-8871
State	-8872
▁shew	-8873
ifully	-8874
▁Light	-8875
TS	-8876
▁wo	-8877
▁hem	-8878
option	-8879
▁fount	-8880
▁bounds	-8881
▁respectable	-8882
▁stroke	-8883
▁lightly	-8884
sche	-8885
▁grie	-8886
gorithm	-8887
▁reduce	-8888
▁dial	-8889
▁worry	-8890
▁artific	-8891
▁balance	-8892
▁gardens	-8893
▁floating	-8894
▁operands	-8895
00.	-8896
ques	-8897
▁hint	-8898
▁params	-8899
▁regarding	-8900
▁responsible	-8901
▁Middle	-8902
▁cleared	-8903
▁virtues	-8904
▁operator	-8905
scape	-8906
▁verses	-8907
▁purchase	-8908
ocracy	-8909
syl	-8910
were	-8911
▁Rod	-8912
riptor	-8913
▁sheet	-8914
▁unique	-8915
oubtedly	-8916
▁disturbed	-8917
ensed	-8918
aneous	-8919
extend	-8920
▁harsh	-8921
▁treaty	-8922
▁sunshine	-8923
▁wherever	-8924
▁companies	-8925
▁consisted	-8926
▁determination	-8927
▁diver	-8928
▁independence	-8929
9;	-8930
VE	-8931
IGN	-8932
grat	-8933
olis	-8934
▁hed	-8935
▁agre	-8936
▁bond	-8937
▁Alfred	-8938
▁lively	-8939
▁sharply	-8940
▁treacher	-8941
urday	-8942
▁Carl	-8943
oonful	-8944
▁Jackson	-8945
▁background	-8946
flat	-8947
umps	-8948
▁gown	-8949
▁abandon	-8950
12,	-8951
enter	-8952
▁wars	-8953
▁behalf	-8954
▁muttered	-8955
▁occupation	-8956
IEL	-8957
igg	-8958
osa	-8959
alph	-8960
▁Merc	-8961
▁infl	-8962
▁techn	-8963
▁restore	-8964
▁industri	-8965
▁objection	-8966
▁indifferent	-8967
Po	-8968
hist	-8969
▁foul	-8970
▁insc	-8971
▁prem	-8972
bishop	-8973
▁Oxford	-8974
roadcast	-8975
▁thither	-8976
▁Suddenly	-8977
▁assigned	-8978
▁appropriate	-8979
term	-8980
▁attain	-8981
▁domain	-8982
▁Dorothy	-8983
▁criminal	-8984
kerchief	-8985
▁representing	-8986
atre	-8987
▁Use	-8988
▁ben	-8989
▁Asia	-8990
▁wounds	-8991
▁Stan	-8992
▁inex	-8993
struct	-8994
fortune	-8995
▁typing	-8996
▁replace	-8997
gro	-8998
▁cy	-8999
▁lend	-9000
prefix	-9001
▁denied	-9002
▁African	-9003
▁seventy	-9004
▁Alb	-9005
▁rav	-9006
ilson	-9007
oming	-9008
chester	-9009
itating	-9010
▁weights	-9011
▁overwhel	-9012
.--_	-9013
utor	-9014
▁Wel	-9015
▁owe	-9016
▁lowest	-9017
▁persec	-9018
▁fourteen	-9019
oda	-9020
▁Marsh	-9021
▁endeavour	-9022
▁Leg	-9023
La	-9024
fs	-9025
."[	-9026
cal	-9027
▁vi	-9028
▁Gal	-9029
▁1917.	-9030
▁drops	-9031
apped	-9032
▁bord	-9033
▁manage	-9034
▁occurs	-9035
▁covering	-9036
▁Frederick	-9037
▁grandfather	-9038
▁observations	-9039
boy	-9040
onic	-9041
▁Script	-9042
▁closer	-9043
ORK	-9044
▁sys	-9045
sters	-9046
▁weapon	-9047
▁options	-9048
▁outward	-9049
▁pointing	-9050
▁constructed	-9051
▁12,	-9052
▁blows	-9053
▁parted	-9054
▁Protest	-9055
▁fastened	-9056
▁manuscript	-9057
";	-9058
six	-9059
▁Sum	-9060
▁peas	-9061
▁neglect	-9062
▁abstract	-9063
▁daring	-9064
ifications	-9065
▁apartment	-9066
uh	-9067
▁42	-9068
▁Ray	-9069
▁Swed	-9070
▁beard	-9071
▁quart	-9072
▁Norman	-9073
▁slender	-9074
gm	-9075
ano	-9076
John	-9077
raft	-9078
▁Alas	-9079
▁mould	-9080
▁executed	-9081
▁instruction	-9082
ulpt	-9083
▁antiqu	-9084
▁extrem	-9085
▁pronounced	-9086
▁75	-9087
▁zip	-9088
▁tour	-9089
▁chall	-9090
▁inspect	-9091
93	-9092
▁COL	-9093
▁Pot	-9094
▁fed	-9095
▁mix	-9096
never	-9097
▁shud	-9098
▁angle	-9099
▁incon	-9100
▁silly	-9101
regular	-9102
▁defeat	-9103
▁saddle	-9104
▁dressing	-9105
▁ridiculous	-9106
Che	-9107
▁'#	-9108
▁Mir	-9109
adise	-9110
useum	-9111
zeros	-9112
▁formal	-9113
▁intern	-9114
▁jumped	-9115
▁darling	-9116
▁harmony	-9117
▁commerce	-9118
▁intimate	-9119
[-1]	-9120
▁oft	-9121
▁Stand	-9122
▁giant	-9123
▁shone	-9124
assador	-9125
▁gloomy	-9126
▁leaning	-9127
▁enterprise	-9128
esy	-9129
Hand	-9130
pson	-9131
mouth	-9132
▁-----	-9133
▁apost	-9134
▁appet	-9135
▁races	-9136
▁lawyer	-9137
▁mischief	-9138
▁confident	-9139
vy	-9140
occ	-9141
iven	-9142
rule	-9143
▁weep	-9144
▁courts	-9145
▁respects	-9146
▁surrender	-9147
burn	-9148
free	-9149
okes	-9150
▁sne	-9151
▁ugly	-9152
▁finest	-9153
▁furnish	-9154
▁Cæ	-9155
elly	-9156
▁Dec	-9157
▁cache	-9158
▁backend	-9159
▁tremend	-9160
▁committee	-9161
Mat	-9162
▁Test	-9163
utable	-9164
▁alpha	-9165
▁metal	-9166
▁favorite	-9167
▁multitude	-9168
▁distinguish	-9169
▁institution	-9170
OC	-9171
Miss	-9172
▁barg	-9173
▁Thank	-9174
▁delic	-9175
▁linen	-9176
▁depths	-9177
utenberg	-9178
▁convenient	-9179
ANC	-9180
King	-9181
ULET	-9182
▁NURSE	-9183
▁Sound	-9184
▁basket	-9185
CL	-9186
▁trag	-9187
▁Liber	-9188
▁advert	-9189
▁location	-9190
▁Fam	-9191
onent	-9192
▁offence	-9193
▁sixteen	-9194
lest	-9195
▁Ach	-9196
▁Bea	-9197
▁Pur	-9198
▁Sel	-9199
▁subl	-9200
▁reports	-9201
▁Paramount	-9202
▁reflected	-9203
rum	-9204
Call	-9205
NAME	-9206
▁desk	-9207
▁guilt	-9208
▁painting	-9209
SH	-9210
AMP	-9211
inn	-9212
alion	-9213
▁hind	-9214
▁champ	-9215
▁bloody	-9216
▁security	-9217
▁equivalent	-9218
▁preparing	-9219
hetic	-9220
▁adorn	-9221
▁stair	-9222
▁curtain	-9223
▁descent	-9224
▁Meanwhile	-9225
▁simplicity	-9226
IAM	-9227
ride	-9228
▁FRI	-9229
▁link	-9230
intend	-9231
▁Venice	-9232
▁selection	-9233
▁department	-9234
▁47	-9235
▁Cro	-9236
▁Mfg	-9237
oland	-9238
itudes	-9239
▁Place	-9240
▁burnt	-9241
▁cream	-9242
▁ceremon	-9243
▁compute	-9244
▁rolling	-9245
▁students	-9246
▁satisfactory	-9247
INA	-9248
lic	-9249
conn	-9250
▁mant	-9251
▁rein	-9252
▁retain	-9253
▁reserve	-9254
▁unw	-9255
▁trunk	-9256
▁Albert	-9257
▁adding	-9258
▁arrays	-9259
▁divers	-9260
▁hospit	-9261
▁eastern	-9262
▁vanished	-9263
92	-9264
sin	-9265
esar	-9266
▁Tor	-9267
▁vine	-9268
▁sanct	-9269
▁Common	-9270
▁factor	-9271
▁Central	-9272
ava	-9273
vet	-9274
▁cir	-9275
urious	-9276
▁polite	-9277
▁indicate	-9278
▁romantic	-9279
▁fortunate	-9280
▁Kn	-9281
prot	-9282
ulars	-9283
leness	-9284
▁whirl	-9285
CUT	-9286
rav	-9287
freq	-9288
▁Liter	-9289
▁leaned	-9290
▁temperature	-9291
▁Us	-9292
▁mp	-9293
arte	-9294
▁Pap	-9295
essage	-9296
▁breeze	-9297
▁steadily	-9298
▁effective	-9299
▁provinces	-9300
▁instruments	-9301
Sym	-9302
igen	-9303
mind	-9304
▁BEN	-9305
▁Budd	-9306
▁Anton	-9307
▁Assem	-9308
▁nephe	-9309
▁ruins	-9310
▁locked	-9311
▁whereas	-9312
▁arrested	-9313
▁narrative	-9314
▁commercial	-9315
▁collections	-9316
leton	-9317
▁induced	-9318
▁privilege	-9319
62	-9320
PT	-9321
15,	-9322
▁9,	-9323
Cont	-9324
▁Dear	-9325
▁Woman	-9326
▁fatig	-9327
▁sentiments	-9328
▁IX	-9329
▁abol	-9330
Result	-9331
unting	-9332
▁gazing	-9333
▁sailor	-9334
▁inspired	-9335
▁subsequent	-9336
▁MS	-9337
rich	-9338
▁Kate	-9339
▁shared	-9340
▁achieve	-9341
▁Lew	-9342
ilton	-9343
▁peop	-9344
▁elabor	-9345
▁doubtful	-9346
58	-9347
effic	-9348
▁pink	-9349
▁shepher	-9350
▁ministers	-9351
▁prosperity	-9352
ali	-9353
▁FROM	-9354
▁mate	-9355
angled	-9356
▁dining	-9357
▁dictionary	-9358
fr	-9359
stra	-9360
othes	-9361
▁retained	-9362
▁gathering	-9363
hook	-9364
▁palm	-9365
▁veil	-9366
▁paths	-9367
▁confused	-9368
bin	-9369
▁remem	-9370
▁deadly	-9371
▁attained	-9372
▁medicine	-9373
▁wax	-9374
▁Index	-9375
▁String	-9376
▁prefix	-9377
▁sources	-9378
▁Bull	-9379
▁eaten	-9380
▁preparations	-9381
Am	-9382
had	-9383
▁pine	-9384
▁Baron	-9385
▁varied	-9386
▁graceful	-9387
ya	-9388
Hist	-9389
▁Sign	-9390
▁copper	-9391
▁feeble	-9392
▁CAPULET	-9393
hic	-9394
sch	-9395
wyn	-9396
▁Amb	-9397
arant	-9398
▁glow	-9399
▁vest	-9400
▁stores	-9401
▁heavenly	-9402
▁recognised	-9403
(1	-9404
aire	-9405
▁paying	-9406
emoiselle	-9407
eur	-9408
thy	-9409
▁ly	-9410
olen	-9411
▁Bed	-9412
▁Tit	-9413
▁msg	-9414
▁Copy	-9415
▁resumed	-9416
▁remainder	-9417
▁responsibility	-9418
GR	-9419
▁;	-9420
Fig	-9421
INGS	-9422
▁haz	-9423
▁startled	-9424
▁Unt	-9425
inence	-9426
▁(2003	-9427
▁Samuel	-9428
▁survey	-9429
▁Illustr	-9430
▁landing	-9431
▁resources	-9432
▁proceedings	-9433
BS	-9434
glas	-9435
▁incons	-9436
▁funeral	-9437
▁substant	-9438
▁{'	-9439
ieth	-9440
piece	-9441
▁cryst	-9442
▁candle	-9443
▁sparse	-9444
▁brethren	-9445
▁reception	-9446
ILD	-9447
▁[3	-9448
amin	-9449
ping	-9450
▁[0,	-9451
▁tok	-9452
▁Gener	-9453
▁hated	-9454
▁easier	-9455
▁hasattr	-9456
▁newspaper	-9457
ima	-9458
▁[4	-9459
▁(17	-9460
▁disag	-9461
▁smart	-9462
▁offices	-9463
▁visitor	-9464
▁advantages	-9465
▁adds	-9466
▁heap	-9467
▁jack	-9468
▁spell	-9469
▁labels	-9470
▁engagement	-9471
New	-9472
▁vow	-9473
▁slee	-9474
▁Super	-9475
▁lords	-9476
▁defect	-9477
▁@_	-9478
▁Homer	-9479
▁pilgr	-9480
▁chapel	-9481
▁flames	-9482
▁vector	-9483
▁perplex	-9484
▁steamer	-9485
▁wandering	-9486
IRE	-9487
_.)	-9488
▁Cow	-9489
▁fug	-9490
▁GEORGE	-9491
▁metadata	-9492
▁conceived	-9493
▁travelling	-9494
YS	-9495
▁sho	-9496
onday	-9497
▁arise	-9498
▁irres	-9499
▁weigh	-9500
▁intend	-9501
▁medium	-9502
▁studies	-9503
urrection	-9504
▁negative	-9505
▁disappointed	-9506
▁institutions	-9507
elta	-9508
▁beds	-9509
factor	-9510
▁moist	-9511
▁injury	-9512
▁culture	-9513
▁admirable	-9514
ki	-9515
coming	-9516
▁cannon	-9517
▁sculpt	-9518
▁colonies	-9519
▁designed	-9520
▁summoned	-9521
itty	-9522
ograp	-9523
▁Vill	-9524
▁dirty	-9525
▁faire	-9526
▁examine	-9527
▁strengthen	-9528
▁Low	-9529
three	-9530
▁trif	-9531
▁beach	-9532
▁drank	-9533
▁accused	-9534
▁strictly	-9535
▁testimony	-9536
alo	-9537
▁Six	-9538
onson	-9539
sylvan	-9540
▁Grant	-9541
▁wheat	-9542
LOW	-9543
▁//	-9544
rics	-9545
equal	-9546
headed	-9547
import	-9548
▁1927.	-9549
▁honey	-9550
▁slice	-9551
▁Wesley	-9552
▁combat	-9553
▁missed	-9554
▁submit	-9555
▁charity	-9556
▁goddess	-9557
▁thyself	-9558
▁clothing	-9559
▁hastened	-9560
▁43	-9561
▁bytes	-9562
▁inquiry	-9563
▁someone	-9564
▁precisely	-9565
▁proceeding	-9566
ttp	-9567
alls	-9568
iano	-9569
ordin	-9570
course	-9571
imately	-9572
▁guards	-9573
▁loaded	-9574
▁resign	-9575
▁attracted	-9576
▁calculated	-9577
▁comprehend	-9578
FT	-9579
▁US	-9580
▁Arm	-9581
▁Cab	-9582
ammed	-9583
▁romance	-9584
▁offering	-9585
cuda	-9586
liver	-9587
▁Pacific	-9588
▁beating	-9589
▁congrat	-9590
▁criticism	-9591
▁coarse	-9592
▁mutual	-9593
▁repent	-9594
▁symbols	-9595
▁Saturday	-9596
hor	-9597
pol	-9598
osity	-9599
▁Bart	-9600
atches	-9601
▁appar	-9602
▁reprodu	-9603
▁Presently	-9604
▁unple	-9605
hol	-9606
trees	-9607
▁marg	-9608
▁quit	-9609
▁rays	-9610
▁brass	-9611
▁Finally	-9612
▁Neither	-9613
▁comparatively	-9614
upp	-9615
quer	-9616
unte	-9617
▁Gord	-9618
▁Wilson	-9619
▁sighed	-9620
▁getattr	-9621
▁Hy	-9622
ills	-9623
▁bud	-9624
▁scr	-9625
▁Cook	-9626
▁Oper	-9627
▁wont	-9628
▁precision	-9629
AW	-9630
uz	-9631
▁agony	-9632
▁restrict	-9633
▁expressions	-9634
emp	-9635
▁rh	-9636
ICAL	-9637
▁tin	-9638
apsed	-9639
eight	-9640
▁seal	-9641
terior	-9642
▁staring	-9643
▁replaced	-9644
inus	-9645
▁myth	-9646
▁Edition	-9647
▁horizon	-9648
▁misfortune	-9649
!—	-9650
igr	-9651
▁2)	-9652
orph	-9653
rive	-9654
▁deserve	-9655
▁gesture	-9656
▁changing	-9657
▁arrangements	-9658
sych	-9659
▁Wild	-9660
▁deer	-9661
▁mour	-9662
▁nois	-9663
▁1913.	-9664
ilation	-9665
▁Several	-9666
▁estimate	-9667
▁pert	-9668
▁timid	-9669
▁Pierre	-9670
▁insist	-9671
▁layout	-9672
constant	-9673
▁messenger	-9674
▁neglected	-9675
MA	-9676
pow	-9677
whe	-9678
Read	-9679
▁HEN	-9680
▁Pick	-9681
▁bund	-9682
▁fifth	-9683
▁prior	-9684
▁citizen	-9685
▁claimed	-9686
▁critical	-9687
▁recommend	-9688
▁management	-9689
nex	-9690
prec	-9691
▁park	-9692
▁roar	-9693
▁holid	-9694
▁losing	-9695
▁Holland	-9696
▁shouldn	-9697
▁prominent	-9698
guard	-9699
▁seconds	-9700
▁persuaded	-9701
▁recognize	-9702
56	-9703
AU	-9704
iped	-9705
▁Dar	-9706
▁kne	-9707
▁chorus	-9708
▁scalar	-9709
▁dearest	-9710
▁immortal	-9711
▁Sn	-9712
ware	-9713
▁Tay	-9714
▁tid	-9715
necess	-9716
▁Author	-9717
▁temporary	-9718
ME	-9719
rust	-9720
warn	-9721
▁Gar	-9722
▁Lad	-9723
▁ate	-9724
▁Whose	-9725
▁epoch	-9726
▁trump	-9727
▁laying	-9728
▁Austria	-9729
▁reserved	-9730
▁visitors	-9731
html	-9732
▁wages	-9733
▁portions	-9734
▁followers	-9735
rane	-9736
▁syn	-9737
▁chin	-9738
▁perf	-9739
▁push	-9740
usalem	-9741
▁surrounding	-9742
▁handkerchief	-9743
[:,	-9744
oded	-9745
twas	-9746
▁FIG	-9747
▁ton	-9748
▁Mort	-9749
▁craw	-9750
isible	-9751
▁machinery	-9752
▁preparation	-9753
▁mingled	-9754
▁impressed	-9755
iel	-9756
▁11.	-9757
▁BAR	-9758
▁yer	-9759
▁ench	-9760
▁joke	-9761
houses	-9762
▁altered	-9763
▁corrupt	-9764
▁secretary	-9765
▁indignation	-9766
rah	-9767
unct	-9768
▁hut	-9769
▁lan	-9770
▁Does	-9771
▁cock	-9772
ceptions	-9773
ordinate	-9774
▁solitary	-9775
(2	-9776
gence	-9777
▁await	-9778
▁heels	-9779
▁review	-9780
=,	-9781
▁sunk	-9782
handle	-9783
▁sober	-9784
▁vener	-9785
▁pleasing	-9786
urt	-9787
▁Hay	-9788
▁Num	-9789
▁crept	-9790
▁funny	-9791
▁convent	-9792
Form	-9793
▁Hot	-9794
estim	-9795
▁files	-9796
▁shells	-9797
▁hesitated	-9798
Ob	-9799
▁CR	-9800
[0],	-9801
▁2),	-9802
▁ling	-9803
▁cents	-9804
▁planted	-9805
▁trained	-9806
▁weeping	-9807
▁silently	-9808
▁Pennsylvan	-9809
▁tremendous	-9810
Var	-9811
▁46	-9812
Path	-9813
rete	-9814
▁HAR	-9815
hered	-9816
finite	-9817
▁assault	-9818
▁contest	-9819
Her	-9820
why	-9821
qual	-9822
user	-9823
▁norm	-9824
▁today	-9825
▁enjoyment	-9826
▁extension	-9827
▁inevitable	-9828
▁gross	-9829
▁closing	-9830
▁assembly	-9831
▁deceived	-9832
▁Nevertheless	-9833
Ed	-9834
igne	-9835
▁Fur	-9836
ribly	-9837
▁Arist	-9838
▁Wallace	-9839
▁embrace	-9840
▁amusement	-9841
nut	-9842
▁Bank	-9843
▁Half	-9844
▁rang	-9845
versed	-9846
▁discipline	-9847
▁lieutenant	-9848
zing	-9849
rates	-9850
▁subtle	-9851
▁throng	-9852
▁lessons	-9853
▁Assembly	-9854
▁destined	-9855
▁sensation	-9856
▁les	-9857
▁Lane	-9858
▁update	-9859
▁stirred	-9860
▁commence	-9861
▁universe	-9862
▁requested	-9863
▁tenderness	-9864
ocol	-9865
eches	-9866
token	-9867
▁Georg	-9868
▁roses	-9869
▁walks	-9870
▁daylight	-9871
▁accomplish	-9872
Mem	-9873
Sub	-9874
cons	-9875
▁cos	-9876
▁nut	-9877
aying	-9878
▁rect	-9879
▁vault	-9880
▁attent	-9881
▁garrison	-9882
▁meantime	-9883
nie	-9884
debug	-9885
▁Burn	-9886
▁ener	-9887
▁siege	-9888
ibilities	-9889
▁commands	-9890
▁occasional	-9891
5)	-9892
84	-9893
000,	-9894
▁Dog	-9895
▁Work	-9896
▁mail	-9897
▁symp	-9898
assert	-9899
▁flies	-9900
▁exagger	-9901
▁republic	-9902
tery	-9903
ersion	-9904
iguous	-9905
lain	-9906
▁Det	-9907
▁bush	-9908
riages	-9909
▁bench	-9910
▁namely	-9911
▁nerves	-9912
▁climate	-9913
▁80	-9914
▁advoc	-9915
▁costume	-9916
▁swiftly	-9917
▁Bru	-9918
umbled	-9919
▁subsc	-9920
▁liberal	-9921
▁mixture	-9922
▁Confeder	-9923
▁surround	-9924
Ant	-9925
bey	-9926
edges	-9927
▁eleph	-9928
Perhaps	-9929
▁Within	-9930
▁plains	-9931
────────	-9932
▁warnings	-9933
▁differences	-9934
73	-9935
iph	-9936
▁LAW	-9937
called	-9938
▁mourn	-9939
▁ninet	-9940
▁inward	-9941
▁nephew	-9942
7;	-9943
▁unp	-9944
ighted	-9945
▁Committee	-9946
▁threshold	-9947
▁properties	-9948
▁picturesque	-9949
ée	-9950
find	-9951
ulph	-9952
▁12.	-9953
bably	-9954
▁sink	-9955
▁seize	-9956
Metadata	-9957
ographical	-9958
▁consisting	-9959
▁70	-9960
Spec	-9961
▁Ext	-9962
▁Ohio	-9963
akened	-9964
▁Athen	-9965
plotlib	-9966
▁Jewish	-9967
▁prohib	-9968
▁-1	-9969
iner	-9970
▁Der	-9971
▁heir	-9972
linear	-9973
▁knocked	-9974
▁wherein	-9975
util	-9976
▁Tex	-9977
▁arbit	-9978
▁owners	-9979
▁problems	-9980
------------	-9981
▁publication	-9982
▁acknowledged	-9983
▁Ow	-9984
▁eh	-9985
▁boil	-9986
▁gang	-9987
▁prime	-9988
▁eighty	-9989
▁jewels	-9990
▁wilder	-9991
ications	-9992
▁QU	-9993
bour	-9994
▁Gray	-9995
▁swung	-9996
▁medical	-9997
▁imperfect	-9998
▁FL	-9999
▁TW	-10000
▁15,	-10001
azine	-10002
kward	-10003
ouble	-10004
▁aged	-10005
licted	-10006
▁volumes	-10007
Ne	-10008
▁ff	-10009
thel	-10010
▁160	-10011
▁oak	-10012
▁Form	-10013
▁trim	-10014
▁wagon	-10015
▁upright	-10016
▁everyone	-10017
▁improved	-10018
▁jealousy	-10019
▁writings	-10020
▁invitation	-10021
▁association	-10022
CO	-10023
dec	-10024
Just	-10025
onia	-10026
shard	-10027
slice	-10028
▁Hold	-10029
▁1928.	-10030
▁shores	-10031
▁tempor	-10032
▁unjust	-10033
▁afforded	-10034
▁Englishman	-10035
2_	-10036
ITT	-10037
▁44	-10038
rawn	-10039
▁Girl	-10040
▁Lind	-10041
▁Jerry	-10042
▁Women	-10043
▁opens	-10044
▁scipy	-10045
▁tread	-10046
▁variables	-10047
▁Distributing	-10048
xes	-10049
usal	-10050
▁aug	-10051
▁Rand	-10052
recated	-10053
▁alarmed	-10054
▁breathing	-10055
74	-10056
fill	-10057
▁Lam	-10058
▁mans	-10059
▁Office	-10060
▁copies	-10061
▁dishon	-10062
▁resent	-10063
▁superf	-10064
dispatch	-10065
▁garments	-10066
▁heartily	-10067
▁earnestly	-10068
▁confession	-10069
ERN	-10070
ocal	-10071
▁toil	-10072
▁destiny	-10073
▁newspapers	-10074
▁Pennsylvania	-10075
Sp	-10076
bus	-10077
https	-10078
▁Home	-10079
▁bells	-10080
▁shaft	-10081
▁upward	-10082
▁Nicholas	-10083
▁artistic	-10084
▁confirmed	-10085
▁disappear	-10086
▁entertained	-10087
▁pig	-10088
After	-10089
ifted	-10090
▁Sand	-10091
▁dumb	-10092
▁sphere	-10093
▁widely	-10094
▁propose	-10095
▁specimens	-10096
▁%(	-10097
▁Vi	-10098
boat	-10099
berry	-10100
utter	-10101
▁alas	-10102
▁1929.	-10103
000,000	-10104
▁Oliver	-10105
▁incred	-10106
▁Jerusalem	-10107
▁cultivated	-10108
▁undoubtedly	-10109
▁176	-10110
▁Rus	-10111
▁pile	-10112
▁anyway	-10113
▁sailors	-10114
▁considerably	-10115
IER	-10116
▁cub	-10117
▁slope	-10118
▁Daniel	-10119
▁esteem	-10120
▁rescue	-10121
▁advised	-10122
▁peaceful	-10123
▁scenario	-10124
▁righteous	-10125
54	-10126
ela	-10127
www	-10128
▁FO	-10129
asis	-10130
eyed	-10131
▁bapt	-10132
▁Imper	-10133
▁Think	-10134
▁franc	-10135
▁incor	-10136
▁navig	-10137
▁statue	-10138
▁Douglas	-10139
▁carries	-10140
▁fortunes	-10141
▁multiple	-10142
YN	-10143
good	-10144
isms	-10145
erred	-10146
▁rice	-10147
▁chairs	-10148
▁amusing	-10149
▁adventures	-10150
▁Ball	-10151
ishops	-10152
▁frost	-10153
▁appointment	-10154
loop	-10155
▁LUC	-10156
▁pluck	-10157
Integer	-10158
▁annual	-10159
▁divide	-10160
▁irregular	-10161
▁Dam	-10162
▁flu	-10163
▁Herm	-10164
▁Whit	-10165
raints	-10166
verted	-10167
▁Intern	-10168
▁pursue	-10169
▁washed	-10170
▁wheels	-10171
▁motives	-10172
▁announce	-10173
prim	-10174
urst	-10175
glass	-10176
direct	-10177
▁risen	-10178
▁Senate	-10179
▁healthy	-10180
▁hostile	-10181
▁discussed	-10182
▁Commission	-10183
/4	-10184
▁PO	-10185
CTION	-10186
▁Quix	-10187
▁papa	-10188
▁Cambridge	-10189
▁reverence	-10190
abc	-10191
keep	-10192
year	-10193
▁cens	-10194
▁cards	-10195
▁newly	-10196
▁recollect	-10197
ulet	-10198
▁Fif	-10199
▁lic	-10200
▁Base	-10201
▁Last	-10202
erving	-10203
▁awkward	-10204
/_	-10205
▁Feder	-10206
▁pandas	-10207
▁poster	-10208
▁forests	-10209
▁pleasures	-10210
▁ber	-10211
▁vit	-10212
stats	-10213
▁Anth	-10214
▁Beau	-10215
▁Club	-10216
▁sunset	-10217
▁Minister	-10218
▁=========	-10219
▁advancing	-10220
▁reduction	-10221
LL	-10222
fp	-10223
irds	-10224
ships	-10225
stein	-10226
▁pall	-10227
▁pitch	-10228
▁option	-10229
bery	-10230
your	-10231
▁bol	-10232
close	-10233
▁Jour	-10234
▁Stud	-10235
▁adapted	-10236
▁register	-10237
▁artificial	-10238
▁honourable	-10239
Ref	-10240
hin	-10241
perm	-10242
▁reco	-10243
flatten	-10244
▁madness	-10245
▁conceive	-10246
▁discharge	-10247
▁districts	-10248
▁formation	-10249
FE	-10250
ipes	-10251
llen	-10252
cester	-10253
▁Duchess	-10254
▁neighbors	-10255
▁acknowledge	-10256
ARE	-10257
▁Na	-10258
half	-10259
▁McC	-10260
jaxpr	-10261
thread	-10262
▁Cæsar	-10263
▁dried	-10264
▁squad	-10265
▁Justice	-10266
▁conquest	-10267
▁ventured	-10268
▁agreement	-10269
ancho	-10270
forth	-10271
plete	-10272
▁Scene	-10273
▁flags	-10274
▁incap	-10275
▁stuck	-10276
▁occupy	-10277
▁discern	-10278
▁compliment	-10279
-8	-10280
TO	-10281
▁'_	-10282
▁FA	-10283
▁||	-10284
ippi	-10285
▁lax	-10286
▁nob	-10287
Never	-10288
▁Order	-10289
▁swall	-10290
▁hiding	-10291
▁disgust	-10292
▁trusted	-10293
▁preacher	-10294
IFE	-10295
obs	-10296
alpha	-10297
▁Capt	-10298
▁Beaut	-10299
▁Wales	-10300
▁arist	-10301
▁chase	-10302
▁emotions	-10303
▁childhood	-10304
100	-10305
18,	-10306
have	-10307
unce	-10308
▁src	-10309
arine	-10310
athed	-10311
▁MISS	-10312
▁musk	-10313
▁Capell	-10314
▁bushes	-10315
▁purely	-10316
▁Instead	-10317
▁conspir	-10318
▁fishing	-10319
▁disappointment	-10320
ETH	-10321
asse	-10322
wrap	-10323
erial	-10324
▁boiling	-10325
▁photograph	-10326
vag	-10327
▁DO	-10328
BERT	-10329
aton	-10330
bbed	-10331
otal	-10332
▁org	-10333
▁sack	-10334
reduce	-10335
▁moves	-10336
▁images	-10337
▁strangely	-10338
▁recognition	-10339
DP	-10340
arly	-10341
rons	-10342
score	-10343
▁goin	-10344
▁Lords	-10345
▁fanci	-10346
▁infant	-10347
ervation	-10348
▁painter	-10349
▁murdered	-10350
YR	-10351
▁Moh	-10352
▁Hind	-10353
▁saving	-10354
▁conspic	-10355
▁Copyright	-10356
Tree	-10357
aver	-10358
▁ske	-10359
▁griev	-10360
▁stolen	-10361
▁counted	-10362
▁draught	-10363
▁propriet	-10364
rm	-10365
iac	-10366
conc	-10367
▁Ash	-10368
▁dre	-10369
▁arrow	-10370
▁anchor	-10371
▁dispos	-10372
▁engage	-10373
▁comrades	-10374
▁protected	-10375
▁attractive	-10376
▁favourable	-10377
▁passengers	-10378
▁passionate	-10379
▁1]	-10380
model	-10381
olean	-10382
▁Lion	-10383
▁exert	-10384
▁global	-10385
ironment	-10386
▁samples	-10387
fare	-10388
main	-10389
▁Care	-10390
▁alle	-10391
▁apple	-10392
▁purse	-10393
▁vital	-10394
ictions	-10395
▁timber	-10396
▁stretch	-10397
53	-10398
BE	-10399
17,	-10400
▁lear	-10401
ructive	-10402
PL	-10403
Char	-10404
true	-10405
▁wept	-10406
▁Story	-10407
▁bliss	-10408
▁climb	-10409
▁remedy	-10410
▁Admiral	-10411
▁dispute	-10412
▁products	-10413
▁innocence	-10414
72	-10415
duc	-10416
coat	-10417
arius	-10418
image	-10419
▁maximum	-10420
▁improvement	-10421
▁AG	-10422
wich	-10423
aired	-10424
▁Libr	-10425
▁Stra	-10426
▁evol	-10427
▁Clare	-10428
▁Roger	-10429
▁ending	-10430
hi	-10431
sim	-10432
zes	-10433
iders	-10434
▁asks	-10435
▁spin	-10436
▁boxes	-10437
convert	-10438
▁tragic	-10439
▁Optional	-10440
IAL	-10441
▁Belg	-10442
▁brush	-10443
▁sadly	-10444
▁stret	-10445
▁avoided	-10446
▁springs	-10447
▁Egyptian	-10448
▁DataFrame	-10449
(#	-10450
83	-10451
je	-10452
ONG	-10453
ROW	-10454
det	-10455
oard	-10456
▁[0.	-10457
▁bits	-10458
▁mend	-10459
▁skip	-10460
▁disput	-10461
▁faster	-10462
▁heroes	-10463
Def	-10464
▁1.0	-10465
▁MARY	-10466
▁Moses	-10467
▁motor	-10468
▁Keyword	-10469
▁muscles	-10470
▁thereof	-10471
▁moderate	-10472
▁professional	-10473
url	-10474
▁49	-10475
space	-10476
▁frown	-10477
▁steal	-10478
▁Division	-10479
▁reminded	-10480
UP	-10481
LAND	-10482
onet	-10483
pert	-10484
▁Fran	-10485
▁Made	-10486
▁Caesar	-10487
▁unnecess	-10488
6;	-10489
ANK	-10490
ENS	-10491
▁Ba	-10492
▁brut	-10493
▁cant	-10494
▁thief	-10495
▁approx	-10496
▁punish	-10497
▁Department	-10498
▁proposition	-10499
▁representative	-10500
▁neut	-10501
▁quad	-10502
▁Athens	-10503
▁judges	-10504
▁latest	-10505
▁vanity	-10506
▁compare	-10507
md	-10508
mt	-10509
▁Hast	-10510
▁unre	-10511
fields	-10512
▁stole	-10513
▁consec	-10514
▁swords	-10515
▁admired	-10516
▁scandal	-10517
▁promptly	-10518
▁4),	-10519
effect	-10520
▁amused	-10521
▁fancied	-10522
▁workers	-10523
▁extravag	-10524
▁translated	-10525
▁entertainment	-10526
SC	-10527
:`~	-10528
inv	-10529
imer	-10530
▁11,	-10531
▁150	-10532
asper	-10533
inalg	-10534
▁Mars	-10535
▁skull	-10536
▁Victor	-10537
▁repose	-10538
▁visits	-10539
▁assurance	-10540
cca	-10541
▁Fo	-10542
ABLE	-10543
▁ALL	-10544
ighty	-10545
ambers	-10546
▁wander	-10547
▁warned	-10548
entially	-10549
▁guarant	-10550
▁pressing	-10551
▁Something	-10552
▁confessed	-10553
OUNT	-10554
▁13.	-10555
▁HIS	-10556
inkle	-10557
▁Joan	-10558
herent	-10559
otting	-10560
▁differ	-10561
▁prosec	-10562
deg	-10563
anth	-10564
▁acres	-10565
▁mirror	-10566
▁pupils	-10567
▁injured	-10568
▁reproach	-10569
15;	-10570
▁cum	-10571
sizes	-10572
▁seam	-10573
▁Maria	-10574
▁charms	-10575
▁Chamber	-10576
▁colonel	-10577
▁lantern	-10578
▁impatient	-10579
FA	-10580
INS	-10581
ira	-10582
dates	-10583
vision	-10584
▁regards	-10585
▁certainty	-10586
▁varieties	-10587
▁correspondence	-10588
away	-10589
ioned	-10590
▁Walk	-10591
▁Gordon	-10592
▁hunger	-10593
▁renewed	-10594
▁accommod	-10595
▁effected	-10596
Out	-10597
▁df	-10598
agan	-10599
auto	-10600
▁cel	-10601
▁sty	-10602
▁unit	-10603
▁Canad	-10604
▁theme	-10605
▁struct	-10606
▁Quixote	-10607
▁betrayed	-10608
▁salvation	-10609
▁struggling	-10610
8;	-10611
pan	-10612
iday	-10613
enery	-10614
▁fairy	-10615
▁expend	-10616
▁Theatre	-10617
▁doorway	-10618
▁64	-10619
▁TY	-10620
font	-10621
▁Pop	-10622
▁Ten	-10623
▁Hugh	-10624
stride	-10625
▁brick	-10626
▁income	-10627
▁furious	-10628
▁leisure	-10629
▁produces	-10630
▁Francisco	-10631
cos	-10632
Some	-10633
hall	-10634
▁nom	-10635
▁repair	-10636
▁Ignored	-10637
▁earthly	-10638
▁careless	-10639
▁affections	-10640
▁Air	-10641
ilian	-10642
▁glit	-10643
▁ashes	-10644
▁calmly	-10645
▁shapes	-10646
▁summit	-10647
▁dealing	-10648
▁operand	-10649
▁bitterly	-10650
▁algorithm	-10651
▁merchants	-10652
Class	-10653
ograd	-10654
▁ment	-10655
▁Felix	-10656
▁couch	-10657
▁ensure	-10658
▁marvel	-10659
▁vigorous	-10660
▁significance	-10661
del	-10662
fft	-10663
ouri	-10664
udge	-10665
▁dus	-10666
▁fence	-10667
▁tales	-10668
▁glasses	-10669
▁temples	-10670
▁monument	-10671
▁severely	-10672
▁nx	-10673
▁sequ	-10674
▁sung	-10675
▁whit	-10676
▁polic	-10677
▁flashed	-10678
▁definition	-10679
▁Aud	-10680
▁Jove	-10681
▁Matthe	-10682
▁climbed	-10683
▁marvell	-10684
▁reverse	-10685
▁vs	-10686
▁fal	-10687
▁sails	-10688
▁Matrix	-10689
▁unwill	-10690
▁contend	-10691
▁longing	-10692
▁modified	-10693
▁delicious	-10694
▁invention	-10695
iend	-10696
▁(16	-10697
▁bust	-10698
▁Venus	-10699
lesiast	-10700
▁learnt	-10701
▁sorted	-10702
PU	-10703
ione	-10704
bered	-10705
▁Burg	-10706
▁dies	-10707
▁Please	-10708
▁heroic	-10709
▁checked	-10710
▁hereafter	-10711
icient	-10712
▁Ralph	-10713
subject	-10714
▁Herbert	-10715
▁breathe	-10716
▁periods	-10717
▁program	-10718
▁nonsense	-10719
▁pretended	-10720
▁indifference	-10721
Bl	-10722
flow	-10723
▁Ivan	-10724
▁duck	-10725
▁goss	-10726
▁mesh	-10727
▁scope	-10728
▁sympt	-10729
message	-10730
▁smiles	-10731
dimension	-10732
▁teachers	-10733
▁respecting	-10734
NOT	-10735
▁gi	-10736
rice	-10737
opher	-10738
ridge	-10739
▁Poet	-10740
▁succ	-10741
▁placing	-10742
broadcast	-10743
ML	-10744
MER	-10745
owl	-10746
▁mu	-10747
Dict	-10748
irts	-10749
serv	-10750
atted	-10751
onies	-10752
urred	-10753
▁Iter	-10754
▁loop	-10755
onents	-10756
▁worsh	-10757
istered	-10758
▁aroused	-10759
▁obscure	-10760
▁Cardinal	-10761
ITE	-10762
uese	-10763
▁Cas	-10764
▁rasc	-10765
ressing	-10766
▁encount	-10767
▁heights	-10768
▁prolong	-10769
▁infantry	-10770
▁exhibited	-10771
Eng	-10772
REE	-10773
cius	-10774
ilia	-10775
rene	-10776
uris	-10777
▁mol	-10778
▁sofa	-10779
▁Kings	-10780
▁disple	-10781
▁francs	-10782
▁happily	-10783
▁Ped	-10784
▁pious	-10785
▁unity	-10786
▁Berlin	-10787
▁forbid	-10788
▁traced	-10789
▁ancestors	-10790
▁fragments	-10791
▁purchased	-10792
▁Fro	-10793
▁Sax	-10794
▁gam	-10795
▁bron	-10796
plicit	-10797
▁spear	-10798
amental	-10799
▁merits	-10800
▁obeyed	-10801
▁plates	-10802
▁gravity	-10803
▁Atlantic	-10804
Cor	-10805
yll	-10806
eron	-10807
▁Ren	-10808
heart	-10809
▁Ethel	-10810
▁holes	-10811
▁liable	-10812
▁gallery	-10813
▁surprising	-10814
}{	-10815
irg	-10816
▁Pa	-10817
mont	-10818
unci	-10819
▁Know	-10820
▁dipl	-10821
issing	-10822
▁1926.	-10823
▁Monte	-10824
▁Party	-10825
▁naval	-10826
▁punct	-10827
▁Roland	-10828
▁release	-10829
▁conquered	-10830
▁experiments	-10831
;[	-10832
Bec	-10833
uler	-10834
▁(0,	-10835
flags	-10836
▁Barn	-10837
▁Hope	-10838
▁Tenn	-10839
▁whip	-10840
ounted	-10841
▁Domin	-10842
▁bands	-10843
▁talent	-10844
▁Eastern	-10845
▁Franklin	-10846
File	-10847
uset	-10848
▁0.0	-10849
▁13,	-10850
▁Abb	-10851
▁dug	-10852
ynamo	-10853
▁2003	-10854
search	-10855
▁ample	-10856
▁insol	-10857
▁Arnold	-10858
▁brains	-10859
▁reluct	-10860
▁starts	-10861
▁sailing	-10862
▁dialogue	-10863
▁youthful	-10864
▁implementation	-10865
-0	-10866
Key	-10867
tol	-10868
vous	-10869
▁rhs	-10870
▁Anna	-10871
▁reads	-10872
▁abundant	-10873
▁stopping	-10874
▁provision	-10875
▁Everything	-10876
▁unpleasant	-10877
▁encountered	-10878
ili	-10879
tmp	-10880
nest	-10881
pled	-10882
▁exh	-10883
llers	-10884
refly	-10885
▁pool	-10886
active	-10887
▁firing	-10888
▁gladly	-10889
▁perish	-10890
▁compens	-10891
▁tensors	-10892
▁conveyed	-10893
▁shooting	-10894
▁anxiously	-10895
▁experiences	-10896
▁successfully	-10897
Gu	-10898
bear	-10899
▁Blue	-10900
▁Full	-10901
▁ridge	-10902
▁elegant	-10903
▁pyrefly	-10904
▁univers	-10905
▁bestowed	-10906
▁disagree	-10907
▁divisions	-10908
▁resemblance	-10909
OUT	-10910
▁Eth	-10911
▁Rec	-10912
▁XIV	-10913
▁tie	-10914
▁Crom	-10915
▁Sancho	-10916
▁induce	-10917
▁rushing	-10918
▁smoking	-10919
▁neighbours	-10920
▁159	-10921
▁ven	-10922
riton	-10923
▁Batt	-10924
▁tune	-10925
▁glyph	-10926
▁veins	-10927
▁crimes	-10928
▁liquor	-10929
▁Service	-10930
checkpoint	-10931
▁organized	-10932
01\	-10933
cian	-10934
▁envy	-10935
▁cares	-10936
▁fiery	-10937
▁gravely	-10938
▁suspended	-10939
3*	-10940
ILE	-10941
Lord	-10942
avals	-10943
▁foes	-10944
▁soci	-10945
▁colle	-10946
▁rings	-10947
▁greatness	-10948
--'	-10949
200	-10950
blo	-10951
eded	-10952
▁poly	-10953
▁Luther	-10954
▁breaks	-10955
▁canvas	-10956
▁prodig	-10957
▁knights	-10958
▁educated	-10959
▁explicit	-10960
▁promises	-10961
▁inspiration	-10962
}.	-10963
','	-10964
seq	-10965
maid	-10966
oder	-10967
ollo	-10968
▁vap	-10969
▁psych	-10970
Because	-10971
▁dashed	-10972
▁wandered	-10973
tell	-10974
▁Garden	-10975
▁naught	-10976
▁pistol	-10977
▁designs	-10978
▁Providence	-10979
▁90	-10980
oric	-10981
isons	-10982
▁Brig	-10983
▁site	-10984
▁wool	-10985
▁deemed	-10986
▁warmth	-10987
▁Turkish	-10988
▁discont	-10989
▁abruptly	-10990
▁imperial	-10991
▁wilderness	-10992
52	-10993
];	-10994
LOCK	-10995
▁Word	-10996
▁grid	-10997
▁Power	-10998
▁Between	-10999
▁answers	-11000
▁chances	-11001
▁conject	-11002
▁prophet	-11003
EE	-11004
▁flee	-11005
atible	-11006
▁mainly	-11007
▁nobles	-11008
▁traces	-11009
▁tranqu	-11010
________	-11011
▁recommended	-11012
VOL	-11013
▁14,	-11014
▁dun	-11015
▁Conn	-11016
vering	-11017
▁Devil	-11018
▁gorge	-11019
▁shirt	-11020
▁shrew	-11021
issippi	-11022
▁Friend	-11023
▁ashore	-11024
▁deaths	-11025
▁leaped	-11026
▁monster	-11027
▁moonlight	-11028
(?	-11029
rup	-11030
▁XI	-11031
▁kin	-11032
apply	-11033
▁Billy	-11034
▁Fortune	-11035
▁journal	-11036
▁descript	-11037
▁monaster	-11038
▁statements	-11039
xi	-11040
agn	-11041
▁rapt	-11042
expand	-11043
▁1930.	-11044
▁bedroom	-11045
▁billion	-11046
▁cruelty	-11047
▁inquire	-11048
▁parting	-11049
▁absorbed	-11050
▁defeated	-11051
▁frontier	-11052
▁particip	-11053
ENTS	-11054
[0].	-11055
ummy	-11056
▁Turks	-11057
▁Letter	-11058
itespace	-11059
▁broadcast	-11060
Arg	-11061
took	-11062
▁Ori	-11063
▁kid	-11064
First	-11065
produ	-11066
taire	-11067
would	-11068
▁alleg	-11069
▁lucky	-11070
achuset	-11071
▁invari	-11072
▁artists	-11073
▁desirable	-11074
▁ram	-11075
▁Hart	-11076
ctools	-11077
▁Polly	-11078
▁Santa	-11079
▁yielded	-11080
▁describes	-11081
▁encounter	-11082
▁responded	-11083
▁spectacle	-11084
▁witnessed	-11085
ij	-11086
és	-11087
iod	-11088
nde	-11089
mans	-11090
▁Ess	-11091
Count	-11092
ipper	-11093
inding	-11094
pelled	-11095
▁etern	-11096
outputs	-11097
▁offers	-11098
▁petition	-11099
[1	-11100
una	-11101
...,	-11102
ilda	-11103
Union	-11104
arner	-11105
ctors	-11106
ester	-11107
▁Lanc	-11108
▁Line	-11109
▁Rail	-11110
icking	-11111
labels	-11112
▁Robin	-11113
▁physician	-11114
▁telephone	-11115
=(	-11116
lig	-11117
▁Inn	-11118
acter	-11119
ansas	-11120
▁Cond	-11121
▁Orle	-11122
▁fare	-11123
ements	-11124
▁(2003)	-11125
▁channels	-11126
▁justified	-11127
▁Portuguese	-11128
ERAL	-11129
exer	-11130
▁Bal	-11131
▁Exp	-11132
▁anon	-11133
▁butt	-11134
retion	-11135
udence	-11136
▁Sweet	-11137
▁seeds	-11138
▁Method	-11139
▁packed	-11140
▁peoples	-11141
▁surpass	-11142
▁intercourse	-11143
squ	-11144
sels	-11145
▁pad	-11146
ieves	-11147
▁justly	-11148
▁crushed	-11149
▁payment	-11150
▁verbose	-11151
achusetts	-11152
▁extending	-11153
▁prevailed	-11154
—“	-11155
ORN	-11156
upt	-11157
grid	-11158
▁coin	-11159
▁Monday	-11160
▁confirm	-11161
▁inherit	-11162
▁mapping	-11163
▁hopeless	-11164
EX	-11165
gie	-11166
▁GU	-11167
Line	-11168
▁awe	-11169
▁lib	-11170
edies	-11171
unken	-11172
▁barn	-11173
▁tube	-11174
▁engra	-11175
▁realm	-11176
▁filter	-11177
▁fisher	-11178
▁shriek	-11179
▁despite	-11180
▁letting	-11181
▁remembr	-11182
▁commanding	-11183
▁compassion	-11184
▁philosopher	-11185
5;	-11186
10.	-11187
****	-11188
▁14.	-11189
ppers	-11190
▁Howard	-11191
▁bewild	-11192
▁impart	-11193
▁openly	-11194
▁smallest	-11195
▁amazement	-11196
▁SCH	-11197
▁Hung	-11198
▁Read	-11199
asarray	-11200
▁Spring	-11201
▁sketch	-11202
▁illness	-11203
▁mothers	-11204
▁offended	-11205
▁Christopher	-11206
▁cultivation	-11207
▁_,	-11208
impse	-11209
▁idol	-11210
▁equip	-11211
▁flank	-11212
▁prose	-11213
▁tokens	-11214
▁exhaust	-11215
▁torture	-11216
llo	-11217
URES	-11218
▁dew	-11219
▁bomb	-11220
▁Palace	-11221
▁callable	-11222
▁travelled	-11223
comb	-11224
▁Jun	-11225
▁sear	-11226
▁folded	-11227
▁encoding	-11228
har	-11229
hent	-11230
atoes	-11231
▁damn	-11232
scalar	-11233
▁Scotch	-11234
▁chiefs	-11235
▁flowing	-11236
▁expecting	-11237
▁encouraged	-11238
▁parliament	-11239
oir	-11240
▁shy	-11241
▁pond	-11242
▁chuck	-11243
ivering	-11244
▁frozen	-11245
▁anguish	-11246
▁complain	-11247
▁Massachusetts	-11248
ICT	-11249
▁seq	-11250
▁doom	-11251
▁Surely	-11252
▁stride	-11253
▁killing	-11254
▁omitted	-11255
▁upwards	-11256
▁Imperial	-11257
▁Bos	-11258
▁alo	-11259
annot	-11260
▁drum	-11261
▁fant	-11262
▁wholes	-11263
▁attacks	-11264
▁wealthy	-11265
▁trembled	-11266
1_	-11267
did	-11268
ota	-11269
iche	-11270
▁XII	-11271
▁damp	-11272
▁1937.	-11273
▁Class	-11274
▁afore	-11275
▁believing	-11276
▁Into	-11277
▁Mack	-11278
▁fain	-11279
ummary	-11280
Builder	-11281
athetic	-11282
▁tumult	-11283
▁Voltaire	-11284
▁appetite	-11285
▁courtesy	-11286
▁adaptation	-11287
▁continuous	-11288
▁nn	-11289
Info	-11290
oche	-11291
▁Wed	-11292
▁hay	-11293
emplate	-11294
▁bullet	-11295
▁organs	-11296
▁charges	-11297
arc	-11298
utt	-11299
▁Ze	-11300
▁fn	-11301
iser	-11302
sets	-11303
▁Armen	-11304
▁Peters	-11305
▁dangers	-11306
▁glimpse	-11307
ACH	-11308
▁dw	-11309
▁ec	-11310
OMAN	-11311
▁Maid	-11312
▁wits	-11313
▁1934.	-11314
igration	-11315
▁harvest	-11316
▁serving	-11317
▁approved	-11318
▁boundary	-11319
▁virtuous	-11320
NY	-11321
Mad	-11322
olo	-11323
Gold	-11324
faced	-11325
▁Much	-11326
▁clam	-11327
▁tren	-11328
▁vile	-11329
▁1936.	-11330
▁opera	-11331
▁commod	-11332
▁strife	-11333
▁volunt	-11334
▁Runtime	-11335
▁Shakspe	-11336
▁WILLIAM	-11337
▁procure	-11338
▁signature	-11339
aptor	-11340
blest	-11341
▁Path	-11342
▁fools	-11343
umbling	-11344
▁invalid	-11345
▁peasant	-11346
▁Hamilton	-11347
▁abundance	-11348
▁undertake	-11349
Tell	-11350
▁Greg	-11351
▁Text	-11352
▁irre	-11353
▁owned	-11354
▁relax	-11355
▁rigid	-11356
▁chains	-11357
▁morrow	-11358
▁therein	-11359
▁processes	-11360
▁shillings	-11361
BLE	-11362
▁Wy	-11363
such	-11364
▁Lang	-11365
▁tact	-11366
▁dated	-11367
▁humor	-11368
usively	-11369
▁append	-11370
▁disaster	-11371
▁neighborhood	-11372
▁versionadded	-11373
82	-11374
BY	-11375
▁IT	-11376
▁Big	-11377
Inter	-11378
white	-11379
▁dramat	-11380
▁trifle	-11381
▁Whatever	-11382
▁continent	-11383
▁continues	-11384
flo	-11385
chers	-11386
▁Check	-11387
▁genus	-11388
▁wreck	-11389
▁invisible	-11390
▁particulars	-11391
▁affectionate	-11392
................	-11393
Ge	-11394
ui	-11395
eros	-11396
▁unm	-11397
▁wag	-11398
rying	-11399
▁BOOK	-11400
▁Flor	-11401
▁ribb	-11402
reshape	-11403
▁arbitr	-11404
▁assisted	-11405
Wr	-11406
▁-0.	-11407
words	-11408
minded	-11409
▁Hamlet	-11410
▁condemn	-11411
▁farmers	-11412
▁miracle	-11413
▁superst	-11414
▁Mississippi	-11415
05\	-11416
ASH	-11417
▁bee	-11418
▁Rest	-11419
soever	-11420
▁Lewis	-11421
▁blast	-11422
▁strip	-11423
▁blocks	-11424
▁secrets	-11425
▁upstairs	-11426
▁contented	-11427
strip	-11428
▁stem	-11429
▁monot	-11430
▁fascin	-11431
▁specially	-11432
▁Protestant	-11433
.",	-11434
agne	-11435
arms	-11436
▁trap	-11437
▁brook	-11438
▁Unless	-11439
▁boldly	-11440
▁dollar	-11441
▁harmon	-11442
▁volcan	-11443
supported	-11444
▁breathed	-11445
▁restless	-11446
▁motionless	-11447
;”	-11448
inea	-11449
leaf	-11450
▁mic	-11451
▁eman	-11452
▁roused	-11453
▁planned	-11454
▁expectation	-11455
.*	-11456
dr	-11457
anke	-11458
enes	-11459
odge	-11460
▁Bol	-11461
▁Jon	-11462
▁OLD	-11463
ilful	-11464
inine	-11465
ontal	-11466
▁COMP	-11467
agonal	-11468
▁Relig	-11469
▁likes	-11470
▁Milton	-11471
▁Bernard	-11472
▁harbour	-11473
▁generations	-11474
xx	-11475
=0,	-11476
▁1-	-11477
▁bin	-11478
▁Educ	-11479
▁lent	-11480
strate	-11481
borough	-11482
▁liquid	-11483
▁fountain	-11484
▁speedily	-11485
▁interfere	-11486
▁questioned	-11487
INT	-11488
lap	-11489
mun	-11490
CTOR	-11491
▁Hath	-11492
▁Juan	-11493
icular	-11494
▁SECOND	-11495
▁buffer	-11496
▁commit	-11497
▁guessed	-11498
▁Missouri	-11499
▁persuade	-11500
▁recalled	-11501
▁released	-11502
)*	-11503
AH	-11504
▁[6	-11505
door	-11506
gone	-11507
berts	-11508
▁boot	-11509
closed	-11510
sample	-11511
▁decay	-11512
▁plane	-11513
▁vigor	-11514
▁agitation	-11515
uled	-11516
▁dru	-11517
▁fel	-11518
▁bills	-11519
▁draws	-11520
▁stamp	-11521
▁driver	-11522
▁economic	-11523
▁quantities	-11524
▁significant	-11525
BR	-11526
amph	-11527
meth	-11528
ocks	-11529
sett	-11530
named	-11531
▁Rowe	-11532
▁lots	-11533
▁nurs	-11534
▁eldest	-11535
▁haught	-11536
▁lasted	-11537
▁linear	-11538
▁Country	-11539
▁Library	-11540
▁plunged	-11541
▁thirteen	-11542
▁directory	-11543
kw	-11544
19,	-11545
▁si	-11546
window	-11547
▁negot	-11548
▁scant	-11549
▁overth	-11550
▁filling	-11551
▁literally	-11552
Our	-11553
gpu	-11554
emen	-11555
▁20,	-11556
▁Cra	-11557
▁lip	-11558
about	-11559
erers	-11560
▁1925.	-11561
▁Third	-11562
▁canoe	-11563
▁subdu	-11564
ivities	-11565
▁saints	-11566
▁ignored	-11567
▁applause	-11568
▁expenses	-11569
▁traveller	-11570
▁comprehens	-11571
▁personality	-11572
inge	-11573
arians	-11574
▁finan	-11575
▁Jonson	-11576
▁indisp	-11577
▁percent	-11578
▁puzzled	-11579
▁scarlet	-11580
▁landlord	-11581
▁monsieur	-11582
▁introduce	-11583
3:	-11584
_."	-11585
agers	-11586
optim	-11587
▁Back	-11588
▁Brah	-11589
▁Marie	-11590
▁Taylor	-11591
▁doubts	-11592
▁theirs	-11593
▁wretch	-11594
▁dataset	-11595
yme	-11596
▁Blo	-11597
Thank	-11598
ammar	-11599
▁vols	-11600
▁Allen	-11601
▁Bridge	-11602
▁Corpor	-11603
▁propag	-11604
▁requis	-11605
▁seeming	-11606
▁automatic	-11607
'):	-11608
std	-11609
▁na	-11610
Lady	-11611
▁som	-11612
elity	-11613
▁Wife	-11614
shaped	-11615
ursday	-11616
▁pairs	-11617
▁Horace	-11618
▁Museum	-11619
▁padding	-11620
▁invented	-11621
Add	-11622
▁rud	-11623
atching	-11624
operand	-11625
▁Century	-11626
▁dreamed	-11627
▁scatter	-11628
▁Australia	-11629
▁witnesses	-11630
Val	-11631
bor	-11632
hum	-11633
ifer	-11634
lete	-11635
▁deaf	-11636
▁puff	-11637
▁jolly	-11638
▁troop	-11639
▁endless	-11640
▁behaviour	-11641
▁dependent	-11642
▁accordance	-11643
▁conspicuous	-11644
32>	-11645
riv	-11646
isis	-11647
▁adj	-11648
▁por	-11649
▁blew	-11650
racted	-11651
▁Reform	-11652
▁Charlot	-11653
▁scenery	-11654
▁Richmond	-11655
▁specimen	-11656
▁speeches	-11657
▁separation	-11658
oa	-11659
▁mm	-11660
▁HEL	-11661
▁Isa	-11662
▁NOR	-11663
▁gig	-11664
▁hyd	-11665
▁lur	-11666
▁aren	-11667
▁crop	-11668
▁elaborate	-11669
Me	-11670
▁(3	-11671
llor	-11672
emale	-11673
obody	-11674
▁Goth	-11675
▁Hann	-11676
▁dwelt	-11677
modules	-11678
▁explos	-11679
▁exciting	-11680
▁scholars	-11681
'))	-11682
elia	-11683
▁Road	-11684
ranean	-11685
▁fragr	-11686
mediate	-11687
▁volunte	-11688
▁alliance	-11689
▁sunlight	-11690
▁producing	-11691
▁architecture	-11692
Take	-11693
olds	-11694
▁Pom	-11695
▁spy	-11696
▁Susan	-11697
▁Sister	-11698
▁luxury	-11699
Sequence	-11700
▁corners	-11701
▁Mistress	-11702
16;	-11703
asty	-11704
oughs	-11705
▁fors	-11706
ulsion	-11707
▁1931.	-11708
▁presc	-11709
▁sworn	-11710
▁loudly	-11711
▁factory	-11712
▁conclude	-11713
▁rational	-11714
bi	-11715
pa	-11716
ETT	-11717
hile	-11718
▁tap	-11719
▁abode	-11720
▁embro	-11721
▁transm	-11722
▁Carolina	-11723
▁circular	-11724
--”	-11725
▁Os	-11726
inch	-11727
▁Bad	-11728
▁Fra	-11729
▁Fre	-11730
athan	-11731
▁...]	-11732
▁earl	-11733
▁cells	-11734
▁halted	-11735
▁kisses	-11736
▁Example	-11737
▁congreg	-11738
▁drowned	-11739
▁deprived	-11740
▁feathers	-11741
▁nobility	-11742
▁yourselves	-11743
Map	-11744
AMES	-11745
Twas	-11746
WARD	-11747
igma	-11748
▁XXV	-11749
▁Nick	-11750
▁Troy	-11751
▁Negro	-11752
▁niece	-11753
Nothing	-11754
issions	-11755
▁aboard	-11756
▁measured	-11757
sex	-11758
▁41	-11759
▁SW	-11760
wait	-11761
▁Sac	-11762
▁viz	-11763
epend	-11764
▁lace	-11765
▁leap	-11766
▁tops	-11767
▁polyn	-11768
▁sweep	-11769
inement	-11770
▁intrig	-11771
▁battery	-11772
▁resolve	-11773
_!	-11774
▁{"	-11775
▁170	-11776
▁tar	-11777
▁Cass	-11778
▁Prop	-11779
▁flav	-11780
▁ruff	-11781
▁soot	-11782
▁wolf	-11783
olated	-11784
▁Guard	-11785
▁abuse	-11786
▁didst	-11787
▁fitting	-11788
▁shallow	-11789
▁talents	-11790
▁printing	-11791
▁discourse	-11792
▁regularly	-11793
Dr	-11794
ANG	-11795
ISE	-11796
▁je	-11797
▁orch	-11798
adding	-11799
▁(2001)	-11800
backward	-11801
▁bargain	-11802
▁stirring	-11803
▁Log	-11804
▁tom	-11805
▁Circ	-11806
▁beer	-11807
▁pupil	-11808
▁enlight	-11809
▁punished	-11810
▁invariably	-11811
▁polynomial	-11812
▁unnecessary	-11813
_(	-11814
hard	-11815
wall	-11816
ersed	-11817
▁Tele	-11818
▁dine	-11819
custom	-11820
▁Ocean	-11821
▁bonds	-11822
▁crest	-11823
▁facing	-11824
▁glowing	-11825
▁accurate	-11826
▁Charlotte	-11827
HEN	-11828
▁Dy	-11829
▁pd	-11830
Thou	-11831
itia	-11832
▁pole	-11833
▁Marian	-11834
ordinates	-11835
▁behavior	-11836
▁identity	-11837
▁marching	-11838
▁candidate	-11839
Old	-11840
oure	-11841
1,000	-11842
▁prayed	-11843
▁guarded	-11844
dataclass	-11845
▁lordship	-11846
▁footsteps	-11847
▁relationship	-11848
"])	-11849
Only	-11850
▁(1)	-11851
▁hol	-11852
attrs	-11853
▁gran	-11854
▁Barry	-11855
pattern	-11856
▁Valley	-11857
▁embark	-11858
▁prices	-11859
▁fortress	-11860
▁shouting	-11861
▁identical	-11862
▁landscape	-11863
cd	-11864
xf	-11865
Ham	-11866
cies	-11867
OTHER	-11868
▁Free	-11869
▁pear	-11870
isting	-11871
▁shine	-11872
▁spoil	-11873
▁battles	-11874
ede	-11875
oni	-11876
!...	-11877
made	-11878
▁Bapt	-11879
▁Publ	-11880
▁beef	-11881
▁buck	-11882
linalg	-11883
▁advise	-11884
▁logger	-11885
▁suited	-11886
▁wishing	-11887
▁warriors	-11888
▁extremity	-11889
▁sustained	-11890
PO	-11891
azar	-11892
osis	-11893
▁Brad	-11894
▁lawn	-11895
▁1919.	-11896
▁judged	-11897
▁privileges	-11898
▁temptation	-11899
▁endeavoured	-11900
ULL	-11901
▁cyl	-11902
▁ordin	-11903
▁faults	-11904
▁needle	-11905
filename	-11906
▁crimson	-11907
▁economy	-11908
Hen	-11909
▁ay	-11910
istle	-11911
▁nerve	-11912
▁rocky	-11913
▁receipt	-11914
▁relieve	-11915
▁curiously	-11916
▁phenomena	-11917
▁treasures	-11918
▁marvellous	-11919
▁subsequently	-11920
scope	-11921
ultan	-11922
▁stub	-11923
export	-11924
ouched	-11925
▁Creek	-11926
▁faced	-11927
▁usage	-11928
▁Nether	-11929
▁flushed	-11930
▁shudder	-11931
▁victims	-11932
Reg	-11933
_].	-11934
0,0,	-11935
brew	-11936
icke	-11937
ilus	-11938
▁Eug	-11939
▁Fal	-11940
▁Glo	-11941
▁Edin	-11942
▁Fire	-11943
▁Pitt	-11944
▁trop	-11945
ometer	-11946
▁Brook	-11947
minster	-11948
▁Barbar	-11949
▁Chester	-11950
▁deserved	-11951
▁forbidden	-11952
▁prejudice	-11953
lesiastical	-11954
uen	-11955
▁".	-11956
▁dy	-11957
store	-11958
▁Morgan	-11959
▁boiled	-11960
▁preach	-11961
▁eminent	-11962
▁fortnight	-11963
▁representatives	-11964
31	-11965
ja	-11966
ptr	-11967
▁15.	-11968
lfare	-11969
chance	-11970
ilight	-11971
making	-11972
▁Square	-11973
▁button	-11974
▁danced	-11975
abilities	-11976
umberland	-11977
▁practised	-11978
▁RuntimeError	-11979
[2	-11980
24,	-11981
▁1/	-11982
iastic	-11983
fashion	-11984
▁secretly	-11985
▁corrected	-11986
▁rebellion	-11987
▁au	-11988
argo	-11989
▁Cant	-11990
▁tons	-11991
▁Nurse	-11992
▁spared	-11993
▁logging	-11994
▁multipl	-11995
▁session	-11996
▁rejected	-11997
▁searching	-11998
otic	-11999
————	-12000
▁Dry	-12001
▁Pil	-12002
inety	-12003
▁lazy	-12004
▁Press	-12005
▁bloom	-12006
▁penny	-12007
▁assign	-12008
▁Orleans	-12009
▁acquire	-12010
▁chimney	-12011
▁receives	-12012
▁missionary	-12013
▁contemporary	-12014
23,	-12015
ulties	-12016
▁besee	-12017
▁witch	-12018
validate	-12019
▁borrowed	-12020
▁offensive	-12021
▁positively	-12022
▁threatening	-12023
sur	-12024
▁QUE	-12025
▁[2]	-12026
▁tack	-12027
▁chronic	-12028
▁crowned	-12029
shot	-12030
▁Dra	-12031
▁hire	-12032
▁vall	-12033
▁backs	-12034
▁piano	-12035
▁plague	-12036
ustrious	-12037
▁conference	-12038
500	-12039
imo	-12040
vial	-12041
antom	-12042
▁herd	-12043
alling	-12044
compon	-12045
▁items	-12046
▁ardent	-12047
▁decomp	-12048
▁pockets	-12049
▁awakened	-12050
▁memories	-12051
▁uncommon	-12052
▁violently	-12053
▁OL	-12054
ripp	-12055
▁Too	-12056
▁fanc	-12057
▁Early	-12058
▁blush	-12059
▁liken	-12060
▁spots	-12061
▁Warner	-12062
▁purity	-12063
ceptible	-12064
▁greeted	-12065
▁outline	-12066
▁sinking	-12067
▁tremble	-12068
▁vicinity	-12069
▁withdrew	-12070
Lo	-12071
suff	-12072
▁Lay	-12073
▁Ted	-12074
▁vag	-12075
▁quot	-12076
▁1921.	-12077
▁dealt	-12078
▁uneas	-12079
▁Chance	-12080
▁allied	-12081
▁Persian	-12082
▁Exchange	-12083
▁sensitive	-12084
▁respective	-12085
▁theatrical	-12086
▁consumption	-12087
Sec	-12088
Size	-12089
save	-12090
▁Lyd	-12091
▁Ross	-12092
vector	-12093
▁Based	-12094
▁brows	-12095
▁stored	-12096
channels	-12097
▁lowered	-12098
▁illustrated	-12099
got	-12100
idd	-12101
orum	-12102
▁(2)	-12103
▁0.5	-12104
▁[12	-12105
▁bars	-12106
▁Metro	-12107
ciences	-12108
▁Public	-12109
▁crisis	-12110
▁Capulet	-12111
▁traitor	-12112
▁diameter	-12113
▁remembrance	-12114
▁illustration	-12115
▁MAT	-12116
▁ink	-12117
umble	-12118
▁dazz	-12119
▁Elect	-12120
▁sends	-12121
▁advers	-12122
▁horrid	-12123
▁quaint	-12124
▁Marquis	-12125
▁players	-12126
Exception	-12127
▁partition	-12128
▁relatives	-12129
XX	-12130
▁fab	-12131
ecess	-12132
times	-12133
▁XIII	-12134
▁lads	-12135
holder	-12136
▁1938.	-12137
▁partner	-12138
▁stately	-12139
▁Soundies	-12140
▁declined	-12141
▁documents	-12142
▁officials	-12143
▁professor	-12144
Bar	-12145
▁Mut	-12146
▁jail	-12147
▁Geoff	-12148
▁balls	-12149
▁blown	-12150
▁poore	-12151
▁shops	-12152
manager	-12153
▁strikes	-12154
▁tribute	-12155
▁countrymen	-12156
▁declaration	-12157
iva	-12158
tok	-12159
▁56	-12160
▁Doc	-12161
▁Joy	-12162
ademy	-12163
▁Gods	-12164
▁Simon	-12165
collect	-12166
▁agents	-12167
▁awhile	-12168
▁wasted	-12169
▁twisted	-12170
▁construct	-12171
Em	-12172
wed	-12173
page	-12174
▁Bou	-12175
▁jer	-12176
▁cash	-12177
▁team	-12178
PS	-12179
uced	-12180
▁STE	-12181
▁Bear	-12182
▁Sing	-12183
▁bias	-12184
▁bowl	-12185
▁limb	-12186
urable	-12187
compute	-12188
▁damned	-12189
▁Commons	-12190
▁breadth	-12191
▁treason	-12192
*.	-12193
OTH	-12194
verb	-12195
▁MAD	-12196
▁rab	-12197
neath	-12198
scipy	-12199
▁Hans	-12200
▁Thor	-12201
▁Wolf	-12202
▁adjo	-12203
▁mines	-12204
▁Anthony	-12205
▁blowing	-12206
▁Campbell	-12207
▁dismissed	-12208
▁exercised	-12209
▁incapable	-12210
▁meanwhile	-12211
▁superintend	-12212
▁conventional	-12213
OUND	-12214
Phil	-12215
gith	-12216
mund	-12217
▁eth	-12218
▁Grey	-12219
▁disd	-12220
▁async	-12221
▁canal	-12222
▁dares	-12223
▁marsh	-12224
▁carpet	-12225
▁caution	-12226
▁dropping	-12227
▁proposal	-12228
▁solitude	-12229
▁Edinburgh	-12230
▁hesitation	-12231
▁thoughtful	-12232
[1:	-12233
▁MY	-12234
View	-12235
▁181	-12236
raise	-12237
▁pint	-12238
metric	-12239
▁1918.	-12240
▁Later	-12241
▁Stone	-12242
▁deput	-12243
▁tools	-12244
actions	-12245
▁controvers	-12246
COL	-12247
OPER	-12248
anna	-12249
must	-12250
▁"__	-12251
▁Gro	-12252
▁Soph	-12253
▁beam	-12254
▁awoke	-12255
▁Russians	-12256
▁accuracy	-12257
▁proceeds	-12258
▁resolute	-12259
▁stations	-12260
vec	-12261
ulent	-12262
▁CONT	-12263
▁Star	-12264
▁Apost	-12265
▁Friday	-12266
▁towers	-12267
▁Roberts	-12268
▁briefly	-12269
▁welfare	-12270
numerable	-12271
▁unwilling	-12272
▁transferred	-12273
via	-12274
▁300	-12275
▁Beh	-12276
▁Sem	-12277
▁tha	-12278
Group	-12279
joice	-12280
▁Hood	-12281
▁bows	-12282
▁tang	-12283
romise	-12284
▁dates	-12285
landers	-12286
▁affirm	-12287
▁allies	-12288
▁minimum	-12289
▁morality	-12290
▁consented	-12291
▁attributed	-12292
?_	-12293
Ins	-12294
ODU	-12295
ORS	-12296
cio	-12297
err	-12298
▁Av	-12299
quin	-12300
▁din	-12301
▁1920.	-12302
▁FRIAR	-12303
▁Laura	-12304
▁canst	-12305
▁evils	-12306
▁games	-12307
▁cursed	-12308
▁decent	-12309
▁hearth	-12310
▁shaken	-12311
▁shrewd	-12312
▁static	-12313
aneously	-12314
▁gutenberg	-12315
▁successive	-12316
▁54	-12317
[0])	-12318
▁``'	-12319
▁Five	-12320
▁Mult	-12321
▁chill	-12322
▁explo	-12323
▁squee	-12324
▁impuls	-12325
Location	-12326
▁commend	-12327
▁serpent	-12328
▁Remember	-12329
▁asserted	-12330
▁meetings	-12331
▁sickness	-12332
”;	-12333
Dat	-12334
ban	-12335
fro	-12336
▁Cf	-12337
onne	-12338
▁Ara	-12339
fname	-12340
filter	-12341
▁1924.	-12342
▁drown	-12343
▁casting	-12344
▁includes	-12345
▁relating	-12346
▁estimated	-12347
▁willingly	-12348
▁beautifully	-12349
.'"	-12350
pad	-12351
▁58	-12352
uddy	-12353
▁Bour	-12354
▁mand	-12355
▁fails	-12356
▁moder	-12357
▁pepper	-12358
▁clothed	-12359
▁implied	-12360
▁Thursday	-12361
▁Catherine	-12362
▁influences	-12363
han	-12364
zip	-12365
oons	-12366
▁18,	-12367
▁Dal	-12368
▁fut	-12369
ATHER	-12370
ernon	-12371
▁bulk	-12372
▁cert	-12373
▁pulp	-12374
remove	-12375
▁lunch	-12376
▁velvet	-12377
▁heathen	-12378
▁precaut	-12379
▁annotations	-12380
AVE	-12381
die	-12382
reme	-12383
▁rog	-12384
Lexer	-12385
arson	-12386
cible	-12387
▁Beat	-12388
▁abst	-12389
aparte	-12390
github	-12391
idable	-12392
orning	-12393
▁posts	-12394
▁transp	-12395
itations	-12396
▁Matthew	-12397
▁visiting	-12398
▁incidents	-12399
ao	-12400
none	-12401
▁Lis	-12402
forced	-12403
itious	-12404
▁Peggy	-12405
▁Swift	-12406
▁Table	-12407
▁Words	-12408
▁Marcus	-12409
▁Valent	-12410
▁beggar	-12411
▁fulfil	-12412
▁Natural	-12413
▁Philipp	-12414
▁amiable	-12415
▁speaker	-12416
▁rendering	-12417
▁sufferings	-12418
=1,	-12419
arks	-12420
iors	-12421
omon	-12422
▁bite	-12423
ustice	-12424
▁categ	-12425
cession	-12426
▁sermon	-12427
▁murderer	-12428
▁preaching	-12429
▁Archbishop	-12430
▁appreciate	-12431
▁recollection	-12432
say	-12433
▁6_	-12434
▁Aut	-12435
▁doe	-12436
▁mos	-12437
ollen	-12438
▁cake	-12439
bitious	-12440
▁longed	-12441
▁conform	-12442
▁addressing	-12443
▁environment	-12444
SK	-12445
aria	-12446
organ	-12447
▁Suff	-12448
00,000	-12449
▁analog	-12450
▁collar	-12451
▁murmur	-12452
encoding	-12453
▁Alexand	-12454
▁Highness	-12455
▁enclosed	-12456
▁regiments	-12457
▁mechanical	-12458
▁international	-12459
71	-12460
_?	-12461
"].	-12462
tit	-12463
lyss	-12464
▁rede	-12465
▁sums	-12466
▁stalk	-12467
▁hoping	-12468
▁barrier	-12469
▁devices	-12470
▁exclaim	-12471
▁rightly	-12472
▁philosoph	-12473
astes	-12474
works	-12475
▁Ange	-12476
▁LORD	-12477
▁belt	-12478
▁navy	-12479
▁1935.	-12480
▁crops	-12481
▁barren	-12482
▁holiday	-12483
▁sublime	-12484
▁dispatch	-12485
▁paragraph	-12486
ni	-12487
Rec	-12488
hash	-12489
▁rod	-12490
▁Nile	-12491
Matrix	-12492
wright	-12493
▁Above	-12494
▁dilig	-12495
▁greed	-12496
itimate	-12497
section	-12498
▁orange	-12499
▁parser	-12500
▁clasped	-12501
▁critics	-12502
▁disorder	-12503
ONS	-12504
▁XL	-12505
▁Ple	-12506
essie	-12507
inous	-12508
▁surm	-12509
▁tore	-12510
▁Color	-12511
▁lists	-12512
▁waved	-12513
▁carved	-12514
▁trades	-12515
▁estates	-12516
▁disguise	-12517
▁ornaments	-12518
▁possesses	-12519
classmethod	-12520
▁excellence	-12521
vm	-12522
ORM	-12523
gra	-12524
▁"\	-12525
▁''	-12526
▁Od	-12527
high	-12528
▁Ram	-12529
▁[1,	-12530
▁haw	-12531
union	-12532
▁Scar	-12533
arious	-12534
spring	-12535
▁1933.	-12536
▁Ellen	-12537
▁swore	-12538
▁vehic	-12539
▁sprung	-12540
▁perpetual	-12541
▁possessions	-12542
▁interpretation	-12543
ANE	-12544
ials	-12545
seed	-12546
▁25,	-12547
▁Moor	-12548
▁bury	-12549
London	-12550
▁Blake	-12551
▁Friar	-12552
▁Offic	-12553
▁mirth	-12554
▁orche	-12555
▁patch	-12556
▁tooth	-12557
▁uneasy	-12558
▁Comment	-12559
▁coloured	-12560
▁Hun	-12561
▁PER	-12562
▁tho	-12563
ippers	-12564
▁Creat	-12565
▁spake	-12566
handler	-12567
▁bestow	-12568
▁doubted	-12569
▁lecture	-12570
▁mansion	-12571
▁supports	-12572
▁apprehend	-12573
▁obviously	-12574
▁discharged	-12575
▁suspicious	-12576
▁investigation	-12577
.:	-12578
WH	-12579
[[	-12580
ito	-12581
▁53	-12582
balt	-12583
orce	-12584
▁Nov	-12585
▁Flet	-12586
dtypes	-12587
▁Edgar	-12588
▁Lower	-12589
▁porch	-12590
▁damage	-12591
▁dishes	-12592
▁hearty	-12593
▁robbed	-12594
▁reaches	-12595
▁solemnly	-12596
▁observing	-12597
▁essentially	-12598
▁apprehension	-12599
RED	-12600
pres	-12601
uits	-12602
▁(2,	-12603
arers	-12604
icker	-12605
▁Cart	-12606
▁Gent	-12607
▁SERV	-12608
▁Horse	-12609
imental	-12610
▁Gospel	-12611
▁oldest	-12612
interest	-12613
▁tongues	-12614
▁telegraph	-12615
him	-12616
uint	-12617
▁Vin	-12618
▁Song	-12619
▁enqu	-12620
inkled	-12621
▁Broad	-12622
▁solic	-12623
▁deceive	-12624
▁hideous	-12625
▁torrent	-12626
▁preached	-12627
▁university	-12628
0-	-12629
URN	-12630
Expr	-12631
cile	-12632
etta	-12633
fied	-12634
show	-12635
▁17,	-12636
▁bef	-12637
▁fib	-12638
since	-12639
aphone	-12640
▁Moore	-12641
▁breed	-12642
▁comic	-12643
▁globe	-12644
▁intol	-12645
▁Judith	-12646
▁corpse	-12647
▁Russell	-12648
▁insects	-12649
▁Farewell	-12650
▁languages	-12651
#,	-12652
qa	-12653
cross	-12654
▁bees	-12655
▁Heart	-12656
▁crazy	-12657
▁hears	-12658
▁sizes	-12659
Element	-12660
▁reveal	-12661
▁throws	-12662
▁diamond	-12663
dp	-12664
bfloat	-12665
global	-12666
▁1923.	-12667
▁hasty	-12668
▁jewel	-12669
entieth	-12670
▁ladder	-12671
▁proves	-12672
▁rebels	-12673
▁CHARLES	-12674
▁bending	-12675
▁concert	-12676
▁sergeant	-12677
▁trenches	-12678
▁submitted	-12679
▁characteristics	-12680
OCK	-12681
uart	-12682
numer	-12683
▁Aven	-12684
▁Away	-12685
▁Ford	-12686
▁Moon	-12687
▁jury	-12688
▁ratt	-12689
▁Brand	-12690
▁Texas	-12691
▁doctr	-12692
ouncing	-12693
▁welcom	-12694
▁circles	-12695
▁drunken	-12696
▁tempted	-12697
27;	-12698
sort	-12699
icles	-12700
riers	-12701
▁Gene	-12702
▁perse	-12703
itional	-12704
wrapper	-12705
▁allows	-12706
▁Antonio	-12707
▁cabinet	-12708
▁lifting	-12709
▁removal	-12710
▁warrior	-12711
▁Cromwell	-12712
▁childish	-12713
▁curtains	-12714
▁peasants	-12715
▁symptoms	-12716
▁exclusive	-12717
xis	-12718
▁Id	-12719
MENTS	-12720
verend	-12721
▁Betty	-12722
▁Irving	-12723
▁monstr	-12724
▁enjoying	-12725
▁festival	-12726
▁procured	-12727
▁generated	-12728
▁obligation	-12729
rng	-12730
unts	-12731
▁22,	-12732
▁plt	-12733
rooms	-12734
▁juice	-12735
▁assass	-12736
▁riches	-12737
▁fatigue	-12738
▁appearing	-12739
////////////////	-12740
ea	-12741
aze	-12742
▁ps	-12743
▁TIM	-12744
▁exile	-12745
▁logic	-12746
▁tents	-12747
▁loyalty	-12748
▁nowhere	-12749
▁Williams	-12750
▁unworthy	-12751
▁cathedral	-12752
▁formidable	-12753
▁innumerable	-12754
26;	-12755
ANY	-12756
acre	-12757
draw	-12758
unes	-12759
▁Tow	-12760
▁[10	-12761
▁cul	-12762
isive	-12763
▁Gran	-12764
▁1922.	-12765
▁1939.	-12766
▁adequ	-12767
because	-12768
▁banquet	-12769
▁inconven	-12770
▁inserted	-12771
▁dignified	-12772
▁eloquence	-12773
09	-12774
hov	-12775
▁59	-12776
heard	-12777
should	-12778
▁amidst	-12779
▁meadow	-12780
munition	-12781
▁manhood	-12782
▁systems	-12783
▁likeness	-12784
▁potatoes	-12785
▁twilight	-12786
▁destination	-12787
▁impressions	-12788
▁transformed	-12789
-4	-12790
[2]	-12791
ati	-12792
heads	-12793
▁DUKE	-12794
▁pilot	-12795
▁quote	-12796
=-=-=-=-	-12797
▁torment	-12798
▁deserves	-12799
▁reasoning	-12800
▁successors	-12801
▁travellers	-12802
▁Mademoiselle	-12803
én	-12804
oli	-12805
▁unb	-12806
VOLIO	-12807
extra	-12808
▁Keep	-12809
▁joys	-12810
Symbol	-12811
▁deriv	-12812
▁exult	-12813
▁faded	-12814
▁sauce	-12815
▁courte	-12816
▁justify	-12817
▁valleys	-12818
▁whither	-12819
▁rejoined	-12820
▁Certainly	-12821
▁inclination	-12822
▁Sup	-12823
▁Syl	-12824
chair	-12825
cerity	-12826
▁poetic	-12827
▁proofs	-12828
▁Further	-12829
▁analysis	-12830
▁predecess	-12831
▁spectators	-12832
OUG	-12833
▁fox	-12834
▁sep	-12835
every	-12836
dinand	-12837
partial	-12838
▁pillow	-12839
▁revenue	-12840
▁typical	-12841
fashioned	-12842
▁engineer	-12843
OVE	-12844
odd	-12845
▁NO	-12846
▁168	-12847
▁Bus	-12848
▁Mas	-12849
aside	-12850
stron	-12851
▁Dean	-12852
▁moss	-12853
▁chast	-12854
▁layer	-12855
▁benevol	-12856
▁strongest	-12857
▁contributed	-12858
cow	-12859
isen	-12860
rise	-12861
▁20.	-12862
▁Bow	-12863
▁jaw	-12864
Every	-12865
▁pomp	-12866
▁repr	-12867
▁surf	-12868
String	-12869
▁blend	-12870
▁locks	-12871
▁Comedy	-12872
▁Naples	-12873
▁termed	-12874
overload	-12875
▁antagon	-12876
▁imposed	-12877
▁achieved	-12878
▁sentences	-12879
▁traditions	-12880
(1)	-12881
76;	-12882
__.	-12883
▁57	-12884
▁gn	-12885
angs	-12886
umont	-12887
▁monk	-12888
wealth	-12889
▁prett	-12890
▁solve	-12891
▁export	-12892
▁pledge	-12893
▁Gilbert	-12894
Transform	-12895
▁Victoria	-12896
▁ammunition	-12897
▁undertaking	-12898
GAR	-12899
▁Kr	-12900
aude	-12901
▁Lab	-12902
▁via	-12903
▁Mayor	-12904
▁snake	-12905
content	-12906
▁banish	-12907
▁bodily	-12908
▁corrid	-12909
▁refresh	-12910
▁challenge	-12911
▁intentions	-12912
CA	-12913
RAW	-12914
mus	-12915
TYPE	-12916
neys	-12917
▁Age	-12918
▁qui	-12919
Check	-12920
▁FOOT	-12921
▁mustn	-12922
▁ninety	-12923
▁Command	-12924
▁awfully	-12925
▁elevated	-12926
▁occurrence	-12927
-1]	-12928
atics	-12929
▁cows	-12930
▁nour	-12931
▁gleam	-12932
▁shift	-12933
missing	-12934
▁shepherd	-12935
▁seventeen	-12936
▁bitterness	-12937
▁complained	-12938
▁proportions	-12939
Off	-12940
▁cf	-12941
Oper	-12942
▁165	-12943
▁Bah	-12944
▁Bri	-12945
▁Hug	-12946
round	-12947
▁rash	-12948
▁soap	-12949
script	-12950
▁Davis	-12951
▁skies	-12952
▁resort	-12953
▁virgin	-12954
▁honesty	-12955
namespace	-12956
▁obtaining	-12957
▁revelation	-12958
▁Association	-12959
▁superiority	-12960
0:	-12961
ti	-12962
17;	-12963
voc	-12964
▁lane	-12965
▁robe	-12966
▁thorn	-12967
uations	-12968
verbose	-12969
▁PRINCE	-12970
▁neighbouring	-12971
]],	-12972
▁[8	-12973
folk	-12974
CUTIO	-12975
These	-12976
▁OPER	-12977
before	-12978
▁Adams	-12979
▁alien	-12980
▁bunch	-12981
lowering	-12982
▁coeffic	-12983
▁faculty	-12984
functions	-12985
▁fundamental	-12986
AF	-12987
Obs	-12988
▁ol	-12989
▁PART	-12990
▁Sold	-12991
▁aten	-12992
▁hasn	-12993
▁sway	-12994
▁util	-12995
matical	-12996
▁bundle	-12997
▁suffix	-12998
▁sklearn	-12999
▁traffic	-13000
▁MERCUTIO	-13001
▁catching	-13002
▁eventually	-13003
elf	-13004
▁IM	-13005
skin	-13006
Table	-13007
▁Tree	-13008
▁duly	-13009
interp	-13010
▁mamma	-13011
▁Children	-13012
▁trifling	-13013
▁exchanged	-13014
"\	-13015
-19	-13016
▁ER	-13017
oren	-13018
▁174	-13019
▁Dur	-13020
venth	-13021
▁Balt	-13022
▁cars	-13023
▁upset	-13024
▁awaken	-13025
▁script	-13026
---+---+	-13027
▁appoint	-13028
▁Geoffrey	-13029
▁hesitate	-13030
▁applicable	-13031
**2*	-13032
cols	-13033
▁21,	-13034
▁lav	-13035
dense	-13036
▁Aust	-13037
▁Beth	-13038
▁wreat	-13039
▁prudent	-13040
▁equality	-13041
▁imitation	-13042
▁opportunities	-13043
Pe	-13044
oled	-13045
▁Mis	-13046
▁Sic	-13047
elled	-13048
obser	-13049
▁calam	-13050
▁canon	-13051
▁prair	-13052
ameless	-13053
▁Murray	-13054
▁Palmer	-13055
▁planet	-13056
argument	-13057
(\	-13058
late	-13059
▁Occ	-13060
gered	-13061
pence	-13062
▁clust	-13063
▁relate	-13064
▁leagues	-13065
▁oppress	-13066
▁Testament	-13067
▁ceremonies	-13068
▁personally	-13069
▁grandmother	-13070
▁respectively	-13071
HAM	-13072
▁110	-13073
▁17.	-13074
▁Dom	-13075
▁woo	-13076
aware	-13077
cular	-13078
ettle	-13079
▁diet	-13080
starts	-13081
udding	-13082
▁whale	-13083
▁wrest	-13084
▁Vienna	-13085
▁shouts	-13086
▁Canadian	-13087
▁banished	-13088
▁confront	-13089
▁hypothes	-13090
▁Frenchman	-13091
▁adjoining	-13092
▁ambitious	-13093
▁attachment	-13094
dam	-13095
cott	-13096
ctic	-13097
dale	-13098
▁Nic	-13099
▁SHE	-13100
▁aux	-13101
icism	-13102
▁Ever	-13103
▁ripe	-13104
atting	-13105
ructor	-13106
▁Lieut	-13107
▁curve	-13108
▁rebel	-13109
▁inquis	-13110
▁defense	-13111
▁exclude	-13112
▁subdued	-13113
▁varying	-13114
▁Gentlemen	-13115
▁disagreeable	-13116
--“	-13117
Nay	-13118
Que	-13119
pin	-13120
▁76	-13121
ften	-13122
yram	-13123
▁Alm	-13124
▁Ere	-13125
▁Hav	-13126
▁lhs	-13127
▁ted	-13128
ungle	-13129
▁Stock	-13130
▁Tower	-13131
factory	-13132
▁Hebrew	-13133
▁incess	-13134
▁margin	-13135
negative	-13136
▁pirates	-13137
▁guardian	-13138
▁protested	-13139
eno	-13140
acks	-13141
▁ray	-13142
aters	-13143
quent	-13144
suing	-13145
Config	-13146
▁Speak	-13147
▁horns	-13148
▁sheets	-13149
▁contrib	-13150
▁handled	-13151
▁remorse	-13152
▁polished	-13153
▁peculiarly	-13154
tz	-13155
14;	-13156
32,	-13157
jan	-13158
atio	-13159
past	-13160
▁maj	-13161
glyph	-13162
▁Maur	-13163
▁attr	-13164
▁capit	-13165
defined	-13166
▁Martha	-13167
▁sticks	-13168
▁tricks	-13169
▁gigantic	-13170
▁hospitality	-13171
▁deliberately	-13172
ASE	-13173
REG	-13174
Dear	-13175
lymp	-13176
said	-13177
green	-13178
▁Kirk	-13179
▁glim	-13180
▁Angel	-13181
▁mouse	-13182
Handler	-13183
▁apolog	-13184
▁cheese	-13185
▁destro	-13186
▁gossip	-13187
▁sports	-13188
▁sullen	-13189
▁essence	-13190
▁rejoice	-13191
▁suggests	-13192
▁expensive	-13193
▁resulting	-13194
▁glittering	-13195
▁supporting	-13196
ogg	-13197
▁Ga	-13198
cliff	-13199
▁Mild	-13200
▁1946.	-13201
▁Honor	-13202
▁brute	-13203
▁screw	-13204
essions	-13205
▁Golden	-13206
▁tyrant	-13207
▁Kingdom	-13208
▁deepest	-13209
▁helping	-13210
▁sorrows	-13211
▁thanked	-13212
▁valiant	-13213
▁studying	-13214
▁arbitrary	-13215
▁estimator	-13216
▁industrial	-13217
▁ecclesiastical	-13218
tim	-13219
ymph	-13220
▁164	-13221
▁Way	-13222
▁flut	-13223
▁scal	-13224
future	-13225
▁fraud	-13226
▁plead	-13227
▁Turkey	-13228
▁consul	-13229
▁compact	-13230
▁outrage	-13231
▁tyranny	-13232
▁latitude	-13233
▁Ferdinand	-13234
▁Vitaphone	-13235
▁frequency	-13236
▁sweetness	-13237
▁sympathetic	-13238
iæ	-13239
UTH	-13240
zie	-13241
rell	-13242
seud	-13243
▁Gib	-13244
▁Year	-13245
▁lamb	-13246
common	-13247
▁deleg	-13248
▁juris	-13249
▁brandy	-13250
▁Against	-13251
▁ceiling	-13252
▁disciples	-13253
▁injustice	-13254
▁exceptions	-13255
aug	-13256
fake	-13257
▁orth	-13258
▁vale	-13259
lysses	-13260
▁Films	-13261
▁Julia	-13262
▁stake	-13263
▁Indies	-13264
▁header	-13265
▁BENVOLIO	-13266
▁handling	-13267
▁resembling	-13268
▁52	-13269
▁PA	-13270
▁fog	-13271
tensors	-13272
▁irresist	-13273
Id	-13274
rin	-13275
▁EM	-13276
OUSE	-13277
RIST	-13278
▁Vic	-13279
▁bub	-13280
▁Truth	-13281
▁clasp	-13282
▁monks	-13283
▁phase	-13284
▁sheer	-13285
▁Social	-13286
▁chival	-13287
▁escort	-13288
▁stages	-13289
▁titles	-13290
▁scholar	-13291
▁admission	-13292
▁civilized	-13293
▁frightful	-13294
▁indicates	-13295
▁supposing	-13296
▁descending	-13297
fly	-13298
▁JE	-13299
▁Ni	-13300
Text	-13301
east	-13302
rown	-13303
found	-13304
itzer	-13305
arette	-13306
▁1932.	-13307
▁accus	-13308
istence	-13309
▁guided	-13310
▁tidings	-13311
▁everlast	-13312
▁terribly	-13313
▁fashionable	-13314
ERT	-13315
_,"	-13316
fire	-13317
plan	-13318
walk	-13319
▁1),	-13320
▁LIN	-13321
▁Isab	-13322
▁dash	-13323
▁pave	-13324
▁Fleet	-13325
▁Better	-13326
▁Gerald	-13327
▁savages	-13328
▁whistle	-13329
▁allowing	-13330
▁fulfilled	-13331
)\	-13332
App	-13333
]])	-13334
pipe	-13335
▁Sty	-13336
▁Upper	-13337
▁manly	-13338
▁Hector	-13339
▁Tybalt	-13340
atically	-13341
▁Charlie	-13342
▁cooking	-13343
▁doctors	-13344
▁partners	-13345
▁monstrous	-13346
▁readiness	-13347
▁spreading	-13348
)``	-13349
Hel	-13350
uba	-13351
▁TE	-13352
hire	-13353
▁Gab	-13354
▁ori	-13355
ainty	-13356
▁Cour	-13357
▁auto	-13358
header	-13359
upiter	-13360
▁forfe	-13361
▁arrows	-13362
▁pencil	-13363
▁Letters	-13364
▁sheriff	-13365
▁convince	-13366
▁elevation	-13367
▁faithfully	-13368
▁illustrious	-13369
▁encouragement	-13370
Sm	-13371
Two	-13372
nic	-13373
ube	-13374
▁turb	-13375
▁blade	-13376
▁Johnny	-13377
▁whites	-13378
▁honours	-13379
▁lodging	-13380
▁staying	-13381
▁consumed	-13382
▁apparatus	-13383
▁conversion	-13384
▁unfortunately	-13385
▁0],	-13386
▁DON	-13387
RENCE	-13388
archy	-13389
seven	-13390
▁Owen	-13391
▁clad	-13392
▁syll	-13393
▁stops	-13394
▁sunny	-13395
columns	-13396
▁gospel	-13397
▁offend	-13398
▁storage	-13399
▁winding	-13400
▁tomorrow	-13401
▁answering	-13402
inois	-13403
orney	-13404
▁...,	-13405
▁http	-13406
▁scra	-13407
Christ	-13408
▁Clara	-13409
▁Edith	-13410
▁Pathe	-13411
▁clung	-13412
▁scent	-13413
▁ragged	-13414
▁Federal	-13415
▁decline	-13416
▁package	-13417
▁splendour	-13418
13]	-13419
pie	-13420
pot	-13421
▁Ot	-13422
Rule	-13423
bird	-13424
▁23,	-13425
▁cha	-13426
▁rif	-13427
▁slay	-13428
domain	-13429
schema	-13430
▁thumb	-13431
▁breach	-13432
▁hanged	-13433
▁truths	-13434
▁network	-13435
▁presume	-13436
▁pulling	-13437
▁Military	-13438
▁animated	-13439
▁concerns	-13440
▁assertion	-13441
▁References	-13442
▁vegetables	-13443
16]	-13444
▁wi	-13445
gers	-13446
hole	-13447
loss	-13448
▁Cut	-13449
lings	-13450
▁noqa	-13451
▁Sarah	-13452
without	-13453
original	-13454
▁Senator	-13455
▁Scottish	-13456
▁corruption	-13457
▁surroundings	-13458
lam	-13459
IELD	-13460
oirs	-13461
▁30,	-13462
▁Vis	-13463
▁[14	-13464
▁Gren	-13465
▁exit	-13466
▁semi	-13467
Warning	-13468
▁Marion	-13469
▁Prussia	-13470
▁LAWRENCE	-13471
▁awaiting	-13472
▁chemical	-13473
▁embraced	-13474
▁complicated	-13475
lad	-13476
try	-13477
▁UP	-13478
▁omn	-13479
onian	-13480
ishers	-13481
▁brisk	-13482
▁barely	-13483
▁insign	-13484
▁touches	-13485
▁Otherwise	-13486
▁ingenious	-13487
▁successor	-13488
addy	-13489
yers	-13490
▁24,	-13491
inals	-13492
retty	-13493
▁goal	-13494
▁Ghost	-13495
urrence	-13496
▁totally	-13497
▁Kentucky	-13498
▁Robinson	-13499
transforms	-13500
▁ambassador	-13501
5*	-13502
17]	-13503
isse	-13504
▁Braz	-13505
itives	-13506
Tracker	-13507
mapping	-13508
pection	-13509
▁errand	-13510
▁headed	-13511
▁trials	-13512
ographer	-13513
▁seasons	-13514
▁wonders	-13515
▁preceded	-13516
COM	-13517
STR	-13518
▁bount	-13519
▁Winter	-13520
▁angles	-13521
▁excite	-13522
▁serial	-13523
▁serves	-13524
▁solely	-13525
▁diseases	-13526
▁filename	-13527
▁customary	-13528
▁faculties	-13529
▁descendants	-13530
▁appreciation	-13531
qn	-13532
UNT	-13533
cha	-13534
lhs	-13535
lov	-13536
▁Tu	-13537
hast	-13538
rend	-13539
▁Kar	-13540
▁PRE	-13541
▁jun	-13542
▁rehe	-13543
▁unqu	-13544
natured	-13545
storage	-13546
▁spaces	-13547
▁Variable	-13548
▁thankful	-13549
▁attraction	-13550
▁proclaimed	-13551
▁anticipated	-13552
▁substantial	-13553
}'	-13554
aned	-13555
▁tip	-13556
aning	-13557
urned	-13558
▁Ages	-13559
▁Board	-13560
▁infam	-13561
special	-13562
▁harder	-13563
▁revolt	-13564
▁unseen	-13565
▁Thompson	-13566
▁searched	-13567
▁apartments	-13568
▁references	-13569
▁inscription	-13570
8:	-13571
tem	-13572
asks	-13573
▁Hur	-13574
▁agg	-13575
▁halt	-13576
▁reli	-13577
▁cigar	-13578
▁rests	-13579
ordered	-13580
symbols	-13581
writing	-13582
▁amazed	-13583
▁magnet	-13584
▁waving	-13585
▁Journal	-13586
▁exhibit	-13587
▁primary	-13588
▁elephant	-13589
▁monastery	-13590
=0.	-13591
000.	-13592
▁16.	-13593
▁166	-13594
▁Cib	-13595
▁sket	-13596
Americ	-13597
▁Colon	-13598
▁sings	-13599
weights	-13600
▁Butler	-13601
▁decidedly	-13602
▁detective	-13603
▁efficient	-13604
▁impatience	-13605
nox	-13606
▁ID	-13607
▁Ru	-13608
▁il	-13609
ANCE	-13610
hill	-13611
iage	-13612
▁197	-13613
alian	-13614
human	-13615
▁Nell	-13616
▁vind	-13617
▁lemon	-13618
▁Ladies	-13619
▁adorned	-13620
▁awaited	-13621
▁outputs	-13622
▁refined	-13623
▁rounded	-13624
▁swallow	-13625
▁workmen	-13626
▁greeting	-13627
unctuation	-13628
—”	-13629
(0)	-13630
nel	-13631
bted	-13632
▁Aff	-13633
▁CBS	-13634
▁Esq	-13635
▁Sin	-13636
▁wol	-13637
▁Others	-13638
▁wildly	-13639
abstract	-13640
▁dislike	-13641
▁worldly	-13642
▁perished	-13643
._;	-13644
▁XVI	-13645
paths	-13646
raham	-13647
orical	-13648
▁beams	-13649
▁recru	-13650
stitute	-13651
▁expans	-13652
▁shower	-13653
▁phrases	-13654
▁defended	-13655
▁contrived	-13656
▁governing	-13657
▁complexion	-13658
▁productions	-13659
ika	-13660
lde	-13661
bias	-13662
lace	-13663
writ	-13664
▁Bot	-13665
▁Clo	-13666
▁cav	-13667
allas	-13668
▁caps	-13669
▁Jenny	-13670
▁Lydia	-13671
▁casual	-13672
~~~~~~~~	-13673
▁grasped	-13674
▁surgeon	-13675
▁tempest	-13676
▁diamonds	-13677
▁uncomfort	-13678
▁consolation	-13679
▁communicated	-13680
ths	-13681
gent	-13682
▁19,	-13683
asses	-13684
erton	-13685
rable	-13686
▁dirt	-13687
▁decre	-13688
▁repet	-13689
▁trous	-13690
▁wider	-13691
▁Beyond	-13692
▁Edison	-13693
▁harbor	-13694
▁metaph	-13695
▁bishops	-13696
▁crosses	-13697
▁penalty	-13698
Certainly	-13699
▁Portugal	-13700
▁believes	-13701
▁desirous	-13702
▁observer	-13703
▁hurriedly	-13704
▁vegetable	-13705
▁attempting	-13706
▁Westminster	-13707
▁enthusiastic	-13708
OWN	-13709
nor	-13710
acht	-13711
▁Nev	-13712
▁Tar	-13713
▁elbow	-13714
▁parse	-13715
▁ruled	-13716
angular	-13717
▁cordial	-13718
▁matches	-13719
▁sadness	-13720
▁dreaming	-13721
▁proclaim	-13722
▁checkpoint	-13723
▁ultimately	-13724
staticmethod	-13725
pg	-13726
IRD	-13727
Rep	-13728
▁LO	-13729
clip	-13730
▁Ley	-13731
▁Wol	-13732
▁YOU	-13733
▁parl	-13734
aggage	-13735
▁HENRY	-13736
▁lamps	-13737
▁tries	-13738
Returns	-13739
▁devote	-13740
▁status	-13741
▁faintly	-13742
▁selling	-13743
▁defiance	-13744
▁classical	-13745
▁respected	-13746
▁swallowed	-13747
▁Cos	-13748
▁Mot	-13749
▁leb	-13750
▁vot	-13751
liest	-13752
smith	-13753
these	-13754
ureau	-13755
▁feud	-13756
▁pump	-13757
events	-13758
▁meets	-13759
initial	-13760
isement	-13761
▁gasped	-13762
▁hoarse	-13763
▁warfare	-13764
▁generals	-13765
components	-13766
▁promising	-13767
▁eighteenth	-13768
29;	-13769
mid	-13770
▁SY	-13771
exec	-13772
sing	-13773
Greek	-13774
▁Fitz	-13775
▁acute	-13776
▁refres	-13777
▁formula	-13778
▁kindred	-13779
▁fragment	-13780
▁instruct	-13781
functional	-13782
▁inquiries	-13783
▁intensity	-13784
2-	-13785
FIFF	-13786
▁2.0	-13787
acted	-13788
▁fist	-13789
▁fret	-13790
▁kins	-13791
▁pope	-13792
▁sulph	-13793
perhaps	-13794
▁Moscow	-13795
▁dainty	-13796
▁lawful	-13797
▁melted	-13798
▁tossed	-13799
▁Ulysses	-13800
▁Probably	-13801
▁depended	-13802
▁bewildered	-13803
Lay	-13804
▁Ur	-13805
▁},	-13806
cers	-13807
link	-13808
▁Ath	-13809
▁Cru	-13810
▁Equ	-13811
▁Ken	-13812
▁git	-13813
▁Babyl	-13814
▁hedge	-13815
▁decree	-13816
▁mouths	-13817
▁endured	-13818
▁feeding	-13819
▁approval	-13820
▁Shakspeare	-13821
▁exclusively	-13822
bec	-13823
dog	-13824
adle	-13825
▁API	-13826
iolet	-13827
▁Harr	-13828
▁exal	-13829
▁meek	-13830
orship	-13831
▁aught	-13832
reading	-13833
▁promote	-13834
▁indebted	-13835
▁antiquity	-13836
▁attending	-13837
IDE	-13838
lan	-13839
Poor	-13840
▁28,	-13841
▁MUS	-13842
avens	-13843
encer	-13844
ogram	-13845
▁anti	-13846
▁sire	-13847
▁soup	-13848
ainted	-13849
▁Civil	-13850
▁Miller	-13851
▁accent	-13852
▁anyhow	-13853
▁excurs	-13854
▁Abraham	-13855
▁fertile	-13856
▁sanction	-13857
▁sections	-13858
▁decorated	-13859
▁æ	-13860
▁Ta	-13861
take	-13862
▁18.	-13863
▁Hud	-13864
▁rng	-13865
▁dims	-13866
ENERAL	-13867
giving	-13868
uesday	-13869
▁Larry	-13870
▁Theod	-13871
▁wears	-13872
▁Poland	-13873
▁issues	-13874
▁logical	-13875
▁machines	-13876
▁westward	-13877
▁Accordingly	-13878
Cle	-13879
TERS	-13880
safe	-13881
▁——,	-13882
▁Appl	-13883
▁Plan	-13884
nesday	-13885
▁Satan	-13886
▁grove	-13887
atterns	-13888
▁bother	-13889
▁wrapper	-13890
▁Fletcher	-13891
▁settlers	-13892
▁horseback	-13893
▁sincerity	-13894
4:	-13895
ickle	-13896
▁Until	-13897
▁Works	-13898
▁impet	-13899
▁Jupiter	-13900
▁alluded	-13901
▁favorable	-13902
▁financial	-13903
▁recognise	-13904
▁startling	-13905
▁struggled	-13906
▁subjected	-13907
▁cautiously	-13908
▁manifested	-13909
ré	-13910
Rem	-13911
eta	-13912
▁84,	-13913
▁gau	-13914
▁skins	-13915
inkling	-13916
nothing	-13917
▁joyous	-13918
▁foremost	-13919
▁overhead	-13920
▁Scripture	-13921
▁indispens	-13922
▁attendants	-13923
▁agriculture	-13924
MAR	-13925
jnp	-13926
▁120	-13927
alias	-13928
ublin	-13929
select	-13930
ulture	-13931
▁loath	-13932
▁monop	-13933
▁crowns	-13934
▁hammer	-13935
▁Himself	-13936
▁keyword	-13937
▁beauties	-13938
▁slaughter	-13939
▁discretion	-13940
▁indicating	-13941
▁influenced	-13942
▁triumphant	-13943
bas	-13944
zar	-13945
▁85	-13946
▁IR	-13947
mates	-13948
title	-13949
▁Past	-13950
castle	-13951
▁eagle	-13952
Goldwyn	-13953
▁echoed	-13954
▁worker	-13955
▁chariot	-13956
▁washing	-13957
▁consistent	-13958
▁contracted	-13959
▁succeeding	-13960
Was	-13961
bind	-13962
igan	-13963
▁$1.	-13964
gamma	-13965
somet	-13966
▁Kenn	-13967
▁gale	-13968
shapes	-13969
▁Olymp	-13970
▁ports	-13971
integer	-13972
▁bronze	-13973
▁dearly	-13974
▁recess	-13975
▁shades	-13976
variance	-13977
▁visions	-13978
▁Infantry	-13979
▁inherited	-13980
▁exhibition	-13981
▁horizontal	-13982
▁suspicions	-13983
▁Netherlands	-13984
▁limitations	-13985
▁headquarters	-13986
2}	-13987
td	-13988
15]	-13989
rod	-13990
▁68	-13991
love	-13992
orie	-13993
▁Hus	-13994
▁Rud	-13995
▁nigh	-13996
ifting	-13997
▁intox	-13998
▁reass	-13999
lements	-14000
▁Sidney	-14001
▁dtypes	-14002
▁approve	-14003
▁winning	-14004
▁declares	-14005
▁doctrines	-14006
▁principally	-14007
mic	-14008
▁dir	-14009
velope	-14010
▁Abbey	-14011
▁Eight	-14012
▁Kansas	-14013
▁Orange	-14014
coloured	-14015
▁beseech	-14016
▁dialect	-14017
▁foliage	-14018
▁steward	-14019
▁feminine	-14020
▁fidelity	-14021
▁consulted	-14022
▁instructed	-14023
▁occasioned	-14024
18]	-14025
OLL	-14026
fin	-14027
oys	-14028
▁ah	-14029
ello	-14030
▁Hum	-14031
▁Kid	-14032
▁MOR	-14033
▁Luke	-14034
▁Stri	-14035
▁hered	-14036
▁melod	-14037
▁sandy	-14038
▁armour	-14039
callback	-14040
▁stamped	-14041
▁Biograph	-14042
▁duration	-14043
▁treachery	-14044
▁deprecated	-14045
▁expressing	-14046
▁magistrate	-14047
ATT	-14048
▁KN	-14049
▁um	-14050
olve	-14051
unty	-14052
▁(15	-14053
▁169	-14054
▁ELE	-14055
▁Som	-14056
▁Wid	-14057
▁jar	-14058
plate	-14059
▁Poss	-14060
▁sect	-14061
▁Venet	-14062
▁Yanke	-14063
▁flows	-14064
plicate	-14065
▁debate	-14066
▁hermit	-14067
▁patent	-14068
▁combine	-14069
▁license	-14070
▁threads	-14071
▁Achilles	-14072
▁indirect	-14073
▁tenderly	-14074
▁Exception	-14075
ertionPoint	-14076
▁forgiveness	-14077
41	-14078
Mon	-14079
fts	-14080
Mode	-14081
▁tab	-14082
istol	-14083
obile	-14084
proxy	-14085
▁Bath	-14086
▁logs	-14087
ategor	-14088
estial	-14089
▁imagin	-14090
▁prelim	-14091
▁Academy	-14092
▁detailed	-14093
Te	-14094
Page	-14095
▁19.	-14096
itory	-14097
▁Navy	-14098
▁Tart	-14099
height	-14100
▁Clark	-14101
▁Pedro	-14102
▁coinc	-14103
▁stove	-14104
icating	-14105
▁Fortun	-14106
▁Saviour	-14107
▁baggage	-14108
▁happier	-14109
▁printer	-14110
▁Illinois	-14111
▁delicacy	-14112
▁ultimate	-14113
▁animation	-14114
▁inspection	-14115
▁constitutional	-14116
KO	-14117
."]	-14118
16',	-14119
hyth	-14120
Would	-14121
alend	-14122
▁ferv	-14123
▁floated	-14124
▁frankly	-14125
▁roughly	-14126
▁slumber	-14127
▁desolate	-14128
—_	-14129
▁Il	-14130
roke	-14131
unal	-14132
▁hired	-14133
▁panic	-14134
▁query	-14135
dynamic	-14136
rington	-14137
▁Mexican	-14138
▁pouring	-14139
▁misunder	-14140
▁attendant	-14141
InsertionPoint	-14142
32)	-14143
▁""	-14144
▁51	-14145
▁163	-14146
▁hats	-14147
▁pest	-14148
access	-14149
anning	-14150
haired	-14151
▁advis	-14152
▁dismay	-14153
▁madame	-14154
▁Frances	-14155
▁labours	-14156
▁praised	-14157
▁Paradise	-14158
▁governed	-14159
▁grandeur	-14160
▁reaction	-14161
▁blessings	-14162
▁eagerness	-14163
▁imaginary	-14164
▁suppressed	-14165
▁supernatural	-14166
▁superstition	-14167
▁transformation	-14168
-5	-14169
>`	-14170
Say	-14171
bot	-14172
Over	-14173
TAIN	-14174
files	-14175
▁Buff	-14176
▁Mann	-14177
▁PAGE	-14178
▁bred	-14179
▁fits	-14180
astype	-14181
padding	-14182
▁Territ	-14183
▁boards	-14184
▁insens	-14185
position	-14186
▁bridges	-14187
▁causing	-14188
▁convuls	-14189
▁illumin	-14190
▁ascended	-14191
▁invasion	-14192
▁examining	-14193
▁Constantin	-14194
▁cheerfully	-14195
vs	-14196
28;	-14197
ALE	-14198
agu	-14199
hot	-14200
▁Eu	-14201
gain	-14202
stop	-14203
▁Wit	-14204
single	-14205
▁Bless	-14206
▁taxes	-14207
▁malice	-14208
▁oppose	-14209
▁haughty	-14210
▁summons	-14211
▁theater	-14212
▁Austrian	-14213
▁carriages	-14214
▁dedicated	-14215
LIC	-14216
NER	-14217
▁yo	-14218
Coll	-14219
frac	-14220
▁MAS	-14221
Mayer	-14222
▁owed	-14223
▁recl	-14224
▁ster	-14225
▁urge	-14226
▁wrap	-14227
broken	-14228
▁1948.	-14229
parable	-14230
▁Forest	-14231
▁exting	-14232
▁tracks	-14233
▁Supreme	-14234
▁borders	-14235
▁highway	-14236
▁welcomed	-14237
▁clergyman	-14238
▁correctly	-14239
▁functools	-14240
▁mysteries	-14241
▁withdrawn	-14242
▁ascertained	-14243
ACT	-14244
Ste	-14245
Code	-14246
tion	-14247
▁BEL	-14248
▁Rue	-14249
▁eps	-14250
anked	-14251
▁Orig	-14252
ndered	-14253
unique	-14254
▁Phill	-14255
▁folds	-14256
▁pipes	-14257
▁disable	-14258
▁shorter	-14259
▁deposited	-14260
▁constituted	-14261
4*	-14262
BO	-14263
hl	-14264
▁EV	-14265
bott	-14266
ethe	-14267
mill	-14268
ulch	-14269
▁Pel	-14270
edged	-14271
elson	-14272
ifice	-14273
▁Pont	-14274
▁woke	-14275
gather	-14276
▁blaze	-14277
▁invite	-14278
▁Strange	-14279
▁candles	-14280
▁dreaded	-14281
▁modesty	-14282
▁allusion	-14283
▁arriving	-14284
▁isolated	-14285
▁OPERATION	-14286
▁partially	-14287
AttrBuilder	-14288
▁inheritance	-14289
▁agricultural	-14290
128	-14291
▁95	-14292
▁ib	-14293
aren	-14294
deal	-14295
iley	-14296
pole	-14297
▁hue	-14298
ordan	-14299
▁petty	-14300
▁Madrid	-14301
▁Solomon	-14302
unciation	-14303
▁detected	-14304
▁swinging	-14305
▁symbolic	-14306
▁excessive	-14307
▁offspring	-14308
▁constitute	-14309
▁resentment	-14310
El	-14311
SP	-14312
Car	-14313
mel	-14314
ulc	-14315
Iter	-14316
gets	-14317
▁Cad	-14318
▁liv	-14319
▁eyel	-14320
▁subt	-14321
▁Seven	-14322
▁remon	-14323
▁veter	-14324
itative	-14325
▁apples	-14326
▁impert	-14327
▁insert	-14328
▁agitated	-14329
▁callback	-14330
▁downward	-14331
▁allowance	-14332
▁==========	-14333
6)	-14334
Fr	-14335
apse	-14336
esse	-14337
sect	-14338
▁Ali	-14339
ONDON	-14340
▁Cott	-14341
▁NOTE	-14342
▁Phys	-14343
▁ramp	-14344
▁cargo	-14345
▁debts	-14346
▁seeks	-14347
▁stain	-14348
ropolis	-14349
▁Avenue	-14350
▁herald	-14351
▁Foreign	-14352
▁bravely	-14353
▁circuit	-14354
▁prevail	-14355
▁reckoned	-14356
▁substitute	-14357
64,	-14358
RES	-14359
▁[7	-14360
▁Mit	-14361
▁Soc	-14362
▁VOL	-14363
▁ath	-14364
Great	-14365
atern	-14366
rophe	-14367
▁void	-14368
▁Small	-14369
▁disreg	-14370
▁Regiment	-14371
▁fiercely	-14372
▁prolonged	-14373
▁undertaken	-14374
61	-14375
19]	-14376
sor	-14377
▁67	-14378
ignt	-14379
vate	-14380
▁Ent	-14381
▁Fol	-14382
▁Rou	-14383
▁xxx	-14384
gings	-14385
▁lect	-14386
▁pony	-14387
▁hangs	-14388
▁Almost	-14389
▁Contin	-14390
▁costly	-14391
contains	-14392
▁angrily	-14393
▁concrete	-14394
▁declaring	-14395
▁attendance	-14396
Dev	-14397
Fox	-14398
Str	-14399
cas	-14400
ete	-14401
Desc	-14402
ando	-14403
anse	-14404
GMENTS	-14405
ouring	-14406
rowing	-14407
Adaptor	-14408
ulously	-14409
▁Stuart	-14410
▁captive	-14411
▁delayed	-14412
▁negroes	-14413
▁Independ	-14414
▁generate	-14415
▁Gentleman	-14416
▁societies	-14417
▁describing	-14418
▁registered	-14419
▁illustrations	-14420
2.0	-14421
OTT	-14422
blem	-14423
utus	-14424
▁Cec	-14425
▁NaN	-14426
▁fir	-14427
▁STRAN	-14428
▁Carter	-14429
▁Person	-14430
▁copied	-14431
▁warmly	-14432
attering	-14433
children	-14434
▁Mohammed	-14435
▁sweeping	-14436
▁validate	-14437
)',	-14438
ruly	-14439
▁Self	-14440
▁anec	-14441
▁fake	-14442
▁gird	-14443
omical	-14444
▁arith	-14445
▁fluid	-14446
▁males	-14447
▁dresses	-14448
▁tedious	-14449
▁fugitive	-14450
▁honestly	-14451
▁pathetic	-14452
▁resemble	-14453
▁vertical	-14454
successors	-14455
91	-14456
ALD	-14457
ANS	-14458
sen	-14459
azed	-14460
▁Fen	-14461
▁JAX	-14462
utors	-14463
▁LIFE	-14464
▁oven	-14465
Object	-14466
▁Tommy	-14467
▁scrap	-14468
control	-14469
▁refers	-14470
sequence	-14471
▁proudly	-14472
▁editions	-14473
?—	-14474
MS	-14475
wik	-14476
▁Om	-14477
▁26,	-14478
▁bru	-14479
craft	-14480
great	-14481
quest	-14482
ribes	-14483
world	-14484
▁Marj	-14485
▁knot	-14486
▁tame	-14487
piring	-14488
velled	-14489
▁Crist	-14490
▁alert	-14491
▁lakes	-14492
▁talks	-14493
▁Dublin	-14494
▁covers	-14495
inductor	-14496
▁conserv	-14497
▁despised	-14498
▁severity	-14499
▁distances	-14500
▁alternative	-14501
▁commencement	-14502
▁imprisonment	-14503
)._	-14504
ENSE	-14505
odox	-14506
phan	-14507
poss	-14508
vard	-14509
yson	-14510
▁Die	-14511
▁Oil	-14512
exper	-14513
▁Lamb	-14514
▁Less	-14515
▁carn	-14516
outing	-14517
▁finer	-14518
diction	-14519
▁Squire	-14520
▁Symbol	-14521
▁arches	-14522
▁cellar	-14523
▁dagger	-14524
▁fiction	-14525
▁computed	-14526
▁theories	-14527
▁Battalion	-14528
▁null	-14529
blocks	-14530
except	-14531
preter	-14532
▁basin	-14533
▁Apollo	-14534
▁Holmes	-14535
▁glances	-14536
▁suffice	-14537
transpose	-14538
▁husbands	-14539
▁alongside	-14540
▁Constantinople	-14541
▁BU	-14542
▁MO	-14543
▁OS	-14544
▁lb	-14545
."--	-14546
chus	-14547
oust	-14548
▁21.	-14549
▁Dud	-14550
ITION	-14551
cheon	-14552
▁SIGN	-14553
▁clut	-14554
▁kick	-14555
▁verb	-14556
Parser	-14557
▁Easter	-14558
▁sealed	-14559
▁profits	-14560
▁repaired	-14561
▁youngest	-14562
▁Bonaparte	-14563
▁forthwith	-14564
}}	-14565
Mult	-14566
▁MAC	-14567
imore	-14568
maybe	-14569
obald	-14570
arange	-14571
iantly	-14572
▁1949.	-14573
▁Polit	-14574
▁funds	-14575
▁hints	-14576
▁illum	-14577
▁stare	-14578
▁despise	-14579
▁pushing	-14580
▁radiant	-14581
▁Anderson	-14582
▁Augustus	-14583
▁Philosop	-14584
▁prosperous	-14585
▁wonderfully	-14586
▁performances	-14587
Ay	-14588
._—	-14589
igo	-14590
▁27,	-14591
▁lev	-14592
▁rip	-14593
arming	-14594
entric	-14595
stable	-14596
▁Price	-14597
▁amend	-14598
▁lungs	-14599
▁Excell	-14600
▁thieves	-14601
▁decisive	-14602
▁wondrous	-14603
▁indignant	-14604
rett	-14605
riel	-14606
skip	-14607
▁Ban	-14608
▁TOM	-14609
[...,	-14610
angel	-14611
third	-14612
olitan	-14613
▁1941.	-14614
▁Chris	-14615
▁Hotel	-14616
▁adult	-14617
▁conve	-14618
▁Messrs	-14619
▁rubbed	-14620
▁valour	-14621
▁Baptist	-14622
▁disdain	-14623
estimator	-14624
▁Brothers	-14625
▁breeding	-14626
▁counting	-14627
▁mourning	-14628
▁Mountains	-14629
▁diminished	-14630
▁competition	-14631
▁considerations	-14632
▁(-	-14633
Comp	-14634
send	-14635
▁-1,	-14636
▁22.	-14637
▁23.	-14638
▁tiss	-14639
Father	-14640
ignant	-14641
▁scept	-14642
ampling	-14643
▁Harris	-14644
▁crowds	-14645
▁wanton	-14646
▁emancip	-14647
▁extends	-14648
▁resulted	-14649
▁differently	-14650
▁everlasting	-14651
Love	-14652
exit	-14653
imag	-14654
▁Non	-14655
▁mul	-14656
▁ops	-14657
▁wee	-14658
FAULT	-14659
stead	-14660
▁Happ	-14661
▁PHIL	-14662
▁cush	-14663
▁dusk	-14664
▁guid	-14665
▁shoe	-14666
▁suck	-14667
figure	-14668
urning	-14669
▁Diana	-14670
▁Maybe	-14671
▁fiend	-14672
▁maids	-14673
▁unite	-14674
veloped	-14675
▁Thanks	-14676
▁Project	-14677
itzerland	-14678
▁expanded	-14679
▁harmless	-14680
▁oppressed	-14681
▁technical	-14682
▁venerable	-14683
distributed	-14684
▁reflections	-14685
)_	-14686
fish	-14687
▁Kim	-14688
eting	-14689
▁sqrt	-14690
▁Front	-14691
▁adjac	-14692
▁Maggie	-14693
▁coffin	-14694
▁define	-14695
▁simult	-14696
▁exalted	-14697
▁hypothesis	-14698
pat	-14699
▁HT	-14700
▁HOR	-14701
parts	-14702
▁Find	-14703
▁Rebe	-14704
▁lays	-14705
INGTON	-14706
rified	-14707
▁Milan	-14708
▁penit	-14709
uminous	-14710
▁masked	-14711
ositions	-14712
▁Patrick	-14713
▁Suppose	-14714
▁comrade	-14715
▁convict	-14716
▁theatres	-14717
▁ArrayLike	-14718
▁equipment	-14719
▁falsehood	-14720
▁sparkling	-14721
▁stablehlo	-14722
▁legitimate	-14723
▁matplotlib	-14724
▁indispensable	-14725
81	-14726
Log	-14727
cpu	-14728
hman	-14729
Gener	-14730
▁Zeal	-14731
▁stab	-14732
system	-14733
▁Leave	-14734
▁compr	-14735
▁earned	-14736
▁morals	-14737
▁Mildred	-14738
▁affords	-14739
▁lighter	-14740
▁honoured	-14741
▁Constance	-14742
▁dissolved	-14743
▁inhabited	-14744
▁temperament	-14745
AE	-14746
Max	-14747
dri	-14748
chet	-14749
aders	-14750
icity	-14751
inton	-14752
▁256,	-14753
▁News	-14754
▁nuts	-14755
▁riot	-14756
Vector	-14757
integr	-14758
▁Carth	-14759
▁meals	-14760
▁sixth	-14761
▁votes	-14762
attened	-14763
ulative	-14764
▁Beauty	-14765
▁Nobody	-14766
▁tavern	-14767
▁blossoms	-14768
▁elections	-14769
▁submission	-14770
▁victorious	-14771
!)	-14772
"))	-14773
-16	-14774
lax	-14775
▁3:	-14776
__()	-14777
ania	-14778
buff	-14779
▁Conc	-14780
▁Meth	-14781
▁Near	-14782
▁Quar	-14783
▁glor	-14784
▁tank	-14785
itably	-14786
▁goose	-14787
▁trench	-14788
▁entries	-14789
▁lasting	-14790
stitution	-14791
▁disposal	-14792
▁gorgeous	-14793
▁objective	-14794
▁infinitely	-14795
▁communicate	-14796
▁sentimental	-14797
▁Sa	-14798
iton	-14799
▁ENG	-14800
▁Ile	-14801
▁PAT	-14802
▁Poll	-14803
▁rosy	-14804
▁Patty	-14805
▁autom	-14806
▁resid	-14807
▁robes	-14808
▁Follow	-14809
▁arises	-14810
▁cavern	-14811
▁repuls	-14812
▁shrine	-14813
▁Leonard	-14814
▁notions	-14815
▁pierced	-14816
▁climbing	-14817
▁squadron	-14818
▁cigarette	-14819
Give	-14820
cock	-14821
wixt	-14822
▁fuel	-14823
▁heel	-14824
▁stag	-14825
triton	-14826
▁baron	-14827
▁knelt	-14828
▁nomin	-14829
▁pamph	-14830
▁saith	-14831
------+	-14832
▁brutal	-14833
▁losses	-14834
SEGMENTS	-14835
▁ringing	-14836
▁Mountain	-14837
▁eloquent	-14838
▁matrices	-14839
▁remarkably	-14840
▁separately	-14841
▁suggestions	-14842
bred	-14843
star	-14844
▁Bod	-14845
▁WAL	-14846
▁Bene	-14847
▁Cock	-14848
▁Foot	-14849
▁Pompe	-14850
▁analy	-14851
▁disob	-14852
▁Silver	-14853
▁Warren	-14854
OpAdaptor	-14855
▁envelope	-14856
▁imported	-14857
▁secondary	-14858
▁Convention	-14859
▁Petersburg	-14860
▁generosity	-14861
▁Switzerland	-14862
FR	-14863
AIL	-14864
dest	-14865
▁Pow	-14866
▁Run	-14867
iller	-14868
maker	-14869
unity	-14870
bation	-14871
record	-14872
▁schem	-14873
▁weren	-14874
▁cooked	-14875
▁garment	-14876
▁revolver	-14877
▁intermediate	-14878
▁possibilities	-14879
fif	-14880
conv	-14881
ochs	-14882
roit	-14883
▁Els	-14884
borne	-14885
grown	-14886
udent	-14887
▁epit	-14888
▁grip	-14889
▁peep	-14890
▁shan	-14891
ilated	-14892
▁integ	-14893
▁tramp	-14894
thought	-14895
▁Empress	-14896
▁massive	-14897
▁adequate	-14898
▁bleeding	-14899
▁unnatural	-14900
▁utterance	-14901
ici	-14902
▁77	-14903
assy	-14904
give	-14905
lett	-14906
lier	-14907
repe	-14908
▁COR	-14909
▁Hear	-14910
▁mamm	-14911
errors	-14912
▁poles	-14913
▁Hudson	-14914
▁degrad	-14915
▁martyr	-14916
fortunes	-14917
▁authent	-14918
▁carpent	-14919
▁removing	-14920
▁popularity	-14921
▁philosophers	-14922
'``	-14923
anz	-14924
lee	-14925
phy	-14926
▁ty	-14927
esch	-14928
nine	-14929
cules	-14930
▁oars	-14931
female	-14932
▁anecd	-14933
▁piety	-14934
▁units	-14935
▁Sultan	-14936
▁gloves	-14937
▁scales	-14938
▁cluster	-14939
▁failing	-14940
▁whatsoever	-14941
▁controversy	-14942
13;	-14943
UND	-14944
VAL	-14945
bage	-14946
beth	-14947
▁mak	-14948
▁unl	-14949
istan	-14950
sympy	-14951
▁Clar	-14952
▁Virg	-14953
▁hood	-14954
second	-14955
▁Bohem	-14956
▁crash	-14957
▁dined	-14958
▁paces	-14959
▁slack	-14960
▁tract	-14961
▁Newman	-14962
▁counts	-14963
▁senate	-14964
▁haunted	-14965
▁inverse	-14966
▁pillars	-14967
▁drawings	-14968
▁staircase	-14969
▁impatiently	-14970
=0	-14971
'],	-14972
▁63	-14973
ivia	-14974
plus	-14975
▁128	-14976
▁24.	-14977
cloth	-14978
final	-14979
▁Fate	-14980
▁Sche	-14981
▁reci	-14982
▁sage	-14983
ATIONS	-14984
strong	-14985
tokens	-14986
▁(2001	-14987
▁besie	-14988
iations	-14989
inently	-14990
▁CHRIST	-14991
▁Edmund	-14992
▁lesser	-14993
▁squire	-14994
▁unkind	-14995
▁actress	-14996
▁enforce	-14997
▁enlarged	-14998
▁publicly	-14999
▁Wednesday	-15000
▁wholesome	-15001
Aut	-15002
dem	-15003
▁tx	-15004
drop	-15005
▁Joh	-15006
OUBLE	-15007
▁vein	-15008
leaves	-15009
▁Terry	-15010
▁fewer	-15011
▁weeds	-15012
▁Harold	-15013
▁Shorty	-15014
▁shrill	-15015
▁bursting	-15016
▁eternity	-15017
▁glancing	-15018
▁prudence	-15019
▁assistant	-15020
▁backwards	-15021
▁approaches	-15022
▁foreigners	-15023
▁preference	-15024
▁repeatedly	-15025
oga	-15026
tre	-15027
▁pi	-15028
atur	-15029
▁Lib	-15030
▁ale	-15031
hovah	-15032
▁Desc	-15033
▁foss	-15034
▁stew	-15035
unicip	-15036
▁tests	-15037
▁verte	-15038
anguage	-15039
▁Ernest	-15040
▁plough	-15041
▁Barbara	-15042
▁proverb	-15043
▁producer	-15044
iterranean	-15045
▁historian	-15046
LA	-15047
bf	-15048
25;	-15049
URY	-15050
oso	-15051
▁Mu	-15052
Dist	-15053
Param	-15054
groom	-15055
▁hash	-15056
▁chunk	-15057
▁lodge	-15058
▁rites	-15059
▁Parker	-15060
▁Walker	-15061
▁hunter	-15062
▁porter	-15063
umptions	-15064
▁bidding	-15065
▁Columbus	-15066
▁delights	-15067
▁messages	-15068
▁obedient	-15069
▁strained	-15070
▁exclamation	-15071
▁2*	-15072
▁'\\	-15073
▁orb	-15074
ITTLE	-15075
solve	-15076
▁unac	-15077
looked	-15078
▁roast	-15079
▁wisely	-15080
reduction	-15081
▁spending	-15082
▁memorable	-15083
▁incredible	-15084
[5	-15085
Mer	-15086
]):	-15087
aga	-15088
pus	-15089
itiz	-15090
riend	-15091
▁Barb	-15092
▁bids	-15093
▁laun	-15094
▁lime	-15095
Please	-15096
History	-15097
▁LONDON	-15098
▁scound	-15099
▁Already	-15100
▁Spencer	-15101
▁Tuesday	-15102
▁praying	-15103
▁clearing	-15104
▁poetical	-15105
▁batteries	-15106
▁terrified	-15107
▁Englishmen	-15108
▁convenience	-15109
▁legislation	-15110
sa	-15111
.)_	-15112
32]	-15113
Ext	-15114
both	-15115
cycl	-15116
inqu	-15117
mons	-15118
▁167	-15119
▁500	-15120
▁mes	-15121
▁stu	-15122
polys	-15123
▁Benj	-15124
▁fath	-15125
ignore	-15126
▁creek	-15127
▁helps	-15128
▁ruler	-15129
▁sched	-15130
▁spont	-15131
▁veloc	-15132
roduction	-15133
▁objected	-15134
▁prophecy	-15135
▁retorted	-15136
▁sharding	-15137
▁persecution	-15138
LEX	-15139
▁Mun	-15140
enser	-15141
ishly	-15142
▁Dame	-15143
▁Glou	-15144
▁foam	-15145
▁1942.	-15146
▁scram	-15147
▁Sweden	-15148
▁burial	-15149
▁cliffs	-15150
▁hasten	-15151
▁rulers	-15152
▁Georgia	-15153
▁blanket	-15154
▁Consider	-15155
▁impressive	-15156
00*	-15157
Bel	-15158
IDS	-15159
opl	-15160
ori	-15161
rium	-15162
icket	-15163
ights	-15164
▁FIFF	-15165
▁cust	-15166
▁lass	-15167
helper	-15168
▁Treat	-15169
▁dismal	-15170
▁vanish	-15171
▁bottles	-15172
▁plunder	-15173
▁worried	-15174
sequently	-15175
▁rapidity	-15176
▁trousers	-15177
parameters	-15178
;—	-15179
cm	-15180
▁Et	-15181
agen	-15182
unit	-15183
."--_	-15184
▁Malt	-15185
▁Show	-15186
▁coco	-15187
▁cups	-15188
▁Henri	-15189
▁Radio	-15190
▁aided	-15191
▁devils	-15192
▁dreary	-15193
▁humbly	-15194
▁Rebecca	-15195
▁Science	-15196
▁noblest	-15197
▁compiled	-15198
▁ordering	-15199
▁unreason	-15200
▁sacrificed	-15201
idy	-15202
igm	-15203
▁FE	-15204
clear	-15205
ignty	-15206
ilies	-15207
▁Staff	-15208
▁cured	-15209
▁wrist	-15210
▁Behind	-15211
▁Legisl	-15212
▁Morris	-15213
▁barrel	-15214
▁pearls	-15215
▁tastes	-15216
▁vacant	-15217
▁FOOTNOT	-15218
▁horrors	-15219
▁weighed	-15220
▁sixteenth	-15221
▁stationed	-15222
▁imprisoned	-15223
▁phenomenon	-15224
▁Mediterranean	-15225
50.	-15226
usc	-15227
THER	-15228
inel	-15229
isle	-15230
▁Rio	-15231
upper	-15232
▁THOM	-15233
▁hoof	-15234
▁muff	-15235
▁prow	-15236
▁pupp	-15237
▁tool	-15238
▁Graph	-15239
▁creep	-15240
▁league	-15241
▁louder	-15242
▁factors	-15243
▁handler	-15244
▁located	-15245
▁refusal	-15246
▁advances	-15247
▁appealed	-15248
▁possessing	-15249
12]	-15250
awl	-15251
▁WE	-15252
yrus	-15253
▁```	-15254
▁arc	-15255
ragon	-15256
▁Dion	-15257
▁gild	-15258
▁maps	-15259
▁peer	-15260
illing	-15261
▁Basil	-15262
▁hydro	-15263
▁rates	-15264
REGIONS	-15265
▁Leslie	-15266
▁bigger	-15267
▁salary	-15268
variable	-15269
▁tightly	-15270
atibility	-15271
▁abolition	-15272
▁continual	-15273
▁reinforce	-15274
▁conclusions	-15275
_"	-15276
OPH	-15277
exc	-15278
buck	-15279
enum	-15280
▁Tal	-15281
▁dot	-15282
agged	-15283
outhe	-15284
▁Diff	-15285
▁herds	-15286
renched	-15287
▁ROBERT	-15288
▁muscle	-15289
▁urgent	-15290
▁confeder	-15291
▁deceased	-15292
▁exercises	-15293
▁fantastic	-15294
▁underlying	-15295
▁Punctuation	-15296
__,	-15297
ennis	-15298
▁beck	-15299
▁mule	-15300
▁rely	-15301
▁usur	-15302
▁laden	-15303
▁snuff	-15304
▁discom	-15305
▁hazard	-15306
▁indent	-15307
▁jungle	-15308
▁nought	-15309
▁energet	-15310
▁involunt	-15311
▁marrying	-15312
▁orchestra	-15313
▁underneath	-15314
▁Illustrated	-15315
ymn	-15316
▁66	-15317
avia	-15318
▁ONE	-15319
▁Ord	-15320
▁lbs	-15321
▁rap	-15322
assed	-15323
icide	-15324
rough	-15325
vered	-15326
▁deem	-15327
decomp	-15328
▁COUNT	-15329
▁Isaac	-15330
▁JAMES	-15331
▁Liver	-15332
▁QUEEN	-15333
▁humil	-15334
include	-15335
▁unanim	-15336
▁arising	-15337
▁relates	-15338
▁hurrying	-15339
▁requisite	-15340
▁boundaries	-15341
▁brightness	-15342
▁distressed	-15343
▁insignific	-15344
ENC	-15345
aro	-15346
▁ul	-15347
phys	-15348
rill	-15349
▁CUR	-15350
▁Daw	-15351
▁Eli	-15352
BLOCK	-15353
CHECK	-15354
asmuch	-15355
idious	-15356
▁pirate	-15357
▁waking	-15358
parallel	-15359
▁alleged	-15360
ategorical	-15361
▁repetition	-15362
.~	-15363
PY	-15364
▁62	-15365
▁Lim	-15366
▁POL	-15367
▁civ	-15368
ourge	-15369
▁Mind	-15370
▁cage	-15371
▁slew	-15372
depend	-15373
▁cakes	-15374
▁lined	-15375
▁paste	-15376
▁libert	-15377
▁rifles	-15378
▁slopes	-15379
▁crystal	-15380
▁emerged	-15381
▁neutral	-15382
▁flashing	-15383
[...]
