<pad>	0
<s>	0
</s>	0
<unk>	0
se	-0
in	-1
re	-2
▁t	-3
on	-4
▁a	-5
er	-6
or	-7
▁i	-8
en	-9
at	-10
▁#	-11
st	-12
de	-13
▁'	-14
▁=	-15
he	-16
sel	-17
self	-18
▁c	-19
le	-20
al	-21
▁0	-22
▁f	-23
me	-24
ar	-25
--	-26
▁re	-27
▁the	-28
it	-29
▁n	-30
ur	-31
▁o	-32
▁self	-33
""	-34
▁s	-35
▁p	-36
ing	-37
▁b	-38
ct	-39
ce	-40
ion	-41
▁L	-42
▁-	-43
▁e	-44
an	-45
▁in	-46
__	-47
):	-48
▁de	-49
▁if	-50
ot	-51
▁w	-52
ame	-53
▁is	-54
00	-55
ss	-56
co	-57
▁->	-58
tur	-59
▁m	-60
turn	-61
lo	-62
te	-63
ro	-64
ER	-65
▁def	-66
ue	-67
▁S	-68
▁an	-69
._	-70
IN	-71
mp	-72
un	-73
pe	-74
ent	-75
la	-76
▁return	-77
ad	-78
▁"	-79
▁C	-80
AL	-81
▁d	-82
ge	-83
ut	-84
▁_	-85
one	-86
()	-87
▁T	-88
▁'\	-89
▁to	-90
----	-91
ra	-92
ET	-93
ck	-94
li	-95
"""	-96
TER	-97
',	-98
▁N	-99
il	-100
th	-101
▁(	-102
ed	-103
AT	-104
▁st	-105
ETTER	-106
▁LETTER	-107
▁for	-108
ul	-109
IT	-110
pt	-111
ror	-112
▁th	-113
is	-114
▁A	-115
▁and	-116
▁of	-117
▁not	-118
▁"""	-119
▁ex	-120
od	-121
▁D	-122
val	-123
ch	-124
▁co	-125
ter	-126
ile	-127
name	-128
ri	-129
▁I	-130
▁be	-131
▁h	-132
▁None	-133
ATIN	-134
▁LATIN	-135
get	-136
ment	-137
##	-138
ve	-139
ate	-140
lin	-141
ort	-142
up	-143
ype	-144
xt	-145
as	-146
Er	-147
ke	-148
Error	-149
ver	-150
ect	-151
':	-152
lass	-153
value	-154
▁se	-155
bj	-156
ult	-157
code	-158
ath	-159
▁con	-160
ise	-161
▁W	-162
ith	-163
and	-164
ly	-165
es	-166
",	-167
▁F	-168
ap	-169
ab	-170
ON	-171
gs	-172
ation	-173
--------	-174
▁or	-175
ff	-176
==	-177
ALL	-178
cept	-179
ig	-180
end	-181
▁1	-182
▁as	-183
ction	-184
AP	-185
▁ra	-186
▁SM	-187
▁*	-188
▁SMALL	-189
')	-190
id	-191
▁R	-192
▁name	-193
▁me	-194
use	-195
▁raise	-196
ir	-197
('	-198
▁B	-199
rom	-200
IG	-201
▁CAP	-202
▁imp	-203
ITAL	-204
▁CAPITAL	-205
▁g	-206
ime	-207
iz	-208
▁E	-209
op	-210
▁+	-211
ule	-212
RA	-213
lse	-214
ack	-215
ase	-216
▁ar	-217
ode	-218
all	-219
▁__	-220
ic	-221
▁else	-222
bu	-223
▁P	-224
bject	-225
con	-226
art	-227
ite	-228
nt	-229
▁with	-230
LE	-231
ata	-232
set	-233
ring	-234
odule	-235
ry	-236
▁value	-237
▁wh	-238
ci	-239
um	-240
▁lo	-241
line	-242
IC	-243
▁by	-244
))	-245
▁class	-246
RE	-247
.__	-248
▁ne	-249
▁O	-250
>>	-251
ader	-252
key	-253
▁l	-254
ex	-255
sp	-256
ser	-257
▁==	-258
qu	-259
▁it	-260
▁U	-261
▁al	-262
▁M	-263
ance	-264
cod	-265
able	-266
▁that	-267
▁from	-268
▁except	-269
am	-270
ol	-271
▁import	-272
os	-273
text	-274
ma	-275
ITH	-276
int	-277
▁%	-278
▁so	-279
▁WITH	-280
("	-281
us	-282
el	-283
ow	-284
####	-285
mat	-286
read	-287
tr	-288
**	-289
▁The	-290
et	-291
ize	-292
rue	-293
▁use	-294
fo	-295
thod	-296
▁en	-297
list	-298
path	-299
__(	-300
▁[	-301
▁ma	-302
fi	-303
for	-304
ING	-305
▁object	-306
ted	-307
pre	-308
▁on	-309
args	-310
age	-311
▁ch	-312
")	-313
error	-314
▁H	-315
▁r	-316
▁file	-317
▁are	-318
OR	-319
so	-320
ist	-321
ub	-322
out	-323
app	-324
AR	-325
stance	-326
mple	-327
alse	-328
▁at	-329
None	-330
file	-331
▁do	-332
ument	-333
25	-334
ND	-335
▁V	-336
▁try	-337
▁<	-338
▁G	-339
ure	-340
ys	-341
che	-342
▁he	-343
▁di	-344
ault	-345
py	-346
type	-347
ta	-348
▁arg	-349
▁y	-350
per	-351
▁get	-352
▁this	-353
ther	-354
ca	-355
▁|	-356
▁pro	-357
tes	-358
▁un	-359
low	-360
coding	-361
▁code	-362
ind	-363
====	-364
sult	-365
to	-366
par	-367
▁fun	-368
▁{	-369
IL	-370
di	-371
ers	-372
put	-373
ill	-374
▁type	-375
rent	-376
ive	-377
ption	-378
ho	-379
HA	-380
ms	-381
▁pa	-382
▁par	-383
time	-384
ip	-385
Re	-386
red	-387
----------------	-388
dd	-389
cre	-390
tri	-391
act	-392
▁string	-393
▁can	-394
ext	-395
str	-396
),	-397
▁we	-398
init	-399
rite	-400
OU	-401
..	-402
pr	-403
cess	-404
▁len	-405
iter	-406
▁Th	-407
class	-408
▁other	-409
ES	-410
IS	-411
ord	-412
ream	-413
▁key	-414
ht	-415
cl	-416
▁set	-417
mal	-418
▁If	-419
und	-420
▁line	-421
ded	-422
col	-423
▁method	-424
▁>>	-425
ber	-426
ign	-427
▁path	-428
▁module	-429
ust	-430
pa	-431
add	-432
In	-433
;':	-434
data	-435
04	-436
01	-437
EN	-438
▁v	-439
attr	-440
sion	-441
append	-442
ty	-443
not	-444
lif	-445
ated	-446
▁spe	-447
▁data	-448
▁>>>	-449
ok	-450
▁2	-451
pro	-452
▁pre	-453
ION	-454
HT	-455
▁result	-456
mo	-457
▁os	-458
ress	-459
instance	-460
cs	-461
▁le	-462
▁elif	-463
▁list	-464
03	-465
ator	-466
[0	-467
lose	-468
."""	-469
▁--	-470
▁has	-471
ssage	-472
▁True	-473
ger	-474
▁pr	-475
tribu	-476
ED	-477
ary	-478
▁new	-479
▁time	-480
urce	-481
▁function	-482
ilen	-483
).	-484
UT	-485
▁str	-486
▁argument	-487
que	-488
fe	-489
▁will	-490
thon	-491
module	-492
uld	-493
alue	-494
wa	-495
ory	-496
eld	-497
IGHT	-498
-1	-499
sh	-500
IGN	-501
lock	-502
cal	-503
OL	-504
[0]	-505
▁False	-506
mm	-507
ble	-508
andl	-509
VE	-510
########	-511
cur	-512
▁BO	-513
▁k	-514
led	-515
est	-516
▁This	-517
ILL	-518
back	-519
ONT	-520
INGS	-521
lement	-522
size	-523
▁comp	-524
string	-525
▁isinstance	-526
▁add	-527
version	-528
▁call	-529
ave	-530
▁SIGN	-531
EF	-532
RAW	-533
der	-534
▁default	-535
▁BOX	-536
▁DRAW	-537
▁DRAWINGS	-538
ilename	-539
info	-540
uff	-541
tern	-542
▁sys	-543
uple	-544
▁num	-545
inal	-546
ore	-547
ou	-548
alueError	-549
unt	-550
ak	-551
▁`	-552
errors	-553
lib	-554
def	-555
spe	-556
ne	-557
ces	-558
▁char	-559
22	-560
write	-561
▁all	-562
ener	-563
▁sup	-564
len	-565
fix	-566
atch	-567
▁AND	-568
BLE	-569
ich	-570
ec	-571
lic	-572
ard	-573
rame	-574
▁In	-575
ition	-576
pla	-577
vent	-578
do	-579
ST	-580
YR	-581
():	-582
tra	-583
▁ValueError	-584
oto	-585
lines	-586
▁>	-587
format	-588
vi	-589
vel	-590
▁read	-591
bo	-592
▁Re	-593
ste	-594
ses	-595
own	-596
ild	-597
='	-598
ning	-599
QU	-600
pos	-601
by	-602
▁3	-603
▁x	-604
ILLIC	-605
YRILLIC	-606
▁CYRILLIC	-607
OT	-608
▁used	-609
cimal	-610
De	-611
▁@	-612
rap	-613
OUBLE	-614
dir	-615
ange	-616
▁sub	-617
▁DOUBLE	-618
▁pass	-619
tribute	-620
ield	-621
rect	-622
map	-623
****	-624
ven	-625
ception	-626
oth	-627
▁when	-628
coder	-629
▁context	-630
ken	-631
0,	-632
andler	-633
char	-634
ft	-635
ant	-636
▁la	-637
obj	-638
comp	-639
▁speci	-640
REE	-641
UL	-642
CK	-643
oin	-644
▁op	-645
ython	-646
arg	-647
▁int	-648
St	-649
valid	-650
ix	-651
▁which	-652
▁pos	-653
▁no	-654
▁end	-655
▁encoding	-656
port	-657
ask	-658
sg	-659
1,	-660
ay	-661
irst	-662
sed	-663
▁cont	-664
//	-665
lob	-666
DE	-667
sc	-668
▁out	-669
▁option	-670
arts	-671
hould	-672
']	-673
OW	-674
roup	-675
▁cal	-676
":	-677
▁De	-678
dict	-679
▁must	-680
Con	-681
▁any	-682
tain	-683
andle	-684
▁have	-685
cket	-686
▁but	-687
lags	-688
▁sh	-689
sert	-690
method	-691
ork	-692
▁format	-693
yn	-694
▁)	-695
▁:	-696
join	-697
po	-698
nd	-699
crement	-700
im	-701
call	-702
▁args	-703
▁us	-704
True	-705
▁cur	-706
fun	-707
64	-708
▁should	-709
▁exception	-710
False	-711
▁one	-712
▁---	-713
▁bytes	-714
qui	-715
close	-716
otocol	-717
85	-718
========	-719
ound	-720
▁!	-721
ity	-722
spa	-723
▁AC	-724
ght	-725
cremental	-726
ren	-727
])	-728
kw	-729
▁po	-730
1:	-731
ine	-732
▁Not	-733
▁!=	-734
▁instance	-735
▁header	-736
...	-737
▁**	-738
link	-739
reak	-740
▁may	-741
▁only	-742
lit	-743
▁K	-744
eno	-745
IGIT	-746
UM	-747
▁+=	-748
main	-749
encode	-750
dex	-751
▁number	-752
mb	-753
'):	-754
ENT	-755
place	-756
▁print	-757
▁message	-758
CE	-759
▁ap	-760
▁[]	-761
mmand	-762
default	-763
ameter	-764
ll	-765
quest	-766
▁bu	-767
IZ	-768
cont	-769
''	-770
▁DIGIT	-771
▁up	-772
▁msg	-773
ans	-774
().	-775
Return	-776
▁z	-777
Ex	-778
▁Python	-779
▁start	-780
ence	-781
▁base	-782
ally	-783
ations	-784
ies	-785
sub	-786
OM	-787
001	-788
nect	-789
['	-790
▁Type	-791
odec	-792
ls	-793
▁cre	-794
lobal	-795
object	-796
sent	-797
▁li	-798
004	-799
▁state	-800
ee	-801
cls	-802
▁you	-803
lat	-804
REEK	-805
▁col	-806
▁GREEK	-807
new	-808
gist	-809
▁RIGHT	-810
".	-811
ERT	-812
SE	-813
if	-814
▁ro	-815
uture	-816
EFT	-817
▁LEFT	-818
fd	-819
mit	-820
ffer	-821
word	-822
arning	-823
no	-824
form	-825
▁while	-826
from	-827
▁mode	-828
(_	-829
▁ac	-830
with	-831
UTE	-832
other	-833
ample	-834
▁text	-835
▁tuple	-836
005	-837
007	-838
▁first	-839
heck	-840
cond	-841
uct	-842
003	-843
url	-844
▁case	-845
header	-846
stri	-847
ost	-848
scri	-849
tle	-850
IR	-851
msg	-852
lineno	-853
iven	-854
LO	-855
date	-856
0'	-857
ARK	-858
▁0:	-859
lable	-860
▁fol	-861
2,	-862
▁j	-863
▁su	-864
bug	-865
▁St	-866
stat	-867
ved	-868
▁source	-869
ial	-870
▁log	-871
input	-872
buffer	-873
▁version	-874
context	-875
mpty	-876
res	-877
006	-878
ented	-879
om	-880
▁dis	-881
009	-882
IA	-883
000	-884
ree	-885
decode	-886
attern	-887
▁CONT	-888
ull	-889
▁charact	-890
fied	-891
item	-892
right	-893
▁"__	-894
▁exc	-895
its	-896
num	-897
ATION	-898
▁sy	-899
▁Z	-900
orted	-901
▁contain	-902
▁ite	-903
min	-904
8'	-905
quot	-906
unk	-907
spon	-908
'.	-909
AM	-910
▁break	-911
xF	-912
▁doc	-913
source	-914
▁direct	-915
▁tra	-916
▁codecs	-917
008	-918
ong	-919
002	-920
▁size	-921
▁test	-922
encoding	-923
base	-924
▁current	-925
▁inter	-926
gth	-927
pi	-928
ROL	-929
▁tar	-930
std	-931
[:	-932
ari	-933
filename	-934
CT	-935
▁For	-936
off	-937
▁TypeError	-938
level	-939
▁CONTROL	-940
▁does	-941
▁was	-942
check	-943
BIC	-944
RABIC	-945
xB	-946
ail	-947
▁ARABIC	-948
riter	-949
2'	-950
fore	-951
▁run	-952
xA	-953
ICAL	-954
wait	-955
▁node	-956
ESIS	-957
▁given	-958
tp	-959
cted	-960
▁thread	-961
cache	-962
PE	-963
▁max	-964
▁oper	-965
split	-966
▁ACUTE	-967
▁error	-968
space	-969
rol	-970
ssion	-971
▁stream	-972
],	-973
ml	-974
▁filename	-975
6'	-976
mport	-977
repr	-978
count	-979
7'	-980
▁Return	-981
mented	-982
▁exec	-983
▁ser	-984
())	-985
err	-986
▁ab	-987
▁VERT	-988
▁VERTICAL	-989
▁ca	-990
▁MARK	-991
2:	-992
▁...	-993
SC	-994
stem	-995
local	-996
▁J	-997
ped	-998
ctions	-999
################	-1000
US	-1001
▁iter	-1002
▁arguments	-1003
▁X	-1004
▁encode	-1005
▁Y	-1006
xD	-1007
rit	-1008
▁'.	-1009
▁errors	-1010
▁follow	-1011
1'	-1012
xC	-1013
▁over	-1014
idth	-1015
▁called	-1016
▁4	-1017
▁('	-1018
▁1,	-1019
Type	-1020
▁frame	-1021
start	-1022
ilt	-1023
▁input	-1024
MA	-1025
▁Decimal	-1026
ac	-1027
bytes	-1028
0:	-1029
▁then	-1030
255	-1031
▁values	-1032
859	-1033
▁parser	-1034
lp	-1035
8859	-1036
▁using	-1037
▁.	-1038
state	-1039
AD	-1040
▁tr	-1041
▁cls	-1042
move	-1043
▁sign	-1044
9'	-1045
▁final	-1046
ie	-1047
clu	-1048
▁IN	-1049
▁obj	-1050
▁check	-1051
▁stack	-1052
kwargs	-1053
4'	-1054
TP	-1055
▁Wh	-1056
▁allow	-1057
sign	-1058
arch	-1059
▁Ex	-1060
▁ent	-1061
▁match	-1062
gn	-1063
▁implement	-1064
fter	-1065
offset	-1066
ref	-1067
xE	-1068
parse	-1069
UR	-1070
si	-1071
ORIZ	-1072
▁whe	-1073
▁assert	-1074
log	-1075
mode	-1076
256	-1077
perty	-1078
ONTAL	-1079
ORIZONTAL	-1080
▁HORIZONTAL	-1081
.0	-1082
dent	-1083
pend	-1084
▁last	-1085
ined	-1086
ackage	-1087
be	-1088
▁{}	-1089
ID	-1090
3'	-1091
ten	-1092
ast	-1093
frame	-1094
▁off	-1095
las	-1096
fig	-1097
▁attribute	-1098
spec	-1099
doc	-1100
ync	-1101
db	-1102
ake	-1103
ous	-1104
open	-1105
▁part	-1106
mber	-1107
▁server	-1108
LA	-1109
sy	-1110
▁SE	-1111
prefix	-1112
▁QU	-1113
▁objects	-1114
node	-1115
urtle	-1116
▁next	-1117
rc	-1118
▁/	-1119
table	-1120
▁prefix	-1121
:'	-1122
5'	-1123
▁Un	-1124
nection	-1125
▁parameter	-1126
▁<=	-1127
▁'__	-1128
▁block	-1129
▁token	-1130
kip	-1131
test	-1132
▁more	-1133
ceback	-1134
codecs	-1135
sl	-1136
INE	-1137
▁non	-1138
▁also	-1139
▁than	-1140
En	-1141
▁close	-1142
xb	-1143
func	-1144
Codec	-1145
Stream	-1146
▁lines	-1147
3,	-1148
▁names	-1149
md	-1150
pected	-1151
quence	-1152
ute	-1153
IP	-1154
OP	-1155
▁field	-1156
__()	-1157
▁cor	-1158
▁LIGHT	-1159
INGLE	-1160
▁event	-1161
result	-1162
▁write	-1163
▁there	-1164
ight	-1165
inue	-1166
da	-1167
uth	-1168
group	-1169
▁SINGLE	-1170
="	-1171
▁its	-1172
(),	-1173
99	-1174
ach	-1175
▁UP	-1176
▁same	-1177
8,	-1178
Name	-1179
annot	-1180
names	-1181
ansp	-1182
vert	-1183
ear	-1184
Imple	-1185
▁dict	-1186
ag	-1187
CUM	-1188
option	-1189
▁local	-1190
ey	-1191
loat	-1192
▁exp	-1193
ultip	-1194
OS	-1195
lag	-1196
▁DIA	-1197
▁mod	-1198
ERESIS	-1199
▁DIAERESIS	-1200
flags	-1201
▁methods	-1202
ib	-1203
ns	-1204
exception	-1205
ld	-1206
ract	-1207
gh	-1208
row	-1209
▁decode	-1210
apping	-1211
8:	-1212
▁It	-1213
CTER	-1214
▁inte	-1215
4,	-1216
HARA	-1217
queue	-1218
HARACTER	-1219
02	-1220
cape	-1221
5,	-1222
6,	-1223
▁av	-1224
▁buff	-1225
control	-1226
********	-1227
Lo	-1228
▁gener	-1229
ep	-1230
▁OF	-1231
32	-1232
message	-1233
▁yield	-1234
exc	-1235
sys	-1236
▁open	-1237
▁global	-1238
IO	-1239
loop	-1240
replace	-1241
▁kw	-1242
▁socket	-1243
are	-1244
▁DE	-1245
work	-1246
LEX	-1247
▁support	-1248
max	-1249
▁CHARACTER	-1250
-1]	-1251
▁some	-1252
lasses	-1253
▁wa	-1254
param	-1255
▁types	-1256
ner	-1257
▁command	-1258
ature	-1259
Implemented	-1260
CUMF	-1261
HAVE	-1262
▁CIR	-1263
CUMFLEX	-1264
ansport	-1265
▁CIRCUMFLEX	-1266
items	-1267
▁process	-1268
▁man	-1269
ush	-1270
▁OS	-1271
4:	-1272
3:	-1273
OWN	-1274
▁into	-1275
ool	-1276
HE	-1277
gister	-1278
property	-1279
▁>=	-1280
6:	-1281
qual	-1282
▁offset	-1283
ttribute	-1284
▁protocol	-1285
'),	-1286
part	-1287
ible	-1288
▁getattr	-1289
▁ST	-1290
load	-1291
xa	-1292
7:	-1293
7,	-1294
UN	-1295
Reader	-1296
ek	-1297
Incremental	-1298
PA	-1299
win	-1300
.1	-1301
06	-1302
sep	-1303
▁back	-1304
select	-1305
[1	-1306
ended	-1307
▁vari	-1308
▁loop	-1309
▁hasattr	-1310
▁continue	-1311
we	-1312
ORM	-1313
cord	-1314
ormal	-1315
sponse	-1316
'))	-1317
ark	-1318
▁count	-1319
▁empty	-1320
▁NotImplemented	-1321
(1	-1322
process	-1323
Par	-1324
var	-1325
▁del	-1326
ternal	-1327
xf	-1328
▁pi	-1329
host	-1330
▁spec	-1331
xc	-1332
▁need	-1333
OD	-1334
our	-1335
match	-1336
9:	-1337
prec	-1338
ilter	-1339
9,	-1340
OF	-1341
oc	-1342
cle	-1343
iss	-1344
ARE	-1345
▁ass	-1346
wo	-1347
cor	-1348
index	-1349
▁address	-1350
address	-1351
21	-1352
creen	-1353
Context	-1354
du	-1355
dis	-1356
▁level	-1357
ain	-1358
struct	-1359
icode	-1360
▁request	-1361
xe	-1362
▁example	-1363
IM	-1364
debug	-1365
width	-1366
pression	-1367
▁Con	-1368
▁func	-1369
▁diff	-1370
((	-1371
-8	-1372
Handler	-1373
tributes	-1374
▁element	-1375
▁specified	-1376
5:	-1377
has	-1378
▁attr	-1379
script	-1380
▁returned	-1381
opt	-1382
token	-1383
▁item	-1384
▁err	-1385
▁found	-1386
▁per	-1387
python	-1388
▁exist	-1389
▁buffer	-1390
color	-1391
cale	-1392
types	-1393
iron	-1394
▁flags	-1395
KE	-1396
▁before	-1397
▁We	-1398
sock	-1399
\\	-1400
copy	-1401
▁timeout	-1402
find	-1403
▁OSError	-1404
sing	-1405
▁target	-1406
ONE	-1407
ager	-1408
mod	-1409
▁they	-1410
EX	-1411
▁'_	-1412
▁output	-1413
FC	-1414
exit	-1415
▁extra	-1416
▁handle	-1417
▁user	-1418
ported	-1419
▁parent	-1420
ready	-1421
timeout	-1422
▁0,	-1423
ative	-1424
▁range	-1425
ctionary	-1426
▁host	-1427
▁make	-1428
only	-1429
wise	-1430
viron	-1431
arnings	-1432
TH	-1433
okie	-1434
▁like	-1435
▁stat	-1436
▁group	-1437
of	-1438
tar	-1439
ized	-1440
mail	-1441
PI	-1442
ates	-1443
onth	-1444
▁See	-1445
tuple	-1446
ang	-1447
pace	-1448
xy	-1449
bit	-1450
▁Co	-1451
▁GRA	-1452
▁DOWN	-1453
thread	-1454
▁directory	-1455
derr	-1456
▁copy	-1457
reader	-1458
▁GRAVE	-1459
IF	-1460
cii	-1461
ero	-1462
▁provi	-1463
Co	-1464
ML	-1465
task	-1466
▁super	-1467
``	-1468
▁Key	-1469
Exception	-1470
wh	-1471
▁ht	-1472
▁5	-1473
__,	-1474
ting	-1475
feren	-1476
▁after	-1477
ancel	-1478
▁where	-1479
▁help	-1480
IX	-1481
patch	-1482
handle	-1483
File	-1484
sa	-1485
wrap	-1486
ution	-1487
▁returns	-1488
clude	-1489
strip	-1490
▁position	-1491
▁'''	-1492
▁repre	-1493
pop	-1494
run	-1495
▁res	-1496
▁url	-1497
▁here	-1498
▁min	-1499
imple	-1500
▁child	-1501
OTATION	-1502
ward	-1503
UP	-1504
▁quot	-1505
parser	-1506
ai	-1507
speci	-1508
Pro	-1509
com	-1510
▁An	-1511
ments	-1512
down	-1513
stead	-1514
Test	-1515
ttributeError	-1516
ding	-1517
▁dir	-1518
▁two	-1519
ither	-1520
▁\	-1521
andard	-1522
▁action	-1523
▁mo	-1524
ATOR	-1525
iltin	-1526
Writer	-1527
ots	-1528
utf	-1529
▁("	-1530
indow	-1531
lease	-1532
▁turtle	-1533
ody	-1534
starts	-1535
▁init	-1536
▁*,	-1537
▁work	-1538
▁``	-1539
Base	-1540
▁been	-1541
▁sequence	-1542
▁IS	-1543
utable	-1544
▁character	-1545
inter	-1546
▁orig	-1547
(*	-1548
"]	-1549
fa	-1550
▁TH	-1551
util	-1552
ating	-1553
▁right	-1554
▁QUOTATION	-1555
▁###	-1556
ds	-1557
ISO	-1558
ched	-1559
ingle	-1560
23	-1561
▁comple	-1562
exp	-1563
▁defined	-1564
als	-1565
▁ad	-1566
▁order	-1567
handler	-1568
▁RFC	-1569
cause	-1570
▁writ	-1571
Decoder	-1572
left	-1573
stract	-1574
xd	-1575
▁&	-1576
▁represent	-1577
mpt	-1578
20	-1579
▁create	-1580
▁characters	-1581
ell	-1582
▁parse	-1583
bel	-1584
▁opt	-1585
event	-1586
comple	-1587
▁codec	-1588
▁dictionary	-1589
▁true	-1590
▁keyword	-1591
▁FORM	-1592
SS	-1593
abc	-1594
ors	-1595
field	-1596
current	-1597
▁requi	-1598
Encoder	-1599
▁change	-1600
▁1)	-1601
▁integer	-1602
▁pattern	-1603
EG	-1604
loc	-1605
▁IP	-1606
mlink	-1607
▁instead	-1608
RO	-1609
mt	-1610
ascii	-1611
next	-1612
▁info	-1613
ha	-1614
▁variable	-1615
create	-1616
day	-1617
▁look	-1618
socket	-1619
▁content	-1620
10	-1621
igits	-1622
▁strings	-1623
raw	-1624
▁each	-1625
▁wrap	-1626
▁attributes	-1627
GE	-1628
▁length	-1629
curs	-1630
▁sock	-1631
▁'%	-1632
▁User	-1633
▁second	-1634
STR	-1635
▁AB	-1636
▁Note	-1637
▁single	-1638
ume	-1639
▁files	-1640
ax	-1641
ome	-1642
inary	-1643
actory	-1644
strict	-1645
================	-1646
INT	-1647
eader	-1648
stack	-1649
parent	-1650
startswith	-1651
▁Q	-1652
nown	-1653
compile	-1654
▁referen	-1655
▁task	-1656
▁namespace	-1657
ORT	-1658
__',	-1659
tag	-1660
▁http	-1661
▁pas	-1662
future	-1663
▁annot	-1664
▁section	-1665
yp	-1666
IAL	-1667
▁''	-1668
CKET	-1669
▁old	-1670
0)	-1671
["	-1672
ify	-1673
licy	-1674
▁poss	-1675
ailable	-1676
▁already	-1677
[-1]	-1678
▁diffe	-1679
▁my	-1680
stream	-1681
del	-1682
▁expression	-1683
CH	-1684
PO	-1685
▁following	-1686
old	-1687
▁SH	-1688
print	-1689
PACE	-1690
byte	-1691
▁skip	-1692
▁multip	-1693
▁handler	-1694
▁port	-1695
"):	-1696
▁'-	-1697
▁Ext	-1698
▁bet	-1699
CTION	-1700
VER	-1701
send	-1702
▁select	-1703
compress	-1704
▁finally	-1705
mportError	-1706
'\	-1707
LAG	-1708
ifi	-1709
▁""	-1710
hash	-1711
▁1:	-1712
▁HT	-1713
make	-1714
▁them	-1715
pattern	-1716
io	-1717
gra	-1718
exec	-1719
side	-1720
▁statement	-1721
tail	-1722
ility	-1723
Decimal	-1724
▁specif	-1725
▁AttributeError	-1726
AN	-1727
▁Ch	-1728
▁wo	-1729
block	-1730
▁When	-1731
▁byte	-1732
▁functions	-1733
▁8	-1734
the	-1735
uck	-1736
iso	-1737
__.	-1738
pack	-1739
global	-1740
▁passed	-1741
ose	-1742
▁ali	-1743
▁future	-1744
ily	-1745
case	-1746
▁BRA	-1747
▁package	-1748
NS	-1749
://	-1750
ics	-1751
LOCK	-1752
mock	-1753
lower	-1754
▁date	-1755
length	-1756
server	-1757
▁implementation	-1758
Un	-1759
▁lineno	-1760
Me	-1761
ULT	-1762
▁don	-1763
ODE	-1764
keys	-1765
▁full	-1766
▁sp	-1767
ways	-1768
▁raised	-1769
▁BRACKET	-1770
▁warnings	-1771
ray	-1772
sup	-1773
ical	-1774
register	-1775
cmd	-1776
▁MA	-1777
CENT	-1778
▁API	-1779
▁root	-1780
gest	-1781
otal	-1782
child	-1783
[1]	-1784
ging	-1785
▁act	-1786
▁std	-1787
stant	-1788
~~	-1789
src	-1790
ual	-1791
zip	-1792
FLAG	-1793
ckle	-1794
▁left	-1795
indent	-1796
indows	-1797
▁index	-1798
PAR	-1799
ful	-1800
ince	-1801
Di	-1802
ULL	-1803
__()"	-1804
▁without	-1805
HAN	-1806
erm	-1807
▁HE	-1808
▁go	-1809
▁sa	-1810
▁wait	-1811
▁chunk	-1812
▁cannot	-1813
buf	-1814
root	-1815
▁either	-1816
Not	-1817
box	-1818
ntax	-1819
lient	-1820
eneric	-1821
▁point	-1822
▁}	-1823
ced	-1824
addr	-1825
issing	-1826
uffix	-1827
like	-1828
▁find	-1829
▁thou	-1830
▁document	-1831
05	-1832
▁q	-1833
latform	-1834
86	-1835
TY	-1836
values	-1837
headers	-1838
"\	-1839
lem	-1840
▁raw	-1841
▁buf	-1842
▁top	-1843
▁parts	-1844
}'	-1845
ered	-1846
ular	-1847
ving	-1848
return	-1849
utdown	-1850
position	-1851
▁optional	-1852
ICE	-1853
member	-1854
▁float	-1855
▁items	-1856
▁OR	-1857
preter	-1858
▁separ	-1859
CR	-1860
fp	-1861
▁enum	-1862
charmap	-1863
▁kwargs	-1864
▁because	-1865
ucky	-1866
very	-1867
thing	-1868
▁classes	-1869
▁standard	-1870
ILDE	-1871
▁RE	-1872
▁Ducky	-1873
▁TILDE	-1874
ization	-1875
lections	-1876
▁connection	-1877
Info	-1878
▁named	-1879
FF	-1880
point	-1881
second	-1882
modules	-1883
protocol	-1884
▁stri	-1885
▁would	-1886
▁system	-1887
▁headers	-1888
▁Codec	-1889
Invalid	-1890
UTF	-1891
arn	-1892
oid	-1893
TION	-1894
▁app	-1895
▁com	-1896
▁ign	-1897
▁see	-1898
ufffe	-1899
Header	-1900
▁entry	-1901
argument	-1902
config	-1903
expected	-1904
import	-1905
formation	-1906
BRE	-1907
ugh	-1908
ches	-1909
mory	-1910
▁END	-1911
▁Stream	-1912
spect	-1913
▁mark	-1914
update	-1915
."	-1916
ew	-1917
parts	-1918
▁ident	-1919
▁response	-1920
LY	-1921
▁ONE	-1922
▁bound	-1923
▁fail	-1924
▁io	-1925
▁typ	-1926
▁indent	-1927
▁KeyError	-1928
▁available	-1929
AB	-1930
)):	-1931
8859-1	-1932
▁created	-1933
▁Extended	-1934
▁flag	-1935
▁member	-1936
▁IPv	-1937
scape	-1938
▁debug	-1939
NAM	-1940
stats	-1941
action	-1942
closed	-1943
▁under	-1944
rary	-1945
12	-1946
▁oc	-1947
▁DEV	-1948
▁stop	-1949
mmon	-1950
user	-1951
ically	-1952
iteral	-1953
stdout	-1954
▁always	-1955
▁charset	-1956
▁ExtendedContext	-1957
cri	-1958
pri	-1959
til	-1960
play	-1961
)]	-1962
Path	-1963
▁lock	-1964
▁these	-1965
▁cle	-1966
▁load	-1967
▁such	-1968
▁param	-1969
▁their	-1970
PARATOR	-1971
▁id	-1972
0000	-1973
sole	-1974
entry	-1975
▁both	-1976
▁SEPARATOR	-1977
▁ImportError	-1978
fc	-1979
wn	-1980
044	-1981
imp	-1982
utor	-1983
org	-1984
▁BLOCK	-1985
request	-1986
▁mapping	-1987
▁information	-1988
]:	-1989
▁',	-1990
▁'{	-1991
licit	-1992
unter	-1993
params	-1994
command	-1995
▁Returns	-1996
041	-1997
043	-1998
iled	-1999
onent	-2000
uto	-2001
▁DEVICE	-2002
29	-2003
MP	-2004
▁6	-2005
▁['	-2006
sure	-2007
verse	-2008
callback	-2009
▁10	-2010
trace	-2011
▁Option	-2012
ESS	-2013
MIN	-2014
emp	-2015
▁'<	-2016
▁word	-2017
▁valid	-2018
▁0)	-2019
remove	-2020
▁replace	-2021
can	-2022
pid	-2023
lush	-2024
andom	-2025
▁just	-2026
▁most	-2027
▁want	-2028
▁exten	-2029
▁overri	-2030
14	-2031
EL	-2032
▁val	-2033
▁doesn	-2034
symlink	-2035
Res	-2036
[1:	-2037
▁tag	-2038
pl	-2039
less	-2040
▁day	-2041
▁normal	-2042
▁special	-2043
orig	-2044
▁pla	-2045
stderr	-2046
strings	-2047
rg	-2048
▁AN	-2049
▁To	-2050
last	-2051
201	-2052
KEY	-2053
Class	-2054
gative	-2055
fer	-2056
Node	-2057
▁let	-2058
▁what	-2059
▁ignore	-2060
▁original	-2061
ps	-2062
"),	-2063
ALF	-2064
MOD	-2065
net	-2066
erver	-2067
wd	-2068
package	-2069
tz	-2070
now	-2071
zen	-2072
▁repr	-2073
OVE	-2074
▁ans	-2075
▁Base	-2076
andlers	-2077
ries	-2078
▁And	-2079
slots	-2080
escape	-2081
▁defaults	-2082
II	-2083
cp	-2084
ween	-2085
ision	-2086
ually	-2087
▁logger	-2088
('1	-2089
▁too	-2090
▁possible	-2091
▁parameters	-2092
pen	-2093
▁now	-2094
target	-2095
▁being	-2096
)))	-2097
rozen	-2098
▁async	-2099
▁until	-2100
>'	-2101
▁between	-2102
▁Exception	-2103
dic	-2104
▁Run	-2105
function	-2106
ru	-2107
EXT	-2108
▁fe	-2109
extra	-2110
▁HTTP	-2111
▁zero	-2112
2)	-2113
---	-2114
▁'/	-2115
ling	-2116
round	-2117
▁trans	-2118
api	-2119
▁-1	-2120
▁fa	-2121
▁LINE	-2122
▁limit	-2123
▁initial	-2124
▁options	-2125
pipe	-2126
▁eval	-2127
▁callable	-2128
▁otherwise	-2129
CL	-2130
oo	-2131
▁mat	-2132
Module	-2133
ORD	-2134
OUR	-2135
▁SQU	-2136
▁about	-2137
content	-2138
▁SQUARE	-2139
StreamReader	-2140
hook	-2141
▁newline	-2142
16	-2143
Th	-2144
vious	-2145
▁cons	-2146
▁exit	-2147
▁record	-2148
StreamWriter	-2149
▁Incremental	-2150
ice	-2151
▁dist	-2152
▁assign	-2153
▁traceback	-2154
▁7	-2155
For	-2156
____	-2157
▁send	-2158
33	-2159
clear	-2160
Set	-2161
ites	-2162
year	-2163
ifier	-2164
factory	-2165
quen	-2166
▁ssl	-2167
ffect	-2168
anager	-2169
▁ag	-2170
rough	-2171
▁await	-2172
▁struct	-2173
▁Unicode	-2174
▁incremental	-2175
▁CAR	-2176
__.__	-2177
trans	-2178
XX	-2179
reg	-2180
List	-2181
safe	-2182
attrs	-2183
cript	-2184
first	-2185
▁rest	-2186
▁config	-2187
IZE	-2188
ILLA	-2189
▁CED	-2190
▁ISO	-2191
ading	-2192
chars	-2193
▁opcode	-2194
precated	-2195
▁CEDILLA	-2196
SCII	-2197
ared	-2198
outine	-2199
traceback	-2200
▁En	-2201
inis	-2202
uted	-2203
▁HALF	-2204
number	-2205
ancelled	-2206
-9	-2207
SION	-2208
eded	-2209
limit	-2210
rocess	-2211
getitem	-2212
▁globals	-2213
([	-2214
ULE	-2215
yload	-2216
▁That	-2217
subclass	-2218
HAI	-2219
▁ke	-2220
▁descript	-2221
▁exceptions	-2222
ILE	-2223
The	-2224
▁fd	-2225
istory	-2226
▁cache	-2227
ication	-2228
WO	-2229
042	-2230
ART	-2231
ATE	-2232
IME	-2233
__)	-2234
ater	-2235
tent	-2236
▁email	-2237
▁fields	-2238
2]	-2239
abs	-2240
▁"%	-2241
full	-2242
cheme	-2243
▁THAI	-2244
▁keys	-2245
direct	-2246
▁queue	-2247
▁encodings	-2248
mbda	-2249
ctype	-2250
▁hash	-2251
▁link	-2252
▁THREE	-2253
▁provide	-2254
▁construct	-2255
Def	-2256
diff	-2257
▁form	-2258
▁ABOVE	-2259
▁calls	-2260
pending	-2261
section	-2262
▁digits	-2263
LI	-2264
rag	-2265
uid	-2266
term	-2267
used	-2268
lication	-2269
▁transport	-2270
"{	-2271
cy	-2272
long	-2273
reate	-2274
▁color	-2275
▁contains	-2276
()"	-2277
8',	-2278
her	-2279
ssl	-2280
aris	-2281
▁dest	-2282
▁long	-2283
ends	-2284
lect	-2285
warn	-2286
ustom	-2287
▁take	-2288
▁access	-2289
▁subclass	-2290
RI	-2291
cv	-2292
251	-2293
▁3.	-2294
▁arch	-2295
▁auth	-2296
▁pair	-2297
▁encoded	-2298
▁different	-2299
IVE	-2300
ols	-2301
gram	-2302
ware	-2303
alled	-2304
ws	-2305
mon	-2306
umm	-2307
▁qu	-2308
▁XML	-2309
float	-2310
MODULE	-2311
itespace	-2312
xml	-2313
▁pri	-2314
mbers	-2315
Parser	-2316
▁binary	-2317
▁descri	-2318
▁operation	-2319
(?	-2320
sig	-2321
▁As	-2322
ytes	-2323
empty	-2324
▁added	-2325
▁environ	-2326
2',	-2327
ars	-2328
▁fp	-2329
////	-2330
INED	-2331
iling	-2332
▁callback	-2333
THAN	-2334
aise	-2335
▁UND	-2336
itive	-2337
▁ACCENT	-2338
▁remove	-2339
▁expected	-2340
=1	-2341
RL	-2342
ank	-2343
▁Lo	-2344
▁TWO	-2345
▁done	-2346
▁your	-2347
▁through	-2348
0.	-2349
</	-2350
}")	-2351
)[0]	-2352
▁CUR	-2353
raise	-2354
EFINED	-2355
▁cookie	-2356
▁domain	-2357
Ch	-2358
▁how	-2359
ified	-2360
filter	-2361
▁compress	-2362
▁UNDEFINED	-2363
non	-2364
▁"\	-2365
AULT	-2366
cope	-2367
▁tri	-2368
▁since	-2369
ibility	-2370
▁escape	-2371
▁supported	-2372
OUND	-2373
ators	-2374
▁bool	-2375
gistry	-2376
quences	-2377
symlinks	-2378
)'	-2379
=_	-2380
EFAULT	-2381
winapi	-2382
▁present	-2383
lt	-2384
face	-2385
chunk	-2386
ileno	-2387
▁compat	-2388
▁Runtime	-2389
039	-2390
hed	-2391
▁0.	-2392
▁lib	-2393
respon	-2394
system	-2395
▁month	-2396
cursive	-2397
2.	-2398
hi	-2399
▁"'	-2400
temp	-2401
▁way	-2402
▁main	-2403
rgument	-2404
****************	-2405
)"	-2406
fork	-2407
----+	-2408
bound	-2409
builtin	-2410
environ	-2411
amp	-2412
itle	-2413
▁COM	-2414
-3	-2415
56	-2416
▁inv	-2417
▁closed	-2418
amily	-2419
array	-2420
invalid	-2421
parameter	-2422
11	-2423
NAME	-2424
QUAL	-2425
ccess	-2426
ery	-2427
inel	-2428
ived	-2429
lete	-2430
vars	-2431
▁'\\	-2432
▁table	-2433
rotocol	-2434
df	-2435
DIC	-2436
help	-2437
▁she	-2438
▁indic	-2439
charset	-2440
element	-2441
▁screen	-2442
BU	-2443
ERR	-2444
writer	-2445
Warning	-2446
▁suffix	-2447
▁provided	-2448
▁containing	-2449
PRE	-2450
-8',	-2451
▁Set	-2452
FLAGS	-2453
abstract	-2454
transport	-2455
{}	-2456
sort	-2457
output	-2458
▁filter	-2459
shutdown	-2460
SH	-2461
auth	-2462
ines	-2463
late	-2464
ulti	-2465
▁NOT	-2466
enter	-2467
special	-2468
Se	-2469
cio	-2470
▁AL	-2471
http	-2472
quival	-2473
convert	-2474
response	-2475
bc	-2476
▁pop	-2477
yncio	-2478
▁could	-2479
▁width	-2480
fileobj	-2481
▁reference	-2482
av	-2483
uri	-2484
).__	-2485
ools	-2486
month	-2487
▁iterable	-2488
('-	-2489
(0,	-2490
ient	-2491
vers	-2492
▁What	-2493
▁body	-2494
▁results	-2495
quivalent	-2496
▁tz	-2497
▁net	-2498
quote	-2499
stdin	-2500
▁temp	-2501
domain	-2502
ink	-2503
uch	-2504
icro	-2505
writ	-2506
▁even	-2507
Server	-2508
ection	-2509
▁modules	-2510
▁RuntimeError	-2511
__"	-2512
▁EX	-2513
done	-2514
Inter	-2515
▁were	-2516
curses	-2517
▁label	-2518
allback	-2519
▁whether	-2520
▁]	-2521
gin	-2522
pass	-2523
▁xml	-2524
tails	-2525
served	-2526
▁appro	-2527
▁evalu	-2528
classes	-2529
▁multiple	-2530
5',	-2531
=0,	-2532
IPT	-2533
ian	-2534
▁On	-2535
bers	-2536
▁uses	-2537
▁include	-2538
ape	-2539
pec	-2540
SIZE	-2541
izer	-2542
ueue	-2543
ident	-2544
▁within	-2545
▁invalid	-2546
▁real	-2547
▁total	-2548
▁Module	-2549
PC	-2550
ia	-2551
ATA	-2552
Add	-2553
lay	-2554
▁SHA	-2555
lative	-2556
▁another	-2557
▁inspect	-2558
ORE	-2559
pol	-2560
body	-2561
▁Par	-2562
▁low	-2563
▁year	-2564
search	-2565
▁There	-2566
▁means	-2567
▁events	-2568
▁signal	-2569
▁Example	-2570
▁interpreter	-2571
'{	-2572
/_	-2573
27	-2574
"))	-2575
rib	-2576
▁FE	-2577
0001	-2578
ATED	-2579
ions	-2580
lias	-2581
active	-2582
(1)	-2583
1',	-2584
9',	-2585
▁So	-2586
BREW	-2587
flag	-2588
encoder	-2589
▁HEBREW	-2590
▁allowed	-2591
SCR	-2592
div	-2593
ings	-2594
allow	-2595
reset	-2596
ublic	-2597
rowser	-2598
▁attrs	-2599
ww	-2600
top	-2601
▁ob	-2602
akref	-2603
anged	-2604
▁again	-2605
Message	-2606
▁convert	-2607
connection	-2608
classmethod	-2609
lap	-2610
nel	-2611
pth	-2612
}')	-2613
▁No	-2614
ists	-2615
▁map	-2616
finit	-2617
▁memory	-2618
▁pickle	-2619
▁instances	-2620
ping	-2621
gener	-2622
▁pipe	-2623
▁threading	-2624
abstractmethod	-2625
259	-2626
eek	-2627
igh	-2628
Iter	-2629
otst	-2630
▁cmd	-2631
String	-2632
otstrap	-2633
platform	-2634
▁required	-2635
kg	-2636
▁zip	-2637
().__	-2638
inder	-2639
▁equal	-2640
▁logging	-2641
▁release	-2642
namespace	-2643
▁variables	-2644
seq	-2645
▁-=	-2646
▁py	-2647
gers	-2648
seek	-2649
▁appe	-2650
▁letter	-2651
▁loader	-2652
▁elements	-2653
▁documentation	-2654
LED	-2655
▁EN	-2656
POINT	-2657
ribution	-2658
▁override	-2659
].	-2660
Doc	-2661
▁Me	-2662
Event	-2663
▁keep	-2664
▁built	-2665
▁locale	-2666
readline	-2667
▁dispatch	-2668
'''	-2669
258	-2670
DLE	-2671
LUS	-2672
▁reg	-2673
▁vis	-2674
▁util	-2675
loader	-2676
termin	-2677
▁round	-2678
decoder	-2679
html	-2680
▁File	-2681
▁needed	-2682
4',	-2683
AND	-2684
SET	-2685
idx	-2686
rest	-2687
▁DOT	-2688
▁LOW	-2689
Parse	-2690
▁mean	-2691
▁Other	-2692
▁SPACE	-2693
▁still	-2694
▁trace	-2695
▁builtin	-2696
Id	-2697
tb	-2698
opy	-2699
ron	-2700
▁"<	-2701
▁NO	-2702
enum	-2703
ities	-2704
▁addr	-2705
8859-1',	-2706
WS	-2707
HTTP	-2708
havi	-2709
▁3.1	-2710
▁ANG	-2711
▁ref	-2712
▁kind	-2713
dition	-2714
OME	-2715
igit	-2716
async	-2717
▁meta	-2718
arison	-2719
▁EQUAL	-2720
cc	-2721
ide	-2722
ump	-2723
Alias	-2724
label	-2725
ories	-2726
▁mock	-2727
▁avoid	-2728
▁client	-2729
▁correspon	-2730
▁SS	-2731
▁sm	-2732
▁EOF	-2733
▁SUP	-2734
decoding	-2735
▁archive	-2736
▁display	-2737
}:	-2738
3',	-2739
:'\	-2740
Get	-2741
alk	-2742
▁fut	-2743
▁executed	-2744
CD	-2745
come	-2746
▁mail	-2747
erator	-2748
▁quote	-2749
datetime	-2750
▁Windows	-2751
▁contents	-2752
▁extension	-2753
▁interface	-2754
▁collections	-2755
▁1.	-2756
▁UN	-2757
▁tb	-2758
bose	-2759
rive	-2760
uble	-2761
▁cla	-2762
uring	-2763
▁sent	-2764
spaces	-2765
▁ANGLE	-2766
▁CARON	-2767
▁sorted	-2768
POINTING	-2769
▁datetime	-2770
78	-2771
ITE	-2772
ret	-2773
▁da	-2774
OLON	-2775
fill	-2776
most	-2777
quire	-2778
▁remo	-2779
ctools	-2780
▁stdout	-2781
complete	-2782
▁descriptor	-2783
mi	-2784
ph	-2785
MIS	-2786
▁Do	-2787
stru	-2788
▁dat	-2789
▁loc	-2790
▁ter	-2791
▁resol	-2792
endswith	-2793
={	-2794
PORT	-2795
card	-2796
iler	-2797
▁Use	-2798
▁env	-2799
await	-2800
owner	-2801
globals	-2802
▁behavi	-2803
▁missing	-2804
0',	-2805
MAP	-2806
lied	-2807
▁SOL	-2808
▁ver	-2809
after	-2810
SCRIPT	-2811
extend	-2812
history	-2813
▁custom	-2814
▁running	-2815
▁equivalent	-2816
:]	-2817
PY	-2818
aN	-2819
.",	-2820
lim	-2821
Dict	-2822
over	-2823
▁Add	-2824
▁Doc	-2825
▁exact	-2826
▁split	-2827
yle	-2828
▁["	-2829
hand	-2830
▁our	-2831
flush	-2832
order	-2833
▁know	-2834
Result	-2835
finity	-2836
locale	-2837
▁proto	-2838
▁annotation	-2839
}"	-2840
.")	-2841
dot	-2842
AREN	-2843
cent	-2844
redu	-2845
okies	-2846
▁week	-2847
fileno	-2848
▁These	-2849
▁least	-2850
▁scope	-2851
raction	-2852
▁stderr	-2853
▁definit	-2854
▁explicit	-2855
▁resource	-2856
6',	-2857
ERC	-2858
THESIS	-2859
fields	-2860
screen	-2861
signal	-2862
▁common	-2863
▁calling	-2864
APE	-2865
MAX	-2866
URE	-2867
IDUS	-2868
ever	-2869
▁All	-2870
▁dst	-2871
ately	-2872
▁elem	-2873
▁CURLY	-2874
▁PAREN	-2875
cluding	-2876
▁syntax	-2877
▁SOLIDUS	-2878
▁register	-2879
annotation	-2880
▁PARENTHESIS	-2881
=[	-2882
YP	-2883
kf	-2884
▁()	-2885
▁):	-2886
mask	-2887
skip	-2888
stamp	-2889
▁those	-2890
▁Turtle	-2891
▁itself	-2892
▁Optional	-2893
▁sequences	-2894
.')	-2895
SON	-2896
see	-2897
▁<<	-2898
ateg	-2899
ects	-2900
▁'.'	-2901
▁TRA	-2902
▁https	-2903
▁tests	-2904
▁numbers	-2905
▁matching	-2906
Tr	-2907
7',	-2908
ift	-2909
▁Sy	-2910
▁ip	-2911
▁XXX	-2912
▁happ	-2913
seconds	-2914
▁reader	-2915
▁compatibility	-2916
CON	-2917
bin	-2918
unc	-2919
ason	-2920
gate	-2921
ather	-2922
▁FOUR	-2923
▁hand	-2924
▁once	-2925
▁show	-2926
▁decor	-2927
▁simple	-2928
+1	-2929
UB	-2930
cb	-2931
rt	-2932
fut	-2933
▁SSL	-2934
▁lar	-2935
erate	-2936
lying	-2937
▁occur	-2938
▁paths	-2939
▁accept	-2940
bootstrap	-2941
ote	-2942
▁Se	-2943
▁ho	-2944
▁ESC	-2945
▁abs	-2946
▁dot	-2947
range	-2948
▁directly	-2949
eq	-2950
▁u	-2951
foo	-2952
▁'',	-2953
mitted	-2954
▁strict	-2955
▁manager	-2956
CP	-2957
Le	-2958
})	-2959
(0)	-2960
ert	-2961
▁2:	-2962
TYPE	-2963
bove	-2964
omeo	-2965
▁got	-2966
minator	-2967
defaults	-2968
65	-2969
},	-2970
COM	-2971
ETH	-2972
IFT	-2973
adata	-2974
opcode	-2975
▁START	-2976
▁existing	-2977
ged	-2978
▁{'	-2979
INAL	-2980
fail	-2981
rupt	-2982
▁cap	-2983
▁spa	-2984
herit	-2985
tools	-2986
Format	-2987
▁Romeo	-2988
▁above	-2989
▁space	-2990
▁literal	-2991
▁constructor	-2992
}{	-2993
ACK	-2994
UID	-2995
▁2.	-2996
eric	-2997
stop	-2998
acter	-2999
rence	-3000
getattr	-3001
itional	-3002
▁lambda	-3003
"'	-3004
045	-3005
MIC	-3006
SSL	-3007
lean	-3008
vari	-3009
8859_	-3010
known	-3011
▁auto	-3012
reduce	-3013
Generic	-3014
unction	-3015
▁waiter	-3016
▁operand	-3017
15	-3018
umn	-3019
ONOS	-3020
8859-	-3021
multip	-3022
▁TONOS	-3023
▁ESCAPE	-3024
bb	-3025
ATT	-3026
NOW	-3027
▁//	-3028
▁TO	-3029
▁program	-3030
RPC	-3031
▁ct	-3032
▁URL	-3033
STRING	-3034
losing	-3035
▁false	-3036
release	-3037
*.	-3038
---+	-3039
▁PLUS	-3040
locals	-3041
▁every	-3042
▁small	-3043
connect	-3044
keyword	-3045
▁locals	-3046
▁random	-3047
▁negative	-3048
▁readline	-3049
dom	-3050
ple	-3051
Read	-3052
lash	-3053
actor	-3054
▁policy	-3055
▁previous	-3056
▁trailing	-3057
▁importlib	-3058
=%	-3059
AF	-3060
HEN	-3061
alt	-3062
medi	-3063
▁bit	-3064
ERROR	-3065
MINUS	-3066
shake	-3067
▁Raise	-3068
▁think	-3069
erminal	-3070
▁ctypes	-3071
▁matches	-3072
▁tarinfo	-3073
▁operations	-3074
AK	-3075
END	-3076
fds	-3077
mag	-3078
▁(?	-3079
OMEO	-3080
ific	-3081
ynch	-3082
~~~~	-3083
▁sep	-3084
files	-3085
▁ROMEO	-3086
su	-3087
OFT	-3088
▁##	-3089
▁love	-3090
cesses	-3091
▁decimal	-3092
▁feature	-3093
codeError	-3094
▁Argument	-3095
({	-3096
>"	-3097
ux	-3098
ETA	-3099
week	-3100
build	-3101
delta	-3102
paths	-3103
▁prec	-3104
▁tail	-3105
normal	-3106
wrapper	-3107
gr	-3108
rb	-3109
("%	-3110
son	-3111
READ	-3112
roken	-3113
▁safe	-3114
▁save	-3115
policy	-3116
Element	-3117
Process	-3118
dispatch	-3119
▁mailbox	-3120
▁members	-3121
▁internal	-3122
cf	-3123
ATH	-3124
Run	-3125
peci	-3126
▁TAB	-3127
final	-3128
stants	-3129
▁SHIFT	-3130
▁SUPER	-3131
▁necess	-3132
rocessing	-3133
▁comparison	-3134
▁SUPERSCRIPT	-3135
As	-3136
cd	-3137
exe	-3138
here	-3139
mark	-3140
show	-3141
▁TEXT	-3142
▁inst	-3143
ytesIO	-3144
▁exists	-3145
▁raises	-3146
Protocol	-3147
▁reading	-3148
▁Otherwise	-3149
▁whitespace	-3150
▁StreamReader	-3151
▁PE	-3152
MENT	-3153
Child	-3154
▁many	-3155
▁well	-3156
ceived	-3157
▁SHADE	-3158
▁build	-3159
▁specify	-3160
▁corresponding	-3161
75	-3162
ud	-3163
64-	-3164
ERS	-3165
eof	-3166
▁Al	-3167
flow	-3168
raph	-3169
▁her	-3170
▁thy	-3171
Create	-3172
▁TABUL	-3173
▁TRANS	-3174
Returns	-3175
▁scheme	-3176
▁writing	-3177
▁complete	-3178
▁TABULATION	-3179
09	-3180
Exit	-3181
cing	-3182
▁fix	-3183
▁uni	-3184
ignore	-3185
▁clause	-3186
▁ensure	-3187
▁removed	-3188
▁condition	-3189
66	-3190
::	-3191
Sy	-3192
UE	-3193
sr	-3194
EST	-3195
imum	-3196
rial	-3197
ures	-3198
▁ACK	-3199
▁own	-3200
▁src	-3201
▁FEED	-3202
▁ISOL	-3203
▁never	-3204
manager	-3205
▁ISOLATED	-3206
▁fullname	-3207
3.	-3208
AG	-3209
015	-3210
▁"-	-3211
▁2,	-3212
dest	-3213
pair	-3214
▁sort	-3215
events	-3216
RACTION	-3217
▁append	-3218
ba	-3219
ARD	-3220
LIB	-3221
env	-3222
ices	-3223
LEDGE	-3224
simple	-3225
MISSION	-3226
defined	-3227
▁ACKNOW	-3228
▁params	-3229
▁search	-3230
qualname	-3231
▁details	-3232
▁ACKNOWLEDGE	-3233
▁TRANSMISSION	-3234
*'	-3235
▁By	-3236
vate	-3237
▁GRE	-3238
▁HYP	-3239
State	-3240
ilder	-3241
spath	-3242
which	-3243
▁Copy	-3244
ressed	-3245
uffered	-3246
▁HYPHEN	-3247
peration	-3248
▁references	-3249
19	-3250
Ar	-3251
SO	-3252
017	-3253
BER	-3254
BIN	-3255
ali	-3256
mac	-3257
sen	-3258
▁[_	-3259
WORD	-3260
tered	-3261
▁SOFT	-3262
tadata	-3263
struction	-3264
enominator	-3265
▁annotations	-3266
▁representation	-3267
.)	-3268
AS	-3269
","	-3270
▁div	-3271
▁ext	-3272
options	-3273
▁lookup	-3274
▁FRACTION	-3275
exceptions	-3276
08	-3277
28	-3278
hes	-3279
ply	-3280
ases	-3281
inte	-3282
lice	-3283
▁short	-3284
ategory	-3285
▁during	-3286
▁wrapper	-3287
Operation	-3288
▁iterator	-3289
▁breakpoint	-3290
fn	-3291
orm	-3292
arri	-3293
ored	-3294
zone	-3295
▁MED	-3296
▁redu	-3297
▁strip	-3298
▁suite	-3299
▁regular	-3300
▁threads	-3301
▁recursive	-3302
No	-3303
('\	-3304
ler	-3305
Lock	-3306
lper	-3307
▁Any	-3308
Value	-3309
short	-3310
cancel	-3311
▁begin	-3312
▁times	-3313
ynchron	-3314
▁remain	-3315
▁script	-3316
▁written	-3317
▁appropri	-3318
▁commands	-3319
▁decoding	-3320
YT	-3321
Net	-3322
fol	-3323
urpo	-3324
▁sig	-3325
ority	-3326
▁FULL	-3327
▁happen	-3328
cho	-3329
xfe	-3330
view	-3331
Proxy	-3332
▁memo	-3333
static	-3334
initial	-3335
_(	-3336
LET	-3337
UTH	-3338
dev	-3339
ilar	-3340
▁PER	-3341
▁Tra	-3342
▁join	-3343
Handle	-3344
imilar	-3345
▁Check	-3346
▁clear	-3347
payload	-3348
▁prompt	-3349
▁generated	-3350
collections	-3351
▁environment	-3352
nan	-3353
▁im	-3354
▁sl	-3355
ROKE	-3356
argv	-3357
ffff	-3358
meta	-3359
▁'--	-3360
▁best	-3361
▁good	-3362
▁heap	-3363
▁might	-3364
▁reset	-3365
comment	-3366
uration	-3367
▁STROKE	-3368
▁caller	-3369
▁python	-3370
registry	-3371
▁correct	-3372
▁parsing	-3373
▁deprecated	-3374
▁positional	-3375
1.	-3376
CS	-3377
OUT	-3378
ipe	-3379
usr	-3380
LINE	-3381
mage	-3382
oken	-3383
▁'/'	-3384
break	-3385
latin	-3386
digits	-3387
unpack	-3388
decimal	-3389
▁success	-3390
▁relative	-3391
▁underlying	-3392
=0	-3393
af	-3394
__:	-3395
ait	-3396
atin	-3397
lobs	-3398
▁But	-3399
▁put	-3400
dated	-3401
▁conn	-3402
▁tree	-3403
ESTION	-3404
Python	-3405
Thread	-3406
▁comment	-3407
]'	-3408
aw	-3409
▁9	-3410
GAR	-3411
irc	-3412
pkg	-3413
▁SA	-3414
__':	-3415
conn	-3416
▁VUL	-3417
▁give	-3418
Defect	-3419
before	-3420
▁cause	-3421
cedence	-3422
▁VULGAR	-3423
▁QUESTION	-3424
43	-3425
LD	-3426
INF	-3427
ish	-3428
try	-3429
ANCE	-3430
Call	-3431
separ	-3432
tempt	-3433
origin	-3434
▁below	-3435
external	-3436
sentinel	-3437
88	-3438
WR	-3439
▁^	-3440
ERO	-3441
Hel	-3442
dec	-3443
mote	-3444
▁lon	-3445
▁yet	-3446
▁EXCL	-3447
▁Name	-3448
▁lang	-3449
▁visit	-3450
DEFAULT	-3451
▁appear	-3452
▁reason	-3453
▁specifi	-3454
▁StreamWriter	-3455
13	-3456
▁“	-3457
221	-3458
ASE	-3459
ufe	-3460
▁hi	-3461
▁ow	-3462
[1:]	-3463
asic	-3464
dump	-3465
imer	-3466
ower	-3467
zero	-3468
▁did	-3469
▁isn	-3470
ource	-3471
total	-3472
ulate	-3473
▁Node	-3474
▁alias	-3475
▁cases	-3476
running	-3477
unicode	-3478
▁entries	-3479
attribute	-3480
▁specific	-3481
▁necessary	-3482
FA	-3483
fra	-3484
just	-3485
kwds	-3486
ough	-3487
▁100	-3488
UMBER	-3489
▁thee	-3490
Loader	-3491
▁imple	-3492
AMATION	-3493
▁unless	-3494
▁handlers	-3495
▁formatter	-3496
▁EXCLAMATION	-3497
▁implemented	-3498
`.	-3499
fs	-3500
idd	-3501
ock	-3502
▁/,	-3503
▁16	-3504
bits	-3505
lite	-3506
Close	-3507
abled	-3508
olute	-3509
▁seen	-3510
inished	-3511
▁family	-3512
iterable	-3513
supported	-3514
▁execution	-3515
aa	-3516
').	-3517
typ	-3518
atal	-3519
elem	-3520
tell	-3521
▁1.0	-3522
▁via	-3523
ASCII	-3524
▁push	-3525
▁Error	-3526
▁frozen	-3527
▁Modules	-3528
▁compile	-3529
▁seconds	-3530
signature	-3531
GenericAlias	-3532
sq	-3533
cmp	-3534
ick	-3535
▁UT	-3536
head	-3537
pare	-3538
pect	-3539
▁Comp	-3540
▁down	-3541
▁star	-3542
▁arbit	-3543
▁shared	-3544
▁backward	-3545
▁platform	-3546
▁appropriate	-3547
NO	-3548
br	-3549
REN	-3550
SIL	-3551
FILE	-3552
▁tre	-3553
SILON	-3554
mtime	-3555
▁Read	-3556
▁Stat	-3557
▁come	-3558
▁emit	-3559
▁sure	-3560
except	-3561
insert	-3562
▁bases	-3563
Network	-3564
traverse	-3565
ultibyte	-3566
▁requires	-3567
▁BaseException	-3568
77	-3569
,))	-3570
IUM	-3571
Key	-3572
VEN	-3573
ass	-3574
dst	-3575
gor	-3576
vas	-3577
▁AT	-3578
▁LO	-3579
[0].	-3580
lank	-3581
opts	-3582
vice	-3583
▁his	-3584
ftware	-3585
gorith	-3586
status	-3587
▁usage	-3588
▁MEDIUM	-3589
handlers	-3590
▁behavior	-3591
24	-3592
34	-3593
Cal	-3594
yes	-3595
ATER	-3596
Comp	-3597
into	-3598
tasks	-3599
▁bits	-3600
▁fill	-3601
ension	-3602
▁proxy	-3603
missing	-3604
▁actual	-3605
▁failed	-3606
▁public	-3607
▁compression	-3608
JE	-3609
011	-3610
NOT	-3611
eta	-3612
▁Zip	-3613
micro	-3614
▁title	-3615
▁operator	-3616
▁supports	-3617
parameters	-3618
▁issubclass	-3619
▁subprocess	-3620
07	-3621
Var	-3622
Down	-3623
NODE	-3624
ONLY	-3625
▁ZIP	-3626
proto	-3627
▁calc	-3628
defects	-3629
partial	-3630
▁proper	-3631
children	-3632
handshake	-3633
▁positive	-3634
▁Copyright	-3635
*,	-3636
bd	-3637
og	-3638
any	-3639
rel	-3640
▁SY	-3641
▁fn	-3642
2022	-3643
CRON	-3644
Data	-3645
hing	-3646
Found	-3647
board	-3648
▁resp	-3649
ending	-3650
▁ASCII	-3651
cording	-3652
network	-3653
▁status	-3654
warnings	-3655
▁Changed	-3656
▁runtime	-3657
▁setting	-3658
▁exponent	-3659
▁definition	-3660
ts	-3661
010	-3662
GET	-3663
VAR	-3664
▁(_	-3665
▁1;	-3666
▁''.	-3667
▁ctx	-3668
▁pid	-3669
▁Char	-3670
▁Stop	-3671
▁dele	-3672
frozen	-3673
icient	-3674
▁tasks	-3675
▁quoted	-3676
________	-3677
▁GREATER	-3678
▁generator	-3679
31	-3680
ea	-3681
eb	-3682
ef	-3683
}.	-3684
▁'?	-3685
[0],	-3686
atio	-3687
clar	-3688
star	-3689
ANCEL	-3690
uplic	-3691
▁reco	-3692
waiter	-3693
▁Inter	-3694
archive	-3695
▁generic	-3696
▁separator	-3697
EM	-3698
IST	-3699
bar	-3700
gno	-3701
sgi	-3702
▁:=	-3703
▁Ad	-3704
VENT	-3705
tree	-3706
▁LESS	-3707
▁tell	-3708
gnored	-3709
▁lists	-3710
▁liter	-3711
▁stdin	-3712
▁urllib	-3713
hostname	-3714
regentry	-3715
▁Content	-3716
CodecInfo	-3717
expression	-3718
▁signature	-3719
▁streamreader	-3720
▁streamwriter	-3721
An	-3722
zy	-3723
RON	-3724
VAL	-3725
▁pl	-3726
site	-3727
▁Res	-3728
▁You	-3729
calls	-3730
inner	-3731
▁bind	-3732
▁much	-3733
resses	-3734
ummary	-3735
▁produ	-3736
▁MACRON	-3737
▁occurs	-3738
▁report	-3739
▁compare	-3740
Iteration	-3741
▁messages	-3742
▁executable	-3743
▁getregentry	-3744
'"	-3745
18	-3746
>\	-3747
(1,	-3748
YPE	-3749
ike	-3750
▁'+	-3751
▁2)	-3752
Case	-3753
lobj	-3754
▁Get	-3755
Queue	-3756
▁With	-3757
quired	-3758
rstrip	-3759
▁needs	-3760
▁purpo	-3761
Content	-3762
Request	-3763
contain	-3764
encoded	-3765
warning	-3766
Document	-3767
▁connect	-3768
▁stacklevel	-3769
ae	-3770
._]	-3771
INK	-3772
gex	-3773
med	-3774
vis	-3775
▁'#	-3776
▁(0	-3777
auto	-3778
expr	-3779
▁How	-3780
▁APIs	-3781
▁UUID	-3782
▁kwds	-3783
▁nest	-3784
pecial	-3785
▁optim	-3786
▁three	-3787
Address	-3788
mainder	-3789
▁immedi	-3790
colorize	-3791
▁decoded	-3792
▁provides	-3793
▁coroutine	-3794
▁description	-3795
OUS	-3796
uli	-3797
▁JUL	-3798
posix	-3799
▁Each	-3800
istics	-3801
▁chars	-3802
reading	-3803
▁update	-3804
▁ignored	-3805
▁leading	-3806
92	-3807
("\	-3808
IET	-3809
OLL	-3810
PER	-3811
RAM	-3812
cap	-3813
fmt	-3814
way	-3815
▁_,	-3816
mbol	-3817
recv	-3818
BREAK	-3819
SPACE	-3820
▁head	-3821
cpython	-3822
▁JULIET	-3823
▁assume	-3824
▁effect	-3825
▁useful	-3826
////////	-3827
annotate	-3828
▁cookies	-3829
▁actually	-3830
▁arbitrary	-3831
PR	-3832
dt	-3833
252	-3834
FWS	-3835
ITY	-3836
gen	-3837
▁At	-3838
▁cy	-3839
anup	-3840
mime	-3841
ters	-3842
void	-3843
▁'-'	-3844
▁high	-3845
▁mach	-3846
▁place	-3847
unknown	-3848
▁allows	-3849
▁typing	-3850
▁fileobj	-3851
mentation	-3852
▁enumerate	-3853
annotations	-3854
50	-3855
SY	-3856
064	-3857
234	-3858
prog	-3859
uage	-3860
ATURE	-3861
errno	-3862
icate	-3863
resol	-3864
▁hour	-3865
▁repe	-3866
exists	-3867
▁words	-3868
▁asyncio	-3869
▁inherit	-3870
coroutine	-3871
▁pathname	-3872
1(	-3873
NE	-3874
[-	-3875
250	-3876
iew	-3877
ixin	-3878
when	-3879
▁'')	-3880
orary	-3881
plied	-3882
Method	-3883
▁blocks	-3884
▁rather	-3885
NotFound	-3886
blocking	-3887
gistered	-3888
▁payload	-3889
▁fallback	-3890
▁integers	-3891
▁formatted	-3892
38	-3893
4_	-3894
LS	-3895
016	-3896
253	-3897
ARY	-3898
IAN	-3899
gnu	-3900
tmp	-3901
▁".	-3902
▁wr	-3903
inst	-3904
okup	-3905
pick	-3906
ural	-3907
▁ear	-3908
▁req	-3909
▁ZERO	-3910
adding	-3911
uation	-3912
ragment	-3913
▁termin	-3914
▁symlink	-3915
▁updated	-3916
▁functools	-3917
,)	-3918
.,	-3919
AC	-3920
──	-3921
014	-3922
Sub	-3923
cat	-3924
▁",	-3925
▁'&	-3926
▁ast	-3927
shape	-3928
store	-3929
style	-3930
▁JSON	-3931
▁STOP	-3932
▁made	-3933
common	-3934
pickle	-3935
rapper	-3936
▁COMMA	-3937
▁REVER	-3938
▁makes	-3939
document	-3940
▁property	-3941
ValueError	-3942
▁distribution	-3943
,-	-3944
226	-3945
ORY	-3946
ROU	-3947
sue	-3948
▁(1	-3949
▁ns	-3950
9999	-3951
LOAD	-3952
▁':'	-3953
forms	-3954
inish	-3955
▁less	-3956
cessed	-3957
▁issue	-3958
▁later	-3959
actions	-3960
termine	-3961
▁conver	-3962
▁Mapping	-3963
▁precision	-3964
▁directories	-3965
▁expressions	-3966
00'	-3967
FOR	-3968
POS	-3969
ire	-3970
lex	-3971
lto	-3972
PIPE	-3973
tach	-3974
▁oct	-3975
endar	-3976
unded	-3977
▁rule	-3978
▁sets	-3979
groups	-3980
logger	-3981
suffix	-3982
▁based	-3983
▁owner	-3984
▁takes	-3985
▁chunks	-3986
▁starts	-3987
▁control	-3988
▁factory	-3989
▁assignment	-3990
GI	-3991
("<	-3992
040	-3993
gle	-3994
ves	-3995
ably	-3996
ceed	-3997
emon	-3998
▁'0'	-3999
▁row	-4000
inite	-4001
▁seek	-4002
▁step	-4003
client	-4004
lector	-4005
▁known	-4006
forward	-4007
▁changed	-4008
precation	-4009
nl	-4010
inf	-4011
▁((	-4012
▁Be	-4013
FORM	-4014
PATH	-4015
lies	-4016
prot	-4017
true	-4018
vide	-4019
▁SIG	-4020
▁ret	-4021
INDIC	-4022
aries	-4023
shift	-4024
▁10**	-4025
▁SMTP	-4026
▁Some	-4027
▁Class	-4028
Modules	-4029
closing	-4030
fullname	-4031
▁attempt	-4032
▁similar	-4033
partition	-4034
▁absolute	-4035
▁literals	-4036
▁bytearray	-4037
▁identifier	-4038
45	-4039
OK	-4040
`,	-4041
dc	-4042
▁AS	-4043
▁am	-4044
▁dt	-4045
Exec	-4046
▁him	-4047
codec	-4048
ctest	-4049
follow	-4050
lapped	-4051
▁pairs	-4052
▁insert	-4053
▁Invalid	-4054
▁determin	-4055
▁followed	-4056
▁shutdown	-4057
▁according	-4058
36	-4059
]]	-4060
200	-4061
Pre	-4062
fic	-4063
ook	-4064
pdb	-4065
fold	-4066
ITIAL	-4067
linux	-4068
assert	-4069
cookie	-4070
BytesIO	-4071
andling	-4072
▁column	-4073
▁algorith	-4074
▁imported	-4075
▁immediately	-4076
:%	-4077
LC	-4078
Up	-4079
ob	-4080
BAL	-4081
ELL	-4082
ISK	-4083
URN	-4084
ibly	-4085
lost	-4086
▁Def	-4087
▁THE	-4088
▁wor	-4089
STATE	-4090
press	-4091
▁FILE	-4092
▁vars	-4093
▁drive	-4094
dirname	-4095
▁define	-4096
▁double	-4097
▁longer	-4098
▁weakref	-4099
▁wrapped	-4100
▁comments	-4101
ParseError	-4102
▁including	-4103
▁application	-4104
">	-4105
[^	-4106
rp	-4107
00\	-4108
LOC	-4109
URI	-4110
▁Di	-4111
__",	-4112
▁NEG	-4113
▁pdb	-4114
bases	-4115
ename	-4116
ittle	-4117
▁DATA	-4118
Screen	-4119
quoted	-4120
▁EIGHT	-4121
▁nargs	-4122
extract	-4123
▁Future	-4124
-------+	-4125
negative	-4126
▁describ	-4127
▁exactly	-4128
Interrupt	-4129
▁abstract	-4130
staticmethod	-4131
41	-4132
bf	-4133
jp	-4134
uc	-4135
('<	-4136
DIR	-4137
[-1	-4138
__'	-4139
big	-4140
▁")	-4141
▁"/	-4142
▁IO	-4143
▁gu	-4144
▁|=	-4145
=0):	-4146
ints	-4147
kind	-4148
▁ABC	-4149
orter	-4150
Cannot	-4151
arrier	-4152
ittest	-4153
locked	-4154
acquire	-4155
compare	-4156
maxsize	-4157
builtins	-4158
▁changes	-4159
▁nothing	-4160
▁partial	-4161
▁handling	-4162
▁selector	-4163
▁itertools	-4164
application	-4165
denominator	-4166
▁additional	-4167
▁conversion	-4168
▁representing	-4169
-2	-4170
3]	-4171
dr	-4172
=-1	-4173
=1,	-4174
eff	-4175
urn	-4176
▁cl	-4177
dist	-4178
ermi	-4179
▁MAX	-4180
▁OUT	-4181
alias	-4182
▁RING	-4183
▁side	-4184
Object	-4185
ersion	-4186
tokens	-4187
versed	-4188
▁Added	-4189
▁ready	-4190
mission	-4191
scription	-4192
▁evaluated	-4193
boardInterrupt	-4194
PL	-4195
-9]	-4196
32_	-4197
PEP	-4198
▁'$	-4199
THON	-4200
entr	-4201
tion	-4202
urro	-4203
▁'"'	-4204
▁LIG	-4205
▁uri	-4206
Gener	-4207
PRESS	-4208
▁fast	-4209
▁delim	-4210
▁shall	-4211
counter	-4212
▁writer	-4213
▁numeric	-4214
▁LIGATURE	-4215
▁executor	-4216
▁component	-4217
)*	-4218
4.	-4219
HI	-4220
013	-4221
LEN	-4222
gal	-4223
seg	-4224
www	-4225
▁'@	-4226
▁11	-4227
Enum	-4228
LETE	-4229
Mock	-4230
Send	-4231
Text	-4232
mant	-4233
▁'='	-4234
TERAL	-4235
[:-1]	-4236
angle	-4237
dered	-4238
oring	-4239
======	-4240
digest	-4241
▁inner	-4242
▁whose	-4243
chedule	-4244
methods	-4245
weakref	-4246
▁NUMBER	-4247
internal	-4248
▁DEFAULT	-4249
cancelled	-4250
▁starting	-4251
49	-4252
XML	-4253
▁Is	-4254
MPTY	-4255
Time	-4256
gger	-4257
▁SIX	-4258
▁SUB	-4259
▁FIVE	-4260
▁HEAD	-4261
▁NINE	-4262
▁dump	-4263
prompt	-4264
scheme	-4265
▁SEVEN	-4266
▁zinfo	-4267
Manager	-4268
weekday	-4269
▁remote	-4270
dataclass	-4271
▁explicitly	-4272
37	-4273
87	-4274
=(	-4275
fb	-4276
('0	-4277
ctx	-4278
mro	-4279
}',	-4280
▁{!	-4281
Spec	-4282
This	-4283
[0])	-4284
clus	-4285
▁cho	-4286
▁gre	-4287
IDDLE	-4288
chain	-4289
const	-4290
mapho	-4291
▁MIME	-4292
Simple	-4293
bstract	-4294
gettext	-4295
dexError	-4296
packages	-4297
polation	-4298
resource	-4299
▁automat	-4300
▁unicode	-4301
▁Fraction	-4302
▁boundary	-4303
▁builtins	-4304
▁supplied	-4305
▁cancelled	-4306
17	-4307
:"	-4308
LL	-4309
").	-4310
arr	-4311
▁'|	-4312
CORD	-4313
TIME	-4314
ULET	-4315
▁'*'	-4316
cname	-4317
title	-4318
▁conf	-4319
▁pack	-4320
▁very	-4321
▁errno	-4322
▁large	-4323
futures	-4324
verbose	-4325
▁Simple	-4326
▁little	-4327
▁parsed	-4328
commands	-4329
▁CAPULET	-4330
▁REVERSE	-4331
▁prevent	-4332
▁children	-4333
▁rounding	-4334
executable	-4335
▁currently	-4336
DecodeError	-4337
54	-4338
80	-4339
AW	-4340
Bu	-4341
Py	-4342
pp	-4343
'])	-4344
('%	-4345
224	-4346
ONG	-4347
OST	-4348
oci	-4349
▁"0	-4350
▁He	-4351
▁OG	-4352
ONEK	-4353
uess	-4354
▁bin	-4355
('.')	-4356
▁IDLE	-4357
▁pick	-4358
stanti	-4359
▁cycle	-4360
▁digit	-4361
mapping	-4362
support	-4363
▁OGONEK	-4364
sequence	-4365
▁complex	-4366
▁counter	-4367
numerator	-4368
▁extended	-4369
▁returning	-4370
39	-4371
79	-4372
EH	-4373
Wl	-4374
"",	-4375
+00	-4376
86_	-4377
mul	-4378
req	-4379
}",	-4380
norm	-4381
▁gra	-4382
▁sum	-4383
▁who	-4384
▁NULL	-4385
▁Path	-4386
frames	-4387
▁SEMIC	-4388
▁Table	-4389
▁CANCEL	-4390
▁depend	-4391
▁digest	-4392
Infinity	-4393
specific	-4394
▁Generic	-4395
▁omitted	-4396
▁setattr	-4397
directory	-4398
▁anything	-4399
▁SEMICOLON	-4400
DA	-4401
fr	-4402
00,	-4403
01'	-4404
tem	-4405
▁'(	-4406
▁AE	-4407
aded	-4408
eval	-4409
hour	-4410
pted	-4411
▁'_'	-4412
▁simp	-4413
called	-4414
oolean	-4415
▁delay	-4416
▁lower	-4417
Mapping	-4418
sidered	-4419
writing	-4420
▁notice	-4421
▁DocTest	-4422
▁PERCENT	-4423
▁meaning	-4424
ntaxError	-4425
▁location	-4426
▁something	-4427
▁considered	-4428
NotFoundError	-4429
26	-4430
55	-4431
NT	-4432
▁';	-4433
▁ID	-4434
▁ha	-4435
days	-4436
real	-4437
▁AMP	-4438
▁NaN	-4439
▁had	-4440
▁hex	-4441
ETURN	-4442
OURCE	-4443
TERISK	-4444
istent	-4445
▁align	-4446
▁around	-4447
▁better	-4448
▁nested	-4449
▁serial	-4450
▁whence	-4451
iterator	-4452
Multibyte	-4453
Transport	-4454
generator	-4455
positions	-4456
▁ASTERISK	-4457
▁decorator	-4458
▁timedelta	-4459
precationWarning	-4460
=/	-4461
>.	-4462
>",	-4463
SIG	-4464
gic	-4465
hex	-4466
Meta	-4467
zstd	-4468
▁Sub	-4469
▁qui	-4470
ATIVE	-4471
light	-4472
accept	-4473
cannot	-4474
turtle	-4475
▁Queue	-4476
decoded	-4477
discard	-4478
integer	-4479
literal	-4480
▁Create	-4481
▁library	-4482
TypeError	-4483
▁Encoding	-4484
▁docstring	-4485
▁difference	-4486
35	-4487
60	-4488
Po	-4489
_1	-4490
tc	-4491
sha	-4492
▁Ar	-4493
METH	-4494
loor	-4495
▁dec	-4496
▁ord	-4497
ights	-4498
▁'\\'	-4499
▁Iter	-4500
▁Juli	-4501
▁Make	-4502
▁comm	-4503
▁dead	-4504
▁opts	-4505
Cookie	-4506
▁COLON	-4507
Command	-4508
▁Called	-4509
▁versions	-4510
ynchronous	-4511
*"	-4512
.'	-4513
42	-4514
95	-4515
End	-4516
SHA	-4517
tab	-4518
▁'!	-4519
▁db	-4520
Loop	-4521
VERT	-4522
coro	-4523
ummy	-4524
▁'?'	-4525
▁bra	-4526
STROP	-4527
usage	-4528
▁BACK	-4529
height	-4530
▁associ	-4531
▁consume	-4532
completer	-4533
▁assigned	-4534
▁language	-4535
▁constants	-4536
▁processes	-4537
▁registered	-4538
30	-4539
46	-4540
47	-4541
ZA	-4542
tt	-4543
NCH	-4544
▁"_	-4545
▁'~	-4546
CESS	-4547
INFO	-4548
ROUP	-4549
bind	-4550
ital	-4551
this	-4552
▁APO	-4553
▁PEP	-4554
▁SAX	-4555
▁tak	-4556
INTER	-4557
OLLAR	-4558
ERSAND	-4559
family	-4560
▁Enter	-4561
▁query	-4562
STROPHE	-4563
display	-4564
▁DOLLAR	-4565
▁EQUALS	-4566
▁Raises	-4567
▁delete	-4568
contains	-4569
subprocess	-4570
▁AMPERSAND	-4571
▁Traceback	-4572
▁APOSTROPHE	-4573
1]	-4574
3_	-4575
48	-4576
DI	-4577
au	-4578
062	-4579
NaN	-4580
SER	-4581
STD	-4582
ash	-4583
Line	-4584
Pipe	-4585
URSE	-4586
rand	-4587
resh	-4588
uint	-4589
▁'>'	-4590
▁iso	-4591
Tuple	-4592
▁MERC	-4593
▁Over	-4594
▁Text	-4595
▁fall	-4596
▁NURSE	-4597
▁magic	-4598
▁shape	-4599
VERSION	-4600
▁labels	-4601
▁recent	-4602
▁tuples	-4603
▁browser	-4604
▁bufsize	-4605
Attribute	-4606
▁Decoding	-4607
deprecated	-4608
▁remaining	-4609
▁namespaces	-4610
▁subclasses	-4611
:\	-4612
[,	-4613
gt	-4614
04'	-4615
CEP	-4616
rfc	-4617
scr	-4618
▁cp	-4619
()):	-4620
CODE	-4621
prev	-4622
resp	-4623
roll	-4624
ster	-4625
wake	-4626
▁'%'	-4627
▁Now	-4628
▁WAR	-4629
▁den	-4630
Equal	-4631
LOBAL	-4632
exact	-4633
image	-4634
posed	-4635
▁HTML	-4636
▁Test	-4637
fspath	-4638
▁msgid	-4639
▁speed	-4640
▁store	-4641
▁Juliet	-4642
▁become	-4643
▁INITIAL	-4644
▁defines	-4645
▁category	-4646
▁converted	-4647
▁configuration	-4648
+)	-4649
89	-4650
NU	-4651
eg	-4652
}/	-4653
)),	-4654
OTO	-4655
▁3,	-4656
ABLE	-4657
GREE	-4658
chan	-4659
dirs	-4660
▁'#'	-4661
▁'+'	-4662
▁mac	-4663
▁win	-4664
ables	-4665
caped	-4666
ernel	-4667
named	-4668
pture	-4669
▁COMM	-4670
FORMAT	-4671
ctypes	-4672
delete	-4673
record	-4674
▁thing	-4675
authkey	-4676
▁DEGREE	-4677
▁Format	-4678
▁String	-4679
▁entire	-4680
▁though	-4681
nonlocal	-4682
▁Message	-4683
▁Process	-4684
▁machine	-4685
▁network	-4686
▁specifies	-4687
▁IndexError	-4688
▁StopIteration	-4689
76	-4690
Err	-4691
[:]	-4692
▁ov	-4693
heap	-4694
lict	-4695
null	-4696
▁INT	-4697
▁Pro	-4698
▁pat	-4699
▁''',	-4700
▁ALEF	-4701
▁coro	-4702
ERCIAL	-4703
Future	-4704
sslobj	-4705
▁latin	-4706
▁posix	-4707
▁rules	-4708
asyncio	-4709
ination	-4710
newline	-4711
▁spaces	-4712
▁examples	-4713
entication	-4714
protection	-4715
▁algorithm	-4716
▁COMMERCIAL	-4717
▁implementations	-4718
dy	-4719
03'	-4720
IND	-4721
Msg	-4722
USE	-4723
may	-4724
pat	-4725
▁')	-4726
▁(%	-4727
▁sw	-4728
[0]]	-4729
ride	-4730
stmt	-4731
itial	-4732
proxy	-4733
▁Unix	-4734
86_64-	-4735
effect	-4736
lambda	-4737
Version	-4738
console	-4739
include	-4740
nsitive	-4741
▁RECORD	-4742
▁points	-4743
Selector	-4744
original	-4745
▁console	-4746
▁forward	-4747
▁futures	-4748
▁creating	-4749
returncode	-4750
▁formatting	-4751
HeaderDefect	-4752
)}	-4753
XT	-4754
^^	-4755
▁‘	-4756
▁':	-4757
="""	-4758
Stat	-4759
wsgi	-4760
▁'@'	-4761
▁eff	-4762
▁rel	-4763
▁won	-4764
popen	-4765
setup	-4766
▁gzip	-4767
▁note	-4768
METHOD	-4769
VERTED	-4770
▁Gener	-4771
▁chain	-4772
clusive	-4773
generic	-4774
▁counts	-4775
basename	-4776
callable	-4777
selector	-4778
▁require	-4779
▁INVERTED	-4780
▁debugger	-4781
AttributeError	-4782
▁multiprocessing	-4783
(3	-4784
('/	-4785
16'	-4786
CRE	-4787
VIS	-4788
[2]	-4789
sem	-4790
▁'^	-4791
▁Pr	-4792
dden	-4793
poly	-4794
uuid	-4795
▁']'	-4796
▁-1:	-4797
▁Sup	-4798
23456	-4799
Async	-4800
Level	-4801
▁Time	-4802
▁dete	-4803
▁pred	-4804
▁prob	-4805
IGNORE	-4806
gnized	-4807
▁SUBST	-4808
▁intro	-4809
Console	-4810
▁modify	-4811
▁static	-4812
▁stored	-4813
▁container	-4814
▁associated	-4815
▁automatically	-4816
HeaderParseError	-4817
70	-4818
96	-4819
:`	-4820
BO	-4821
DO	-4822
]*	-4823
sm	-4824
OTA	-4825
bad	-4826
pha	-4827
('__	-4828
AUTH	-4829
PEND	-4830
Pool	-4831
coff	-4832
trib	-4833
▁'$'	-4834
▁','	-4835
▁'['	-4836
▁CON	-4837
▁bad	-4838
▁var	-4839
ITUTE	-4840
digit	-4841
▁mask	-4842
▁prev	-4843
System	-4844
formed	-4845
icular	-4846
utcoff	-4847
▁fails	-4848
▁shell	-4849
maphore	-4850
members	-4851
setattr	-4852
tarinfo	-4853
▁MIDDLE	-4854
finished	-4855
▁verbose	-4856
separator	-4857
▁Function	-4858
▁interpre	-4859
compressor	-4860
▁SUBSTITUTE	-4861
44	-4862
xx	-4863
COL	-4864
SUP	-4865
Tra	-4866
▁My	-4867
▁bp	-4868
aran	-4869
junk	-4870
poll	-4871
▁Mon	-4872
ARTER	-4873
Write	-4874
izing	-4875
quent	-4876
▁Only	-4877
▁free	-4878
tzinfo	-4879
▁FINAL	-4880
▁force	-4881
ability	-4882
allowed	-4883
mailbox	-4884
▁duplic	-4885
▁really	-4886
standard	-4887
▁QUARTER	-4888
▁pending	-4889
▁perform	-4890
▁unknown	-4891
SU	-4892
ug	-4893
06'	-4894
10'	-4895
202	-4896
eed	-4897
fno	-4898
jor	-4899
▁4:	-4900
▁@_	-4901
▁bo	-4902
▁ph	-4903
arsh	-4904
▁"'"	-4905
▁"\\	-4906
▁LOG	-4907
▁Pre	-4908
▁foo	-4909
▁inf	-4910
arrow	-4911
depth	-4912
idden	-4913
NCHRON	-4914
memory	-4915
versal	-4916
▁Value	-4917
ational	-4918
▁RETURN	-4919
▁against	-4920
▁compute	-4921
claration	-4922
▁creation	-4923
▁readable	-4924
▁signific	-4925
▁Character	-4926
interpreter	-4927
▁particular	-4928
4)	-4929
51	-4930
98	-4931
So	-4932
sv	-4933
02'	-4934
066	-4935
cut	-4936
utc	-4937
ATTR	-4938
soon	-4939
step	-4940
▁'('	-4941
▁')'	-4942
▁';'	-4943
▁'}'	-4944
▁REG	-4945
▁UTF	-4946
▁pen	-4947
based	-4948
email	-4949
▁days	-4950
▁deep	-4951
arante	-4952
curity	-4953
wakeup	-4954
awaited	-4955
▁inside	-4956
Buffered	-4957
Terminal	-4958
▁Element	-4959
▁arcname	-4960
▁checked	-4961
▁maximum	-4962
NCHRONOUS	-4963
▁instanti	-4964
▁replaced	-4965
Connection	-4966
▁described	-4967
5.	-4968
53	-4969
cr	-4970
13'	-4971
203	-4972
=1;	-4973
Dir	-4974
Zip	-4975
sor	-4976
txt	-4977
▁Le	-4978
▁PI	-4979
▁PR	-4980
CHAR	-4981
CONT	-4982
cker	-4983
▁'&'	-4984
▁'{'	-4985
▁tok	-4986
andid	-4987
arily	-4988
optim	-4989
▁UNIT	-4990
SOURCE	-4991
▁invok	-4992
changed	-4993
▁unique	-4994
ionError	-4995
keywords	-4996
▁Default	-4997
▁modname	-4998
▁purpose	-4999
▁raiseit	-5000
▁reverse	-5001
▁warning	-5002
specified	-5003
splitlines	-5004
▁statements	-5005
#"	-5006
.%	-5007
2_	-5008
();	-5009
038	-5010
14-	-5011
AIT	-5012
Des	-5013
PEC	-5014
acy	-5015
▁DI	-5016
▁{"	-5017
()",	-5018
()))	-5019
CALL	-5020
span	-5021
urse	-5022
▁'<'	-5023
▁256	-5024
▁MIC	-5025
▁ORD	-5026
▁etc	-5027
▁say	-5028
-314-	-5029
LOCAL	-5030
colon	-5031
ience	-5032
uffer	-5033
▁gets	-5034
▁html	-5035
IOBase	-5036
VISION	-5037
tagged	-5038
▁Event	-5039
▁night	-5040
wrapped	-5041
▁DELETE	-5042
▁expect	-5043
Callable	-5044
fallback	-5045
▁extract	-5046
▁failure	-5047
prefixlen	-5048
▁reserved	-5049
▁software	-5050
▁resulting	-5051
▁determined	-5052
▁permission	-5053
implementation	-5054
(\	-5055
BUG	-5056
DEP	-5057
PUT	-5058
RED	-5059
RIA	-5060
▁[(	-5061
▁tt	-5062
.0.0	-5063
Over	-5064
ider	-5065
king	-5066
need	-5067
ross	-5068
▁'|'	-5069
▁'~'	-5070
▁idx	-5071
▁obs	-5072
Group	-5073
RIAGE	-5074
Trans	-5075
slash	-5076
▁LINK	-5077
▁INDIC	-5078
▁blank	-5079
▁delta	-5080
▁globs	-5081
▁enough	-5082
▁semant	-5083
metadata	-5084
pathname	-5085
readable	-5086
▁Counter	-5087
▁ORDINAL	-5088
▁rawdata	-5089
▁CARRIAGE	-5090
▁guarante	-5091
▁nextchar	-5092
▁received	-5093
▁registry	-5094
▁BACKSPACE	-5095
▁INDICATOR	-5096
▁buffering	-5097
▁indicates	-5098
59	-5099
MD	-5100
SM	-5101
('_	-5102
063	-5103
19'	-5104
IRY	-5105
RIB	-5106
ROM	-5107
Ref	-5108
sum	-5109
▁"{	-5110
▁IE	-5111
▁Or	-5112
NING	-5113
flto	-5114
quit	-5115
▁'^'	-5116
▁Don	-5117
▁der	-5118
QUIRY	-5119
pires	-5120
where	-5121
▁BELL	-5122
▁They	-5123
Runner	-5124
ensure	-5125
intype	-5126
vision	-5127
▁GROUP	-5128
▁works	-5129
location	-5130
▁ENQUIRY	-5131
▁HEADING	-5132
▁linesep	-5133
▁NEGATIVE	-5134
▁password	-5135
▁sentinel	-5136
attributes	-5137
▁addresses	-5138
▁iteration	-5139
▁processing	-5140
▁SYNCHRONOUS	-5141
67	-5142
On	-5143
SF	-5144
12'	-5145
14'	-5146
[2:	-5147
cnt	-5148
roy	-5149
▁'`	-5150
CONF	-5151
Mode	-5152
['__	-5153
__']	-5154
memo	-5155
xies	-5156
▁'1'	-5157
▁Cap	-5158
▁POS	-5159
▁cte	-5160
▁imm	-5161
WRITE	-5162
iving	-5163
serve	-5164
▁comb	-5165
▁hard	-5166
▁math	-5167
cached	-5168
▁SHORT	-5169
▁angle	-5170
▁slice	-5171
waiters	-5172
▁divmod	-5173
▁sample	-5174
received	-5175
▁aliases	-5176
▁capital	-5177
▁handled	-5178
functools	-5179
ification	-5180
locations	-5181
▁DIVISION	-5182
isinstance	-5183
InvalidOperation	-5184
(%	-5185
.2	-5186
40	-5187
63	-5188
IK	-5189
bp	-5190
mk	-5191
07'	-5192
18'	-5193
Str	-5194
pyc	-5195
▁32	-5196
('-1	-5197
(1);	-5198
MAPP	-5199
post	-5200
trie	-5201
▁'9'	-5202
▁seg	-5203
__'):	-5204
plain	-5205
▁Auth	-5206
▁move	-5207
signed	-5208
triple	-5209
OSError	-5210
feature	-5211
rawdata	-5212
windows	-5213
▁Assert	-5214
▁altern	-5215
▁helper	-5216
▁origin	-5217
▁proble	-5218
Argument	-5219
sendfile	-5220
urrogate	-5221
▁boolean	-5222
▁hostname	-5223
▁+--------	-5224
▁standardMsg	-5225
57	-5226
61	-5227
97	-5228
HO	-5229
SK	-5230
dl	-5231
wm	-5232
11'	-5233
15'	-5234
64:	-5235
=2)	-5236
CUR	-5237
euc	-5238
got	-5239
ids	-5240
▁%(	-5241
MARK	-5242
PREF	-5243
atom	-5244
▁'!'	-5245
▁big	-5246
Nodes	-5247
START	-5248
▁IOTA	-5249
▁fold	-5250
Finder	-5251
Socket	-5252
atcher	-5253
binary	-5254
▁flush	-5255
▁refer	-5256
2345678	-5257
Include	-5258
LDFLAGS	-5259
ilities	-5260
serving	-5261
▁frames	-5262
▁opened	-5263
cheduled	-5264
▁maxsize	-5265
▁waiting	-5266
EventLoop	-5267
▁metadata	-5268
▁blocksize	-5269
▁memoryview	-5270
05'	-5271
08'	-5272
17'	-5273
COD	-5274
['_	-5275
▁3:	-5276
ATEG	-5277
cert	-5278
frac	-5279
refs	-5280
▁'3'	-5281
▁fmt	-5282
▁mer	-5283
ITION	-5284
Mixin	-5285
delay	-5286
inery	-5287
isdir	-5288
spawn	-5289
umber	-5290
▁dirs	-5291
▁mult	-5292
helper	-5293
▁Parse	-5294
▁WARRA	-5295
▁datab	-5296
▁power	-5297
objects	-5298
setitem	-5299
written	-5300
▁Capule	-5301
▁Normal	-5302
▁respon	-5303
▁unpack	-5304
descript	-5305
okenList	-5306
relative	-5307
▁started	-5308
▁treated	-5309
▁Protocol	-5310
▁keywords	-5311
compressed	-5312
▁predicate	-5313
▁classmethod	-5314
52	-5315
72	-5316
=3	-5317
CY	-5318
UD	-5319
IES	-5320
ZMA	-5321
]))	-5322
▁Go	-5323
▁Po	-5324
▁Sp	-5325
▁WH	-5326
▁gh	-5327
▁nt	-5328
▁pe	-5329
▁sq	-5330
Like	-5331
ands	-5332
chor	-5333
gral	-5334
none	-5335
save	-5336
ties	-5337
▁'2'	-5338
▁199	-5339
▁mbc	-5340
upper	-5341
▁json	-5342
▁view	-5343
cluded	-5344
typing	-5345
KEYWORD	-5346
filters	-5347
▁Header	-5348
latforms	-5349
upported	-5350
▁However	-5351
Formatter	-5352
extension	-5353
importlib	-5354
▁writable	-5355
▁determine	-5356
▁frozenset	-5357
▁temporary	-5358
▁timestamp	-5359
▁overridden	-5360
▁descriptors	-5361
58	-5362
93	-5363
Sh	-5364
TO	-5365
cu	-5366
my	-5367
()`	-5368
CLA	-5369
Dis	-5370
ENV	-5371
▁12	-5372
UPLE	-5373
cell	-5374
mach	-5375
ynam	-5376
▁":"	-5377
▁'7'	-5378
▁Tar	-5379
▁rea	-5380
▁seq	-5381
EVENT	-5382
theme	-5383
▁acce	-5384
▁draw	-5385
▁suit	-5386
ATTRIB	-5387
Option	-5388
PYTHON	-5389
▁Since	-5390
Windows	-5391
locking	-5392
▁Handle	-5393
getstate	-5394
▁UPSILON	-5395
▁padding	-5396
▁Buffered	-5397
▁compiler	-5398
▁intended	-5399
▁terminal	-5400
▁tokenize	-5401
▁backwards	-5402
▁represents	-5403
▁specification	-5404
(-	-5405
1)	-5406
68	-5407
74	-5408
Do	-5409
EK	-5410
FI	-5411
To	-5412
ln	-5413
-1)	-5414
1",	-5415
AGE	-5416
Can	-5417
ELD	-5418
ipv	-5419
▁),	-5420
▁HA	-5421
ured	-5422
walk	-5423
▁'4'	-5424
▁'5'	-5425
▁'6'	-5426
▁'8'	-5427
▁'`'	-5428
▁Log	-5429
▁eas	-5430
▁nor	-5431
▁why	-5432
caten	-5433
found	-5434
issue	-5435
pairs	-5436
▁DIAL	-5437
▁home	-5438
▁upon	-5439
CONFIG	-5440
compat	-5441
entral	-5442
urllib	-5443
▁"""#"	-5444
▁EMPTY	-5445
▁SIGMA	-5446
▁const	-5447
▁death	-5448
▁micro	-5449
▁qname	-5450
▁slots	-5451
▁trunc	-5452
=======	-5453
ATEGORY	-5454
subtype	-5455
▁contin	-5456
executor	-5457
setstate	-5458
character	-5459
▁includes	-5460
▁beginning	-5461
ImportError	-5462
RequestHandler	-5463
62	-5464
('2	-5465
(?:	-5466
GEN	-5467
IKA	-5468
KEN	-5469
PRO	-5470
dio	-5471
irt	-5472
oke	-5473
une	-5474
xff	-5475
='',	-5476
AGES	-5477
INET	-5478
LACK	-5479
RECT	-5480
duct	-5481
repl	-5482
▁ANY	-5483
▁DAM	-5484
▁lex	-5485
=-1):	-5486
YTIKA	-5487
alive	-5488
drive	-5489
ersco	-5490
iline	-5491
quare	-5492
utils	-5493
▁Enum	-5494
Called	-5495
caches	-5496
lstrip	-5497
unlink	-5498
▁POUND	-5499
▁array	-5500
▁colle	-5501
Default	-5502
▁broken	-5503
Encoding	-5504
Expected	-5505
andidate	-5506
~~~~~~~~	-5507
▁Address	-5508
▁decoder	-5509
▁filters	-5510
▁metavar	-5511
printable	-5512
▁argparse	-5513
▁bytecode	-5514
▁fragment	-5515
▁separate	-5516
▁DIALYTIKA	-5517
▁debugging	-5518
▁remainder	-5519
▁TurtleScreen	-5520
./	-5521
84	-5522
94	-5523
At	-5524
64,	-5525
GTH	-5526
TXT	-5527
pow	-5528
▁1]	-5529
▁Mo	-5530
▁WS	-5531
BASE	-5532
__')	-5533
cast	-5534
▁0),	-5535
▁DOM	-5536
▁Pos	-5537
▁SRE	-5538
▁sen	-5539
2022_	-5540
ILTER	-5541
VALUE	-5542
cdata	-5543
fully	-5544
▁Then	-5545
▁plus	-5546
▁zone	-5547
ibling	-5548
paused	-5549
▁colon	-5550
▁fixed	-5551
Convert	-5552
ITIONAL	-5553
prepare	-5554
▁checks	-5555
▁groups	-5556
Executor	-5557
normcase	-5558
▁resolve	-5559
recursive	-5560
▁possibly	-5561
setdefault	-5562
▁Parameter	-5563
83	-5564
8_	-5565
('.	-5566
ITS	-5567
dbm	-5568
jis	-5569
Fail	-5570
Same	-5571
free	-5572
push	-5573
umns	-5574
utes	-5575
▁Hel	-5576
▁Raw	-5577
▁sec	-5578
inted	-5579
older	-5580
uting	-5581
▁Also	-5582
▁zlib	-5583
GLOBAL	-5584
justed	-5585
labels	-5586
losure	-5587
single	-5588
▁taken	-5589
Sibling	-5590
▁ISOlat	-5591
continue	-5592
venience	-5593
▁SECTION	-5594
▁Special	-5595
▁install	-5596
▁tarfile	-5597
formatter	-5598
sensitive	-5599
timestamp	-5600
▁addition	-5601
▁timezone	-5602
description	-5603
/1	-5604
82	-5605
Su	-5606
[_	-5607
td	-5608
yb	-5609
00)	-5610
FUN	-5611
LIC	-5612
PHA	-5613
▁'"	-5614
▁BE	-5615
('--	-5616
IRST	-5617
LECT	-5618
WARE	-5619
conf	-5620
gacy	-5621
reek	-5622
▁BAR	-5623
▁Cal	-5624
▁USE	-5625
ICODE	-5626
Named	-5627
PROTO	-5628
ROKEN	-5629
force	-5630
ggest	-5631
ining	-5632
ively	-5633
maybe	-5634
qname	-5635
▁Call	-5636
▁Here	-5637
▁Skip	-5638
▁fair	-5639
▁prog	-5640
Config	-5641
__()",	-5642
isting	-5643
rences	-5644
urrent	-5645
▁gives	-5646
example	-5647
ulation	-5648
▁cursor	-5649
▁loaded	-5650
▁netloc	-5651
curframe	-5652
▁mutable	-5653
▁passing	-5654
▁various	-5655
▁resolved	-5656
▁subpattern	-5657
][	-5658
gu	-5659
ik	-5660
033	-5661
Ent	-5662
GER	-5663
oll	-5664
tty	-5665
ulo	-5666
▁te	-5667
0004	-5668
HAND	-5669
dapt	-5670
decl	-5671
json	-5672
leep	-5673
ness	-5674
seen	-5675
▁Ass	-5676
▁GNU	-5677
▁CFWS	-5678
▁site	-5679
######	-5680
ointer	-5681
▁basic	-5682
▁coeff	-5683
▁stuff	-5684
▁upper	-5685
▁wrong	-5686
bufsize	-5687
cleanup	-5688
encodec	-5689
▁System	-5690
▁cached	-5691
▁quotes	-5692
pickling	-5693
▁callers	-5694
▁capture	-5695
▁outside	-5696
▁gencodec	-5697
descriptor	-5698
whitespace	-5699
▁Arguments	-5700
▁contained	-5701
▁semantics	-5702
▁implements	-5703
▁unexpected	-5704
71	-5705
MT	-5706
bs	-5707
ye	-5708
BYT	-5709
Map	-5710
Pdb	-5711
SUB	-5712
``.	-5713
gre	-5714
man	-5715
sax	-5716
}".	-5717
▁EP	-5718
ADER	-5719
BACK	-5720
FFER	-5721
OLIO	-5722
mult	-5723
udit	-5724
undo	-5725
unix	-5726
▁0.0	-5727
▁BIN	-5728
▁Tho	-5729
[0-9]	-5730
ceive	-5731
nargs	-5732
stems	-5733
▁BENV	-5734
▁able	-5735
▁imap	-5736
▁none	-5737
PECIAL	-5738
ferred	-5739
▁MICRO	-5740
▁POSIX	-5741
▁stats	-5742
details	-5743
outines	-5744
▁resume	-5745
▁symbol	-5746
▁tzinfo	-5747
Function	-5748
itialize	-5749
validate	-5750
▁invoked	-5751
▁respect	-5752
Generator	-5753
▁BENVOLIO	-5754
▁notation	-5755
▁allowance	-5756
▁immutable	-5757
▁platforms	-5758
EncodeError	-5759
▁significant	-5760
5)	-5761
MS	-5762
]"	-5763
012	-5764
3.1	-5765
EGA	-5766
dia	-5767
llo	-5768
rab	-5769
▁OM	-5770
▁Sh	-5771
()".	-5772
0003	-5773
=[],	-5774
ENCE	-5775
Item	-5776
UTIO	-5777
ject	-5778
rase	-5779
vant	-5780
▁ALL	-5781
▁INF	-5782
▁Non	-5783
▁PHI	-5784
▁bpo	-5785
▁suc	-5786
align	-5787
equal	-5788
globs	-5789
ratio	-5790
ybalt	-5791
BUFFER	-5792
ESPACE	-5793
Status	-5794
endian	-5795
ifiers	-5796
irtual	-5797
kinter	-5798
lookup	-5799
mapped	-5800
strong	-5801
▁BLACK	-5802
▁OMEGA	-5803
▁Stack	-5804
▁clean	-5805
▁shift	-5806
▁timer	-5807
Builder	-5808
IOError	-5809
sequent	-5810
▁Method	-5811
▁Server	-5812
▁retrie	-5813
comments	-5814
structor	-5815
▁Capulet	-5816
▁doctest	-5817
▁sockets	-5818
Parameter	-5819
▁MERCUTIO	-5820
▁checking	-5821
▁patterns	-5822
POSITIONAL	-5823
▁displayed	-5824
▁metaclass	-5825
▁compressed	-5826
▁everything	-5827
▁interactive	-5828
ancelledError	-5829
▁AssertionError	-5830
81	-5831
91	-5832
CF	-5833
▁~	-5834
>',	-5835
ARP	-5836
LOG	-5837
__}	-5838
alf	-5839
ran	-5840
▁Py	-5841
▁TA	-5842
AMZA	-5843
BUIL	-5844
JECT	-5845
MODE	-5846
enge	-5847
icen	-5848
proc	-5849
rows	-5850
soft	-5851
ught	-5852
▁mis	-5853
▁pkg	-5854
BOUND	-5855
RENCY	-5856
ially	-5857
legal	-5858
tests	-5859
times	-5860
▁List	-5861
▁Writ	-5862
▁runs	-5863
▁turn	-5864
Record	-5865
counts	-5866
expand	-5867
▁HAMZA	-5868
▁SHARP	-5869
▁clone	-5870
cursion	-5871
failure	-5872
linesep	-5873
netmask	-5874
rection	-5875
▁Tybalt	-5876
▁curses	-5877
Abstract	-5878
generate	-5879
previous	-5880
▁EPSILON	-5881
▁history	-5882
▁subtype	-5883
▁testing	-5884
▁usually	-5885
▁CURRENCY	-5886
▁EOFError	-5887
▁blocking	-5888
▁database	-5889
▁generate	-5890
▁structure	-5891
▁SyntaxError	-5892
▁replacement	-5893
lockingIOError	-5894
69	-5895
73	-5896
em	-5897
gi	-5898
wb	-5899
|\	-5900
DOM	-5901
OML	-5902
crc	-5903
ens	-5904
ier	-5905
urg	-5906
}'.	-5907
RIAR	-5908
SMTP	-5909
SOCK	-5910
User	-5911
buff	-5912
ixed	-5913
mbed	-5914
spam	-5915
ssed	-5916
▁*__	-5917
▁COP	-5918
▁Can	-5919
▁Col	-5920
▁LAM	-5921
▁Net	-5922
▁Try	-5923
arest	-5924
cased	-5925
klass	-5926
words	-5927
▁IMAP	-5928
▁circ	-5929
▁post	-5930
BINARY	-5931
random	-5932
sented	-5933
▁FRIAR	-5934
-8859-1	-5935
LITERAL	-5936
doctype	-5937
▁active	-5938
▁intern	-5939
▁runner	-5940
nodeType	-5941
▁Convert	-5942
▁Support	-5943
▁authkey	-5944
▁opcodes	-5945
condition	-5946
ermission	-5947
translate	-5948
▁modified	-5949
▁probably	-5950
forkserver	-5951
▁positions	-5952
90	-5953
SD	-5954
na	-5955
(':	-5956
pon	-5957
tic	-5958
xit	-5959
▁sc	-5960
.'''	-5961
Help	-5962
Temp	-5963
[0];	-5964
▁Map	-5965
▁due	-5966
▁ftp	-5967
▁sym	-5968
)."""	-5969
Popen	-5970
delim	-5971
funcs	-5972
https	-5973
ordin	-5974
▁cell	-5975
▁mime	-5976
SELECT	-5977
[0]=1;	-5978
ertain	-5979
▁ALPHA	-5980
▁fname	-5981
▁klass	-5982
▁mtime	-5983
▁nodes	-5984
▁prece	-5985
▁quiet	-5986
▁sever	-5987
▁spawn	-5988
cookies	-5989
heading	-5990
variate	-5991
▁larger	-5992
▁reduce	-5993
▁things	-5994
TestCase	-5995
getvalue	-5996
▁actions	-5997
▁derived	-5998
▁execute	-5999
▁follows	-6000
▁included	-6001
▁priority	-6002
▁copyright	-6003
▁linecache	-6004
istribution	-6005
▁markobject	-6006
▁namedtuple	-6007
multiprocessing	-6008
-%	-6009
CO	-6010
sw	-6011
'\\	-6012
(",	-6013
/__	-6014
Ext	-6015
RAL	-6016
gon	-6017
rop	-6018
xab	-6019
▁"&	-6020
▁EM	-6021
0022	-6022
FAST	-6023
HECK	-6024
LIST	-6025
RAIN	-6026
VARS	-6027
agic	-6028
once	-6029
▁mon	-6030
[-1].	-6031
rabic	-6032
regex	-6033
super	-6034
▁Exec	-6035
▁TOML	-6036
▁rows	-6037
YRIGHT	-6038
lashes	-6039
public	-6040
▁'\\',	-6041
▁comma	-6042
▁leave	-6043
ference	-6044
finally	-6045
▁ACTION	-6046
▁canvas	-6047
▁entity	-6048
elements	-6049
password	-6050
unittest	-6051
▁Timeout	-6052
▁dirname	-6053
▁weekday	-6054
arguments	-6055
▁Sequence	-6056
▁compiled	-6057
▁occurred	-6058
▁stripped	-6059
▁suitable	-6060
unexpected	-6061
▁filenames	-6062
▁extensions	-6063
Sp	-6064
ov	-6065
▁$	-6066
()'	-6067
-8'	-6068
``,	-6069
cwd	-6070
rup	-6071
uni	-6072
▁15	-6073
▁rv	-6074
NULL	-6075
abet	-6076
high	-6077
home	-6078
ited	-6079
lang	-6080
onic	-6081
ople	-6082
shot	-6083
▁fra	-6084
▁pwd	-6085
Count	-6086
Raise	-6087
aring	-6088
retch	-6089
tions	-6090
▁Args	-6091
▁adds	-6092
▁cert	-6093
▁glob	-6094
▁tear	-6095
▁walk	-6096
CFLAGS	-6097
Werror	-6098
ancell	-6099
minute	-6100
report	-6101
rupted	-6102
▁clock	-6103
▁going	-6104
▁guess	-6105
entries	-6106
offsets	-6107
▁nbytes	-6108
prefixes	-6109
▁handles	-6110
▁unbound	-6111
▁accepted	-6112
precedence	-6113
▁efficient	-6114
▁separated	-6115
▁Permission	-6116
▁initializer	-6117
▁instruction	-6118
ownerDocument	-6119
6.	-6120
7.	-6121
?)	-6122
By	-6123
EE	-6124
16_	-6125
822	-6126
:",	-6127
="%	-6128
IPS	-6129
mer	-6130
xbb	-6131
▁._	-6132
▁ok	-6133
▁ss	-6134
0085	-6135
10**	-6136
SUFF	-6137
Wait	-6138
arry	-6139
bool	-6140
else	-6141
feed	-6142
road	-6143
utos	-6144
▁"".	-6145
▁ANS	-6146
▁May	-6147
▁STR	-6148
▁sir	-6149
FIELD	-6150
NTIES	-6151
utine	-6152
▁AUTH	-6153
▁ends	-6154
▁pool	-6155
▁prov	-6156
▁rand	-6157
▁wake	-6158
getter	-6159
serial	-6160
trials	-6161
▁Annot	-6162
▁cover	-6163
▁enter	-6164
▁patch	-6165
▁plain	-6166
▁style	-6167
browser	-6168
resolve	-6169
results	-6170
▁Arabic	-6171
▁adding	-6172
▁daemon	-6173
▁transl	-6174
compiler	-6175
operator	-6176
rounding	-6177
▁Section	-6178
▁deleted	-6179
▁systems	-6180
ATTRIBUTE	-6181
including	-6182
surrogate	-6183
utcoffset	-6184
▁Internal	-6185
▁Resource	-6186
▁binascii	-6187
▁requests	-6188
▁resources	-6189
▁unchanged	-6190
▁Statistics	-6191
▁WARRANTIES	-6192
▁concurrent	-6193
▁definitions	-6194
▁optimization	-6195
________________	-6196
1_	-6197
TR	-6198
lf	-6199
zh	-6200
MAC	-6201
SYS	-6202
cer	-6203
inv	-6204
ops	-6205
ton	-6206
▁Ap	-6207
▁rc	-6208
From	-6209
calc	-6210
kill	-6211
toff	-6212
unch	-6213
uous	-6214
▁102	-6215
▁EXT	-6216
▁LAW	-6217
▁art	-6218
▁rot	-6219
Index	-6220
RENCE	-6221
ULLET	-6222
until	-6223
yield	-6224
▁desi	-6225
▁didn	-6226
▁fork	-6227
▁spam	-6228
LENGTH	-6229
factor	-6230
ground	-6231
▁Nurse	-6232
▁Start	-6233
▁prior	-6234
allenge	-6235
utospec	-6236
▁BULLET	-6237
▁Thread	-6238
▁height	-6239
▁modulo	-6240
▁others	-6241
▁simply	-6242
▁yields	-6243
category	-6244
▁Written	-6245
▁subject	-6246
connected	-6247
multipart	-6248
▁LAWRENCE	-6249
▁Reserved	-6250
▁SOFTWARE	-6251
▁division	-6252
childNodes	-6253
▁COPYRIGHT	-6254
▁correctly	-6255
▁dataclass	-6256
▁depending	-6257
▁processed	-6258
------------+	-6259
////////////////	-6260
(0	-6261
*)	-6262
.\	-6263
><	-6264
Qu	-6265
(2,	-6266
)".	-6267
125	-6268
222	-6269
227	-6270
ARG	-6271
DES	-6272
IFY	-6273
Log	-6274
REF	-6275
ane	-6276
but	-6277
enc	-6278
rpc	-6279
xFD	-6280
}.{	-6281
▁SO	-6282
▁fl	-6283
0025	-6284
exce	-6285
▁enc	-6286
IPSIS	-6287
Start	-6288
dDict	-6289
metic	-6290
mount	-6291
scope	-6292
▁Find	-6293
▁THIS	-6294
▁Task	-6295
Filter	-6296
chunks	-6297
daemon	-6298
onical	-6299
▁"""),	-6300
▁depth	-6301
▁often	-6302
Special	-6303
opcodes	-6304
▁fileno	-6305
▁passwd	-6306
▁shutil	-6307
▁window	-6308
listener	-6309
reserved	-6310
▁appears	-6311
▁greater	-6312
▁printed	-6313
Precedence	-6314
ProtocolState	-6315
▁asynchronous	-6316
OB	-6317
Pr	-6318
jk	-6319
ks	-6320
()]	-6321
Col	-6322
ORS	-6323
URL	-6324
gid	-6325
rec	-6326
tls	-6327
xBB	-6328
xfb	-6329
Auth	-6330
DEPS	-6331
Work	-6332
cfws	-6333
eros	-6334
idle	-6335
umul	-6336
▁"")	-6337
▁fds	-6338
▁hig	-6339
▁hol	-6340
▁ide	-6341
KRAIN	-6342
Stack	-6343
curse	-6344
dices	-6345
ircle	-6346
ising	-6347
slice	-6348
▁Need	-6349
▁Open	-6350
▁away	-6351
▁hath	-6352
▁hook	-6353
Action	-6354
SUFFIX	-6355
entity	-6356
gether	-6357
phabet	-6358
pwrite	-6359
▁EVENT	-6360
▁alive	-6361
▁ctype	-6362
▁octet	-6363
Section	-6364
TIMEOUT	-6365
UNICODE	-6366
complex	-6367
logical	-6368
private	-6369
rectory	-6370
▁finish	-6371
▁tokens	-6372
KRAINIAN	-6373
hashable	-6374
ithmetic	-6375
unctions	-6376
versable	-6377
▁cleanup	-6378
▁creates	-6379
▁reached	-6380
▁session	-6381
flowError	-6382
sequences	-6383
▁normally	-6384
▁reversed	-6385
▁symlinks	-6386
compression	-6387
▁separators	-6388
'<	-6389
);	-6390
2(	-6391
6)	-6392
EW	-6393
bg	-6394
"")	-6395
(("	-6396
)",	-6397
***	-6398
-1,	-6399
IFF	-6400
IOW	-6401
UNK	-6402
bra	-6403
she	-6404
xED	-6405
▁20	-6406
▁4,	-6407
▁CH	-6408
▁es	-6409
▁})	-6410
FFFF	-6411
SING	-6412
Size	-6413
WARD	-6414
circ	-6415
dian	-6416
etch	-6417
fast	-6418
lazy	-6419
pies	-6420
ptim	-6421
stit	-6422
▁"--	-6423
STORE	-6424
TERED	-6425
ceeds	-6426
pilog	-6427
water	-6428
wraps	-6429
▁DARK	-6430
▁Flag	-6431
▁atom	-6432
▁pers	-6433
▁prot	-6434
Policy	-6435
Remove	-6436
Source	-6437
isfile	-6438
notify	-6439
▁Licen	-6440
▁incre	-6441
▁multi	-6442
▁reply	-6443
▁theme	-6444
choices	-6445
profile	-6446
related	-6447
tarfile	-6448
▁affect	-6449
▁detail	-6450
▁subset	-6451
▁trying	-6452
▁worker	-6453
boundary	-6454
security	-6455
segments	-6456
▁DAMAGES	-6457
▁closing	-6458
▁restore	-6459
IOWrapper	-6460
normalize	-6461
threading	-6462
▁conflict	-6463
▁indicate	-6464
▁prefixes	-6465
/2	-6466
4]	-6467
bz	-6468
go	-6469
▁’	-6470
64'	-6471
92'	-6472
></	-6473
APP	-6474
LIM	-6475
Lib	-6476
ORN	-6477
cli	-6478
ird	-6479
nap	-6480
ont	-6481
xAC	-6482
xAD	-6483
xEA	-6484
xEB	-6485
xEC	-6486
xEE	-6487
xEF	-6488
▁19	-6489
▁Tr	-6490
▁xc	-6491
COMP	-6492
DATA	-6493
Open	-6494
draw	-6495
libc	-6496
lish	-6497
sqrt	-6498
▁Bad	-6499
▁GHE	-6500
▁Let	-6501
▁pad	-6502
▁und	-6503
▁utf	-6504
Check	-6505
ULTIP	-6506
audit	-6507
crete	-6508
iding	-6509
▁CENT	-6510
▁copi	-6511
▁meth	-6512
PORTED	-6513
litext	-6514
▁LOWER	-6515
▁UPPER	-6516
▁Union	-6517
▁greek	-6518
▁saved	-6519
library	-6520
▁Remove	-6521
▁Should	-6522
▁having	-6523
template	-6524
untagged	-6525
▁indices	-6526
▁attempts	-6527
▁implicit	-6528
▁undersco	-6529
namespaces	-6530
▁behaviour	-6531
▁getcontext	-6532
microseconds	-6533
annotationlib	-6534
*(	-6535
LT	-6536
_2	-6537
gb	-6538
gz	-6539
kr	-6540
100	-6541
219	-6542
64_	-6543
__*	-6544
cdf	-6545
ibm	-6546
ios	-6547
xAA	-6548
xAB	-6549
xAF	-6550
xBA	-6551
xBC	-6552
xBD	-6553
xBF	-6554
xCA	-6555
xCB	-6556
xCC	-6557
xCD	-6558
xCE	-6559
xCF	-6560
xDA	-6561
xDF	-6562
xFA	-6563
xac	-6564
▁/)	-6565
▁3)	-6566
▁DA	-6567
▁TE	-6568
▁ol	-6569
WITH	-6570
[1])	-6571
comm	-6572
have	-6573
plat	-6574
poch	-6575
rena	-6576
scan	-6577
what	-6578
▁blo	-6579
▁fit	-6580
▁hit	-6581
▁pie	-6582
CHECK	-6583
DESCR	-6584
EXCEP	-6585
ained	-6586
blank	-6587
chmod	-6588
pager	-6589
ponse	-6590
uname	-6591
under	-6592
▁Join	-6593
▁desc	-6594
▁slot	-6595
Buffer	-6596
plural	-6597
pthook	-6598
tained	-6599
▁adapt	-6600
▁comes	-6601
▁embed	-6602
▁expan	-6603
▁graph	-6604
SECTION	-6605
Wrapper	-6606
summary	-6607
tkinter	-6608
▁Cookie	-6609
▁attemp	-6610
▁minute	-6611
▁recomm	-6612
▁repeat	-6613
23456789	-6614
entities	-6615
getframe	-6616
▁BytesIO	-6617
▁certain	-6618
▁disable	-6619
▁happens	-6620
▁skipped	-6621
▁startup	-6622
remainder	-6623
▁floating	-6624
▁fromlist	-6625
▁together	-6626
unregister	-6627
▁delimiter	-6628
▁prefixlen	-6629
▁compatible	-6630
▁completion	-6631
▁returncode	-6632
------------	-6633
getattribute	-6634
▁interpreted	-6635
▁StatisticsError	-6636
>%	-6637
rx	-6638
(**	-6639
232	-6640
ABC	-6641
IFI	-6642
TLS	-6643
__]	-6644
ava	-6645
sec	-6646
xBE	-6647
xFB	-6648
▁./	-6649
▁SU	-6650
ARCH	-6651
CROW	-6652
PEAT	-6653
Stop	-6654
USER	-6655
cons	-6656
ency	-6657
lack	-6658
some	-6659
▁PIL	-6660
▁UTC	-6661
▁[],	-6662
▁pax	-6663
▁tab	-6664
archy	-6665
chors	-6666
cread	-6667
fatal	-6668
infos	-6669
▁deal	-6670
▁ever	-6671
▁feed	-6672
▁talk	-6673
XMLRPC	-6674
finish	-6675
hidden	-6676
pagate	-6677
stdlib	-6678
▁After	-6679
▁ERROR	-6680
▁repla	-6681
limited	-6682
matches	-6683
unquote	-6684
▁BROKEN	-6685
▁cancel	-6686
▁giving	-6687
▁master	-6688
▁maxlen	-6689
▁people	-6690
▁triple	-6691
contents	-6692
optional	-6693
seekable	-6694
▁PILCROW	-6695
▁heading	-6696
▁prepare	-6697
▁concaten	-6698
▁finished	-6699
▁mappings	-6700
▁suppress	-6701
▁important	-6702
▁contextlib	-6703
▁guaranteed	-6704
▁indentation	-6705
5]	-6706
NL	-6707
[(	-6708
mu	-6709
'],	-6710
(',	-6711
)')	-6712
>')	-6713
ADY	-6714
Imp	-6715
__!	-6716
ftp	-6717
tom	-6718
xAE	-6719
xFE	-6720
xFF	-6721
zma	-6722
▁24	-6723
▁Ac	-6724
▁OP	-6725
DOWN	-6726
LONG	-6727
SEQU	-6728
ised	-6729
isin	-6730
nels	-6731
opri	-6732
ully	-6733
▁255	-6734
▁est	-6735
▁rfc	-6736
Input	-6737
ROUND	-6738
[-1])	-6739
acute	-6740
ength	-6741
mburg	-6742
mpath	-6743
otent	-6744
reply	-6745
uming	-6746
utput	-6747
▁LADY	-6748
▁feel	-6749
▁kill	-6750
▁poly	-6751
0338',	-6752
Closed	-6753
Comple	-6754
DIRECT	-6755
pprint	-6756
pyrepl	-6757
ulated	-6758
▁First	-6759
▁regex	-6760
▁setup	-6761
#######	-6762
Failure	-6763
correct	-6764
itoring	-6765
modname	-6766
segment	-6767
▁Comple	-6768
▁defect	-6769
▁dotted	-6770
▁legacy	-6771
▁likely	-6772
importer	-6773
readinto	-6774
▁general	-6775
EXCEPTION	-6776
available	-6777
bytearray	-6778
docstring	-6779
▁accessed	-6780
▁consider	-6781
▁consumed	-6782
▁newlines	-6783
▁redirect	-6784
▁protocols	-6785
▁indicating	-6786
-+	-6787
Or	-6788
az	-6789
ny	-6790
64.	-6791
RLF	-6792
UNI	-6793
]')	-6794
mbc	-6795
xDB	-6796
xDC	-6797
xDD	-6798
xDE	-6799
xFC	-6800
▁8,	-6801
▁Sc	-6802
▁\\	-6803
▁mm	-6804
="",	-6805
ICol	-6806
__")	-6807
inux	-6808
lips	-6809
poss	-6810
rule	-6811
want	-6812
weet	-6813
────	-6814
▁RES	-6815
▁acc	-6816
CODES	-6817
CTYPE	-6818
ailed	-6819
deque	-6820
dumps	-6821
expat	-6822
false	-6823
floor	-6824
msgid	-6825
▁CRLF	-6826
▁DASH	-6827
▁Like	-6828
▁soon	-6829
Number	-6830
canvas	-6831
divmod	-6832
holder	-6833
parsed	-6834
setter	-6835
shared	-6836
▁share	-6837
▁whole	-6838
IColors	-6839
abspath	-6840
builder	-6841
criptor	-6842
imation	-6843
indices	-6844
isearch	-6845
reverse	-6846
started	-6847
workers	-6848
▁inputs	-6849
▁places	-6850
▁scopes	-6851
SUFFIXES	-6852
Sequence	-6853
▁Command	-6854
▁becomes	-6855
▁bracket	-6856
▁columns	-6857
▁zipfile	-6858
▁annotate	-6859
▁colorize	-6860
▁interest	-6861
▁interval	-6862
▁suffixes	-6863
▁classdict	-6864
▁operators	-6865
unsupported	-6866
▁filesystem	-6867
▁properties	-6868
▁statistics	-6869
▁initialized	-6870
ValueTerminal	-6871
▁compresslevel	-6872
(2	-6873
8(	-6874
MM	-6875
[%	-6876
[\	-6877
]+	-6878
oi	-6879
▁?	-6880
('3	-6881
86-	-6882
=',	-6883
MAN	-6884
OOT	-6885
des	-6886
opf	-6887
xdc	-6888
~",	-6889
▁Ag	-6890
▁KA	-6891
▁LI	-6892
▁dy	-6893
32':	-6894
Left	-6895
MASK	-6896
REAM	-6897
TEST	-6898
must	-6899
ribu	-6900
rypt	-6901
same	-6902
▁"",	-6903
▁BOM	-6904
▁BRE	-6905
▁Dis	-6906
▁Fri	-6907
▁mut	-6908
Right	-6909
UMENT	-6910
alpha	-6911
bolic	-6912
cover	-6913
ffile	-6914
iddle	-6915
wards	-6916
▁1024	-6917
▁2001	-6918
▁NOTE	-6919
▁aren	-6920
▁conv	-6921
▁proc	-6922
▁prof	-6923
▁uuid	-6924
STREAM	-6925
cursor	-6926
though	-6927
▁Stats	-6928
▁Where	-6929
▁apply	-6930
▁ascii	-6931
▁model	-6932
forever	-6933
ocation	-6934
▁amount	-6935
▁applic	-6936
▁finder	-6937
Compress	-6938
adjusted	-6939
reversed	-6940
▁barrier	-6941
▁coordin	-6942
▁desired	-6943
▁introdu	-6944
▁looking	-6945
▁working	-6946
machinery	-6947
umulative	-6948
▁Callable	-6949
▁buffered	-6950
▁grouping	-6951
▁inherited	-6952
▁reduction	-6953
▁requested	-6954
Instruction	-6955
▁Connection	-6956
▁incomplete	-6957
▁supporting	-6958
▁declaration	-6959
AX	-6960
AY	-6961
22'	-6962
=",	-6963
LIN	-6964
PAT	-6965
crt	-6966
rot	-6967
tok	-6968
xad	-6969
xed	-6970
▁4.	-6971
▁ES	-6972
CURS	-6973
Copy	-6974
Tree	-6975
[:1]	-6976
lain	-6977
plus	-6978
pool	-6979
tems	-6980
▁-1,	-6981
▁fri	-6982
▁lay	-6983
▁tmp	-6984
*10**	-6985
DIGIT	-6986
TUPLE	-6987
ftime	-6988
isect	-6989
lared	-6990
power	-6991
rfind	-6992
share	-6993
▁HAND	-6994
▁TYPE	-6995
▁objc	-6996
LEMENT	-6997
blocks	-6998
breaks	-6999
double	-7000
failed	-7001
lipsis	-7002
▁REGIS	-7003
▁light	-7004
▁maybe	-7005
callers	-7006
delitem	-7007
ignored	-7008
napshot	-7009
unbound	-7010
▁AUTHOR	-7011
▁Rights	-7012
▁differ	-7013
▁prints	-7014
required	-7015
terminal	-7016
▁Context	-7017
▁TypeVar	-7018
▁acquire	-7019
▁proxies	-7020
TokenList	-7021
▁features	-7022
▁fraction	-7023
Descriptor	-7024
ctionaries	-7025
▁Functions	-7026
▁candidate	-7027
▁framework	-7028
▁therefore	-7029
▁ANSIColors	-7030
▁REGISTERED	-7031
▁coroutines	-7032
▁functional	-7033
▁specifying	-7034
▁targetpath	-7035
PoolExecutor	-7036
▁connections	-7037
▁denominator	-7038
▁destination	-7039
(4	-7040
SI	-7041
[2	-7042
sd	-7043
ze	-7044
"])	-7045
+1]	-7046
228	-7047
999	-7048
And	-7049
Non	-7050
POP	-7051
enu	-7052
pad	-7053
wik	-7054
xdf	-7055
xfc	-7056
▁53	-7057
▁60	-7058
▁64	-7059
▁AF	-7060
▁CR	-7061
▁Ma	-7062
▁PY	-7063
▁`_	-7064
▁dr	-7065
)"""	-7066
Func	-7067
TERN	-7068
UNIX	-7069
WAIT	-7070
ctxt	-7071
imal	-7072
izes	-7073
mmar	-7074
such	-7075
▁Int	-7076
▁ann	-7077
▁few	-7078
▁ipv	-7079
Bytes	-7080
Clean	-7081
DEBUG	-7082
EGRAL	-7083
POSIX	-7084
anish	-7085
march	-7086
mbols	-7087
sible	-7088
using	-7089
while	-7090
▁Wait	-7091
▁care	-7092
▁four	-7093
▁lady	-7094
▁scan	-7095
HANDLE	-7096
REPEAT	-7097
Random	-7098
▁tries	-7099
eration	-7100
inherit	-7101
ousands	-7102
sencode	-7103
threads	-7104
visible	-7105
▁Broken	-7106
▁approx	-7107
▁copies	-7108
▁device	-7109
▁making	-7110
▁pretty	-7111
8859-2',	-7112
Iterator	-7113
MAPPINGS	-7114
cognized	-7115
roadcast	-7116
sizemode	-7117
▁CPython	-7118
▁SPECIAL	-7119
▁argrepr	-7120
▁checker	-7121
▁destroy	-7122
▁gettext	-7123
▁pathlib	-7124
▁percent	-7125
▁problem	-7126
▁INTEGRAL	-7127
excepthook	-7128
monitoring	-7129
undobuffer	-7130
▁completed	-7131
▁connected	-7132
▁installed	-7133
▁arithmetic	-7134
▁components	-7135
▁subsequent	-7136
▁comparisons	-7137
ContextManager	-7138
surrogateescape	-7139
3)	-7140
8.	-7141
NK	-7142
RY	-7143
Wp	-7144
cm	-7145
">%	-7146
CLO	-7147
bre	-7148
fcf	-7149
lis	-7150
nor	-7151
ond	-7152
plt	-7153
rer	-7154
wer	-7155
xae	-7156
▁'*	-7157
▁AR	-7158
▁CO	-7159
▁HO	-7160
()._	-7161
-8')	-7162
CASE	-7163
Code	-7164
Cont	-7165
FORT	-7166
VEND	-7167
[:3]	-7168
conv	-7169
coun	-7170
ilde	-7171
page	-7172
roid	-7173
▁"."	-7174
▁1):	-7175
▁cut	-7176
▁dra	-7177
▁fig	-7178
▁lat	-7179
CLASS	-7180
clash	-7181
graph	-7182
magic	-7183
mtune	-7184
pends	-7185
trunc	-7186
zinfo	-7187
▁maps	-7188
86-64-	-7189
Failed	-7190
Multip	-7191
PREFIX	-7192
__()".	-7193
chanis	-7194
eature	-7195
ermios	-7196
fstack	-7197
opener	-7198
▁BREVE	-7199
▁codes	-7200
▁doing	-7201
▁dynam	-7202
▁early	-7203
▁looks	-7204
▁reach	-7205
▁sense	-7206
COMMENT	-7207
FORTIFY	-7208
METHODS	-7209
VENDORS	-7210
Wformat	-7211
chunked	-7212
escaped	-7213
matcher	-7214
ulename	-7215
▁MULTIP	-7216
▁getopt	-7217
▁writes	-7218
=======+	-7219
existing	-7220
▁accepts	-7221
▁however	-7222
▁imports	-7223
▁termios	-7224
▁topmost	-7225
countered	-7226
▁Iterator	-7227
▁compared	-7228
▁errwrite	-7229
▁listener	-7230
▁repeated	-7231
▁symbolic	-7232
SystemExit	-7233
isinfinity	-7234
▁selectors	-7235
checkClosed	-7236
fexceptions	-7237
interpreters	-7238
▁alternative	-7239
▁breakpoints	-7240
▁+-----------+	-7241
Al	-7242
_'	-7243
fy	-7244
jo	-7245
ni	-7246
ANT	-7247
OLD	-7248
Pos	-7249
dge	-7250
elt	-7251
mid	-7252
ril	-7253
toc	-7254
two	-7255
▁"1	-7256
▁1-	-7257
▁5,	-7258
▁</	-7259
▁PO	-7260
▁fs	-7261
▁yi	-7262
BOSE	-7263
STAT	-7264
View	-7265
[0]:	-7266
impl	-7267
note	-7268
ssue	-7269
▁FOR	-7270
▁pow	-7271
▁ren	-7272
=''):	-7273
ENDED	-7274
INDOW	-7275
decor	-7276
ragma	-7277
▁swit	-7278
▁warn	-7279
▁wild	-7280
Helper	-7281
Unable	-7282
change	-7283
decess	-7284
depend	-7285
getpid	-7286
keymap	-7287
needed	-7288
queues	-7289
tuples	-7290
▁Friar	-7291
▁stand	-7292
▁terms	-7293
▁track	-7294
Barrier	-7295
ZipFile	-7296
expires	-7297
iltered	-7298
tracker	-7299
umented	-7300
▁HANDLE	-7301
▁ISOnum	-7302
▁cycles	-7303
▁detect	-7304
Division	-7305
bytecode	-7306
limiters	-7307
▁assumed	-7308
▁central	-7309
▁onerror	-7310
▁outcome	-7311
▁records	-7312
▁related	-7313
▁several	-7314
constants	-7315
qualified	-7316
reakpoint	-7317
▁CATEGORY	-7318
▁StringIO	-7319
▁embedded	-7320
▁external	-7321
▁nonlocal	-7322
▁packages	-7323
identifier	-7324
▁=========	-7325
▁represented	-7326
'}	-7327
0]	-7328
8-	-7329
Is	-7330
YY	-7331
)).	-7332
+1,	-7333
ADD	-7334
Int	-7335
Std	-7336
aps	-7337
arb	-7338
xeb	-7339
▁"+	-7340
▁],	-7341
▁cv	-7342
RACT	-7343
With	-7344
[:2]	-7345
__))	-7346
canv	-7347
hmac	-7348
land	-7349
peek	-7350
▁'./	-7351
▁AIX	-7352
▁Ent	-7353
('1')	-7354
('192	-7355
Arrow	-7356
BUILD	-7357
INSTR	-7358
Union	-7359
grade	-7360
loads	-7361
sigma	-7362
▁SARA	-7363
▁Thou	-7364
▁disk	-7365
▁fact	-7366
▁flow	-7367
▁hope	-7368
▁norm	-7369
▁unix	-7370
LEADER	-7371
Turtle	-7372
arbage	-7373
kernel	-7374
nbytes	-7375
quires	-7376
rillic	-7377
sqlite	-7378
urther	-7379
▁Linux	-7380
▁THETA	-7381
▁Thank	-7382
▁aware	-7383
▁earli	-7384
chanism	-7385
linelen	-7386
mpwidth	-7387
success	-7388
wardRef	-7389
▁choice	-7390
▁ending	-7391
▁latter	-7392
▁manage	-7393
▁potent	-7394
override	-7395
pencolor	-7396
▁LITERAL	-7397
▁binding	-7398
▁buffers	-7399
▁builder	-7400
▁convers	-7401
▁enabled	-7402
▁escaped	-7403
▁grammar	-7404
▁logical	-7405
▁sending	-7406
▁servers	-7407
▁suggest	-7408
▁distribu	-7409
▁hashable	-7410
▁purposes	-7411
▁tempfile	-7412
clarations	-7413
compatible	-7414
debuglevel	-7415
▁specifier	-7416
constructor	-7417
formatMessage	-7418
▁ZipImportError	-7419
-\	-7420
DB	-7421
_,	-7422
uf	-7423
')]	-7424
=2,	-7425
BSD	-7426
INS	-7427
IPv	-7428
RFC	-7429
afe	-7430
irs	-7431
oct	-7432
xfa	-7433
}:{	-7434
▁25	-7435
▁5.	-7436
▁8-	-7437
▁ER	-7438
▁MU	-7439
▁Up	-7440
▁{_	-7441
00',	-7442
Char	-7443
SEEK	-7444
_16_	-7445
__":	-7446
ache	-7447
dele	-7448
gith	-7449
nans	-7450
▁ETH	-7451
▁NAM	-7452
▁PSF	-7453
▁TLS	-7454
▁URI	-7455
▁bug	-7456
▁iff	-7457
▁mid	-7458
Empty	-7459
alloc	-7460
elded	-7461
illed	-7462
nodes	-7463
prime	-7464
tague	-7465
timer	-7466
▁Move	-7467
▁hier	-7468
▁imag	-7469
▁pure	-7470
▁sear	-7471
▁term	-7472
▁unit	-7473
entDir	-7474
epends	-7475
github	-7476
ickler	-7477
malloc	-7478
orking	-7479
serted	-7480
▁Frame	-7481
▁Issue	-7482
▁Print	-7483
▁ROUND	-7484
▁THORN	-7485
▁Write	-7486
▁hence	-7487
▁impro	-7488
▁outer	-7489
▁sound	-7490
Browser	-7491
Feature	-7492
VERBOSE	-7493
parsing	-7494
▁Assume	-7495
▁Helper	-7496
▁listed	-7497
LICATION	-7498
Proactor	-7499
matching	-7500
sections	-7501
splitext	-7502
▁doctype	-7503
▁garbage	-7504
▁loggers	-7505
submodule	-7506
▁Examples	-7507
▁Montague	-7508
▁appended	-7509
▁operands	-7510
▁properly	-7511
overlapped	-7512
▁canonical	-7513
▁executing	-7514
▁normalize	-7515
ancellation	-7516
microsecond	-7517
optionflags	-7518
▁conditions	-7519
▁differences	-7520
▁specialized	-7521
contextmanager	-7522
▁MULTIPLICATION	-7523
??	-7524
EP	-7525
We	-7526
nb	-7527
rm	-7528
'",	-7529
+03	-7530
047	-7531
10(	-7532
2):	-7533
401	-7534
HAS	-7535
NEW	-7536
RES	-7537
SED	-7538
TYP	-7539
ami	-7540
ins	-7541
mor	-7542
xbd	-7543
xea	-7544
xee	-7545
▁"(	-7546
▁30	-7547
▁5:	-7548
▁cc	-7549
▁ge	-7550
▁jo	-7551
▁nc	-7552
▁ri	-7553
▁tp	-7554
=(),	-7555
=(3,	-7556
=1):	-7557
AMMA	-7558
HASH	-7559
HEAD	-7560
NotS	-7561
Only	-7562
ZSTD	-7563
__(*	-7564
glob	-7565
lear	-7566
made	-7567
math	-7568
more	-7569
orld	-7570
unct	-7571
}'".	-7572
▁1),	-7573
▁2.0	-7574
▁32-	-7575
▁CHE	-7576
▁ELL	-7577
▁ETA	-7578
▁Why	-7579
▁alt	-7580
▁ate	-7581
▁dev	-7582
PARAM	-7583
abort	-7584
dirty	-7585
major	-7586
query	-7587
▁FROM	-7588
▁OMIC	-7589
▁ROOT	-7590
▁Sign	-7591
▁Zstd	-7592
▁expr	-7593
▁junk	-7594
▁null	-7595
CUMENT	-7596
assign	-7597
column	-7598
finder	-7599
intern	-7600
▁Async	-7601
▁CONNE	-7602
▁Given	-7603
Pattern	-7604
doctest	-7605
pressed	-7606
scripts	-7607
▁Import	-7608
▁copied	-7609
▁endrec	-7610
▁marked	-7611
▁median	-7612
▁progra	-7613
SELECTED	-7614
timezone	-7615
▁OMICRON	-7616
▁defects	-7617
▁minimum	-7618
▁parents	-7619
▁produce	-7620
▁substit	-7621
▁summary	-7622
▁workers	-7623
▁ELLIPSIS	-7624
▁failures	-7625
▁identify	-7626
▁initargs	-7627
▁reported	-7628
▁systemId	-7629
▁Generator	-7630
▁callbacks	-7631
▁localName	-7632
▁multiline	-7633
▁providing	-7634
▁universal	-7635
▁SystemExit	-7636
▁recognized	-7637
namespaceURI	-7638
▁recursively	-7639
▁authentication	-7640
LF	-7641
qa	-7642
xr	-7643
(":	-7644
00:	-7645
CHA	-7646
EOF	-7647
HED	-7648
LTA	-7649
REG	-7650
UMP	-7651
cte	-7652
dat	-7653
eve	-7654
lan	-7655
mut	-7656
ung	-7657
▁14	-7658
▁2-	-7659
▁mk	-7660
(256	-7661
Find	-7662
LZMA	-7663
SCUL	-7664
_32_	-7665
arse	-7666
deep	-7667
docs	-7668
gzip	-7669
idom	-7670
mbig	-7671
tech	-7672
tool	-7673
▁2**	-7674
▁GET	-7675
▁IMP	-7676
▁NEW	-7677
▁YEH	-7678
▁YEN	-7679
▁adv	-7680
▁beg	-7681
▁chr	-7682
▁mor	-7683
▁rep	-7684
('0')	-7685
Match	-7686
aware	-7687
begin	-7688
codes	-7689
heses	-7690
three	-7691
tract	-7692
unnel	-7693
▁Both	-7694
▁HARD	-7695
▁decl	-7696
▁gent	-7697
▁hold	-7698
▁href	-7699
▁page	-7700
▁past	-7701
▁prim	-7702
MININE	-7703
atches	-7704
elcome	-7705
ounded	-7706
quotes	-7707
semble	-7708
sigint	-7709
verify	-7710
▁FIRST	-7711
▁Found	-7712
▁reuse	-7713
▁treat	-7714
Cleanup	-7715
ELEMENT	-7716
POINTER	-7717
SCULINE	-7718
metavar	-7719
tempdir	-7720
▁faster	-7721
▁invoke	-7722
▁marker	-7723
▁usable	-7724
calendar	-7725
interact	-7726
▁Pattern	-7727
▁TarInfo	-7728
▁account	-7729
▁discard	-7730
▁exposed	-7731
▁matched	-7732
▁segment	-7733
▁smaller	-7734
▁underst	-7735
▁yielded	-7736
Namespace	-7737
addresses	-7738
▁Abstract	-7739
▁FEMININE	-7740
▁Licensed	-7741
▁selected	-7742
▁textwrap	-7743
decompress	-7744
rpartition	-7745
structions	-7746
▁MASCULINE	-7747
▁duplicate	-7748
▁mechanism	-7749
▁responses	-7750
▁typically	-7751
▁recommended	-7752
▁unsupported	-7753
▁namespaceURI	-7754
▁presentation	-7755
NotImplemented	-7756
specialization	-7757
▁OverflowError	-7758
)(	-7759
.3	-7760
/'	-7761
GN	-7762
_)	-7763
bl	-7764
vt	-7765
--+	-7766
;")	-7767
=1)	-7768
Exe	-7769
FFF	-7770
]):	-7771
arm	-7772
hdr	-7773
umb	-7774
uml	-7775
was	-7776
xef	-7777
▁&=	-7778
▁'1	-7779
▁Pa	-7780
▁Pe	-7781
▁VE	-7782
▁bz	-7783
('\\	-7784
Emax	-7785
Push	-7786
SHUT	-7787
Sign	-7788
amma	-7789
erce	-7790
lace	-7791
▁CGI	-7792
▁TAU	-7793
▁dbm	-7794
▁far	-7795
#####	-7796
BLOCK	-7797
Frame	-7798
GENER	-7799
ILITY	-7800
LIMIT	-7801
diffe	-7802
divid	-7803
ently	-7804
leave	-7805
mtoff	-7806
posxy	-7807
ptime	-7808
▁Come	-7809
▁From	-7810
▁LONG	-7811
▁Same	-7812
▁docs	-7813
▁noqa	-7814
▁slow	-7815
▁stay	-7816
▁wsgi	-7817
▁zstd	-7818
FILTER	-7819
THREAD	-7820
anging	-7821
hether	-7822
infile	-7823
islink	-7824
lapsed	-7825
nowait	-7826
omment	-7827
sorted	-7828
typeid	-7829
▁DELTA	-7830
▁Field	-7831
▁GAMMA	-7832
▁INFIN	-7833
▁Named	-7834
▁Paris	-7835
▁Trans	-7836
▁along	-7837
▁expat	-7838
▁major	-7839
▁marsh	-7840
▁numer	-7841
▁wraps	-7842
▁zeros	-7843
CONTENT	-7844
Unknown	-7845
closure	-7846
disable	-7847
lengths	-7848
present	-7849
reement	-7850
▁atexit	-7851
▁caught	-7852
▁leader	-7853
▁verify	-7854
channels	-7855
userbase	-7856
▁Current	-7857
▁Request	-7858
▁choices	-7859
▁depends	-7860
▁exclude	-7861
▁markers	-7862
▁variant	-7863
▁visible	-7864
SUPPORTED	-7865
decessors	-7866
▁EXTENDED	-7867
▁Instance	-7868
▁calendar	-7869
▁funcname	-7870
▁unittest	-7871
▁validate	-7872
callmethod	-7873
▁chunksize	-7874
▁overwrite	-7875
▁scheduled	-7876
▁sysconfig	-7877
▁evaluation	-7878
▁dataclasses	-7879
###############	-7880
BE	-7881
RU	-7882
_.	-7883
rl	-7884
()}	-7885
(2)	-7886
+1)	-7887
+1:	-7888
-10	-7889
211	-7890
231	-7891
:',	-7892
:])	-7893
='\	-7894
MAG	-7895
Mon	-7896
OTE	-7897
One	-7898
Uns	-7899
[0:	-7900
]+)	-7901
ked	-7902
ltn	-7903
tis	-7904
▁"@	-7905
▁17	-7906
▁4)	-7907
▁=>	-7908
▁Bu	-7909
▁tw	-7910
()")	-7911
(...	-7912
.0.2	-7913
CEPT	-7914
CFWS	-7915
IFIC	-7916
REQU	-7917
[0-9	-7918
alog	-7919
best	-7920
bugs	-7921
maps	-7922
rols	-7923
tore	-7924
zlib	-7925
▁0):	-7926
▁Mac	-7927
▁abc	-7928
▁gid	-7929
▁sil	-7930
Graph	-7931
ested	-7932
istic	-7933
pired	-7934
speed	-7935
visit	-7936
▁Good	-7937
▁HOOK	-7938
▁More	-7939
▁frac	-7940
▁	-7941
e	-7942
t	-7943
s	-7944
r	-7945
a	-7946
n	-7947
o	-7948
i	-7949
l	-7950
d	-7951
c	-7952
f	-7953
_	-7954
u	-7955
p	-7956
m	-7957
h	-7958
.	-7959
'	-7960
,	-7961
)	-7962
(	-7963
0	-7964
T	-7965
g	-7966
E	-7967
"	-7968
:	-7969
x	-7970
b	-7971
-	-7972
=	-7973
A	-7974
I	-7975
y	-7976
L	-7977
#	-7978
N	-7979
R	-7980
w	-7981
S	-7982
v	-7983
k	-7984
C	-7985
O	-7986
>	-7987
1	-7988
D	-7989
P	-7990
2	-7991
M	-7992
F	-7993
\	-7994
U	-7995
H	-7996
G	-7997
[	-7998
]	-7999
*	-8000
B	-8001
3	-8002
5	-8003
W	-8004
4	-8005
8	-8006
6	-8007
j	-8008
9	-8009
z	-8010
/	-8011
q	-8012
7	-8013
V	-8014
+	-8015
K	-8016
%	-8017
X	-8018
Y	-8019
{	-8020
}	-8021
<	-8022
;	-8023
`	-8024
|	-8025
Z	-8026
!	-8027
Q	-8028
?	-8029
@	-8030
J	-8031
’	-8032
&	-8033
~	-8034
^	-8035
$	-8036
”	-8037
“	-8038
─	-8039
‘	-8040
—	-8041
–	-8042
十	-8043
廿	-8044
ß	-8045
×	-8046
ι	-8047
μ	-8048
±	-8049
ö	-8050
π	-8051
ä	-8052
ΐ	-8053
ΰ	-8054
β	-8055
ε	-8056
θ	-8057
κ	-8058
ρ	-8059
φ	-8060
ṡ	-8061
└	-8062
一	-8063
т	-8064
٠	-8065
١	-8066
٢	-8067
٣	-8068
٤	-8069
٥	-8070
٦	-8071
٧	-8072
٨	-8073
٩	-8074
ᲄ	-8075
ᲅ	-8076
├	-8077
七	-8078
三	-8079
九	-8080
二	-8081
五	-8082
八	-8083
六	-8084
四	-8085
🐍	-8086
§	-8087
Å	-8088
æ	-8089
ç	-8090
ô	-8091
ı	-8092
́	-8093
ς	-8094
σ	-8095
в	-8096
д	-8097
о	-8098
с	-8099
ъ	-8100
ѣ	-8101
ᲀ	-8102
ᲁ	-8103
ᲂ	-8104
ᲃ	-8105
ᲆ	-8106
ᲇ	-8107
ᲈ	-8108
⁄	-8109
→	-8110
−	-8111
卅	-8112
ꙋ	-8113
¬	-8114
°	-8115
À	-8116
Á	-8117
Â	-8118
Ã	-8119
Ä	-8120
Æ	-8121
Ç	-8122
È	-8123
É	-8124
Ê	-8125
Ë	-8126
Ì	-8127
Í	-8128
Î	-8129
Ï	-8130
Ð	-8131
Ñ	-8132
Ò	-8133
Ó	-8134
Ô	-8135
Õ	-8136
Ö	-8137
Ø	-8138
Ù	-8139
Ú	-8140
Û	-8141
Ü	-8142
Ý	-8143
Þ	-8144
à	-8145
á	-8146
â	-8147
ã	-8148
å	-8149
è	-8150
é	-8151
ê	-8152
ë	-8153
ì	-8154
í	-8155
î	-8156
ï	-8157
ð	-8158
ñ	-8159
ò	-8160
ó	-8161
õ	-8162
ø	-8163
ù	-8164
ú	-8165
û	-8166
ü	-8167
ý	-8168
þ	-8169
ÿ	-8170
İ	-8171
Ł	-8172
ř	-8173
И	-8174
К	-8175
О	-8176
ँ	-8177
प	-8178
स	-8179
ा	-8180
ሴ	-8181
€	-8182
≈	-8183
│	-8184
〇	-8185
〰	-8186
蛇	-8187
