<pad>	0
<s>	0
</s>	0
<unk>	0
▁t	-0
he	-1
▁a	-2
in	-3
▁the	-4
re	-5
▁s	-6
▁o	-7
▁w	-8
er	-9
nd	-10
at	-11
on	-12
is	-13
▁f	-14
▁b	-15
en	-16
or	-17
it	-18
ou	-19
▁c	-20
ed	-21
▁m	-22
▁h	-23
▁of	-24
es	-25
ar	-26
▁d	-27
▁p	-28
an	-29
▁to	-30
ing	-31
▁and	-32
▁in	-33
al	-34
as	-35
le	-36
▁th	-37
▁n	-38
el	-39
om	-40
ic	-41
▁l	-42
ion	-43
▁he	-44
st	-45
ot	-46
▁I	-47
ut	-48
▁g	-49
il	-50
ad	-51
▁re	-52
et	-53
im	-54
▁T	-55
▁e	-56
ent	-57
▁be	-58
ow	-59
ac	-60
am	-61
ve	-62
ur	-63
id	-64
ly	-65
se	-66
--	-67
▁"	-68
▁wh	-69
▁is	-70
▁y	-71
ay	-72
ig	-73
▁for	-74
▁A	-75
ir	-76
▁that	-77
▁on	-78
▁u	-79
ver	-80
ol	-81
if	-82
ce	-83
▁S	-84
▁it	-85
ith	-86
od	-87
ct	-88
pe	-89
▁was	-90
▁r	-91
▁st	-92
▁as	-93
▁with	-94
▁=	-95
▁C	-96
▁you	-97
ch	-98
ul	-99
ter	-100
▁M	-101
ld	-102
▁-	-103
▁The	-104
▁his	-105
▁not	-106
▁_	-107
▁al	-108
ro	-109
her	-110
▁de	-111
ht	-112
▁ha	-113
▁an	-114
▁we	-115
elf	-116
▁H	-117
▁B	-118
▁1	-119
ke	-120
▁fr	-121
ain	-122
▁at	-123
ill	-124
ation	-125
▁W	-126
▁su	-127
▁P	-128
ri	-129
and	-130
ore	-131
ess	-132
▁N	-133
▁sh	-134
▁(	-135
ap	-136
ab	-137
ge	-138
ame	-139
▁se	-140
um	-141
th	-142
▁by	-143
ould	-144
▁con	-145
▁v	-146
▁or	-147
un	-148
qu	-149
ind	-150
red	-151
▁F	-152
▁had	-153
ight	-154
us	-155
▁from	-156
res	-157
ich	-158
▁me	-159
▁L	-160
ist	-161
est	-162
all	-163
▁ex	-164
▁if	-165
▁her	-166
one	-167
▁'	-168
ate	-169
ort	-170
▁D	-171
ty	-172
▁which	-173
os	-174
▁have	-175
em	-176
ers	-177
▁com	-178
ard	-179
▁him	-180
▁k	-181
urn	-182
op	-183
▁ne	-184
ant	-185
▁G	-186
▁all	-187
▁#	-188
ell	-189
▁this	-190
▁R	-191
▁so	-192
._	-193
▁are	-194
ue	-195
▁but	-196
ust	-197
▁E	-198
nt	-199
our	-200
▁my	-201
self	-202
▁ch	-203
oug	-204
▁“	-205
▁O	-206
art	-207
lo	-208
ous	-209
▁le	-210
pp	-211
ie	-212
iv	-213
▁whe	-214
▁sa	-215
ast	-216
▁lo	-217
out	-218
pt	-219
▁int	-220
▁do	-221
ome	-222
▁up	-223
ex	-224
▁self	-225
ag	-226
▁were	-227
▁tr	-228
▁they	-229
▁[	-230
ass	-231
▁ar	-232
----	-233
▁ret	-234
▁she	-235
ive	-236
▁who	-237
▁im	-238
pl	-239
▁one	-240
▁2	-241
▁man	-242
ok	-243
ong	-244
ord	-245
ound	-246
ck	-247
ak	-248
int	-249
):	-250
ment	-251
▁return	-252
able	-253
▁def	-254
ure	-255
▁|	-256
ace	-257
ity	-258
ine	-259
▁no	-260
▁their	-261
▁go	-262
▁pr	-263
ies	-264
ff	-265
▁them	-266
▁out	-267
ack	-268
▁pro	-269
very	-270
ect	-271
per	-272
▁ab	-273
▁J	-274
ance	-275
de	-276
▁will	-277
ther	-278
av	-279
▁pl	-280
..	-281
▁j	-282
ult	-283
iz	-284
▁He	-285
ens	-286
."	-287
00	-288
▁Th	-289
),	-290
ath	-291
▁kn	-292
ost	-293
own	-294
ough	-295
▁there	-296
ile	-297
▁would	-298
▁been	-299
ime	-300
▁gr	-301
ry	-302
ions	-303
▁un	-304
ip	-305
ide	-306
ice	-307
ake	-308
▁*	-309
age	-310
▁0	-311
▁us	-312
are	-313
reat	-314
type	-315
▁imp	-316
▁can	-317
arg	-318
▁find	-319
▁said	-320
ond	-321
tr	-322
au	-323
ib	-324
""	-325
cc	-326
pr	-327
▁when	-328
itt	-329
>>	-330
hed	-331
ep	-332
ans	-333
",	-334
▁str	-335
ence	-336
▁has	-337
ish	-338
▁wor	-339
ose	-340
▁qu	-341
▁other	-342
ire	-343
▁fe	-344
▁cl	-345
cl	-346
▁more	-347
▁br	-348
▁It	-349
ree	-350
act	-351
▁en	-352
▁ad	-353
▁your	-354
▁None	-355
ise	-356
▁ag	-357
ars	-358
',	-359
ple	-360
ally	-361
name	-362
==	-363
▁any	-364
ike	-365
orm	-366
ary	-367
ite	-368
▁`	-369
▁And	-370
▁In	-371
ount	-372
▁V	-373
ert	-374
▁some	-375
ction	-376
▁into	-377
▁am	-378
ress	-379
▁sp	-380
ign	-381
ated	-382
▁3	-383
old	-384
▁+	-385
▁tw	-386
ci	-387
▁res	-388
ax	-389
▁dis	-390
ll	-391
▁than	-392
ict	-393
ely	-394
str	-395
ings	-396
ays	-397
put	-398
▁per	-399
▁bo	-400
ud	-401
aw	-402
▁what	-403
te	-404
ne	-405
▁Y	-406
ang	-407
ode	-408
,"	-409
▁ev	-410
▁"""	-411
ade	-412
ng	-413
nder	-414
fore	-415
▁time	-416
low	-417
ach	-418
we	-419
ful	-420
▁sc	-421
ER	-422
▁el	-423
▁could	-424
▁pre	-425
()	-426
▁K	-427
fter	-428
other	-429
ub	-430
▁our	-431
ere	-432
sh	-433
gr	-434
ick	-435
▁over	-436
▁But	-437
▁only	-438
ber	-439
▁its	-440
▁{	-441
▁po	-442
▁should	-443
ase	-444
▁ob	-445
ink	-446
▁then	-447
▁great	-448
▁import	-449
▁very	-450
ied	-451
▁know	-452
eth	-453
ild	-454
▁now	-455
▁off	-456
▁:	-457
ious	-458
ory	-459
alue	-460
▁may	-461
get	-462
.”	-463
▁see	-464
▁x	-465
▁Ch	-466
ors	-467
con	-468
▁must	-469
▁hand	-470
ought	-471
irst	-472
▁cont	-473
▁ro	-474
▁part	-475
▁des	-476
▁about	-477
▁spe	-478
ved	-479
rib	-480
ward	-481
▁like	-482
▁upon	-483
ec	-484
ife	-485
▁.	-486
ave	-487
▁again	-488
ition	-489
▁Wh	-490
ather	-491
ood	-492
▁did	-493
ittle	-494
wn	-495
ark	-496
▁Mr	-497
args	-498
▁)	-499
ata	-500
▁two	-501
ray	-502
▁thr	-503
ject	-504
ail	-505
▁after	-506
▁rem	-507
uch	-508
ial	-509
led	-510
mp	-511
ft	-512
ize	-513
▁little	-514
ove	-515
ia	-516
▁U	-517
com	-518
▁made	-519
les	-520
▁first	-521
▁these	-522
so	-523
▁good	-524
▁before	-525
▁ye	-526
anc	-527
▁look	-528
▁such	-529
odu	-530
],	-531
▁bet	-532
▁where	-533
ations	-534
▁St	-535
▁4	-536
form	-537
▁how	-538
hen	-539
ian	-540
▁under	-541
oss	-542
ror	-543
ener	-544
ness	-545
▁wr	-546
iss	-547
▁/	-548
▁pe	-549
##	-550
iff	-551
ape	-552
IN	-553
▁call	-554
ix	-555
oth	-556
▁aw	-557
▁->	-558
ents	-559
__	-560
▁comm	-561
▁ke	-562
▁>>	-563
▁long	-564
ning	-565
▁comp	-566
--------	-567
▁down	-568
▁>>>	-569
▁pass	-570
▁This	-571
▁19	-572
,”	-573
▁mat	-574
▁acc	-575
▁co	-576
▁get	-577
ical	-578
mb	-579
ug	-580
air	-581
))	-582
▁col	-583
▁sub	-584
▁much	-585
▁every	-586
▁sm	-587
▁cons	-588
▁ind	-589
hes	-590
▁else	-591
man	-592
▁old	-593
val	-594
ady	-595
▁app	-596
ON	-597
ew	-598
▁most	-599
▁well	-600
▁new	-601
▁bl	-602
to	-603
0,	-604
▁cr	-605
▁set	-606
▁men	-607
▁work	-608
ons	-609
_,	-610
ault	-611
▁here	-612
ext	-613
not	-614
pect	-615
vers	-616
▁own	-617
▁bec	-618
1,	-619
▁att	-620
cept	-621
▁say	-622
▁dr	-623
ype	-624
▁form	-625
rue	-626
ren	-627
▁back	-628
.,	-629
ange	-630
▁even	-631
The	-632
▁If	-633
▁never	-634
▁fl	-635
▁pres	-636
).	-637
ys	-638
▁ent	-639
▁She	-640
ank	-641
▁day	-642
orch	-643
igh	-644
ob	-645
ph	-646
▁ser	-647
``	-648
par	-649
▁op	-650
▁dist	-651
▁those	-652
oc	-653
▁through	-654
▁num	-655
ause	-656
▁same	-657
▁way	-658
▁make	-659
▁think	-660
cess	-661
▁ra	-662
HE	-663
▁shall	-664
ouse	-665
alse	-666
▁ap	-667
up	-668
og	-669
▁come	-670
ily	-671
ater	-672
▁let	-673
its	-674
ont	-675
land	-676
▁being	-677
▁bel	-678
▁5	-679
ered	-680
▁exp	-681
▁\	-682
ensor	-683
ible	-684
▁``	-685
ull	-686
▁might	-687
▁name	-688
▁too	-689
▁life	-690
?"	-691
▁sy	-692
▁supp	-693
ates	-694
▁fol	-695
▁head	-696
AR	-697
▁18	-698
ving	-699
ves	-700
▁seem	-701
der	-702
▁We	-703
AN	-704
aug	-705
▁ey	-706
▁end	-707
aph	-708
▁just	-709
ss	-710
the	-711
▁te	-712
▁rep	-713
▁found	-714
2,	-715
ods	-716
ribut	-717
▁6	-718
▁came	-719
sc	-720
▁many	-721
▁ass	-722
ale	-723
hing	-724
▁himself	-725
▁par	-726
Er	-727
▁last	-728
====	-729
eld	-730
els	-731
▁Ar	-732
ried	-733
▁thought	-734
lect	-735
ared	-736
enc	-737
Error	-738
▁word	-739
EN	-740
▁right	-741
▁diff	-742
ures	-743
set	-744
ters	-745
atch	-746
ret	-747
▁without	-748
ool	-749
▁They	-750
AT	-751
▁beg	-752
ual	-753
▁reg	-754
▁You	-755
ower	-756
arm	-757
▁count	-758
ps	-759
ues	-760
pend	-761
▁..	-762
▁==	-763
▁i	-764
("	-765
uth	-766
▁giv	-767
▁ear	-768
▁There	-769
OR	-770
ked	-771
▁sl	-772
less	-773
ee	-774
py	-775
ner	-776
ES	-777
stance	-778
▁For	-779
unction	-780
ern	-781
ven	-782
▁while	-783
▁rel	-784
ince	-785
att	-786
▁list	-787
oub	-788
▁cour	-789
xt	-790
▁act	-791
ield	-792
")	-793
▁An	-794
▁follow	-795
▁Fr	-796
min	-797
▁sec	-798
ari	-799
▁gl	-800
ople	-801
▁rec	-802
ier	-803
mer	-804
▁take	-805
ins	-806
ished	-807
▁also	-808
aint	-809
▁ac	-810
iend	-811
end	-812
▁As	-813
ames	-814
ices	-815
▁still	-816
ms	-817
ained	-818
▁each	-819
0.	-820
ature	-821
▁bre	-822
▁wom	-823
ened	-824
fr	-825
▁use	-826
aking	-827
ever	-828
▁add	-829
▁class	-830
▁car	-831
▁To	-832
▁friend	-833
▁gener	-834
▁0.	-835
▁place	-836
und	-837
ense	-838
▁@	-839
ope	-840
▁away	-841
▁turn	-842
ced	-843
▁raise	-844
row	-845
print	-846
▁appe	-847
▁len	-848
uct	-849
▁arg	-850
ody	-851
oy	-852
▁val	-853
▁gre	-854
▁Br	-855
ular	-856
pro	-857
▁inter	-858
_.	-859
▁THE	-860
ments	-861
AL	-862
als	-863
apt	-864
▁min	-865
irect	-866
ither	-867
▁read	-868
▁people	-869
aut	-870
▁cor	-871
▁child	-872
ertain	-873
ption	-874
ef	-875
imes	-876
▁conf	-877
ited	-878
ently	-879
▁want	-880
▁left	-881
vice	-882
ween	-883
▁che	-884
▁8	-885
po	-886
▁went	-887
▁pers	-888
▁poss	-889
▁yet	-890
eg	-891
▁inf	-892
hat	-893
▁Q	-894
▁put	-895
▁tell	-896
pos	-897
▁som	-898
▁del	-899
ling	-900
!"	-901
▁years	-902
aid	-903
▁eyes	-904
arn	-905
lock	-906
▁three	-907
ator	-908
▁bu	-909
▁Al	-910
▁At	-911
▁torch	-912
▁cur	-913
path	-914
▁ref	-915
▁value	-916
▁another	-917
vent	-918
▁mar	-919
▁{}	-920
here	-921
▁house	-922
▁heart	-923
▁$	-924
▁young	-925
▁sur	-926
▁between	-927
▁7	-928
":	-929
▁once	-930
read	-931
▁np	-932
▁When	-933
▁--	-934
ative	-935
ways	-936
▁world	-937
▁Eng	-938
▁night	-939
▁point	-940
▁love	-941
eter	-942
4,	-943
▁That	-944
ired	-945
ines	-946
▁result	-947
▁gu	-948
▁don	-949
alk	-950
iter	-951
ating	-952
vel	-953
co	-954
▁ever	-955
ting	-956
▁against	-957
▁True	-958
▁char	-959
ubl	-960
▁ple	-961
def	-962
▁though	-963
ted	-964
aps	-965
den	-966
▁give	-967
ined	-968
ains	-969
▁used	-970
None	-971
ote	-972
ffect	-973
//	-974
▁ter	-975
])	-976
az	-977
▁inst	-978
oun	-979
▁nothing	-980
alf	-981
####	-982
▁sw	-983
add	-984
▁What	-985
▁occ	-986
ows	-987
?”	-988
orn	-989
▁kind	-990
1.	-991
▁mind	-992
IT	-993
size	-994
tern	-995
[0	-996
▁pur	-997
▁does	-998
oot	-999
▁happ	-1000
▁On	-1001
16	-1002
▁object	-1003
▁God	-1004
▁light	-1005
▁far	-1006
ised	-1007
▁unt	-1008
▁father	-1009
ped	-1010
ross	-1011
▁Pr	-1012
▁both	-1013
▁called	-1014
TER	-1015
▁stre	-1016
ands	-1017
ask	-1018
▁few	-1019
▁always	-1020
ude	-1021
ces	-1022
thing	-1023
▁need	-1024
inal	-1025
▁Then	-1026
iew	-1027
oh	-1028
▁face	-1029
ton	-1030
▁His	-1031
ived	-1032
▁because	-1033
▁art	-1034
exec	-1035
▁given	-1036
▁ed	-1037
▁tak	-1038
ched	-1039
▁So	-1040
▁©	-1041
ser	-1042
▁Un	-1043
▁mor	-1044
sel	-1045
*.	-1046
▁X	-1047
▁ins	-1048
▁cond	-1049
most	-1050
ities	-1051
▁things	-1052
loat	-1053
▁%	-1054
▁trans	-1055
▁got	-1056
ethod	-1057
▁side	-1058
▁near	-1059
ific	-1060
▁done	-1061
▁fact	-1062
ait	-1063
▁16	-1064
▁inc	-1065
ized	-1066
▁saw	-1067
▁est	-1068
▁Sh	-1069
▁No	-1070
▁present	-1071
▁<	-1072
ants	-1073
▁took	-1074
unc	-1075
▁mom	-1076
num	-1077
dtype	-1078
array	-1079
▁Com	-1080
▁small	-1081
▁sent	-1082
▁mon	-1083
▁sk	-1084
▁state	-1085
odule	-1086
10	-1087
LE	-1088
▁rest	-1089
ason	-1090
▁Par	-1091
2.	-1092
▁‘	-1093
yn	-1094
▁sim	-1095
ples	-1096
ks	-1097
▁cle	-1098
instance	-1099
shape	-1100
of	-1101
▁country	-1102
iness	-1103
▁belie	-1104
▁whole	-1105
▁certain	-1106
uring	-1107
3,	-1108
by	-1109
▁type	-1110
▁seen	-1111
▁Ex	-1112
ister	-1113
ook	-1114
["	-1115
.]	-1116
▁nor	-1117
▁False	-1118
▁hands	-1119
ash	-1120
ah	-1121
▁wind	-1122
▁mod	-1123
19	-1124
1]	-1125
▁water	-1126
▁thing	-1127
ams	-1128
elt	-1129
uck	-1130
▁hum	-1131
':	-1132
▁order	-1133
**	-1134
▁number	-1135
▁mo	-1136
▁war	-1137
8,	-1138
▁__	-1139
uff	-1140
ery	-1141
arge	-1142
ution	-1143
▁best	-1144
eren	-1145
▁data	-1146
IS	-1147
col	-1148
▁fell	-1149
▁contin	-1150
med	-1151
irl	-1152
▁feel	-1153
▁care	-1154
▁17	-1155
▁except	-1156
▁keep	-1157
io	-1158
inf	-1159
▁play	-1160
any	-1161
▁among	-1162
ten	-1163
▁less	-1164
iver	-1165
ble	-1166
▁power	-1167
rist	-1168
wards	-1169
lement	-1170
15	-1171
amp	-1172
ET	-1173
▁pos	-1174
my	-1175
oup	-1176
be	-1177
ident	-1178
ething	-1179
▁going	-1180
me	-1181
▁whom	-1182
ages	-1183
▁dec	-1184
ets	-1185
selves	-1186
▁Ind	-1187
ts	-1188
aster	-1189
over	-1190
▁better	-1191
▁isinstance	-1192
▁half	-1193
▁start	-1194
▁ans	-1195
▁soon	-1196
IC	-1197
▁home	-1198
ides	-1199
ann	-1200
iles	-1201
outh	-1202
▁run	-1203
▁having	-1204
ute	-1205
▁Be	-1206
▁(_	-1207
▁fam	-1208
▁sat	-1209
▁line	-1210
pre	-1211
▁moment	-1212
che	-1213
▁high	-1214
ead	-1215
ient	-1216
ives	-1217
▁met	-1218
▁requ	-1219
ased	-1220
▁sort	-1221
▁told	-1222
32	-1223
data	-1224
ering	-1225
▁vis	-1226
uple	-1227
▁sil	-1228
▁bro	-1229
12	-1230
▁heard	-1231
▁woman	-1232
ured	-1233
for	-1234
tend	-1235
▁thou	-1236
br	-1237
▁room	-1238
ged	-1239
"]	-1240
osed	-1241
▁fore	-1242
▁z	-1243
▁hel	-1244
ying	-1245
▁9	-1246
▁hard	-1247
▁ax	-1248
▁case	-1249
default	-1250
▁suff	-1251
▁...	-1252
▁ph	-1253
ided	-1254
AP	-1255
▁full	-1256
▁[_	-1257
▁show	-1258
▁direct	-1259
ably	-1260
ison	-1261
▁doub	-1262
ances	-1263
ird	-1264
erest	-1265
augh	-1266
ohn	-1267
ately	-1268
oice	-1269
▁mean	-1270
:`	-1271
▁sing	-1272
uc	-1273
▁course	-1274
▁hour	-1275
gether	-1276
▁tre	-1277
▁real	-1278
ief	-1279
ention	-1280
('	-1281
ene	-1282
▁Mrs	-1283
▁open	-1284
▁spec	-1285
uk	-1286
ock	-1287
class	-1288
▁days	-1289
▁sign	-1290
▁cannot	-1291
esc	-1292
ublic	-1293
▁input	-1294
lish	-1295
init	-1296
▁enough	-1297
▁law	-1298
▁red	-1299
ats	-1300
▁loc	-1301
▁exc	-1302
gg	-1303
▁looked	-1304
5,	-1305
__(	-1306
wargs	-1307
RE	-1308
▁beh	-1309
....	-1310
rew	-1311
graph	-1312
ley	-1313
▁seemed	-1314
value	-1315
▁stand	-1316
▁cent	-1317
▁words	-1318
▁beaut	-1319
aces	-1320
▁Lord	-1321
oul	-1322
▁door	-1323
▁something	-1324
You	-1325
▁charac	-1326
In	-1327
ety	-1328
▁mother	-1329
dim	-1330
▁file	-1331
▁asked	-1332
ma	-1333
ample	-1334
▁equ	-1335
fe	-1336
▁girl	-1337
▁desc	-1338
unt	-1339
oll	-1340
erent	-1341
▁death	-1342
arch	-1343
gth	-1344
▁knew	-1345
eturn	-1346
▁rece	-1347
="	-1348
une	-1349
dir	-1350
▁next	-1351
▁oper	-1352
ually	-1353
▁since	-1354
▁&	-1355
▁thy	-1356
▁12	-1357
▁De	-1358
▁10	-1359
▁Christ	-1360
4.	-1361
ilt	-1362
▁until	-1363
3.	-1364
▁however	-1365
▁1,	-1366
True	-1367
II	-1368
index	-1369
▁function	-1370
ork	-1371
▁large	-1372
akes	-1373
▁heav	-1374
▁How	-1375
▁four	-1376
▁interest	-1377
▁taken	-1378
haps	-1379
ping	-1380
▁With	-1381
day	-1382
▁hor	-1383
▁land	-1384
atter	-1385
▁hear	-1386
▁produ	-1387
▁\;	-1388
ury	-1389
▁true	-1390
oud	-1391
amb	-1392
▁array	-1393
000	-1394
▁pri	-1395
max	-1396
ics	-1397
17	-1398
ider	-1399
▁almost	-1400
!”	-1401
▁adv	-1402
▁Is	-1403
▁John	-1404
▁quite	-1405
▁person	-1406
sp	-1407
▁lay	-1408
mon	-1409
ils	-1410
▁inv	-1411
▁OF	-1412
▁Re	-1413
men	-1414
▁express	-1415
▁disc	-1416
used	-1417
▁round	-1418
ceed	-1419
▁fall	-1420
▁hon	-1421
sy	-1422
opy	-1423
▁whose	-1424
atur	-1425
reg	-1426
ung	-1427
meric	-1428
▁dtype	-1429
ility	-1430
ument	-1431
▁All	-1432
loc	-1433
▁tem	-1434
▁Con	-1435
18	-1436
▁emp	-1437
▁gave	-1438
port	-1439
▁sure	-1440
▁My	-1441
▁prov	-1442
ified	-1443
▁15	-1444
len	-1445
▁bool	-1446
ustr	-1447
▁bus	-1448
.'	-1449
▁inde	-1450
wr	-1451
ik	-1452
▁second	-1453
key	-1454
ION	-1455
ru	-1456
ians	-1457
([	-1458
ccess	-1459
uss	-1460
▁Gr	-1461
cont	-1462
▁quest	-1463
▁brought	-1464
6,	-1465
EL	-1466
IL	-1467
mod	-1468
ached	-1469
▁Not	-1470
▁ste	-1471
node	-1472
ING	-1473
▁Sir	-1474
▁swe	-1475
▁New	-1476
file	-1477
oper	-1478
▁pol	-1479
▁subject	-1480
▁Americ	-1481
atic	-1482
▁year	-1483
ane	-1484
irc	-1485
aced	-1486
ource	-1487
▁others	-1488
arr	-1489
▁sum	-1490
cial	-1491
64	-1492
oney	-1493
▁dict	-1494
▁repl	-1495
arent	-1496
uthor	-1497
Type	-1498
▁fre	-1499
▁symp	-1500
▁Sp	-1501
▁prom	-1502
▁default	-1503
▁CH	-1504
attr	-1505
▁opp	-1506
wh	-1507
▁dim	-1508
ued	-1509
▁orig	-1510
▁ext	-1511
ips	-1512
▁rather	-1513
▁Se	-1514
▁spir	-1515
pes	-1516
use	-1517
ler	-1518
[0]	-1519
OU	-1520
AS	-1521
')	-1522
oke	-1523
▁above	-1524
AM	-1525
▁--------	-1526
▁>	-1527
aining	-1528
fully	-1529
ready	-1530
entle	-1531
.)	-1532
▁along	-1533
▁passed	-1534
np	-1535
stand	-1536
point	-1537
▁themselves	-1538
rent	-1539
▁thus	-1540
ism	-1541
▁draw	-1542
erence	-1543
▁pat	-1544
ptional	-1545
▁matter	-1546
▁king	-1547
▁lab	-1548
▁cut	-1549
▁comple	-1550
▁er	-1551
met	-1552
like	-1553
▁shape	-1554
▁1.	-1555
append	-1556
▁different	-1557
resent	-1558
▁white	-1559
▁together	-1560
▁By	-1561
urch	-1562
,--	-1563
▁morning	-1564
▁contr	-1565
perty	-1566
▁body	-1567
▁Sc	-1568
▁Her	-1569
▁necess	-1570
▁fin	-1571
with	-1572
lose	-1573
▁See	-1574
▁hold	-1575
amples	-1576
▁xargs	-1577
▁within	-1578
▁thee	-1579
sub	-1580
line	-1581
que	-1582
▁speak	-1583
▁abs	-1584
inter	-1585
Ar	-1586
ards	-1587
▁feet	-1588
undred	-1589
no	-1590
▁means	-1591
▁ign	-1592
▁ide	-1593
▁King	-1594
▁elif	-1595
ists	-1596
▁dear	-1597
tt	-1598
▁Tr	-1599
pected	-1600
▁poor	-1601
▁!	-1602
▁wife	-1603
▁myself	-1604
▁div	-1605
.__	-1606
ott	-1607
▁air	-1608
gs	-1609
aim	-1610
▁AN	-1611
ref	-1612
rix	-1613
▁path	-1614
ius	-1615
version	-1616
▁either	-1617
▁son	-1618
It	-1619
▁Or	-1620
vert	-1621
▁try	-1622
▁sun	-1623
ored	-1624
▁known	-1625
Ex	-1626
▁reason	-1627
▁till	-1628
20	-1629
▁const	-1630
25	-1631
ops	-1632
back	-1633
▁print	-1634
▁dark	-1635
▁hundred	-1636
▁dep	-1637
▁ill	-1638
▁short	-1639
▁key	-1640
▁fire	-1641
▁turned	-1642
▁English	-1643
▁sol	-1644
▁mer	-1645
▁already	-1646
14	-1647
.--	-1648
time	-1649
▁book	-1650
fl	-1651
▁strong	-1652
▁character	-1653
▁pleas	-1654
▁voice	-1655
▁effect	-1656
▁sir	-1657
ots	-1658
▁sle	-1659
▁aff	-1660
▁Miss	-1661
comp	-1662
rench	-1663
▁sud	-1664
aring	-1665
▁view	-1666
▁super	-1667
odes	-1668
amed	-1669
False	-1670
fort	-1671
▁began	-1672
▁author	-1673
ches	-1674
▁allow	-1675
▁Col	-1676
ache	-1677
▁says	-1678
▁**	-1679
OD	-1680
aves	-1681
wer	-1682
opt	-1683
▁adm	-1684
▁et	-1685
▁eas	-1686
▁ele	-1687
▁least	-1688
ipp	-1689
input	-1690
13	-1691
ey	-1692
rop	-1693
iam	-1694
▁times	-1695
▁Of	-1696
▁wond	-1697
OL	-1698
▁often	-1699
▁Return	-1700
mbol	-1701
▁Mar	-1702
head	-1703
▁dev	-1704
▁during	-1705
fig	-1706
▁children	-1707
▁town	-1708
▁incl	-1709
▁felt	-1710
▁lead	-1711
▁ground	-1712
▁node	-1713
▁Cl	-1714
▁expl	-1715
▁Now	-1716
eters	-1717
▁Ad	-1718
illed	-1719
▁circ	-1720
info	-1721
cho	-1722
▁tri	-1723
itions	-1724
▁grep	-1725
oint	-1726
▁Will	-1727
▁mem	-1728
▁soul	-1729
▁gentle	-1730
umn	-1731
ision	-1732
ED	-1733
ric	-1734
▁common	-1735
▁obser	-1736
▁det	-1737
inc	-1738
▁general	-1739
▁ir	-1740
OM	-1741
US	-1742
▁support	-1743
▁Ed	-1744
ias	-1745
list	-1746
▁anything	-1747
quence	-1748
aj	-1749
item	-1750
▁itself	-1751
wise	-1752
▁appear	-1753
iful	-1754
▁mus	-1755
▁success	-1756
▁step	-1757
ctor	-1758
let	-1759
itted	-1760
aged	-1761
▁dead	-1762
▁money	-1763
ience	-1764
▁stood	-1765
▁Value	-1766
ek	-1767
▁mark	-1768
map	-1769
▁blo	-1770
func	-1771
ript	-1772
▁sever	-1773
▁believe	-1774
enty	-1775
▁One	-1776
ra	-1777
ior	-1778
▁Ph	-1779
▁check	-1780
▁leave	-1781
▁talk	-1782
unct	-1783
pose	-1784
▁values	-1785
▁possible	-1786
▁consider	-1787
▁fur	-1788
▁ve	-1789
▁Pro	-1790
▁public	-1791
▁conc	-1792
ole	-1793
::	-1794
▁ty	-1795
▁output	-1796
▁alone	-1797
▁---	-1798
▁six	-1799
▁cap	-1800
ressed	-1801
iled	-1802
gy	-1803
kwargs	-1804
▁nature	-1805
fect	-1806
vern	-1807
resh	-1808
AC	-1809
ream	-1810
No	-1811
empt	-1812
ox	-1813
St	-1814
▁tuple	-1815
▁doubt	-1816
▁whether	-1817
anger	-1818
struct	-1819
▁returned	-1820
▁boy	-1821
▁question	-1822
▁story	-1823
bu	-1824
▁help	-1825
▁hope	-1826
pec	-1827
OT	-1828
▁mis	-1829
▁deep	-1830
▁table	-1831
----------------	-1832
ustom	-1833
dict	-1834
overed	-1835
▁perhaps	-1836
▁dest	-1837
8.	-1838
mat	-1839
▁20	-1840
ality	-1841
▁ut	-1842
▁French	-1843
▁meet	-1844
7,	-1845
▁thous	-1846
off	-1847
ger	-1848
torch	-1849
▁following	-1850
9,	-1851
1)	-1852
▁command	-1853
▁prob	-1854
ameters	-1855
▁av	-1856
▁sch	-1857
6.	-1858
▁'\	-1859
▁Le	-1860
stem	-1861
▁gone	-1862
▁partic	-1863
ges	-1864
▁sn	-1865
idx	-1866
▁Z	-1867
▁Ger	-1868
ember	-1869
▁ValueError	-1870
▁field	-1871
ken	-1872
########	-1873
ift	-1874
▁mount	-1875
_]	-1876
========	-1877
▁Do	-1878
▁fig	-1879
▁herself	-1880
▁vari	-1881
▁several	-1882
fact	-1883
hy	-1884
ony	-1885
▁human	-1886
▁spirit	-1887
▁black	-1888
▁brother	-1889
▁offic	-1890
son	-1891
ero	-1892
ributes	-1893
▁earth	-1894
aughter	-1895
state	-1896
aptain	-1897
ounds	-1898
▁friends	-1899
▁women	-1900
new	-1901
iet	-1902
▁length	-1903
▁sudden	-1904
ivers	-1905
ny	-1906
ension	-1907
iving	-1908
7.	-1909
▁held	-1910
▁indeed	-1911
[_	-1912
He	-1913
▁prof	-1914
▁therefore	-1915
▁vol	-1916
▁respect	-1917
iment	-1918
▁method	-1919
▁fort	-1920
▁fair	-1921
aith	-1922
▁port	-1923
ship	-1924
side	-1925
umb	-1926
ule	-1927
▁mid	-1928
▁flow	-1929
9.	-1930
ones	-1931
alt	-1932
anged	-1933
▁bring	-1934
IG	-1935
tensor	-1936
▁account	-1937
.;	-1938
▁England	-1939
ush	-1940
ases	-1941
What	-1942
▁ten	-1943
▁represent	-1944
▁hist	-1945
▁fear	-1946
▁letter	-1947
▁cal	-1948
▁stop	-1949
▁size	-1950
▁max	-1951
▁break	-1952
▁truth	-1953
alth	-1954
txt	-1955
▁clear	-1956
▁Nor	-1957
ively	-1958
oin	-1959
▁Cor	-1960
ster	-1961
su	-1962
way	-1963
log	-1964
nect	-1965
▁city	-1966
▁appro	-1967
▁around	-1968
ify	-1969
▁low	-1970
▁ask	-1971
inary	-1972
And	-1973
▁pap	-1974
▁excl	-1975
▁bed	-1976
▁why	-1977
▁free	-1978
ency	-1979
ries	-1980
▁axis	-1981
▁wish	-1982
▁stud	-1983
▁tensor	-1984
▁lim	-1985
▁enc	-1986
▁become	-1987
▁natur	-1988
▁var	-1989
ording	-1990
▁sympy	-1991
▁Dr	-1992
▁test	-1993
▁lost	-1994
."""	-1995
▁und	-1996
aught	-1997
ization	-1998
▁sea	-1999
▁close	-2000
▁past	-2001
▁fav	-2002
ational	-2003
▁possess	-2004
iting	-2005
▁wood	-2006
iously	-2007
▁These	-2008
▁position	-2009
▁exper	-2010
ager	-2011
▁lib	-2012
AD	-2013
medi	-2014
▁sit	-2015
airs	-2016
that	-2017
▁index	-2018
▁spr	-2019
▁behind	-2020
ney	-2021
ination	-2022
▁Ge	-2023
▁exist	-2024
llustr	-2025
▁enem	-2026
call	-2027
5.	-2028
]:	-2029
▁!=	-2030
ising	-2031
ables	-2032
▁diffic	-2033
▁understand	-2034
▁Oh	-2035
▁lady	-2036
`.	-2037
body	-2038
▁float	-2039
rc	-2040
Tensor	-2041
▁begin	-2042
arget	-2043
plit	-2044
well	-2045
▁arr	-2046
dom	-2047
olog	-2048
etimes	-2049
lib	-2050
Th	-2051
▁cre	-2052
▁govern	-2053
▁perfect	-2054
▁14	-2055
▁ver	-2056
▁weight	-2057
▁seems	-2058
▁extr	-2059
▁eng	-2060
▁sold	-2061
"),	-2062
30	-2063
ribute	-2064
▁became	-2065
▁build	-2066
▁assert	-2067
asion	-2068
uous	-2069
▁bur	-2070
▁ca	-2071
▁business	-2072
band	-2073
▁cast	-2074
▁wait	-2075
▁From	-2076
▁hus	-2077
check	-2078
na	-2079
▁"*.	-2080
▁bes	-2081
▁five	-2082
▁later	-2083
▁0,	-2084
where	-2085
names	-2086
IR	-2087
▁mere	-2088
▁fail	-2089
▁move	-2090
▁fil	-2091
▁Per	-2092
▁Returns	-2093
▁coming	-2094
orrow	-2095
rel	-2096
ID	-2097
▁bar	-2098
▁quick	-2099
▁----	-2100
▁really	-2101
float	-2102
▁cried	-2103
ested	-2104
idence	-2105
from	-2106
▁live	-2107
▁jud	-2108
▁family	-2109
▁prot	-2110
eneral	-2111
ounded	-2112
date	-2113
▁wall	-2114
▁}	-2115
But	-2116
angu	-2117
▁manner	-2118
▁ord	-2119
cur	-2120
thon	-2121
ires	-2122
trans	-2123
▁foot	-2124
ags	-2125
▁force	-2126
aving	-2127
▁gold	-2128
aten	-2129
▁decl	-2130
bed	-2131
▁making	-2132
▁remark	-2133
tered	-2134
▁beautiful	-2135
tree	-2136
▁Any	-2137
▁replied	-2138
▁Why	-2139
ENT	-2140
▁road	-2141
▁2,	-2142
▁LP	-2143
▁tree	-2144
▁Inc	-2145
da	-2146
▁arm	-2147
output	-2148
▁bit	-2149
ron	-2150
▁Char	-2151
Oh	-2152
▁bad	-2153
▁arri	-2154
▁Let	-2155
▁squ	-2156
tes	-2157
▁thousand	-2158
▁able	-2159
▁After	-2160
oo	-2161
but	-2162
,'	-2163
af	-2164
▁py	-2165
atures	-2166
bit	-2167
ml	-2168
▁[]	-2169
itten	-2170
ume	-2171
▁pract	-2172
rs	-2173
▁dem	-2174
▁mag	-2175
UR	-2176
Yes	-2177
ission	-2178
grad	-2179
▁kept	-2180
itive	-2181
▁inform	-2182
cle	-2183
▁worth	-2184
module	-2185
▁25	-2186
ST	-2187
oe	-2188
start	-2189
right	-2190
▁ang	-2191
otion	-2192
load	-2193
though	-2194
▁creat	-2195
▁towards	-2196
oly	-2197
▁rev	-2198
ules	-2199
▁forward	-2200
Illustr	-2201
plic	-2202
▁cause	-2203
▁treat	-2204
attle	-2205
▁month	-2206
ii	-2207
▁serv	-2208
24	-2209
▁received	-2210
▁Pl	-2211
adata	-2212
▁"$	-2213
▁range	-2214
▁names	-2215
rem	-2216
▁args	-2217
▁arms	-2218
▁pie	-2219
ixed	-2220
▁pop	-2221
▁learn	-2222
▁cross	-2223
result	-2224
▁sight	-2225
Illustration	-2226
▁regard	-2227
▁single	-2228
▁wonder	-2229
▁front	-2230
iar	-2231
iers	-2232
word	-2233
kn	-2234
▁appl	-2235
2)	-2236
ises	-2237
▁blood	-2238
▁CHAP	-2239
▁grow	-2240
▁deter	-2241
ites	-2242
uction	-2243
▁looking	-2244
itude	-2245
03	-2246
▁infl	-2247
▁across	-2248
▁necessary	-2249
▁tou	-2250
▁eff	-2251
▁mist	-2252
▁flo	-2253
irt	-2254
▁horse	-2255
ondon	-2256
▁master	-2257
▁early	-2258
ev	-2259
▁chief	-2260
▁followed	-2261
▁anim	-2262
▁fine	-2263
CH	-2264
▁mult	-2265
▁log	-2266
▁stri	-2267
▁emb	-2268
▁Well	-2269
▁twenty	-2270
emp	-2271
▁dri	-2272
▁school	-2273
▁accom	-2274
▁pret	-2275
▁particular	-2276
values	-2277
▁faith	-2278
ught	-2279
▁troub	-2280
▁2.	-2281
yle	-2282
acy	-2283
▁Mad	-2284
▁perform	-2285
itting	-2286
▁age	-2287
▁pict	-2288
▁sense	-2289
▁won	-2290
iod	-2291
▁AND	-2292
▁pay	-2293
▁Here	-2294
.[	-2295
▁ready	-2296
▁sweet	-2297
▁pray	-2298
▁CHAPTER	-2299
place	-2300
▁Co	-2301
▁eye	-2302
property	-2303
ernel	-2304
rect	-2305
▁13	-2306
▁coun	-2307
math	-2308
axis	-2309
code	-2310
▁hur	-2311
▁comes	-2312
▁esc	-2313
uments	-2314
▁May	-2315
▁answer	-2316
ledge	-2317
▁IN	-2318
method	-2319
ically	-2320
ences	-2321
▁process	-2322
uce	-2323
bs	-2324
cy	-2325
types	-2326
wered	-2327
cient	-2328
}'	-2329
▁192	-2330
▁husband	-2331
);	-2332
▁watch	-2333
antly	-2334
▁cold	-2335
._]	-2336
pper	-2337
▁perm	-2338
▁ce	-2339
▁Brit	-2340
──	-2341
cious	-2342
pond	-2343
Con	-2344
▁original	-2345
▁dut	-2346
11	-2347
▁attempt	-2348
▁big	-2349
▁evening	-2350
▁opt	-2351
▁sleep	-2352
▁prev	-2353
inct	-2354
FF	-2355
lected	-2356
▁imag	-2357
▁non	-2358
andom	-2359
ina	-2360
2]	-2361
▁London	-2362
▁Bl	-2363
▁answered	-2364
hand	-2365
▁graph	-2366
usion	-2367
fn	-2368
exp	-2369
▁Call	-2370
▁deg	-2371
▁soft	-2372
▁acqu	-2373
▁occasion	-2374
▁ignore	-2375
uture	-2376
▁lad	-2377
▁system	-2378
▁wild	-2379
▁lines	-2380
semb	-2381
▁change	-2382
▁em	-2383
▁grad	-2384
▁peace	-2385
var	-2386
▁forth	-2387
▁priv	-2388
▁vill	-2389
▁carried	-2390
orge	-2391
▁entire	-2392
▁sometimes	-2393
▁further	-2394
SE	-2395
ighb	-2396
▁walk	-2397
▁text	-2398
▁obt	-2399
▁Don	-2400
▁post	-2401
▁carry	-2402
▁proper	-2403
ply	-2404
29	-2405
▁fast	-2406
ulation	-2407
ception	-2408
▁lord	-2409
reen	-2410
://	-2411
▁forg	-2412
ours	-2413
itle	-2414
▁longer	-2415
▁jax	-2416
▁idea	-2417
200	-2418
▁satis	-2419
▁wid	-2420
gan	-2421
▁window	-2422
lass	-2423
ories	-2424
lection	-2425
oman	-2426
idge	-2427
▁fif	-2428
▁instead	-2429
▁secret	-2430
▁relig	-2431
▁affect	-2432
ids	-2433
▁added	-2434
dered	-2435
▁+=	-2436
loy	-2437
config	-2438
unk	-2439
acke	-2440
▁es	-2441
▁mine	-2442
riage	-2443
▁send	-2444
▁sound	-2445
fer	-2446
▁ann	-2447
▁immedi	-2448
▁top	-2449
---	-2450
▁group	-2451
▁slow	-2452
▁Qu	-2453
▁none	-2454
28	-2455
▁El	-2456
essage	-2457
Well	-2458
▁sett	-2459
cast	-2460
▁reached	-2461
▁incre	-2462
}"	-2463
05	-2464
():	-2465
▁193	-2466
(_	-2467
▁dro	-2468
ename	-2469
27	-2470
order	-2471
▁neg	-2472
▁miles	-2473
LO	-2474
▁intr	-2475
ze	-2476
▁fellow	-2477
▁string	-2478
At	-2479
urg	-2480
▁Car	-2481
pon	-2482
hs	-2483
▁prec	-2484
▁conv	-2485
▁hast	-2486
param	-2487
▁river	-2488
▁service	-2489
▁German	-2490
▁mur	-2491
We	-2492
Op	-2493
▁den	-2494
▁quar	-2495
UL	-2496
▁bound	-2497
▁Can	-2498
▁natural	-2499
▁purpose	-2500
▁American	-2501
▁fight	-2502
pute	-2503
yond	-2504
▁according	-2505
▁ship	-2506
format	-2507
▁daughter	-2508
UT	-2509
iling	-2510
cend	-2511
▁Cred	-2512
text	-2513
▁Some	-2514
▁late	-2515
((	-2516
▁appeared	-2517
note	-2518
38	-2519
▁langu	-2520
eger	-2521
▁hig	-2522
cially	-2523
▁everything	-2524
known	-2525
oken	-2526
what	-2527
ha	-2528
ivid	-2529
▁wit	-2530
▁accept	-2531
▁'{	-2532
▁parts	-2533
▁danger	-2534
ital	-2535
utes	-2536
▁Str	-2537
field	-2538
▁visit	-2539
▁quiet	-2540
▁aut	-2541
▁history	-2542
▁connect	-2543
▁distance	-2544
oes	-2545
road	-2546
group	-2547
▁’	-2548
dle	-2549
device	-2550
▁party	-2551
▁current	-2552
uke	-2553
▁copy	-2554
ening	-2555
▁Credits	-2556
▁happy	-2557
▁enemy	-2558
▁greater	-2559
bar	-2560
▁church	-2561
▁Cr	-2562
▁eight	-2563
orted	-2564
ackend	-2565
▁mil	-2566
▁instance	-2567
▁France	-2568
[:	-2569
▁]	-2570
▁using	-2571
night	-2572
.’	-2573
▁med	-2574
Value	-2575
alked	-2576
45	-2577
▁taking	-2578
irm	-2579
ov	-2580
▁sac	-2581
▁former	-2582
▁cat	-2583
▁code	-2584
inner	-2585
▁glad	-2586
Fr	-2587
▁company	-2588
▁strange	-2589
▁rock	-2590
▁column	-2591
iol	-2592
expr	-2593
▁pen	-2594
▁'*.	-2595
ald	-2596
▁sed	-2597
▁nearly	-2598
▁makes	-2599
urs	-2600
valid	-2601
▁sens	-2602
▁didn	-2603
▁action	-2604
work	-2605
lob	-2606
9]	-2607
='	-2608
▁----------	-2609
Tr	-2610
▁example	-2611
▁source	-2612
isc	-2613
OP	-2614
▁ought	-2615
sum	-2616
``.	-2617
ugg	-2618
ambda	-2619
▁stay	-2620
Gr	-2621
▁written	-2622
ills	-2623
▁pretty	-2624
string	-2625
▁Ser	-2626
▁hair	-2627
uation	-2628
75	-2629
params	-2630
▁latter	-2631
▁note	-2632
▁mad	-2633
35	-2634
ests	-2635
~~	-2636
oid	-2637
▁hours	-2638
▁dom	-2639
▁below	-2640
▁rank	-2641
weight	-2642
room	-2643
▁poet	-2644
26	-2645
())	-2646
aimed	-2647
▁optional	-2648
doc	-2649
▁proceed	-2650
ormal	-2651
ended	-2652
▁block	-2653
▁prison	-2654
▁led	-2655
▁circum	-2656
lab	-2657
parse	-2658
▁probably	-2659
▁save	-2660
block	-2661
▁music	-2662
▁Rob	-2663
▁sugg	-2664
uel	-2665
44	-2666
fil	-2667
▁MP	-2668
asure	-2669
face	-2670
▁hop	-2671
▁placed	-2672
▁delight	-2673
▁Yes	-2674
ogn	-2675
▁remember	-2676
ression	-2677
sl	-2678
aff	-2679
anced	-2680
▁beyond	-2681
▁suppose	-2682
▁pal	-2683
▁living	-2684
▁separ	-2685
wo	-2686
jax	-2687
ails	-2688
▁cry	-2689
▁Eur	-2690
context	-2691
▁frequ	-2692
CT	-2693
hood	-2694
Ch	-2695
▁module	-2696
▁determin	-2697
▁opin	-2698
▁describ	-2699
▁color	-2700
spec	-2701
▁army	-2702
▁period	-2703
▁suddenly	-2704
▁neighb	-2705
ium	-2706
▁continued	-2707
elled	-2708
▁surpr	-2709
That	-2710
▁Ab	-2711
▁match	-2712
olution	-2713
▁streng	-2714
▁lik	-2715
isp	-2716
uly	-2717
▁("	-2718
▁belong	-2719
▁results	-2720
lay	-2721
▁id	-2722
▁pain	-2723
ilar	-2724
▁heaven	-2725
ciety	-2726
osp	-2727
▁version	-2728
▁leg	-2729
▁hot	-2730
gar	-2731
▁scar	-2732
ales	-2733
▁conse	-2734
overn	-2735
oved	-2736
irection	-2737
▁influ	-2738
▁ST	-2739
▁plain	-2740
▁Am	-2741
vere	-2742
▁expected	-2743
incip	-2744
ription	-2745
play	-2746
99	-2747
▁rose	-2748
bers	-2749
▁Parameters	-2750
▁Where	-2751
▁comb	-2752
▁base	-2753
function	-2754
▁prop	-2755
light	-2756
▁Har	-2757
ingly	-2758
▁burn	-2759
▁doing	-2760
▁custom	-2761
part	-2762
icense	-2763
istic	-2764
▁repe	-2765
▁pick	-2766
▁):	-2767
▁Pe	-2768
pace	-2769
'),	-2770
33	-2771
▁Man	-2772
▁polit	-2773
▁write	-2774
imate	-2775
▁occup	-2776
▁spoke	-2777
ament	-2778
core	-2779
▁wrong	-2780
▁lower	-2781
tract	-2782
Array	-2783
▁condition	-2784
['	-2785
ators	-2786
60	-2787
▁rich	-2788
▁mention	-2789
▁Sy	-2790
▁George	-2791
▁echo	-2792
▁knowledge	-2793
hel	-2794
▁trav	-2795
▁rm	-2796
▁hy	-2797
▁Phil	-2798
▁States	-2799
▁deal	-2800
▁attack	-2801
▁Lady	-2802
ille	-2803
ement	-2804
test	-2805
▁desp	-2806
icient	-2807
▁laug	-2808
aching	-2809
ival	-2810
▁Fl	-2811
ump	-2812
▁expression	-2813
▁expect	-2814
mn	-2815
▁Captain	-2816
▁joy	-2817
▁feeling	-2818
▁bird	-2819
"""	-2820
▁important	-2821
ETTER	-2822
▁York	-2823
▁memory	-2824
▁device	-2825
dep	-2826
arding	-2827
▁exact	-2828
ww	-2829
lex	-2830
ancy	-2831
▁yes	-2832
aul	-2833
you	-2834
////	-2835
▁ago	-2836
▁Corp	-2837
err	-2838
▁died	-2839
enn	-2840
▁commun	-2841
▁li	-2842
velop	-2843
▁matrix	-2844
▁Bar	-2845
▁gun	-2846
▁attention	-2847
▁Py	-2848
pped	-2849
▁bear	-2850
esh	-2851
▁employ	-2852
▁General	-2853
▁princip	-2854
ux	-2855
aval	-2856
▁toward	-2857
pecially	-2858
▁saying	-2859
stant	-2860
▁clos	-2861
▁court	-2862
},	-2863
eff	-2864
ral	-2865
40	-2866
▁trees	-2867
▁plan	-2868
▁enj	-2869
▁mouth	-2870
ession	-2871
▁although	-2872
respond	-2873
.*	-2874
▁yield	-2875
▁beauty	-2876
aled	-2877
eless	-2878
▁trust	-2879
bo	-2880
▁LETTER	-2881
iding	-2882
▁('	-2883
▁0:	-2884
']	-2885
▁fool	-2886
▁weak	-2887
▁imm	-2888
unctions	-2889
▁crow	-2890
tended	-2891
▁3,	-2892
▁stage	-2893
▁laid	-2894
lin	-2895
▁slight	-2896
▁disap	-2897
ariable	-2898
▁Europe	-2899
▁Christian	-2900
▁yourself	-2901
▁equal	-2902
comm	-2903
▁youth	-2904
▁gard	-2905
▁param	-2906
owed	-2907
sk	-2908
▁larg	-2909
nn	-2910
▁Govern	-2911
ech	-2912
▁bright	-2913
indices	-2914
▁difficult	-2915
▁Hen	-2916
erv	-2917
▁gen	-2918
arning	-2919
▁paper	-2920
IM	-2921
verse	-2922
ously	-2923
oups	-2924
AND	-2925
▁obl	-2926
operation	-2927
▁various	-2928
orts	-2929
rest	-2930
▁points	-2931
▁wa	-2932
fix	-2933
alar	-2934
▁capt	-2935
ned	-2936
oured	-2937
icate	-2938
▁compan	-2939
▁depend	-2940
▁William	-2941
▁entered	-2942
▁neither	-2943
raw	-2944
Function	-2945
▁honour	-2946
To	-2947
mented	-2948
▁opened	-2949
▁government	-2950
itary	-2951
▁wat	-2952
▁warm	-2953
ls	-2954
ync	-2955
igned	-2956
▁pleasure	-2957
Sh	-2958
▁ran	-2959
count	-2960
ining	-2961
▁Who	-2962
▁doc	-2963
▁conce	-2964
▁dat	-2965
erial	-2966
▁grand	-2967
▁tot	-2968
ootnote	-2969
atever	-2970
▁exec	-2971
itor	-2972
AG	-2973
AB	-2974
▁prep	-2975
▁remain	-2976
▁recogn	-2977
▁1)	-2978
▁depart	-2979
Im	-2980
tx	-2981
UN	-2982
bl	-2983
65	-2984
▁compl	-2985
▁required	-2986
ique	-2987
23	-2988
dat	-2989
ham	-2990
▁transform	-2991
▁estab	-2992
▁bank	-2993
▁q	-2994
▁wanted	-2995
▁argument	-2996
`,	-2997
ndarray	-2998
mask	-2999
▁Yet	-3000
utils	-3001
arrow	-3002
▁gentleman	-3003
▁distribut	-3004
]]	-3005
(),	-3006
,’	-3007
uit	-3008
rt	-3009
olly	-3010
df	-3011
hern	-3012
▁init	-3013
▁title	-3014
_)	-3015
▁correspond	-3016
ords	-3017
mem	-3018
-1	-3019
src	-3020
▁30	-3021
dist	-3022
▁simple	-3023
▁comfort	-3024
▁language	-3025
▁ful	-3026
▁certainly	-3027
▁awk	-3028
▁ant	-3029
org	-3030
depth	-3031
▁future	-3032
▁cost	-3033
Un	-3034
▁America	-3035
].	-3036
▁htt	-3037
▁direction	-3038
dd	-3039
▁third	-3040
▁Gu	-3041
▁tro	-3042
ivil	-3043
EM	-3044
[1]	-3045
▁-0	-3046
hold	-3047
IV	-3048
rief	-3049
irty	-3050
▁Gree	-3051
erc	-3052
▁green	-3053
▁viol	-3054
▁mass	-3055
tmp	-3056
ushed	-3057
aped	-3058
▁persons	-3059
ALL	-3060
▁wis	-3061
▁parent	-3062
roy	-3063
▁liter	-3064
perm	-3065
dev	-3066
▁Church	-3067
aven	-3068
▁host	-3069
▁event	-3070
▁especially	-3071
RO	-3072
▁Ne	-3073
oted	-3074
▁die	-3075
▁duty	-3076
▁error	-3077
▁la	-3078
▁boys	-3079
▁lie	-3080
▁main	-3081
wid	-3082
▁Che	-3083
sq	-3084
▁allowed	-3085
umber	-3086
(*	-3087
▁-1	-3088
posed	-3089
▁*,	-3090
▁enjoy	-3091
TH	-3092
gen	-3093
▁vict	-3094
▁oppos	-3095
▁desire	-3096
do	-3097
teen	-3098
idered	-3099
▁broad	-3100
0)	-3101
▁individ	-3102
ett	-3103
uded	-3104
▁Que	-3105
ford	-3106
▁3.	-3107
▁generally	-3108
▁shad	-3109
▁que	-3110
▁strength	-3111
▁symbol	-3112
▁En	-3113
eds	-3114
▁goes	-3115
▁200	-3116
itution	-3117
Ind	-3118
01	-3119
plot	-3120
▁camp	-3121
▁island	-3122
view	-3123
▁occur	-3124
▁element	-3125
En	-3126
wor	-3127
▁figure	-3128
▁anx	-3129
now	-3130
Int	-3131
acing	-3132
▁mut	-3133
▁crowd	-3134
▁dress	-3135
athe	-3136
▁tried	-3137
IP	-3138
▁raised	-3139
▁hath	-3140
▁minutes	-3141
▁bott	-3142
ATION	-3143
▁Russ	-3144
▁194	-3145
alle	-3146
itable	-3147
▁di	-3148
▁noble	-3149
host	-3150
▁works	-3151
ouses	-3152
▁immediately	-3153
position	-3154
▁conduct	-3155
▁edge	-3156
▁1:	-3157
▁drink	-3158
▁battle	-3159
▁rap	-3160
ossible	-3161
▁Was	-3162
▁guard	-3163
▁chance	-3164
othing	-3165
cket	-3166
ston	-3167
▁mode	-3168
inite	-3169
▁British	-3170
▁places	-3171
▁knows	-3172
66	-3173
▁touch	-3174
▁lived	-3175
▁Paris	-3176
▁concl	-3177
▁scene	-3178
▁beginning	-3179
built	-3180
▁Rich	-3181
ici	-3182
apping	-3183
▁cases	-3184
anges	-3185
join	-3186
▁sin	-3187
▁heavy	-3188
▁ben	-3189
▁week	-3190
ging	-3191
CK	-3192
apped	-3193
▁local	-3194
step	-3195
iant	-3196
ica	-3197
▁Jack	-3198
▁continue	-3199
isted	-3200
▁Thus	-3201
▁Ital	-3202
ynam	-3203
If	-3204
▁individual	-3205
▁jour	-3206
77	-3207
▁letters	-3208
mtime	-3209
rupt	-3210
ertion	-3211
▁sister	-3212
▁II	-3213
▁Mary	-3214
gress	-3215
▁sd	-3216
▁Tom	-3217
▁built	-3218
erate	-3219
come	-3220
prec	-3221
▁pow	-3222
▁Thom	-3223
▁special	-3224
▁appearance	-3225
▁meant	-3226
▁opinion	-3227
▁food	-3228
mode	-3229
▁space	-3230
gu	-3231
mm	-3232
obj	-3233
aste	-3234
copy	-3235
▁introdu	-3236
cience	-3237
▁stream	-3238
▁der	-3239
▁inqu	-3240
▁Charles	-3241
▁loss	-3242
▁stat	-3243
▁hardly	-3244
▁remained	-3245
Com	-3246
▁blue	-3247
——	-3248
Attr	-3249
▁sal	-3250
▁fit	-3251
▁thick	-3252
▁develop	-3253
▁24	-3254
rep	-3255
aded	-3256
cher	-3257
▁mask	-3258
▁breath	-3259
▁Examples	-3260
▁deb	-3261
rible	-3262
My	-3263
▁rule	-3264
▁extra	-3265
soci	-3266
▁err	-3267
ibility	-3268
ajor	-3269
▁similar	-3270
▁favour	-3271
esty	-3272
ores	-3273
▁enter	-3274
aight	-3275
▁Pres	-3276
▁Tensor	-3277
ication	-3278
▁bas	-3279
orses	-3280
▁etc	-3281
▁information	-3282
▁prin	-3283
arp	-3284
▁trouble	-3285
▁MR	-3286
▁miss	-3287
▁considered	-3288
▁virt	-3289
ification	-3290
88	-3291
zz	-3292
ibly	-3293
▁century	-3294
▁happened	-3295
▁prevent	-3296
▁lips	-3297
▁numer	-3298
pu	-3299
▁collect	-3300
eness	-3301
gor	-3302
▁months	-3303
pha	-3304
irth	-3305
▁presence	-3306
▁north	-3307
stances	-3308
▁South	-3309
▁organ	-3310
▁fresh	-3311
eal	-3312
▁fat	-3313
▁pack	-3314
▁Span	-3315
▁becom	-3316
50	-3317
▁broken	-3318
▁State	-3319
▁(200	-3320
aries	-3321
▁dog	-3322
cent	-3323
AY	-3324
Al	-3325
▁height	-3326
▁please	-3327
▁mill	-3328
▁context	-3329
--"	-3330
uses	-3331
▁origin	-3332
▁Comm	-3333
pi	-3334
izes	-3335
under	-3336
▁gives	-3337
37	-3338
▁Ag	-3339
agon	-3340
▁office	-3341
reed	-3342
▁hat	-3343
▁Ass	-3344
ellow	-3345
attributes	-3346
})	-3347
▁easy	-3348
▁Fe	-3349
▁ii	-3350
ools	-3351
▁wrote	-3352
▁afterwards	-3353
▁Em	-3354
▁),	-3355
▁pure	-3356
▁stone	-3357
fraid	-3358
erve	-3359
ITH	-3360
▁standing	-3361
▁protect	-3362
▁ls	-3363
user	-3364
▁charm	-3365
gram	-3366
ama	-3367
▁Your	-3368
▁filled	-3369
itation	-3370
▁takes	-3371
ortun	-3372
▁gall	-3373
ding	-3374
3]	-3375
▁chap	-3376
plex	-3377
▁suc	-3378
offset	-3379
▁kwargs	-3380
eks	-3381
▁~	-3382
▁grace	-3383
▁succeed	-3384
``,	-3385
action	-3386
rees	-3387
▁silence	-3388
▁content	-3389
pat	-3390
▁piece	-3391
imum	-3392
▁War	-3393
▁shr	-3394
UM	-3395
▁impossible	-3396
68	-3397
write	-3398
base	-3399
wd	-3400
▁fing	-3401
There	-3402
oding	-3403
rary	-3404
icks	-3405
erved	-3406
▁influence	-3407
zen	-3408
ishing	-3409
▁exclaimed	-3410
▁memb	-3411
gment	-3412
fast	-3413
▁property	-3414
transform	-3415
22	-3416
▁United	-3417
▁Henry	-3418
▁straight	-3419
PE	-3420
kind	-3421
non	-3422
▁empty	-3423
▁afraid	-3424
▁Me	-3425
idden	-3426
▁phys	-3427
▁scale	-3428
▁forget	-3429
▁row	-3430
▁Type	-3431
▁liber	-3432
acher	-3433
▁absol	-3434
▁easily	-3435
55	-3436
reate	-3437
ander	-3438
▁ancient	-3439
ners	-3440
iced	-3441
▁28	-3442
▁hung	-3443
98	-3444
ensions	-3445
▁fle	-3446
▁vess	-3447
34	-3448
▁giving	-3449
nodes	-3450
1:	-3451
Optional	-3452
▁moved	-3453
▁demand	-3454
uary	-3455
▁smile	-3456
▁thoughts	-3457
cul	-3458
▁sole	-3459
▁born	-3460
▁merely	-3461
▁thinking	-3462
▁whis	-3463
._)	-3464
cely	-3465
sol	-3466
▁Def	-3467
▁quickly	-3468
▁Cal	-3469
lying	-3470
register	-3471
ye	-3472
▁publ	-3473
...	-3474
▁married	-3475
▁south	-3476
yal	-3477
She	-3478
0000	-3479
▁Comp	-3480
▁formed	-3481
▁Sw	-3482
source	-3483
▁horses	-3484
▁Array	-3485
▁books	-3486
▁level	-3487
▁fill	-3488
▁Prince	-3489
lim	-3490
▁furn	-3491
iction	-3492
################	-3493
iname	-3494
▁civil	-3495
ERS	-3496
pack	-3497
▁famil	-3498
▁provided	-3499
mark	-3500
▁harm	-3501
arl	-3502
▁entirely	-3503
▁West	-3504
▁farm	-3505
ashion	-3506
bin	-3507
items	-3508
▁outside	-3509
ta	-3510
▁due	-3511
▁North	-3512
▁degree	-3513
▁writing	-3514
▁news	-3515
▁quant	-3516
hip	-3517
▁blow	-3518
itch	-3519
▁Pict	-3520
**2	-3521
▁started	-3522
lyph	-3523
▁ru	-3524
▁spring	-3525
Why	-3526
▁attributes	-3527
king	-3528
▁oblig	-3529
▁leaves	-3530
▁song	-3531
▁boat	-3532
▁Ant	-3533
CE	-3534
▁race	-3535
▁Count	-3536
▁forgot	-3537
nce	-3538
just	-3539
umed	-3540
▁press	-3541
▁flat	-3542
▁named	-3543
De	-3544
▁style	-3545
▁struck	-3546
▁rapid	-3547
▁box	-3548
atives	-3549
▁getting	-3550
▁Our	-3551
67	-3552
▁dream	-3553
onel	-3554
▁bless	-3555
▁valid	-3556
home	-3557
▁arch	-3558
▁iter	-3559
▁cover	-3560
▁loved	-3561
ingu	-3562
▁inn	-3563
Wh	-3564
▁street	-3565
▁Every	-3566
▁picture	-3567
ares	-3568
▁fixed	-3569
▁convers	-3570
▁glass	-3571
mber	-3572
▁dread	-3573
▁message	-3574
▁disco	-3575
▁appears	-3576
▁elements	-3577
hab	-3578
▁resol	-3579
▁target	-3580
app	-3581
▁cloud	-3582
▁-------	-3583
▁observed	-3584
▁private	-3585
▁whatever	-3586
▁hero	-3587
▁upper	-3588
▁arguments	-3589
color	-3590
▁arrived	-3591
aken	-3592
length	-3593
ocr	-3594
▁mot	-3595
antic	-3596
oking	-3597
uffer	-3598
▁warn	-3599
▁excell	-3600
▁iss	-3601
48	-3602
▁La	-3603
▁27	-3604
pol	-3605
▁impro	-3606
sec	-3607
ability	-3608
istr	-3609
▁sad	-3610
straint	-3611
▁passion	-3612
DE	-3613
can	-3614
▁Sch	-3615
FI	-3616
▁changed	-3617
▁somewhat	-3618
cache	-3619
▁covered	-3620
▁scr	-3621
aset	-3622
▁11	-3623
ulty	-3624
tis	-3625
▁closed	-3626
enced	-3627
▁paid	-3628
▁Mon	-3629
▁slowly	-3630
95	-3631
▁Cour	-3632
elling	-3633
split	-3634
▁otherwise	-3635
"{	-3636
struction	-3637
▁kill	-3638
▁running	-3639
▁(0	-3640
▁TO	-3641
▁advant	-3642
▁MAR	-3643
▁Bo	-3644
spect	-3645
width	-3646
▁seeing	-3647
ems	-3648
▁Dav	-3649
▁material	-3650
▁wide	-3651
90	-3652
▁bene	-3653
▁events	-3654
▁House	-3655
ette	-3656
▁usual	-3657
osop	-3658
▁Queen	-3659
▁"_	-3660
▁nodes	-3661
▁terms	-3662
▁village	-3663
enth	-3664
▁dinner	-3665
▁drew	-3666
▁Frank	-3667
▁tears	-3668
▁DE	-3669
▁Sm	-3670
axes	-3671
find	-3672
▁root	-3673
process	-3674
▁complete	-3675
▁produced	-3676
▁modern	-3677
▁objects	-3678
▁Their	-3679
▁Mat	-3680
▁caught	-3681
▁looks	-3682
▁jnp	-3683
▁correct	-3684
▁SE	-3685
layout	-3686
orough	-3687
▁License	-3688
▁drawn	-3689
▁learned	-3690
NE	-3691
house	-3692
▁evil	-3693
▁garden	-3694
▁experience	-3695
go	-3696
▁society	-3697
▁false	-3698
▁utter	-3699
▁ball	-3700
agr	-3701
anted	-3702
scale	-3703
amm	-3704
TR	-3705
▁members	-3706
▁fun	-3707
▁pred	-3708
apper	-3709
▁unless	-3710
builtins	-3711
▁lives	-3712
xy	-3713
▁pec	-3714
▁terr	-3715
Pro	-3716
▁maid	-3717
▁reels	-3718
▁Roman	-3719
▁charge	-3720
97	-3721
has	-3722
▁ctx	-3723
▁magn	-3724
▁seven	-3725
▁marriage	-3726
ILL	-3727
table	-3728
▁speech	-3729
▁Come	-3730
▁safe	-3731
▁tail	-3732
▁Indian	-3733
▁Thomas	-3734
hest	-3735
▁walked	-3736
▁Great	-3737
mit	-3738
▁exam	-3739
▁total	-3740
▁Lou	-3741
ipped	-3742
▁search	-3743
plemented	-3744
meta	-3745
range	-3746
uced	-3747
▁greatest	-3748
▁kiss	-3749
ethods	-3750
_1	-3751
▁record	-3752
aud	-3753
▁middle	-3754
gn	-3755
arser	-3756
▁train	-3757
▁Rep	-3758
▁sick	-3759
html	-3760
Str	-3761
▁phil	-3762
▁circumstances	-3763
▁James	-3764
▁health	-3765
arse	-3766
▁amount	-3767
▁steps	-3768
▁4,	-3769
othes	-3770
Not	-3771
target	-3772
▁soldiers	-3773
oked	-3774
oon	-3775
▁cand	-3776
().	-3777
▁spot	-3778
▁determined	-3779
ATIN	-3780
▁env	-3781
▁prim	-3782
How	-3783
00\	-3784
▁killed	-3785
▁supposed	-3786
▁Produ	-3787
▁escape	-3788
▁troops	-3789
▁paint	-3790
▁leaving	-3791
▁acquaint	-3792
▁hol	-3793
▁temp	-3794
▁chair	-3795
▁girls	-3796
▁Robert	-3797
options	-3798
cer	-3799
▁Good	-3800
▁Also	-3801
empl	-3802
▁os	-3803
▁pun	-3804
▁gaz	-3805
vation	-3806
▁Min	-3807
ring	-3808
▁appoint	-3809
▁supported	-3810
▁Just	-3811
iest	-3812
▁Mor	-3813
egr	-3814
level	-3815
▁Duke	-3816
arily	-3817
▁satisf	-3818
▁waiting	-3819
ailed	-3820
▁While	-3821
cil	-3822
▁har	-3823
▁user	-3824
?'	-3825
reet	-3826
root	-3827
▁control	-3828
IA	-3829
▁Rome	-3830
▁struct	-3831
▁opportun	-3832
▁earl	-3833
Re	-3834
pop	-3835
pass	-3836
▁Sec	-3837
▁Such	-3838
▁educ	-3839
stract	-3840
▁cou	-3841
▁summer	-3842
▁mach	-3843
▁Old	-3844
▁flowers	-3845
47	-3846
rec	-3847
ades	-3848
\\	-3849
zer	-3850
▁floor	-3851
wood	-3852
▁design	-3853
▁cho	-3854
▁bow	-3855
▁passage	-3856
amma	-3857
▁regular	-3858
▁ident	-3859
▁notice	-3860
▁forest	-3861
▁officers	-3862
▁ones	-3863
uted	-3864
▁reach	-3865
cons	-3866
icy	-3867
HT	-3868
▁Direct	-3869
anch	-3870
▁indices	-3871
cs	-3872
▁forms	-3873
▁ur	-3874
▁shown	-3875
cls	-3876
▁tone	-3877
▁addition	-3878
▁Even	-3879
left	-3880
rence	-3881
▁ordered	-3882
▁rid	-3883
▁admir	-3884
dims	-3885
nal	-3886
irg	-3887
▁neck	-3888
36	-3889
▁board	-3890
uten	-3891
▁fro	-3892
AME	-3893
ESS	-3894
▁Su	-3895
requ	-3896
▁finally	-3897
▁receive	-3898
pan	-3899
▁crit	-3900
hib	-3901
▁eager	-3902
▁Pictures	-3903
ishment	-3904
▁surr	-3905
▁stopped	-3906
▁discovered	-3907
▁passing	-3908
▁hang	-3909
ellig	-3910
ishop	-3911
ANT	-3912
▁firm	-3913
▁III	-3914
▁simply	-3915
▁apparent	-3916
how	-3917
symbol	-3918
agg	-3919
▁higher	-3920
keys	-3921
▁attend	-3922
OS	-3923
uliar	-3924
Footnote	-3925
▁Aug	-3926
zero	-3927
Cont	-3928
▁foreign	-3929
▁implement	-3930
▁PR	-3931
▁types	-3932
vey	-3933
osing	-3934
▁likely	-3935
▁laughed	-3936
error	-3937
▁laugh	-3938
▁strugg	-3939
empty	-3940
▁doct	-3941
ensors	-3942
▁distr	-3943
ifted	-3944
▁distinct	-3945
uge	-3946
erences	-3947
▁study	-3948
oses	-3949
▁returns	-3950
▁distingu	-3951
▁tender	-3952
▁houses	-3953
local	-3954
nest	-3955
This	-3956
▁XX	-3957
▁Fil	-3958
▁enum	-3959
▁Father	-3960
ipy	-3961
▁pot	-3962
▁building	-3963
ential	-3964
▁thirty	-3965
▁TH	-3966
box	-3967
noon	-3968
▁Po	-3969
▁LATIN	-3970
het	-3971
emb	-3972
▁speaking	-3973
tuple	-3974
mas	-3975
▁peculiar	-3976
Res	-3977
▁https	-3978
la	-3979
Index	-3980
▁config	-3981
▁crown	-3982
edy	-3983
samples	-3984
▁temper	-3985
Sc	-3986
▁trib	-3987
▁Args	-3988
▁walls	-3989
ipe	-3990
▁sitting	-3991
_).	-3992
eval	-3993
clock	-3994
▁26	-3995
▁destroy	-3996
▁iron	-3997
▁species	-3998
▁shout	-3999
IE	-4000
▁star	-4001
abs	-4002
▁conditions	-4003
▁orders	-4004
maxdepth	-4005
ndim	-4006
morrow	-4007
▁spread	-4008
▁eat	-4009
lobal	-4010
▁beside	-4011
▁expr	-4012
▁split	-4013
▁100	-4014
▁description	-4015
update	-4016
▁assist	-4017
▁tend	-4018
iqu	-4019
▁xp	-4020
▁cit	-4021
which	-4022
▁doctor	-4023
ground	-4024
▁frame	-4025
▁avoid	-4026
▁descend	-4027
▁ring	-4028
▁saf	-4029
07	-4030
▁usually	-4031
▁artic	-4032
▁23	-4033
▁SM	-4034
omin	-4035
▁Val	-4036
AV	-4037
Py	-4038
OW	-4039
▁shut	-4040
▁meaning	-4041
▁func	-4042
▁showed	-4043
asc	-4044
only	-4045
▁god	-4046
▁tong	-4047
▁journey	-4048
▁shot	-4049
▁pul	-4050
▁guess	-4051
▁maint	-4052
▁vain	-4053
metadata	-4054
▁native	-4055
▁scarcely	-4056
bre	-4057
Se	-4058
unch	-4059
▁winter	-4060
▁captain	-4061
▁discuss	-4062
lines	-4063
▁model	-4064
hens	-4065
▁throw	-4066
▁ess	-4067
▁rend	-4068
peare	-4069
element	-4070
arer	-4071
▁fortune	-4072
▁Ah	-4073
TY	-4074
▁task	-4075
▁associ	-4076
▁cop	-4077
▁moon	-4078
▁hill	-4079
▁broke	-4080
▁<=	-4081
▁inhab	-4082
-1]	-4083
▁,	-4084
aved	-4085
umph	-4086
▁mountain	-4087
etch	-4088
▁wine	-4089
▁apart	-4090
apes	-4091
▁dry	-4092
▁surface	-4093
▁du	-4094
▁claim	-4095
▁reve	-4096
▁Bel	-4097
▁sky	-4098
▁considerable	-4099
▁Jan	-4100
zip	-4101
▁join	-4102
▁report	-4103
▁narrow	-4104
▁silent	-4105
:--	-4106
▁minute	-4107
was	-4108
▁sail	-4109
▁needed	-4110
▁reading	-4111
▁WITH	-4112
iversal	-4113
ARD	-4114
▁fem	-4115
▁glo	-4116
abled	-4117
▁concern	-4118
parent	-4119
▁underst	-4120
▁grew	-4121
▁rise	-4122
▁hall	-4123
inputs	-4124
▁fifty	-4125
stack	-4126
plend	-4127
▁difference	-4128
▁Reg	-4129
▁sor	-4130
▁cult	-4131
▁offset	-4132
▁clean	-4133
96	-4134
▁fashion	-4135
▁directly	-4136
ns	-4137
▁stock	-4138
======	-4139
ien	-4140
▁Paul	-4141
▁date	-4142
▁wel	-4143
▁doll	-4144
▁features	-4145
Any	-4146
▁mort	-4147
peror	-4148
oms	-4149
leg	-4150
▁term	-4151
3)	-4152
▁numpy	-4153
bert	-4154
sign	-4155
▁moral	-4156
▁repeated	-4157
▁0),	-4158
▁afternoon	-4159
=_	-4160
▁Jud	-4161
label	-4162
▁nation	-4163
,[	-4164
▁removed	-4165
▁trying	-4166
▁storm	-4167
▁elect	-4168
eta	-4169
▁grave	-4170
▁personal	-4171
▁snow	-4172
pir	-4173
▁birth	-4174
▁containing	-4175
▁Two	-4176
▁marry	-4177
▁numbers	-4178
▁serious	-4179
ese	-4180
yl	-4181
▁sufficient	-4182
aft	-4183
▁religious	-4184
▁decided	-4185
▁address	-4186
▁lambda	-4187
Pr	-4188
▁tim	-4189
lease	-4190
▁estim	-4191
▁existence	-4192
ternal	-4193
see	-4194
▁mentioned	-4195
▁Only	-4196
▁difficulty	-4197
▁corner	-4198
iance	-4199
▁pair	-4200
Like	-4201
▁philosop	-4202
▁appre	-4203
▁create	-4204
▁described	-4205
▁(?	-4206
Is	-4207
ustri	-4208
▁prepared	-4209
▁gro	-4210
ague	-4211
▁Sam	-4212
▁Int	-4213
,)	-4214
poly	-4215
They	-4216
elve	-4217
▁square	-4218
III	-4219
▁ladies	-4220
▁beneath	-4221
▁│	-4222
▁cab	-4223
▁interesting	-4224
▁dir	-4225
▁prove	-4226
▁sacr	-4227
▁unto	-4228
▁First	-4229
retched	-4230
)]	-4231
▁motion	-4232
vari	-4233
ancing	-4234
▁shore	-4235
▁CON	-4236
▁working	-4237
▁sword	-4238
▁parameter	-4239
▁political	-4240
▁22	-4241
gex	-4242
▁bread	-4243
amber	-4244
features	-4245
uding	-4246
ilities	-4247
▁Government	-4248
▁measure	-4249
▁Coun	-4250
ele	-4251
▁Ir	-4252
lege	-4253
ensive	-4254
burg	-4255
arest	-4256
▁specified	-4257
etr	-4258
iments	-4259
orig	-4260
▁van	-4261
▁logg	-4262
▁kernel	-4263
rey	-4264
▁ens	-4265
▁authority	-4266
80	-4267
Implemented	-4268
▁Ste	-4269
vention	-4270
▁series	-4271
▁speed	-4272
▁isn	-4273
oined	-4274
▁load	-4275
▁exactly	-4276
▁Peter	-4277
▁functions	-4278
▁trade	-4279
Do	-4280
▁mel	-4281
▁Im	-4282
▁offered	-4283
94	-4284
▁Thou	-4285
▁progress	-4286
izer	-4287
▁indic	-4288
▁sake	-4289
▁plot	-4290
▁ignor	-4291
▁obtained	-4292
ols	-4293
▁Go	-4294
▁thank	-4295
ponse	-4296
▁instant	-4297
▁Tur	-4298
mult	-4299
vals	-4300
annel	-4301
kernel	-4302
▁terrible	-4303
ially	-4304
isters	-4305
▁avail	-4306
▁doesn	-4307
!--	-4308
▁>=	-4309
▁dam	-4310
ios	-4311
rier	-4312
▁Jes	-4313
▁rate	-4314
rows	-4315
▁ways	-4316
▁habit	-4317
▁trace	-4318
▁ep	-4319
▁proud	-4320
▁sides	-4321
▁Note	-4322
▁include	-4323
nan	-4324
▁screen	-4325
ds	-4326
▁entr	-4327
▁00	-4328
▁sorrow	-4329
ells	-4330
asing	-4331
ology	-4332
▁wealth	-4333
▁pra	-4334
fold	-4335
▁wished	-4336
Return	-4337
▁officer	-4338
▁4.	-4339
▁offer	-4340
▁accompl	-4341
▁product	-4342
▁CAP	-4343
▁lot	-4344
▁freed	-4345
operands	-4346
▁popular	-4347
▁Jew	-4348
76	-4349
▁game	-4350
▁religion	-4351
▁FR	-4352
▁MRS	-4353
▁Port	-4354
▁sche	-4355
using	-4356
▁rail	-4357
▁ndarray	-4358
ergy	-4359
▁situation	-4360
▁share	-4361
▁comput	-4362
▁justice	-4363
icked	-4364
▁conversation	-4365
bool	-4366
▁aud	-4367
▁buff	-4368
▁coast	-4369
eed	-4370
▁Key	-4371
allel	-4372
rie	-4373
numpy	-4374
▁wise	-4375
▁pleasant	-4376
04	-4377
real	-4378
.—	-4379
dot	-4380
▁constant	-4381
ims	-4382
▁threat	-4383
▁suggest	-4384
▁suppl	-4385
▁August	-4386
▁fright	-4387
Set	-4388
▁],	-4389
▁rain	-4390
▁render	-4391
GE	-4392
▁amb	-4393
▁heat	-4394
▁Hel	-4395
ajesty	-4396
}")	-4397
▁35	-4398
▁details	-4399
▁declared	-4400
ordin	-4401
▁bold	-4402
essor	-4403
ae	-4404
gorith	-4405
▁Wor	-4406
▁rob	-4407
▁perfectly	-4408
▁ourselves	-4409
Module	-4410
KE	-4411
▁proved	-4412
▁meeting	-4413
annels	-4414
▁laws	-4415
▁splend	-4416
iny	-4417
INE	-4418
▁turning	-4419
▁vent	-4420
▁dig	-4421
▁attract	-4422
,—	-4423
ctx	-4424
▁exerc	-4425
▁sand	-4426
▁fully	-4427
▁leading	-4428
▁operation	-4429
▁label	-4430
▁bitter	-4431
▁contain	-4432
aily	-4433
▁ears	-4434
▁$(	-4435
▁susp	-4436
▁desert	-4437
▁rare	-4438
▁heads	-4439
▁opportunity	-4440
▁29	-4441
▁breast	-4442
▁Richard	-4443
pret	-4444
▁Whe	-4445
▁sav	-4446
▁prefer	-4447
Att	-4448
orage	-4449
▁honest	-4450
Base	-4451
▁inputs	-4452
"],	-4453
ded	-4454
▁inj	-4455
▁classes	-4456
▁Court	-4457
▁contains	-4458
omial	-4459
▁Madame	-4460
▁silver	-4461
▁transl	-4462
▁bod	-4463
bose	-4464
▁Ber	-4465
const	-4466
▁favor	-4467
▁opposite	-4468
_{	-4469
▁witness	-4470
▁SC	-4471
▁conqu	-4472
▁spite	-4473
▁fold	-4474
▁writ	-4475
▁intended	-4476
▁AL	-4477
▁initial	-4478
fit	-4479
Name	-4480
▁characters	-4481
▁methods	-4482
▁bottom	-4483
▁normal	-4484
▁satisfact	-4485
▁importance	-4486
▁info	-4487
▁intellig	-4488
ois	-4489
▁portion	-4490
rid	-4491
▁Island	-4492
▁exception	-4493
norm	-4494
▁Ben	-4495
ilder	-4496
▁NotImplemented	-4497
▁believed	-4498
fortun	-4499
▁theat	-4500
qual	-4501
▁thin	-4502
▁random	-4503
▁lies	-4504
▁seat	-4505
ardon	-4506
▁worthy	-4507
▁imper	-4508
▁pleased	-4509
aling	-4510
▁dare	-4511
▁happiness	-4512
▁Mc	-4513
Frame	-4514
▁compar	-4515
▁fields	-4516
▁evidence	-4517
▁matters	-4518
▁win	-4519
▁talking	-4520
lor	-4521
================	-4522
[0-	-4523
"):	-4524
▁calm	-4525
▁spent	-4526
▁movement	-4527
▁blind	-4528
▁applied	-4529
▁relation	-4530
adding	-4531
▁taste	-4532
▁advantage	-4533
▁hom	-4534
▁military	-4535
'\	-4536
verage	-4537
▁Louis	-4538
▁Default	-4539
▁understood	-4540
▁proble	-4541
▁wouldn	-4542
▁bul	-4543
▁sharp	-4544
(-	-4545
inity	-4546
▁worse	-4547
arsh	-4548
▁reply	-4549
▁follows	-4550
▁More	-4551
▁caused	-4552
isk	-4553
batch	-4554
ental	-4555
▁benef	-4556
▁extrem	-4557
▁agree	-4558
▁chmod	-4559
▁=======	-4560
▁Indians	-4561
▁32	-4562
▁rad	-4563
lt	-4564
▁San	-4565
▁mas	-4566
▁ende	-4567
ara	-4568
backend	-4569
▁cruel	-4570
▁cred	-4571
▁fier	-4572
▁final	-4573
▁servant	-4574
▁possession	-4575
▁west	-4576
iber	-4577
▁complex	-4578
▁disappe	-4579
An	-4580
▁Pat	-4581
▁stir	-4582
▁remains	-4583
▁format	-4584
tag	-4585
▁station	-4586
▁promise	-4587
eline	-4588
atory	-4589
▁grass	-4590
▁lying	-4591
run	-4592
iden	-4593
post	-4594
added	-4595
▁pale	-4596
Or	-4597
▁excellent	-4598
▁wonderful	-4599
!'	-4600
ai	-4601
List	-4602
igr	-4603
▁conver	-4604
▁pieces	-4605
▁ow	-4606
▁poly	-4607
(0,	-4608
she	-4609
Then	-4610
Enter	-4611
▁independ	-4612
ounced	-4613
▁prepar	-4614
▁courage	-4615
tar	-4616
direct	-4617
▁thread	-4618
aked	-4619
▁forty	-4620
▁animal	-4621
▁royal	-4622
▁store	-4623
ributed	-4624
────	-4625
▁Director	-4626
▁;	-4627
urb	-4628
▁drawing	-4629
▁RE	-4630
etime	-4631
dy	-4632
▁ordinary	-4633
100	-4634
Dec	-4635
oto	-4636
▁Som	-4637
▁Spanish	-4638
▁serve	-4639
▁engaged	-4640
▁obj	-4641
▁published	-4642
――	-4643
▁gentlemen	-4644
▁season	-4645
akespeare	-4646
4]	-4647
worth	-4648
▁lock	-4649
lished	-4650
idently	-4651
miss	-4652
iform	-4653
▁proport	-4654
_;	-4655
▁twelve	-4656
Variable	-4657
▁surprise	-4658
rank	-4659
▁trad	-4660
icious	-4661
frame	-4662
pered	-4663
({	-4664
▁frequently	-4665
desc	-4666
clude	-4667
▁birds	-4668
▁actually	-4669
▁conscious	-4670
edge	-4671
▁needs	-4672
▁powers	-4673
▁reel	-4674
▁./	-4675
▁rout	-4676
.")	-4677
▁Law	-4678
jit	-4679
▁AR	-4680
▁desired	-4681
All	-4682
after	-4683
▁faint	-4684
▁couldn	-4685
▁strict	-4686
▁capital	-4687
▁affection	-4688
acle	-4689
▁fate	-4690
▁resp	-4691
fx	-4692
▁40	-4693
cing	-4694
▁cup	-4695
▁agreed	-4696
▁social	-4697
▁quarter	-4698
Node	-4699
ispatch	-4700
uls	-4701
supp	-4702
$(	-4703
▁thorough	-4704
lower	-4705
▁wear	-4706
46	-4707
bytes	-4708
▁191	-4709
▁subjects	-4710
▁Greek	-4711
▁useful	-4712
▁yellow	-4713
erson	-4714
▁complet	-4715
Data	-4716
▁produce	-4717
▁states	-4718
~~~~	-4719
▁raw	-4720
▁Which	-4721
*"	-4722
eb	-4723
quis	-4724
Tis	-4725
uda	-4726
izing	-4727
▁vast	-4728
▁zero	-4729
▁21	-4730
▁effort	-4731
▁becomes	-4732
printf	-4733
▁writer	-4734
▁inside	-4735
aches	-4736
▁loud	-4737
vars	-4738
85	-4739
▁seek	-4740
ND	-4741
create	-4742
untime	-4743
▁IV	-4744
▁JO	-4745
ashed	-4746
▁dre	-4747
acity	-4748
▁confess	-4749
random	-4750
▁presented	-4751
ciples	-4752
▁Him	-4753
▁honor	-4754
........	-4755
irgin	-4756
ources	-4757
▁wc	-4758
fs	-4759
aker	-4760
IGHT	-4761
▁Pol	-4762
▁construct	-4763
mul	-4764
▁double	-4765
▁sorry	-4766
erred	-4767
▁Nap	-4768
▁band	-4769
ulated	-4770
▁obtain	-4771
▁SMALL	-4772
idenote	-4773
ivity	-4774
▁limit	-4775
▁Trans	-4776
▁calls	-4777
Sidenote	-4778
Now	-4779
▁ho	-4780
▁16,	-4781
ented	-4782
▁lose	-4783
gypt	-4784
oration	-4785
ELL	-4786
▁aid	-4787
estern	-4788
▁assemb	-4789
▁steam	-4790
={	-4791
May	-4792
▁saved	-4793
▁spect	-4794
▁flag	-4795
▁fault	-4796
expected	-4797
▁finished	-4798
▁Pal	-4799
▁carefully	-4800
Sy	-4801
▁hun	-4802
style	-4803
▁spoken	-4804
usr	-4805
▁Other	-4806
▁judge	-4807
▁calling	-4808
EST	-4809
▁cheer	-4810
▁Callable	-4811
ula	-4812
▁bab	-4813
▁earnest	-4814
*'	-4815
▁affairs	-4816
cat	-4817
make	-4818
▁Dan	-4819
▁tongue	-4820
▁dimension	-4821
bug	-4822
▁fac	-4823
erable	-4824
▁besides	-4825
▁qual	-4826
▁tremb	-4827
▁arrange	-4828
▁32,	-4829
\.	-4830
▁cls	-4831
udes	-4832
▁axes	-4833
▁tall	-4834
▁animals	-4835
▁Shakespeare	-4836
aclass	-4837
andas	-4838
▁token	-4839
▁Cast	-4840
▁consist	-4841
▁gate	-4842
▁March	-4843
▁handle	-4844
Trans	-4845
▁Red	-4846
▁ships	-4847
▁High	-4848
ODO	-4849
return	-4850
▁curious	-4851
▁instruct	-4852
As	-4853
AX	-4854
▁highest	-4855
▁scen	-4856
▁image	-4857
▁Vol	-4858
▁unc	-4859
▁bill	-4860
sg	-4861
▁"'	-4862
▁pride	-4863
atten	-4864
▁suffer	-4865
▁(1,	-4866
asons	-4867
▁request	-4868
▁triumph	-4869
orne	-4870
▁fruit	-4871
awn	-4872
▁catch	-4873
Mar	-4874
number	-4875
39	-4876
prune	-4877
▁disp	-4878
▁thrown	-4879
ky	-4880
Don	-4881
▁fallen	-4882
▁employed	-4883
▁attribute	-4884
▁advance	-4885
oned	-4886
▁186	-4887
▁Rev	-4888
▁Cong	-4889
▁drop	-4890
impl	-4891
IONS	-4892
▁greatly	-4893
▁BO	-4894
rip	-4895
▁march	-4896
▁require	-4897
ico	-4898
object	-4899
▁integer	-4900
▁impl	-4901
▁brown	-4902
omen	-4903
iring	-4904
▁east	-4905
)),	-4906
▁Jer	-4907
▁pity	-4908
▁depth	-4909
▁Mil	-4910
acious	-4911
▁larger	-4912
draw	-4913
▁Oct	-4914
trace	-4915
ville	-4916
▁display	-4917
▁familiar	-4918
▁pictures	-4919
quant	-4920
▁mountains	-4921
▁reference	-4922
)/	-4923
ora	-4924
▁kne	-4925
buffer	-4926
orious	-4927
▁darkness	-4928
▁Before	-4929
together	-4930
▁Roy	-4931
▁clim	-4932
▁Are	-4933
▁dece	-4934
yr	-4935
▁Er	-4936
▁Act	-4937
▁pet	-4938
▁Hol	-4939
▁inhabit	-4940
spe	-4941
▁pp	-4942
▁Afr	-4943
oph	-4944
ector	-4945
▁cow	-4946
▁dwell	-4947
▁ideas	-4948
)):	-4949
mean	-4950
▁aston	-4951
umes	-4952
1;	-4953
▁bare	-4954
▁actual	-4955
full	-4956
complex	-4957
▁feature	-4958
bits	-4959
iple	-4960
▁Wal	-4961
▁font	-4962
▁sym	-4963
isions	-4964
▁stack	-4965
▁wounded	-4966
▁played	-4967
icted	-4968
▁Ang	-4969
▁Mac	-4970
▁track	-4971
▁perce	-4972
ulate	-4973
▁unknown	-4974
▁fish	-4975
▁grat	-4976
▁endeav	-4977
▁gar	-4978
utions	-4979
▁marked	-4980
▁holding	-4981
=-	-4982
azy	-4983
▁engine	-4984
▁practice	-4985
".	-4986
▁famous	-4987
▁prince	-4988
null	-4989
▁forced	-4990
▁liberty	-4991
▁project	-4992
▁mir	-4993
▁previous	-4994
ertionError	-4995
▁Fred	-4996
sm	-4997
▁ge	-4998
▁David	-4999
▁proof	-5000
▁occupied	-5001
▁Egypt	-5002
▁columns	-5003
ais	-5004
msg	-5005
▁ble	-5006
▁June	-5007
static	-5008
▁variable	-5009
bb	-5010
▁Colonel	-5011
▁threw	-5012
agged	-5013
▁AssertionError	-5014
ingle	-5015
▁sample	-5016
▁innoc	-5017
For	-5018
ifice	-5019
utely	-5020
▁inner	-5021
▁established	-5022
IST	-5023
▁egg	-5024
▁cool	-5025
▁burst	-5026
▁weeks	-5027
▁Sequence	-5028
▁forgotten	-5029
▁Edward	-5030
▁facts	-5031
▁stands	-5032
htt	-5033
▁["	-5034
inet	-5035
▁questions	-5036
UD	-5037
oring	-5038
▁Street	-5039
▁shadow	-5040
ocation	-5041
70	-5042
▁freedom	-5043
▁ip	-5044
auto	-5045
sequ	-5046
aper	-5047
osen	-5048
req	-5049
groups	-5050
▁soldier	-5051
▁feelings	-5052
omy	-5053
▁OR	-5054
Par	-5055
astic	-5056
van	-5057
ming	-5058
▁based	-5059
▁plant	-5060
▁Fort	-5061
ecause	-5062
▁illustr	-5063
▁opening	-5064
AA	-5065
ean	-5066
shard	-5067
▁extent	-5068
results	-5069
▁failed	-5070
nes	-5071
▁page	-5072
lers	-5073
sort	-5074
▁Mo	-5075
▁TODO	-5076
)))	-5077
'.	-5078
▁resemb	-5079
=[	-5080
▁meas	-5081
▁created	-5082
hlo	-5083
▁clothes	-5084
▁CallFunction	-5085
will	-5086
agement	-5087
▁Did	-5088
▁hearts	-5089
▁advent	-5090
▁dise	-5091
▁gods	-5092
neg	-5093
itated	-5094
▁5,	-5095
][	-5096
////////	-5097
▁dram	-5098
▁Franc	-5099
www	-5100
▁particularly	-5101
▁citiz	-5102
outhern	-5103
▁Alex	-5104
▁price	-5105
▁['	-5106
pril	-5107
▁undert	-5108
▁ban	-5109
▁sympath	-5110
net	-5111
learn	-5112
▁population	-5113
▁roof	-5114
RA	-5115
onents	-5116
▁noise	-5117
▁rough	-5118
▁colour	-5119
▁preced	-5120
ATH	-5121
ieve	-5122
▁fancy	-5123
▁major	-5124
ural	-5125
▁hes	-5126
▁brave	-5127
cles	-5128
▁exped	-5129
IO	-5130
match	-5131
ITAL	-5132
▁However	-5133
▁promised	-5134
▁Spain	-5135
▁Data	-5136
tering	-5137
python	-5138
vis	-5139
▁core	-5140
▁fond	-5141
▁holy	-5142
▁pa	-5143
▁Heaven	-5144
top	-5145
▁lov	-5146
▁Pope	-5147
▁parameters	-5148
api	-5149
78	-5150
)(	-5151
eping	-5152
▁Never	-5153
OUR	-5154
mesh	-5155
berg	-5156
▁Cont	-5157
eng	-5158
▁aside	-5159
▁Bur	-5160
Inf	-5161
link	-5162
stit	-5163
▁anxious	-5164
▁numerous	-5165
▁remarkable	-5166
▁Add	-5167
▁sought	-5168
eper	-5169
usted	-5170
6]	-5171
▁(?),	-5172
▁Perhaps	-5173
▁principal	-5174
▁Each	-5175
▁throughout	-5176
▁Had	-5177
▁dign	-5178
▁hills	-5179
▁settled	-5180
uated	-5181
▁idx	-5182
atform	-5183
▁glory	-5184
▁solemn	-5185
▁respons	-5186
Ad	-5187
event	-5188
▁dropped	-5189
▁pattern	-5190
▁========	-5191
▁distribution	-5192
▁LU	-5193
some	-5194
▁alarm	-5195
▁exceed	-5196
IF	-5197
▁severe	-5198
ulous	-5199
▁rising	-5200
▁distant	-5201
▁Art	-5202
ctions	-5203
compile	-5204
▁happen	-5205
env	-5206
lambda	-5207
▁options	-5208
▁uncle	-5209
▁streets	-5210
ORD	-5211
aine	-5212
arged	-5213
▁shows	-5214
▁smiled	-5215
().__	-5216
By	-5217
EG	-5218
▁64,	-5219
▁backend	-5220
▁standard	-5221
▁TypeError	-5222
▁Ly	-5223
repr	-5224
▁Mal	-5225
▁remove	-5226
▁reb	-5227
▁consequ	-5228
▁convert	-5229
▁judgment	-5230
cut	-5231
Graph	-5232
▁shame	-5233
1/	-5234
▁Mont	-5235
pg	-5236
▁yours	-5237
▁mess	-5238
▁President	-5239
▁thro	-5240
Attribute	-5241
49	-5242
ODS	-5243
▁weather	-5244
▁Lie	-5245
▁Have	-5246
▁director	-5247
▁succeeded	-5248
classes	-5249
▁superior	-5250
▁Ham	-5251
option	-5252
SS	-5253
ada	-5254
NAME	-5255
▁Ven	-5256
Le	-5257
▁lean	-5258
atus	-5259
last	-5260
▁instr	-5261
▁sevent	-5262
▁tea	-5263
▁active	-5264
▁confidence	-5265
cr	-5266
ateg	-5267
elle	-5268
▁128,	-5269
▁July	-5270
eq	-5271
ago	-5272
ana	-5273
▁Sim	-5274
ptions	-5275
▁slave	-5276
▁CAPITAL	-5277
▁Scot	-5278
▁neighbour	-5279
▁".	-5280
who	-5281
▁[1]	-5282
files	-5283
▁188	-5284
ionary	-5285
▁optim	-5286
diff	-5287
▁eval	-5288
▁corresponding	-5289
Ah	-5290
ACK	-5291
pattern	-5292
▁Python	-5293
▁net	-5294
▁altogether	-5295
▁purch	-5296
▁contrary	-5297
▁stranger	-5298
▁plays	-5299
▁pointed	-5300
▁pocket	-5301
win	-5302
▁mighty	-5303
OV	-5304
_2	-5305
mt	-5306
atin	-5307
▁served	-5308
▁conj	-5309
▁reader	-5310
▁0)	-5311
▁shoulder	-5312
▁5.	-5313
oral	-5314
▁bal	-5315
▁calcul	-5316
▁grav	-5317
▁equally	-5318
ogue	-5319
▁sequence	-5320
current	-5321
ignment	-5322
▁Company	-5323
iece	-5324
change	-5325
▁Mark	-5326
utenant	-5327
sqrt	-5328
this	-5329
▁nine	-5330
gments	-5331
▁defined	-5332
▁vig	-5333
anation	-5334
iton	-5335
matrix	-5336
▁alive	-5337
▁obliged	-5338
▁connected	-5339
▁\(	-5340
▁Ref	-5341
▁Ro	-5342
▁files	-5343
▁completely	-5344
▁Div	-5345
▁df	-5346
▁spirits	-5347
pred	-5348
orous	-5349
▁brief	-5350
▁operands	-5351
ads	-5352
IND	-5353
▁luck	-5354
gener	-5355
▁vessel	-5356
▁available	-5357
▁App	-5358
▁Sen	-5359
▁structure	-5360
div	-5361
▁windows	-5362
cond	-5363
ilst	-5364
▁Notes	-5365
▁White	-5366
wind	-5367
▁strang	-5368
ican	-5369
ties	-5370
▁185	-5371
▁region	-5372
reme	-5373
▁gather	-5374
▁establish	-5375
chief	-5376
orthern	-5377
▁gain	-5378
athered	-5379
▁BR	-5380
prefix	-5381
een	-5382
▁tele	-5383
▁shook	-5384
▁resist	-5385
column	-5386
2:	-5387
So	-5388
vo	-5389
([[	-5390
iation	-5391
▁width	-5392
▁editor	-5393
▁Though	-5394
▁watched	-5395
▁sacred	-5396
flat	-5397
while	-5398
ifier	-5399
PER	-5400
▁brain	-5401
replace	-5402
lebr	-5403
rose	-5404
▁hide	-5405
ynamic	-5406
▁directed	-5407
▁batch	-5408
▁faces	-5409
▁IS	-5410
ooks	-5411
asp	-5412
▁forces	-5413
abeth	-5414
▁\)	-5415
▁cell	-5416
▁lack	-5417
▁beast	-5418
)}	-5419
rices	-5420
▁Many	-5421
utation	-5422
▁companion	-5423
leep	-5424
▁unh	-5425
▁treated	-5426
▁Jose	-5427
hington	-5428
▁glance	-5429
sharding	-5430
▁golden	-5431
lesh	-5432
▁FOR	-5433
[0-9]	-5434
▁map	-5435
▁shel	-5436
▁histor	-5437
▁expressed	-5438
(1,	-5439
▁East	-5440
▁rights	-5441
▁Out	-5442
▁wasn	-5443
▁April	-5444
ixt	-5445
▁celebr	-5446
▁Jim	-5447
PR	-5448
ieur	-5449
▁Att	-5450
▁<(	-5451
▁Gl	-5452
▁Cur	-5453
▁represented	-5454
▁Rom	-5455
▁rub	-5456
State	-5457
▁apply	-5458
▁Thr	-5459
▁keeping	-5460
▁servants	-5461
▁Sept	-5462
Context	-5463
orter	-5464
enance	-5465
▁connection	-5466
aks	-5467
▁appointed	-5468
▁invol	-5469
▁woods	-5470
▁creature	-5471
▁positive	-5472
15.	-5473
▁groups	-5474
▁knight	-5475
▁pit	-5476
▁consequence	-5477
▁refused	-5478
ooth	-5479
▁papers	-5480
▁regarded	-5481
▁Prof	-5482
embered	-5483
▁Master	-5484
▁Acc	-5485
▁Rem	-5486
▁cro	-5487
▁fly	-5488
=1	-5489
▁cere	-5490
script	-5491
sparse	-5492
▁advanced	-5493
▁Eliz	-5494
▁Name	-5495
ellect	-5496
▁afford	-5497
▁accompan	-5498
ENE	-5499
▁taught	-5500
▁knowing	-5501
produ	-5502
▁Op	-5503
▁RO	-5504
gorithm	-5505
▁virtue	-5506
▁Lo	-5507
hus	-5508
▁nice	-5509
▁expand	-5510
sa	-5511
▁0.5	-5512
▁Sund	-5513
uration	-5514
▁devil	-5515
nx	-5516
▁rol	-5517
▁Like	-5518
▁uses	-5519
IES	-5520
▁Number	-5521
Bu	-5522
lete	-5523
▁Its	-5524
▁volume	-5525
▁compute	-5526
▁principle	-5527
▁Ye	-5528
▁hence	-5529
▁inhabitants	-5530
._,	-5531
mond	-5532
olic	-5533
▁dust	-5534
▁Ign	-5535
annot	-5536
▁exhib	-5537
attered	-5538
▁select	-5539
▁evidently	-5540
down	-5541
▁powerful	-5542
iron	-5543
BER	-5544
chan	-5545
▁Fig	-5546
memory	-5547
▁enumerate	-5548
ATE	-5549
aret	-5550
▁Cap	-5551
▁compos	-5552
▁female	-5553
▁fingers	-5554
▁detect	-5555
▁'#	-5556
▁Ver	-5557
▁bytes	-5558
▁Series	-5559
▁regions	-5560
ints	-5561
iversity	-5562
urd	-5563
alled	-5564
▁shell	-5565
▁apparently	-5566
liam	-5567
▁zip	-5568
▁daily	-5569
▁discover	-5570
▁bodies	-5571
▁explained	-5572
0,000	-5573
On	-5574
illy	-5575
▁sus	-5576
first	-5577
istry	-5578
▁choice	-5579
▁proportion	-5580
-0	-5581
▁mission	-5582
▁sys	-5583
▁brill	-5584
▁growing	-5585
QU	-5586
▁singular	-5587
▁remembered	-5588
▁grown	-5589
▁manif	-5590
▁increased	-5591
abc	-5592
ifying	-5593
riptor	-5594
▁separate	-5595
▁education	-5596
▁coat	-5597
▁suggested	-5598
▁Ap	-5599
▁annot	-5600
▁signal	-5601
▁distinguished	-5602
dis	-5603
▁Hall	-5604
▁naturally	-5605
then	-5606
ufact	-5607
▁@_	-5608
▁tor	-5609
▁teeth	-5610
filename	-5611
▁operations	-5612
Let	-5613
iler	-5614
194	-5615
▁Cam	-5616
points	-5617
ushing	-5618
▁secure	-5619
▁changes	-5620
IZ	-5621
iety	-5622
zeros	-5623
▁item	-5624
▁twice	-5625
▁—	-5626
appy	-5627
may	-5628
onsieur	-5629
▁Bes	-5630
▁Men	-5631
▁layout	-5632
▁pounds	-5633
▁necessity	-5634
▁possessed	-5635
▁shoulders	-5636
▁Black	-5637
▁TR	-5638
▁tar	-5639
▁enemies	-5640
▁Washington	-5641
ba	-5642
poses	-5643
▁alpha	-5644
▁travel	-5645
▁une	-5646
▁beat	-5647
▁Still	-5648
▁kingdom	-5649
cean	-5650
▁national	-5651
▁math	-5652
▁Dick	-5653
▁welcome	-5654
▁district	-5655
▁occurred	-5656
▁Med	-5657
▁hate	-5658
▁During	-5659
▁mistress	-5660
▁Res	-5661
▁bore	-5662
▁doctr	-5663
▁50	-5664
aging	-5665
uster	-5666
▁Emperor	-5667
▁Luc	-5668
iable	-5669
▁Smith	-5670
▁asc	-5671
▁nod	-5672
▁carrying	-5673
▁hither	-5674
▁telling	-5675
[1	-5676
MENT	-5677
▁listen	-5678
Of	-5679
▁Mag	-5680
▁joined	-5681
▁worked	-5682
▁moving	-5683
▁priest	-5684
ampl	-5685
▁breakfast	-5686
▁Prin	-5687
▁typing	-5688
▁getattr	-5689
▁noticed	-5690
▁Again	-5691
▁knock	-5692
law	-5693
space	-5694
ealous	-5695
▁Germany	-5696
▁params	-5697
▁seed	-5698
▁coff	-5699
▁cp	-5700
▁soil	-5701
pet	-5702
open	-5703
mo	-5704
▁grief	-5705
▁surely	-5706
▁vers	-5707
▁pardon	-5708
debug	-5709
▁salt	-5710
▁Virgin	-5711
▁satisfied	-5712
▁clearly	-5713
▁finding	-5714
eral	-5715
▁multi	-5716
▁Mer	-5717
liament	-5718
istory	-5719
▁SH	-5720
▁Union	-5721
▁truly	-5722
▁wants	-5723
▁supply	-5724
Wr	-5725
▁Another	-5726
43	-5727
▁fart	-5728
▁Film	-5729
▁corp	-5730
▁angry	-5731
▁drive	-5732
ULT	-5733
child	-5734
nomial	-5735
▁coeff	-5736
▁dimensions	-5737
encies	-5738
▁centre	-5739
▁Ff	-5740
UB	-5741
▁buy	-5742
▁entrance	-5743
▁{'	-5744
erning	-5745
imal	-5746
▁setting	-5747
▁accepted	-5748
oles	-5749
▁queen	-5750
7]	-5751
md	-5752
Exit	-5753
▁aband	-5754
▁nob	-5755
▁deck	-5756
stream	-5757
▁waters	-5758
▁Te	-5759
▁mp	-5760
▁Brown	-5761
▁milk	-5762
▁reck	-5763
▁'{}'	-5764
theless	-5765
▁requires	-5766
2*	-5767
▁member	-5768
▁stable	-5769
freq	-5770
▁anal	-5771
▁intellect	-5772
mes	-5773
File	-5774
▁ash	-5775
▁rot	-5776
▁City	-5777
▁Love	-5778
▁revol	-5779
▁seized	-5780
▁coll	-5781
▁dollars	-5782
▁carriage	-5783
estic	-5784
▁legs	-5785
▁hosp	-5786
tra	-5787
anches	-5788
dec	-5789
▁msg	-5790
obs	-5791
▁"*	-5792
Met	-5793
▁hasattr	-5794
acc	-5795
▁Ke	-5796
▁arrays	-5797
▁Ac	-5798
▁guns	-5799
▁fortun	-5800
▁Life	-5801
▁Those	-5802
▁aware	-5803
▁possibly	-5804
▁Dist	-5805
▁keys	-5806
_:	-5807
roadcast	-5808
uzz	-5809
▁Bro	-5810
uries	-5811
▁murder	-5812
▁dangerous	-5813
[0],	-5814
isher	-5815
itory	-5816
ART	-5817
Col	-5818
Result	-5819
▁rapidly	-5820
▁suffered	-5821
▁flesh	-5822
03\	-5823
ober	-5824
▁189	-5825
▁murm	-5826
▁ain	-5827
terday	-5828
▁tired	-5829
▁chosen	-5830
▁ice	-5831
▁printed	-5832
▁performed	-5833
mind	-5834
more	-5835
▁Jesus	-5836
iel	-5837
▁gas	-5838
▁India	-5839
ousin	-5840
▁Look	-5841
▁trial	-5842
cknow	-5843
▁divided	-5844
CHE	-5845
▁worst	-5846
▁driven	-5847
▁src	-5848
▁palace	-5849
▁metadata	-5850
▁Dor	-5851
▁swift	-5852
▁excitem	-5853
cuda	-5854
▁pursu	-5855
▁handsome	-5856
▁wand	-5857
▁talked	-5858
board	-5859
ourse	-5860
▁vector	-5861
▁Cent	-5862
▁hidden	-5863
▁principles	-5864
▁clo	-5865
▁suit	-5866
▁delay	-5867
▁divine	-5868
▁Des	-5869
▁Nature	-5870
cell	-5871
utch	-5872
acted	-5873
▁cache	-5874
▁Mother	-5875
-3	-5876
▁Harry	-5877
▁reven	-5878
▁distributed	-5879
anging	-5880
▁score	-5881
▁bridge	-5882
▁flight	-5883
▁AP	-5884
▁//	-5885
▁Bet	-5886
▁Off	-5887
▁[0,	-5888
build	-5889
▁solution	-5890
Path	-5891
▁myst	-5892
▁invest	-5893
▁persu	-5894
Hand	-5895
five	-5896
▁genius	-5897
▁remarked	-5898
▁Den	-5899
▁hearing	-5900
▁quietly	-5901
▁willing	-5902
bon	-5903
▁counter	-5904
▁specific	-5905
8]	-5906
iot	-5907
mine	-5908
rule	-5909
Be	-5910
▁Mart	-5911
ounding	-5912
▁Joseph	-5913
▁unfortun	-5914
▁introduced	-5915
flow	-5916
▁extend	-5917
▁Ol	-5918
▁mv	-5919
▁merch	-5920
▁encour	-5921
▁relief	-5922
▁valley	-5923
Mat	-5924
▁learning	-5925
00,	-5926
Point	-5927
▁Italy	-5928
▁shoot	-5929
▁stars	-5930
▁acknow	-5931
▁waited	-5932
▁unf	-5933
▁demanded	-5934
next	-5935
▁erect	-5936
chs	-5937
▁vert	-5938
▁River	-5939
▁warning	-5940
▁sons	-5941
sche	-5942
constant	-5943
▁Majesty	-5944
aire	-5945
▁ceremon	-5946
▁hurt	-5947
▁Francis	-5948
▁surprised	-5949
avery	-5950
▁official	-5951
▁labor	-5952
▁regret	-5953
▁excitement	-5954
▁Wil	-5955
▁tag	-5956
[-1]	-5957
inks	-5958
ropri	-5959
▁presently	-5960
Per	-5961
ernal	-5962
model	-5963
▁minds	-5964
▁instinct	-5965
ological	-5966
▁purs	-5967
uthors	-5968
token	-5969
▁splendid	-5970
▁Set	-5971
imental	-5972
▁Elizabeth	-5973
▁yards	-5974
sym	-5975
Form	-5976
normal	-5977
▁touched	-5978
▁approach	-5979
▁prompt	-5980
gl	-5981
▁skin	-5982
▁visible	-5983
▁rules	-5984
▁gathered	-5985
▁figures	-5986
▁adapt	-5987
▁novel	-5988
▁scalar	-5989
▁dressed	-5990
rete	-5991
putation	-5992
▁spend	-5993
▁labour	-5994
▁enthus	-5995
abel	-5996
icit	-5997
▁pull	-5998
▁proceeded	-5999
▁ends	-6000
▁Since	-6001
hem	-6002
olf	-6003
dest	-6004
stats	-6005
directory	-6006
▁statement	-6007
/_	-6008
gz	-6009
▁8,	-6010
anks	-6011
▁Ear	-6012
erves	-6013
sw	-6014
▁LE	-6015
▁Ell	-6016
allow	-6017
▁recomm	-6018
▁Republic	-6019
fall	-6020
▁rocks	-6021
▁watching	-6022
LY	-6023
▁entry	-6024
▁myster	-6025
HN	-6026
ocol	-6027
orary	-6028
▁accident	-6029
Get	-6030
aming	-6031
std	-6032
▁'%	-6033
ordinary	-6034
▁machine	-6035
▁2),	-6036
▁rom	-6037
▁Chap	-6038
▁stro	-6039
foo	-6040
▁explain	-6041
conc	-6042
▁Sal	-6043
▁String	-6044
▁prints	-6045
▁Sub	-6046
▁faithful	-6047
▁increase	-6048
uer	-6049
▁decor	-6050
▁science	-6051
▁relations	-6052
93	-6053
Cl	-6054
▁Part	-6055
mar	-6056
ivered	-6057
▁lovely	-6058
▁gradually	-6059
▁development	-6060
▁187	-6061
oleon	-6062
▁remaining	-6063
rant	-6064
▁careful	-6065
▁Italian	-6066
▁closely	-6067
▁successful	-6068
See	-6069
stone	-6070
▁accur	-6071
▁alias	-6072
▁putting	-6073
AIN	-6074
▁hyp	-6075
▁nations	-6076
▁"%	-6077
atio	-6078
▁amongst	-6079
ael	-6080
▁Nothing	-6081
▁absolutely	-6082
▁fighting	-6083
▁spiritual	-6084
▁bearing	-6085
Spec	-6086
▁tempt	-6087
▁admitted	-6088
▁Hon	-6089
▁Mount	-6090
▁crossed	-6091
SON	-6092
▁smoke	-6093
▁access	-6094
▁labels	-6095
riv	-6096
omic	-6097
▁Ire	-6098
21	-6099
▁Ev	-6100
▁rej	-6101
▁embr	-6102
▁October	-6103
▁document	-6104
sey	-6105
apan	-6106
▁problem	-6107
▁training	-6108
▁termin	-6109
▁burning	-6110
▁haven	-6111
▁effects	-6112
▁sentence	-6113
reduce	-6114
▁lands	-6115
▁hurried	-6116
▁physical	-6117
▁Hor	-6118
▁lod	-6119
di	-6120
▁flour	-6121
▁san	-6122
chen	-6123
arted	-6124
▁fifteen	-6125
▁dictionary	-6126
▁Spe	-6127
▁consideration	-6128
fill	-6129
util	-6130
▁entertain	-6131
bound	-6132
▁restr	-6133
▁mal	-6134
UE	-6135
▁attr	-6136
▁sugar	-6137
▁"\	-6138
▁om	-6139
▁crime	-6140
One	-6141
omb	-6142
▁arrest	-6143
▁notes	-6144
▁reign	-6145
▁ing	-6146
alpha	-6147
▁Marg	-6148
atively	-6149
▁Sunday	-6150
▁prayer	-6151
END	-6152
▁update	-6153
▁absolute	-6154
Come	-6155
▁Del	-6156
▁worship	-6157
▁manufact	-6158
06	-6159
wrap	-6160
▁aim	-6161
▁wed	-6162
▁male	-6163
▁assured	-6164
▁weights	-6165
onder	-6166
▁pill	-6167
▁Whether	-6168
[:,	-6169
▁colon	-6170
0]	-6171
andy	-6172
omatic	-6173
▁belief	-6174
/\	-6175
isl	-6176
oder	-6177
▁exha	-6178
▁quality	-6179
▁impression	-6180
OME	-6181
aus	-6182
▁-----	-6183
▁branch	-6184
▁xx	-6185
fun	-6186
With	-6187
▁choose	-6188
▁highly	-6189
ends	-6190
▁butter	-6191
uate	-6192
▁Prov	-6193
▁policy	-6194
▁retreat	-6195
Var	-6196
▁pin	-6197
▁defe	-6198
▁Grand	-6199
▁factor	-6200
▁38	-6201
▁Cons	-6202
▁mile	-6203
▁midst	-6204
▁theory	-6205
▁wisdom	-6206
▁proposed	-6207
▁profession	-6208
elta	-6209
▁crim	-6210
▁struggle	-6211
▁countries	-6212
▁admin	-6213
▁obey	-6214
5]	-6215
xp	-6216
warn	-6217
atched	-6218
modules	-6219
▁Philip	-6220
▁partly	-6221
▁laughing	-6222
▁Wr	-6223
▁busy	-6224
▁doth	-6225
▁Napoleon	-6226
▁phr	-6227
▁prisoner	-6228
vas	-6229
▁2:	-6230
retch	-6231
▁filename	-6232
▁adop	-6233
▁wore	-6234
▁circle	-6235
▁sparse	-6236
▁walking	-6237
Pl	-6238
XX	-6239
▁constit	-6240
▁Ann	-6241
▁Wood	-6242
▁bent	-6243
handle	-6244
▁desper	-6245
▁absence	-6246
uctor	-6247
▁farther	-6248
▁whispered	-6249
▁conven	-6250
▁stones	-6251
▁including	-6252
ava	-6253
▁parents	-6254
▁nearer	-6255
▁minister	-6256
▁resolved	-6257
▁Pers	-6258
▁excited	-6259
▁section	-6260
IX	-6261
▁orn	-6262
▁nose	-6263
▁uniform	-6264
16,	-6265
cember	-6266
ovember	-6267
▁errors	-6268
▁vo	-6269
▁mercy	-6270
▁concerning	-6271
▁disappoint	-6272
shire	-6273
▁dance	-6274
▁rendered	-6275
umm	-6276
▁ach	-6277
▁scipy	-6278
▁unable	-6279
▁improve	-6280
▁prisoners	-6281
▁literature	-6282
(1	-6283
atural	-6284
.=	-6285
case	-6286
ishes	-6287
▁performance	-6288
(?	-6289
2_	-6290
▁cook	-6291
▁Little	-6292
▁imagine	-6293
▁partial	-6294
▁extraordinary	-6295
...,	-6296
uler	-6297
▁Doctor	-6298
▁doors	-6299
▁cultiv	-6300
▁Arch	-6301
▁efforts	-6302
(#	-6303
gend	-6304
prim	-6305
▁couple	-6306
▁suspic	-6307
▁smaller	-6308
bury	-6309
▁Cath	-6310
▁tells	-6311
▁experi	-6312
dispatch	-6313
angle	-6314
▁advice	-6315
▁terror	-6316
▁Emp	-6317
slice	-6318
▁[0.	-6319
▁interested	-6320
▁returning	-6321
Qu	-6322
▁lat	-6323
▁integr	-6324
forward	-6325
▁mistake	-6326
pping	-6327
▁rode	-6328
▁sovere	-6329
▁wicked	-6330
fp	-6331
squ	-6332
ailing	-6333
▁Tw	-6334
ride	-6335
▁hopes	-6336
char	-6337
▁falling	-6338
16.	-6339
▁Jac	-6340
▁interpret	-6341
▁accompanied	-6342
sem	-6343
sper	-6344
icip	-6345
▁million	-6346
=$(	-6347
antry	-6348
▁Saint	-6349
▁behav	-6350
ker	-6351
import	-6352
▁cloth	-6353
▁despair	-6354
close	-6355
▁leaf	-6356
▁stick	-6357
▁wings	-6358
convert	-6359
asy	-6360
flatten	-6361
4)	-6362
ACE	-6363
eries	-6364
▁gained	-6365
▁imagination	-6366
▁Royal	-6367
▁whilst	-6368
standing	-6369
▁sovereign	-6370
▁assumed	-6371
▁dish	-6372
▁BY	-6373
Integer	-6374
ifle	-6375
▁dull	-6376
▁playing	-6377
Mr	-6378
▁lover	-6379
ella	-6380
▁pandas	-6381
▁praise	-6382
▁smooth	-6383
▁September	-6384
▁Use	-6385
▁Earl	-6386
▁glow	-6387
Metadata	-6388
▁earlier	-6389
▁composed	-6390
42	-6391
li	-6392
▁bid	-6393
▁weap	-6394
▁reasons	-6395
▁gets	-6396
▁rows	-6397
▁kinds	-6398
plotlib	-6399
▁prefix	-6400
▁arrival	-6401
▁execution	-6402
▁huge	-6403
▁duties	-6404
jac	-6405
When	-6406
mans	-6407
▁Index	-6408
▁souls	-6409
ilty	-6410
▁runs	-6411
▁variables	-6412
▁corn	-6413
linear	-6414
▁curt	-6415
▁branches	-6416
▁Dem	-6417
eller	-6418
▁admit	-6419
▁await	-6420
looking	-6421
:`~	-6422
▁flower	-6423
▁chamber	-6424
▁victory	-6425
▁Ma	-6426
▁sq	-6427
ware	-6428
▁skill	-6429
▁teacher	-6430
▁arranged	-6431
▁6,	-6432
▁issue	-6433
▁moments	-6434
▁forb	-6435
▁edges	-6436
▁liked	-6437
▁destroyed	-6438
▁interests	-6439
Key	-6440
▁1]	-6441
arded	-6442
▁Under	-6443
▁begun	-6444
▁Keyword	-6445
▁attached	-6446
▁suffering	-6447
▁surrounded	-6448
common	-6449
fft	-6450
▁showing	-6451
▁visited	-6452
ICE	-6453
▁4),	-6454
▁sig	-6455
▁Take	-6456
▁concerned	-6457
▁yesterday	-6458
▁contempt	-6459
▁reward	-6460
dr	-6461
▁sigh	-6462
▁Japan	-6463
enses	-6464
▁infer	-6465
▁~/	-6466
bas	-6467
▁XV	-6468
▁Thy	-6469
▁Among	-6470
▁condem	-6471
▁contained	-6472
▁roll	-6473
otes	-6474
vels	-6475
▁tal	-6476
reshold	-6477
▁appropri	-6478
▁quantity	-6479
▁thoroughly	-6480
?’	-6481
▁Inter	-6482
▁domain	-6483
▁poetry	-6484
main	-6485
acker	-6486
emplate	-6487
EX	-6488
▁norm	-6489
▁critic	-6490
▁growth	-6491
▁division	-6492
▁instances	-6493
▁explanation	-6494
hess	-6495
▁bell	-6496
assert	-6497
▁supper	-6498
eding	-6499
▁credit	-6500
dimension	-6501
▁Governor	-6502
▁parallel	-6503
car	-6504
▁operator	-6505
▁ere	-6506
ading	-6507
urity	-6508
▁finger	-6509
tle	-6510
/2	-6511
compat	-6512
FT	-6513
eno	-6514
▁dogs	-6515
▁wholly	-6516
▁purposes	-6517
don	-6518
▁dying	-6519
▁Runtime	-6520
▁(0,	-6521
estim	-6522
uable	-6523
▁inches	-6524
▁seated	-6525
▁listened	-6526
▁intention	-6527
IAN	-6528
▁blank	-6529
success	-6530
▁deeply	-6531
▁satisfaction	-6532
▁2)	-6533
▁NOT	-6534
usive	-6535
▁econ	-6536
▁Irish	-6537
PH	-6538
▁bind	-6539
▁%(	-6540
▁Tim	-6541
--_	-6542
kin	-6543
▁36	-6544
▁*.	-6545
▁disease	-6546
imp	-6547
▁Society	-6548
Tree	-6549
▁obv	-6550
Fl	-6551
va	-6552
▁tur	-6553
▁dozen	-6554
▁stern	-6555
▁global	-6556
▁interrupt	-6557
▁collections	-6558
▁Nay	-6559
▁sem	-6560
inging	-6561
free	-6562
▁Long	-6563
▁January	-6564
Che	-6565
sizes	-6566
▁November	-6567
exer	-6568
TO	-6569
Call	-6570
▁turns	-6571
▁slaves	-6572
▁parties	-6573
▁Optional	-6574
▁companions	-6575
▁thinks	-6576
▁cam	-6577
▁energy	-6578
▁lifted	-6579
▁commer	-6580
▁December	-6581
▁sympathy	-6582
▁warnings	-6583
ARR	-6584
▁kit	-6585
▁odd	-6586
inalg	-6587
ivalent	-6588
tol	-6589
▁oil	-6590
▁teach	-6591
▁constitution	-6592
TON	-6593
enter	-6594
▁Bill	-6595
▁affair	-6596
▁smiling	-6597
86	-6598
cd	-6599
▁Base	-6600
father	-6601
thread	-6602
▁Imp	-6603
▁appreci	-6604
87	-6605
cor	-6606
tri	-6607
there	-6608
▁strike	-6609
▁extended	-6610
▁shock	-6611
▁capable	-6612
kins	-6613
▁Step	-6614
inking	-6615
▁knees	-6616
olean	-6617
▁relative	-6618
▁meat	-6619
icated	-6620
▁fairly	-6621
▁existing	-6622
▁collection	-6623
▁Ignored	-6624
▁reduced	-6625
▁variety	-6626
inese	-6627
▁defend	-6628
▁temple	-6629
Sub	-6630
uts	-6631
▁pan	-6632
▁Once	-6633
▁hell	-6634
itz	-6635
sample	-6636
▁clouds	-6637
▁Besides	-6638
▁immediate	-6639
they	-6640
▁lin	-6641
3*	-6642
▁observ	-6643
▁narr	-6644
itespace	-6645
▁slightly	-6646
▁treatment	-6647
cel	-6648
▁pil	-6649
onent	-6650
message	-6651
bad	-6652
▁Conf	-6653
▁vessels	-6654
▁response	-6655
▁multiple	-6656
true	-6657
▁Both	-6658
▁fer	-6659
▁tok	-6660
▁Upon	-6661
▁foolish	-6662
▁jealous	-6663
▁Holy	-6664
▁crew	-6665
▁shop	-6666
ilation	-6667
outputs	-6668
ounce	-6669
▁sheep	-6670
▁conscience	-6671
illa	-6672
▁ruin	-6673
▁stuff	-6674
▁artist	-6675
▁escaped	-6676
broadcast	-6677
▁'*	-6678
▁List	-6679
▁causes	-6680
▁Ireland	-6681
▁JOHN	-6682
▁devoted	-6683
12,	-6684
▁Jul	-6685
factor	-6686
iciently	-6687
inv	-6688
ialect	-6689
▁degrees	-6690
▁informed	-6691
Ob	-6692
pdf	-6693
sin	-6694
▁Van	-6695
▁impat	-6696
rer	-6697
steps	-6698
▁asleep	-6699
▁delicate	-6700
▁'.	-6701
enge	-6702
inger	-6703
▁repro	-6704
▁understanding	-6705
?--	-6706
regex	-6707
▁Aunt	-6708
▁safety	-6709
▁6.	-6710
grid	-6711
opes	-6712
▁kindly	-6713
sync	-6714
▁Mur	-6715
▁sorted	-6716
▁properly	-6717
IB	-6718
▁throne	-6719
}{	-6720
▁guide	-6721
▁loose	-6722
▁ON	-6723
onds	-6724
▁=========	-6725
▁friendship	-6726
▁gle	-6727
Where	-6728
▁pars	-6729
▁ride	-6730
▁hoped	-6731
▁market	-6732
▁brilliant	-6733
▁nx	-6734
erer	-6735
ieved	-6736
straints	-6737
;"	-6738
aun	-6739
itate	-6740
▁Indeed	-6741
Arg	-6742
long	-6743
▁keen	-6744
asarray	-6745
▁traged	-6746
▁cot	-6747
▁castle	-6748
▁plants	-6749
▁Sil	-6750
ADY	-6751
thur	-6752
▁0.0	-6753
▁Major	-6754
▁diam	-6755
▁Matrix	-6756
▁buried	-6757
▁extreme	-6758
▁algorithm	-6759
Who	-6760
▁od	-6761
▁pron	-6762
▁pressed	-6763
CL	-6764
▁Cle	-6765
▁gray	-6766
▁singing	-6767
▁Jo	-6768
▁Fin	-6769
▁Mex	-6770
precated	-6771
▁signific	-6772
PL	-6773
▁Copy	-6774
▁practical	-6775
▁45	-6776
▁rooms	-6777
▁Russia	-6778
▁guilty	-6779
▁scenes	-6780
▁citizens	-6781
▁interval	-6782
▁reflect	-6783
▁theatre	-6784
checkpoint	-6785
▁channel	-6786
▁wound	-6787
stitution	-6788
=(	-6789
▁cy	-6790
▁remind	-6791
IGN	-6792
THE	-6793
oused	-6794
▁implementation	-6795
icable	-6796
▁prospect	-6797
▁representation	-6798
seq	-6799
▁Dis	-6800
▁acts	-6801
)*	-6802
[0].	-6803
ifts	-6804
▁amaz	-6805
▁sacrifice	-6806
utable	-6807
▁Would	-6808
▁toler	-6809
▁patient	-6810
▁dreadful	-6811
▁SCENE	-6812
▁altern	-6813
ribution	-6814
php	-6815
▁BE	-6816
▁bos	-6817
ipping	-6818
1_	-6819
▁hit	-6820
iguous	-6821
▁cattle	-6822
▁privile	-6823
▁Professor	-6824
ato	-6825
▁Lin	-6826
▁fought	-6827
Def	-6828
▁rhs	-6829
▁option	-6830
▁library	-6831
Good	-6832
kdir	-6833
▁amid	-6834
▁recent	-6835
▁average	-6836
▁missing	-6837
▁$1	-6838
▁goods	-6839
▁betray	-6840
▁stated	-6841
)"	-6842
oded	-6843
▁fellows	-6844
▁magnific	-6845
▁sudo	-6846
▁strings	-6847
▁Congress	-6848
▁views	-6849
▁uns	-6850
itect	-6851
▁fleet	-6852
▁preserved	-6853
vol	-6854
ICK	-6855
Ref	-6856
▁tale	-6857
▁constantly	-6858
▁countenance	-6859
▁"{	-6860
▁Russian	-6861
▁adopted	-6862
▁audience	-6863
inst	-6864
asant	-6865
▁descr	-6866
lets	-6867
omet	-6868
▁symbols	-6869
▁included	-6870
PU	-6871
fg	-6872
ws	-6873
abb	-6874
urse	-6875
▁iii	-6876
ersion	-6877
▁Green	-6878
▁outer	-6879
▁indiff	-6880
▁exercise	-6881
/'	-6882
agger	-6883
▁solid	-6884
▁thunder	-6885
}.	-6886
','	-6887
symp	-6888
▁ease	-6889
▁wishes	-6890
▁friendly	-6891
▁Christmas	-6892
▁thousands	-6893
Dict	-6894
ittee	-6895
▁skip	-6896
▁newsp	-6897
deg	-6898
▁Death	-6899
▁ceased	-6900
xes	-6901
▁(1	-6902
▁acted	-6903
conscious	-6904
eps	-6905
four	-6906
▁liqu	-6907
unctools	-6908
▁operand	-6909
outs	-6910
udd	-6911
ourn	-6912
jaxpr	-6913
ensity	-6914
▁confl	-6915
▁Enter	-6916
▁disappeared	-6917
▁baby	-6918
▁COM	-6919
▁sooner	-6920
Info	-6921
▁(19	-6922
render	-6923
▁greet	-6924
▁reduce	-6925
▁services	-6926
▁Land	-6927
MAN	-6928
▁pause	-6929
▁verbose	-6930
▁1.0	-6931
▁Prot	-6932
▁impr	-6933
▁callable	-6934
FA	-6935
▁demon	-6936
subject	-6937
▁National	-6938
32,	-6939
▁grey	-6940
▁pour	-6941
▁worn	-6942
▁evident	-6943
▁gently	-6944
▁addressed	-6945
▁everywhere	-6946
irs	-6947
ouble	-6948
▁horiz	-6949
▁poison	-6950
dates	-6951
▁thine	-6952
▁police	-6953
pers	-6954
▁fix	-6955
▁abund	-6956
▁fever	-6957
▁platform	-6958
▁spo	-6959
▁wre	-6960
https	-6961
▁diss	-6962
stride	-6963
▁awful	-6964
▁dignity	-6965
▁RuntimeError	-6966
▁filter	-6967
.",	-6968
▁Bob	-6969
ustomed	-6970
▁acquaintance	-6971
▁_,	-6972
alias	-6973
▁sees	-6974
▁pulled	-6975
▁DataFrame	-6976
89	-6977
ients	-6978
▁stead	-6979
refly	-6980
search	-6981
▁Gener	-6982
wick	-6983
acement	-6984
▁pyrefly	-6985
▁bringing	-6986
CON	-6987
▁lake	-6988
labels	-6989
▁extract	-6990
▁assistance	-6991
";	-6992
▁selected	-6993
▁NE	-6994
▁iv	-6995
font	-6996
▁190	-6997
▁falls	-6998
▁joint	-6999
▁chiefly	-7000
Oct	-7001
ynamo	-7002
▁Arab	-7003
content	-7004
▁ascend	-7005
▁fn	-7006
prom	-7007
▁Iter	-7008
reek	-7009
▁(18	-7010
▁Hill	-7011
▁Check	-7012
▁Day	-7013
▁consent	-7014
ini	-7015
▁Na	-7016
score	-7017
expand	-7018
▁convey	-7019
ORT	-7020
cal	-7021
▁pig	-7022
▁stories	-7023
INT	-7024
orus	-7025
inced	-7026
▁ahead	-7027
▁extremely	-7028
ements	-7029
▁indign	-7030
istent	-7031
two	-7032
▁ma	-7033
ician	-7034
▁eggs	-7035
▁Columb	-7036
Mrs	-7037
vant	-7038
▁fan	-7039
▁Vict	-7040
domain	-7041
▁signs	-7042
▁FI	-7043
▁GR	-7044
▁older	-7045
bind	-7046
aptor	-7047
▁precious	-7048
loop	-7049
▁Dep	-7050
▁ended	-7051
▁loves	-7052
▁Us	-7053
▁Latin	-7054
▁31	-7055
rate	-7056
asted	-7057
▁bought	-7058
his	-7059
quest	-7060
▁fare	-7061
▁aspect	-7062
▁thanks	-7063
▁vision	-7064
▁additional	-7065
▁spl	-7066
▁Jean	-7067
▁drove	-7068
▁Chinese	-7069
▁UN	-7070
acon	-7071
born	-7072
igen	-7073
sect	-7074
nding	-7075
▁Uncle	-7076
▁tensors	-7077
cap	-7078
book	-7079
ategy	-7080
▁summ	-7081
▁Three	-7082
▁cousin	-7083
ML	-7084
AGE	-7085
kes	-7086
arts	-7087
79	-7088
cos	-7089
▁disch	-7090
▁towns	-7091
▁Hy	-7092
agraph	-7093
reshape	-7094
▁manners	-7095
▁versionadded	-7096
export	-7097
▁production	-7098
▁Ra	-7099
bruary	-7100
ington	-7101
▁hurry	-7102
▁precision	-7103
▁protection	-7104
▁ded	-7105
izz	-7106
apply	-7107
▁dataset	-7108
▁MAN	-7109
wait	-7110
▁Dec	-7111
▁voy	-7112
▁glyph	-7113
▁''	-7114
▁Having	-7115
▁proc	-7116
▁Point	-7117
▁slice	-7118
connect	-7119
▁reality	-7120
▁brothers	-7121
▁location	-7122
▁wet	-7123
▁caut	-7124
▁fourth	-7125
▁Mid	-7126
▁Lu	-7127
▁Gold	-7128
▁Mass	-7129
54	-7130
▁assum	-7131
▁behold	-7132
ruction	-7133
▁invent	-7134
▁nobody	-7135
▁valuable	-7136
pool	-7137
▁Field	-7138
▁indust	-7139
▁European	-7140
▁encoding	-7141
rm	-7142
▁bay	-7143
▁drama	-7144
▁charming	-7145
▁transport	-7146
inent	-7147
closed	-7148
▁mapping	-7149
▁everybody	-7150
ih	-7151
extend	-7152
▁thrust	-7153
▁independent	-7154
eldom	-7155
▁plate	-7156
flags	-7157
lands	-7158
▁rear	-7159
▁60	-7160
▁{"	-7161
▁tub	-7162
▁Shall	-7163
▁Arg	-7164
▁logger	-7165
▁fund	-7166
▁tight	-7167
▁mechan	-7168
▁article	-7169
▁Universal	-7170
▁recognized	-7171
▁intelligence	-7172
Read	-7173
idate	-7174
▁Spir	-7175
▁literary	-7176
Aug	-7177
lie	-7178
▁subsequ	-7179
power	-7180
▁qualities	-7181
ste	-7182
▁Princess	-7183
▁instantly	-7184
ena	-7185
iate	-7186
CR	-7187
▁Most	-7188
▁unique	-7189
▁innocent	-7190
▁compelled	-7191
▁lax	-7192
ua	-7193
look	-7194
▁-0.	-7195
enger	-7196
istics	-7197
▁£	-7198
lessly	-7199
▁plans	-7200
▁schol	-7201
▁scorn	-7202
sor	-7203
▁gay	-7204
inction	-7205
▁kitchen	-7206
/*	-7207
▁Met	-7208
iq	-7209
=0,	-7210
ris	-7211
▁ideal	-7212
▁wheel	-7213
▁Arthur	-7214
▁voices	-7215
xf	-7216
compute	-7217
▁backward	-7218
▁arose	-7219
▁simpl	-7220
▁asking	-7221
▁samples	-7222
▁Ay	-7223
hor	-7224
aign	-7225
▁auto	-7226
▁enorm	-7227
▁center	-7228
LD	-7229
▁jew	-7230
▁card	-7231
▁exists	-7232
▁glorious	-7233
69	-7234
▁fled	-7235
▁anger	-7236
▁dense	-7237
▁emotion	-7238
OK	-7239
AST	-7240
▁plenty	-7241
▁completed	-7242
▁sufficiently	-7243
war	-7244
Lexer	-7245
▁procl	-7246
▁ranks	-7247
▁grant	-7248
▁prosper	-7249
aux	-7250
▁Bu	-7251
▁mental	-7252
▁governor	-7253
▁directory	-7254
uits	-7255
▁Mus	-7256
iated	-7257
ifies	-7258
iteral	-7259
scalar	-7260
▁boats	-7261
▁inher	-7262
▁linear	-7263
OUT	-7264
▁scient	-7265
2-	-7266
17.	-7267
▁impress	-7268
▁doctrine	-7269
▁wretched	-7270
Exception	-7271
omed	-7272
▁Read	-7273
▁compared	-7274
jud	-7275
anny	-7276
▁stim	-7277
Class	-7278
avals	-7279
unning	-7280
GR	-7281
rf	-7282
otal	-7283
▁hal	-7284
▁enable	-7285
channels	-7286
▁becoming	-7287
usal	-7288
▁tort	-7289
teenth	-7290
▁seldom	-7291
▁edition	-7292
▁Son	-7293
▁violent	-7294
▁permitted	-7295
▁expedition	-7296
32>	-7297
▁pd	-7298
pless	-7299
▁waves	-7300
▁reject	-7301
▁surv	-7302
SD	-7303
UP	-7304
acles	-7305
▁Poly	-7306
▁breat	-7307
▁whence	-7308
▁register	-7309
▁confusion	-7310
▁conclusion	-7311
▁WH	-7312
▁fo	-7313
upid	-7314
when	-7315
changed	-7316
▁cities	-7317
▁equivalent	-7318
ASS	-7319
▁foo	-7320
▁Pass	-7321
▁laughter	-7322
24,	-7323
▁Squ	-7324
graphy	-7325
remove	-7326
▁Britain	-7327
▁kindness	-7328
▁separated	-7329
▁convention	-7330
▁7.	-7331
▁Park	-7332
▁1915.	-7333
istration	-7334
▁accomplished	-7335
▁nerv	-7336
rot	-7337
▁Ob	-7338
▁Net	-7339
▁Sher	-7340
▁immense	-7341
mosp	-7342
▁job	-7343
▁Time	-7344
▁frag	-7345
▁grid	-7346
▁chest	-7347
▁investig	-7348
eenth	-7349
▁patri	-7350
▁Ca	-7351
cest	-7352
▁attended	-7353
▁incident	-7354
▁instrument	-7355
"\	-7356
url	-7357
▁lux	-7358
operand	-7359
adel	-7360
▁vel	-7361
▁bride	-7362
▁pages	-7363
▁roots	-7364
._--	-7365
bour	-7366
rior	-7367
▁related	-7368
▁pipe	-7369
▁mixed	-7370
▁excess	-7371
▁February	-7372
asm	-7373
▁Wall	-7374
Builder	-7375
▁Bishop	-7376
▁Walter	-7377
AK	-7378
bing	-7379
▁184	-7380
linalg	-7381
▁maybe	-7382
▁begins	-7383
▁buffer	-7384
▁admiration	-7385
▁AT	-7386
mir	-7387
Line	-7388
optim	-7389
▁maximum	-7390
▁occasionally	-7391
gm	-7392
active	-7393
74	-7394
'):	-7395
bel	-7396
validate	-7397
scope	-7398
▁anch	-7399
▁reform	-7400
84	-7401
▁indul	-7402
▁Africa	-7403
▁keyword	-7404
▁discovery	-7405
▁scheme	-7406
▁striking	-7407
▁Johnson	-7408
---+	-7409
▁LADY	-7410
▁Alexander	-7411
OUN	-7412
▁cos	-7413
urance	-7414
▁recol	-7415
▁provide	-7416
▁Copyright	-7417
▁punishment	-7418
▁Sl	-7419
▁Mich	-7420
▁supplied	-7421
▁delighted	-7422
(\	-7423
▁clever	-7424
▁enabled	-7425
▁padding	-7426
dataclass	-7427
59	-7428
adr	-7429
▁cler	-7430
▁fatal	-7431
▁compre	-7432
▁miserable	-7433
rian	-7434
▁8.	-7435
▁[1,	-7436
OLD	-7437
▁7,	-7438
▁nn	-7439
▁architect	-7440
▁universal	-7441
VER	-7442
ino	-7443
rim	-7444
▁Rh	-7445
▁amuse	-7446
▁interf	-7447
UG	-7448
▁CL	-7449
▁loop	-7450
▁younger	-7451
Jul	-7452
rog	-7453
▁holds	-7454
▁saint	-7455
▁sets	-7456
▁atmosp	-7457
▁bounds	-7458
▁curios	-7459
[^	-7460
▁emer	-7461
▁tables	-7462
1-	-7463
0,0,	-7464
term	-7465
▁Get	-7466
usc	-7467
▁unus	-7468
onic	-7469
Union	-7470
▁formerly	-7471
jpg	-7472
▁34	-7473
▁film	-7474
▁attitude	-7475
avy	-7476
▁finds	-7477
▁mkdir	-7478
??	-7479
▁chown	-7480
▁waste	-7481
▁screenplay	-7482
Jan	-7483
▁Ha	-7484
▁stepped	-7485
▁contract	-7486
▁reduction	-7487
rection	-7488
▁horror	-7489
▁granted	-7490
▁polynomial	-7491
bro	-7492
▁Max	-7493
▁painted	-7494
▁CHAR	-7495
functions	-7496
▁approached	-7497
▁destruction	-7498
sv	-7499
yer	-7500
▁HE	-7501
▁pup	-7502
▁rage	-7503
▁VI	-7504
▁humble	-7505
UST	-7506
inth	-7507
delete	-7508
▁leader	-7509
▁contents	-7510
Mem	-7511
▁failure	-7512
▁commanded	-7513
▁basis	-7514
▁consult	-7515
▁islands	-7516
xi	-7517
▁'_	-7518
force	-7519
▁committed	-7520
▁celebrated	-7521
Look	-7522
sole	-7523
Sir	-7524
uint	-7525
custom	-7526
oop	-7527
▁2>	-7528
safe	-7529
▁bones	-7530
▁chapter	-7531
▁'/	-7532
▁majority	-7533
▁commission	-7534
▁difficulties	-7535
▁"__	-7536
▁poem	-7537
▁feast	-7538
▁negative	-7539
▁km	-7540
▁Fair	-7541
upp	-7542
owned	-7543
store	-7544
vector	-7545
▁ocean	-7546
resents	-7547
FE	-7548
▁CO	-7549
▁mesh	-7550
63	-7551
ij	-7552
'))	-7553
ribed	-7554
▁Supp	-7555
bridge	-7556
istered	-7557
▁Producer	-7558
[0])	-7559
amps	-7560
Check	-7561
▁gift	-7562
Nov	-7563
▁NA	-7564
▁risk	-7565
Matrix	-7566
▁manifest	-7567
CI	-7568
za	-7569
ros	-7570
▁rushed	-7571
osa	-7572
▁softly	-7573
▁natives	-7574
▁accustomed	-7575
iana	-7576
omer	-7577
▁typ	-7578
▁unfortunate	-7579
aws	-7580
▁sell	-7581
▁ridic	-7582
mapping	-7583
▁picked	-7584
▁speaks	-7585
▁utterly	-7586
02	-7587
ptr	-7588
▁pier	-7589
▁Secret	-7590
"])	-7591
▁remo	-7592
▁inquir	-7593
LOCK	-7594
▁inspect	-7595
▁essential	-7596
▁Sea	-7597
▁resc	-7598
▁bosom	-7599
emed	-7600
foot	-7601
iture	-7602
▁weary	-7603
▁ignorant	-7604
vet	-7605
apers	-7606
▁career	-7607
▁limits	-7608
▁strongly	-7609
▁Parliament	-7610
▁Spani	-7611
▁broadcast	-7612
▁jum	-7613
▁ghost	-7614
▁union	-7615
icle	-7616
▁http	-7617
▁Austri	-7618
▁sounds	-7619
▁Scott	-7620
▁dramatic	-7621
backward	-7622
REE	-7623
▁unhappy	-7624
01\	-7625
aping	-7626
strip	-7627
▁batt	-7628
select	-7629
▁sprang	-7630
LL	-7631
Ph	-7632
Can	-7633
REG	-7634
▁vic	-7635
▁brings	-7636
supported	-7637
ums	-7638
iday	-7639
▁tow	-7640
▁hint	-7641
▁acting	-7642
▁affected	-7643
▁decision	-7644
▁sen	-7645
▁Text	-7646
▁rig	-7647
▁tax	-7648
▁mock	-7649
▁About	-7650
▁fierce	-7651
▁helped	-7652
▁passes	-7653
▁anxiety	-7654
▁domestic	-7655
▁Freder	-7656
des	-7657
metric	-7658
itional	-7659
▁crack	-7660
▁paths	-7661
▁whenever	-7662
▁Rel	-7663
▁obsc	-7664
fields	-7665
▁armed	-7666
▁compat	-7667
▁managed	-7668
abor	-7669
Element	-7670
fulness	-7671
▁delivered	-7672
^{	-7673
▁lest	-7674
▁pushed	-7675
▁writers	-7676
▁“_	-7677
TYPE	-7678
▁Gen	-7679
▁hole	-7680
▁tomb	-7681
effect	-7682
▁owner	-7683
tok	-7684
Size	-7685
▁somewhere	-7686
▁Cat	-7687
▁alike	-7688
▁logging	-7689
▁floating	-7690
▁acquainted	-7691
rous	-7692
▁async	-7693
manager	-7694
atis	-7695
▁irr	-7696
attrs	-7697
filter	-7698
▁hotel	-7699
▁assume	-7700
▁parser	-7701
▁anybody	-7702
▁benefit	-7703
▁sklearn	-7704
MA	-7705
▁cord	-7706
▁fame	-7707
▁World	-7708
▁kings	-7709
din	-7710
Your	-7711
▁supre	-7712
▁breaking	-7713
RY	-7714
▁lit	-7715
▁abroad	-7716
▁coffee	-7717
▁founded	-7718
▁movements	-7719
▁observation	-7720
ka	-7721
=1,	-7722
rand	-7723
▁(2,	-7724
▁lights	-7725
▁internal	-7726
uns	-7727
ulti	-7728
▁vac	-7729
▁mounted	-7730
▁Sk	-7731
break	-7732
ensed	-7733
asions	-7734
arrison	-7735
grep	-7736
▁Bay	-7737
▁ris	-7738
Inter	-7739
▁Tell	-7740
▁Virginia	-7741
▁frequent	-7742
prot	-7743
▁domin	-7744
▁throat	-7745
inition	-7746
▁Council	-7747
▁SP	-7748
handler	-7749
▁withdraw	-7750
▁37	-7751
▁bree	-7752
▁spare	-7753
▁Through	-7754
▁Lieutenant	-7755
)\	-7756
INGS	-7757
▁shade	-7758
▁tokens	-7759
lap	-7760
vec	-7761
▁33	-7762
▁grate	-7763
eties	-7764
stairs	-7765
Man	-7766
▁absurd	-7767
▁derived	-7768
▁observe	-7769
▁convinced	-7770
pow	-7771
▁horn	-7772
rend	-7773
umin	-7774
▁insert	-7775
▁conflict	-7776
▁departure	-7777
▁furnished	-7778
Map	-7779
▁Sud	-7780
▁cott	-7781
▁tick	-7782
▁captured	-7783
CC	-7784
eunt	-7785
agonal	-7786
ounter	-7787
▁chain	-7788
Here	-7789
avalry	-7790
window	-7791
▁blessed	-7792
▁manager	-7793
▁mankind	-7794
oston	-7795
▁shouted	-7796
▁collected	-7797
lem	-7798
▁fid	-7799
▁developed	-7800
Rec	-7801
▁LA	-7802
▁Pen	-7803
▁flying	-7804
▁articles	-7805
▁profound	-7806
ram	-7807
▁mud	-7808
▁ages	-7809
▁accord	-7810
▁writes	-7811
▁monarch	-7812
▁inclined	-7813
▁Jane	-7814
▁Param	-7815
▁merry	-7816
▁veget	-7817
▁excuse	-7818
▁Therefore	-7819
▁attempted	-7820
▁frightened	-7821
92	-7822
=-=-	-7823
uing	-7824
dtypes	-7825
▁comfortable	-7826
▁Ep	-7827
▁aunt	-7828
▁meal	-7829
▁habits	-7830
yes	-7831
save	-7832
acket	-7833
▁photo	-7834
▁slavery	-7835
unks	-7836
-8	-7837
▁Sav	-7838
▁lif	-7839
urbed	-7840
▁obst	-7841
▁cabin	-7842
▁spark	-7843
▁stiff	-7844
▁appeal	-7845
Ab	-7846
LES	-7847
____	-7848
▁hollow	-7849
▁representing	-7850
▁haste	-7851
▁freely	-7852
▁intent	-7853
▁quarrel	-7854
uv	-7855
held	-7856
▁Rec	-7857
▁settle	-7858
▁centuries	-7859
Out	-7860
eder	-7861
▁Mem	-7862
fname	-7863
▁sixty	-7864
▁deliver	-7865
gpu	-7866
▁Up	-7867
▁Fri	-7868
▁cig	-7869
plicit	-7870
▁guests	-7871
▁Footnote	-7872
▁generous	-7873
itled	-7874
▁verse	-7875
general	-7876
▁enjoyed	-7877
!_	-7878
%,	-7879
lhs	-7880
ummy	-7881
utor	-7882
▁Second	-7883
▁coordin	-7884
▁quarters	-7885
▁referred	-7886
▁buildings	-7887
▁converted	-7888
classmethod	-7889
Apr	-7890
▁Sol	-7891
▁mood	-7892
▁nest	-7893
▁inquired	-7894
▁seq	-7895
urely	-7896
▁Lake	-7897
▁tent	-7898
▁flame	-7899
wrapper	-7900
▁preserve	-7901
▁subs	-7902
▁eternal	-7903
▁PE	-7904
[1:	-7905
▁compet	-7906
▁unexpected	-7907
▁construction	-7908
tim	-7909
▁0],	-7910
idents	-7911
▁refuse	-7912
▁wrapped	-7913
SH	-7914
quet	-7915
▁area	-7916
▁obed	-7917
▁wave	-7918
▁dreams	-7919
▁stairs	-7920
▁University	-7921
newer	-7922
▁”	-7923
igg	-7924
times	-7925
▁vote	-7926
▁Example	-7927
trol	-7928
ithub	-7929
▁fest	-7930
▁oath	-7931
▁unit	-7932
▁elder	-7933
▁families	-7934
▁belonging	-7935
rad	-7936
▁mysterious	-7937
▁Over	-7938
From	-7939
▁Make	-7940
▁bias	-7941
▁insp	-7942
▁savage	-7943
Feb	-7944
iii	-7945
▁Mod	-7946
▁feared	-7947
▁wooden	-7948
▁sex	-7949
▁tribes	-7950
ulations	-7951
▁Although	-7952
orph	-7953
ashing	-7954
▁regiment	-7955
]],	-7956
han	-7957
Expr	-7958
▁CAR	-7959
▁Tem	-7960
▁Sant	-7961
bfloat	-7962
▁specim	-7963
"].	-7964
pring	-7965
▁banks	-7966
negative	-7967
▁starting	-7968
▁According	-7969
▁announced	-7970
Add	-7971
▁ft	-7972
▁``'	-7973
etc	-7974
▁Fer	-7975
▁Pet	-7976
example	-7977
encoding	-7978
▁examples	-7979
▁tu	-7980
▁doubtless	-7981
▁Ty	-7982
▁rib	-7983
▁tra	-7984
resses	-7985
urches	-7986
▁disturb	-7987
▁limited	-7988
▁likewise	-7989
▁atmosphere	-7990
▁Path	-7991
arling	-7992
▁associated	-7993
▁ard	-7994
unctuation	-7995
▁positions	-7996
▁Lib	-7997
▁compass	-7998
▁council	-7999
[[	-8000
▁borne	-8001
▁Martin	-8002
Sequence	-8003
▁community	-8004
ench	-8005
▁Young	-8006
▁industry	-8007
▁application	-8008
▁characteristic	-8009
qa	-8010
▁...]	-8011
▁blame	-8012
ez	-8013
sim	-8014
xml	-8015
OPER	-8016
▁Rose	-8017
▁swept	-8018
▁opposition	-8019
57	-8020
ita	-8021
Config	-8022
▁forgive	-8023
▁belonged	-8024
▁transfer	-8025
▁annotations	-8026
▁Bas	-8027
▁syn	-8028
rical	-8029
▁Wind	-8030
comple	-8031
rd	-8032
▁AB	-8033
echo	-8034
▁comment	-8035
▁oh	-8036
ario	-8037
▁ast	-8038
▁magic	-8039
▁stride	-8040
▁defence	-8041
withstanding	-8042
ola	-8043
rait	-8044
▁gaze	-8045
▁legend	-8046
▁slept	-8047
amin	-8048
avel	-8049
▁Peace	-8050
▁recall	-8051
▁reputation	-8052
▁Flore	-8053
▁trick	-8054
▁ensure	-8055
▁Without	-8056
aly	-8057
▁flags	-8058
image	-8059
github	-8060
▁marks	-8061
▁northern	-8062
missing	-8063
▁remote	-8064
Did	-8065
icial	-8066
hend	-8067
▁wing	-8068
▁Victor	-8069
▁profess	-8070
▁whisper	-8071
▁Mill	-8072
starts	-8073
▁perman	-8074
▁tragedy	-8075
▁determine	-8076
ORE	-8077
ipt	-8078
hash	-8079
keep	-8080
▁Dev	-8081
▁ren	-8082
▁hers	-8083
▁useless	-8084
▁generation	-8085
acco	-8086
aver	-8087
greg	-8088
ixture	-8089
▁header	-8090
▁provin	-8091
ran	-8092
▁Jones	-8093
▁loving	-8094
▁schools	-8095
▁previously	-8096
------------	-8097
▁approaching	-8098
▁colors	-8099
▁reported	-8100
▁scattered	-8101
uf	-8102
unn	-8103
uity	-8104
▁Scotland	-8105
Reg	-8106
lic	-8107
ante	-8108
ctors	-8109
▁Gard	-8110
▁central	-8111
▁acknowled	-8112
_(	-8113
;--	-8114
ISH	-8115
ouch	-8116
▁XXX	-8117
stead	-8118
master	-8119
▁misery	-8120
▁nearest	-8121
▁explicit	-8122
▁ancest	-8123
NA	-8124
upon	-8125
▁Bab	-8126
iveness	-8127
▁nodded	-8128
▁static	-8129
▁college	-8130
▁consists	-8131
FIFF	-8132
leaf	-8133
rived	-8134
▁Book	-8135
▁Norm	-8136
▁curiosity	-8137
"'	-8138
▁enormous	-8139
del	-8140
▁paused	-8141
▁mystery	-8142
▁readily	-8143
▁contrast	-8144
▁comparison	-8145
▁Fore	-8146
▁insult	-8147
▁infinite	-8148
▁probability	-8149
83	-8150
Br	-8151
vm	-8152
las	-8153
Will	-8154
show	-8155
▁Tre	-8156
edges	-8157
▁Dutch	-8158
pad	-8159
ria	-8160
▁VIII	-8161
▁cart	-8162
▁shared	-8163
mount	-8164
▁forehead	-8165
▁10.	-8166
ancho	-8167
global	-8168
▁Because	-8169
▁Monsieur	-8170
ONE	-8171
acer	-8172
yard	-8173
▁Sus	-8174
▁lon	-8175
▁club	-8176
▁cotton	-8177
▁retired	-8178
iary	-8179
orth	-8180
▁bew	-8181
▁rope	-8182
▁Spirit	-8183
▁estate	-8184
▁combined	-8185
▁adventure	-8186
staticmethod	-8187
dp	-8188
05\	-8189
ura	-8190
▁SEE	-8191
▁distinction	-8192
▁epo	-8193
solve	-8194
▁sust	-8195
▁knife	-8196
▁repeat	-8197
▁elsewhere	-8198
iour	-8199
▁gent	-8200
uchess	-8201
▁accum	-8202
▁creatures	-8203
coeff	-8204
▁Water	-8205
]])	-8206
cus	-8207
pher	-8208
[...,	-8209
▁phrase	-8210
Sep	-8211
cols	-8212
▁Num	-8213
▁lhs	-8214
scipy	-8215
▁increasing	-8216
Group	-8217
argument	-8218
▁actions	-8219
▁channels	-8220
▁external	-8221
▁1),	-8222
▁frank	-8223
▁steel	-8224
TE	-8225
▁PL	-8226
iven	-8227
▁ssh	-8228
▁Pier	-8229
▁issued	-8230
▁Brother	-8231
▁western	-8232
▁uniq	-8233
ICAL	-8234
▁silk	-8235
▁parse	-8236
ulgar	-8237
▁Must	-8238
tensors	-8239
▁exposed	-8240
▁neighbor	-8241
Are	-8242
▁Inf	-8243
▁Bern	-8244
▁dawn	-8245
▁mortal	-8246
▁weakness	-8247
▁suspicion	-8248
URE	-8249
▁negro	-8250
▁renew	-8251
▁sadd	-8252
ignore	-8253
▁China	-8254
lowering	-8255
YR	-8256
hers	-8257
▁remarks	-8258
ona	-8259
ysis	-8260
▁handed	-8261
ertained	-8262
▁beloved	-8263
▁trembling	-8264
▁Far	-8265
▁owing	-8266
5)	-8267
▁bag	-8268
▁Oper	-8269
▁Hug	-8270
▁revolution	-8271
none	-8272
▁Very	-8273
▁bath	-8274
▁AD	-8275
▁enterpr	-8276
▁venture	-8277
conv	-8278
ighter	-8279
▁interior	-8280
▁sentiment	-8281
▁resolution	-8282
MAT	-8283
▁Alf	-8284
anned	-8285
Handler	-8286
▁interrupted	-8287
OG	-8288
▁Page	-8289
namespace	-8290
▁measures	-8291
▁desperate	-8292
▁philosophy	-8293
IVE	-8294
gamma	-8295
server	-8296
symbols	-8297
▁maintain	-8298
▁probable	-8299
roll	-8300
stop	-8301
pline	-8302
▁cheek	-8303
osc	-8304
fake	-8305
▁province	-8306
▁violence	-8307
suff	-8308
▁ric	-8309
▁hind	-8310
▁rush	-8311
▁pound	-8312
aration	-8313
▁approx	-8314
▁commenced	-8315
58	-8316
rng	-8317
▁Four	-8318
▁Judge	-8319
▁voyage	-8320
▁patience	-8321
▁troubles	-8322
▁ignorance	-8323
]*	-8324
View	-8325
uman	-8326
▁pref	-8327
▁fired	-8328
▁shalt	-8329
▁abstract	-8330
▁recently	-8331
▁magnificent	-8332
Text	-8333
partial	-8334
▁prepare	-8335
▁household	-8336
xis	-8337
▁Should	-8338
▁thence	-8339
▁uttered	-8340
▁Sometimes	-8341
-2	-8342
__.	-8343
▁Corn	-8344
iently	-8345
illery	-8346
initial	-8347
▁History	-8348
Dat	-8349
▁Joe	-8350
▁Mel	-8351
▁Row	-8352
pended	-8353
▁intim	-8354
▁cheeks	-8355
Go	-8356
eros	-8357
othe	-8358
▁Ter	-8359
icode	-8360
▁disgr	-8361
0:	-8362
_),	-8363
orp	-8364
ulse	-8365
▁rum	-8366
▁Chic	-8367
section	-8368
rael	-8369
▁minor	-8370
▁penetr	-8371
▁humanity	-8372
▁mistaken	-8373
hi	-8374
▁Boston	-8375
▁anyone	-8376
Transform	-8377
▁entitled	-8378
quar	-8379
unique	-8380
aughters	-8381
▁demonstr	-8382
▁distress	-8383
▁pressure	-8384
▁EX	-8385
▁Hand	-8386
▁Mess	-8387
header	-8388
▁bears	-8389
▁utmost	-8390
▁debt	-8391
▁legisl	-8392
▁largest	-8393
▁southern	-8394
▁discussion	-8395
▁intellectual	-8396
▁gri	-8397
▁absor	-8398
▁actor	-8399
ancholy	-8400
dirname	-8401
▁secured	-8402
▁shining	-8403
▁treasure	-8404
▁Est	-8405
▁dancing	-8406
▁activity	-8407
▁unconscious	-8408
ho	-8409
▁Army	-8410
Location	-8411
▁arrangement	-8412
collect	-8413
assad	-8414
▁bask	-8415
String	-8416
▁instructions	-8417
js	-8418
yles	-8419
----"	-8420
▁People	-8421
56	-8422
)``	-8423
▁Bible	-8424
▁checkpoint	-8425
vi	-8426
icro	-8427
▁maiden	-8428
▁Present	-8429
▁eagerly	-8430
▁wondered	-8431
▁stretched	-8432
▁brow	-8433
▁haue	-8434
Symbol	-8435
▁Hence	-8436
▁consid	-8437
ertainly	-8438
▁replace	-8439
▁interview	-8440
iped	-8441
itan	-8442
▁desir	-8443
▁generated	-8444
sys	-8445
uid	-8446
▁consciousness	-8447
▁Ros	-8448
▁References	-8449
▁emin	-8450
▁noted	-8451
command	-8452
▁Andrew	-8453
▁crowded	-8454
▁hanging	-8455
components	-8456
▁represents	-8457
=0.	-8458
▁cries	-8459
▁eleg	-8460
special	-8461
▁expense	-8462
▁subm	-8463
▁lately	-8464
▁estimator	-8465
▁Boy	-8466
verbose	-8467
▁signed	-8468
ANG	-8469
hook	-8470
lope	-8471
▁program	-8472
▁capacity	-8473
OTH	-8474
det	-8475
▁Hal	-8476
▁apt	-8477
▁angle	-8478
▁leaders	-8479
▁listening	-8480
inn	-8481
eous	-8482
▁tied	-8483
trees	-8484
▁Leon	-8485
▁clergy	-8486
▁detail	-8487
▁substance	-8488
▁directions	-8489
dess	-8490
skip	-8491
temp	-8492
ulus	-8493
▁ecc	-8494
exper	-8495
▁aten	-8496
▁Margaret	-8497
▁presents	-8498
▁extension	-8499
00*	-8500
▁via	-8501
▁Give	-8502
rics	-8503
▁ham	-8504
▁invited	-8505
rell	-8506
▁180	-8507
▁2.0	-8508
storage	-8509
!’	-8510
rive	-8511
▁Coll	-8512
▁disposed	-8513
sig	-8514
▁Bon	-8515
▁pist	-8516
▁angel	-8517
▁dared	-8518
▁restored	-8519
Ins	-8520
▁ops	-8521
▁tower	-8522
Tracker	-8523
ictions	-8524
▁circumstance	-8525
fa	-8526
iasm	-8527
Warning	-8528
▁millions	-8529
▁DR	-8530
your	-8531
include	-8532
▁safely	-8533
▁counsel	-8534
▁erected	-8535
▁outputs	-8536
▁occasions	-8537
▁Turk	-8538
▁rent	-8539
▁serial	-8540
▁territory	-8541
▁ps	-8542
Iter	-8543
▁link	-8544
▁scientific	-8545
amped	-8546
▁Head	-8547
ca	-8548
ICH	-8549
▁Gre	-8550
▁fee	-8551
numer	-8552
title	-8553
illing	-8554
▁suspect	-8555
ball	-8556
epth	-8557
▁answ	-8558
▁drunk	-8559
▁fears	-8560
exclude	-8561
▁Lee	-8562
General	-8563
callback	-8564
▁appropriate	-8565
**2*	-8566
otted	-8567
▁tear	-8568
▁propos	-8569
▁suffix	-8570
▁forever	-8571
18.	-8572
▁64	-8573
▁10,	-8574
▁delightful	-8575
▁AM	-8576
seen	-8577
▁182	-8578
▁lou	-8579
extra	-8580
▁background	-8581
{}	-8582
▁...,	-8583
▁coach	-8584
plicity	-8585
▁ornament	-8586
azz	-8587
▁Jacob	-8588
▁propri	-8589
fol	-8590
~~~~~~~~	-8591
▁creation	-8592
adem	-8593
pany	-8594
▁deed	-8595
och	-8596
ses	-8597
▁winds	-8598
▁fitted	-8599
▁kissed	-8600
wing	-8601
▁sincere	-8602
▁necessarily	-8603
15,	-8604
ITY	-8605
▁“‘	-8606
holder	-8607
▁depos	-8608
▁marched	-8609
▁plainly	-8610
▁concluded	-8611
31	-8612
▁Say	-8613
dense	-8614
▁rust	-8615
▁gates	-8616
▁swear	-8617
ONT	-8618
▁Penn	-8619
▁alter	-8620
▁border	-8621
▁Amb	-8622
icles	-8623
usions	-8624
columns	-8625
defined	-8626
▁Catholic	-8627
▁accordingly	-8628
alia	-8629
schema	-8630
▁merit	-8631
▁batter	-8632
▁authorities	-8633
flo	-8634
▁hadn	-8635
▁capture	-8636
▁nervous	-8637
▁conception	-8638
ISS	-8639
sed	-8640
▁Poor	-8641
▁noqa	-8642
▁grain	-8643
Returns	-8644
overload	-8645
▁happens	-8646
▁preferred	-8647
proxy	-8648
128	-8649
▁Ox	-8650
▁Kent	-8651
▁bark	-8652
▁Child	-8653
abstract	-8654
▁glanced	-8655
▁Variable	-8656
▁stronger	-8657
CO	-8658
▁rng	-8659
▁rolled	-8660
▁summon	-8661
phe	-8662
▁Mah	-8663
icken	-8664
▁feed	-8665
▁flew	-8666
future	-8667
▁attacked	-8668
▁teaching	-8669
amely	-8670
▁neighbourhood	-8671
Id	-8672
"--	-8673
▁GE	-8674
▁plt	-8675
▁hook	-8676
▁puzz	-8677
▁Portug	-8678
▁united	-8679
▁deny	-8680
▁rul	-8681
illes	-8682
words	-8683
▁API	-8684
▁tee	-8685
gence	-8686
dynamic	-8687
weights	-8688
▁pretend	-8689
Jun	-8690
▁urged	-8691
▁widow	-8692
Oper	-8693
▁signature	-8694
dig	-8695
▁[1	-8696
integer	-8697
▁midnight	-8698
▁suitable	-8699
▁deprecated	-8700
▁belongs	-8701
▁confined	-8702
▁uncertain	-8703
▁practically	-8704
▁communication	-8705
acks	-8706
MENTS	-8707
▁rele	-8708
▁route	-8709
▁prayers	-8710
▁assigned	-8711
▁election	-8712
▁translation	-8713
ida	-8714
Mode	-8715
▁tob	-8716
▁loyal	-8717
▁melancholy	-8718
cpu	-8719
▁Sur	-8720
▁Carol	-8721
▁Night	-8722
ocratic	-8723
▁charged	-8724
▁restore	-8725
=0	-8726
[2]	-8727
arian	-8728
▁blaz	-8729
▁gest	-8730
▁sport	-8731
▁steep	-8732
▁Romans	-8733
▁profit	-8734
▁depends	-8735
19.	-8736
▁priests	-8737
▁legal	-8738
▁adjust	-8739
▁immort	-8740
▁Productions	-8741
▁expressions	-8742
docs	-8743
iast	-8744
▁troubled	-8745
▁enthusiasm	-8746
(1)	-8747
▁tum	-8748
▁yard	-8749
▁conceal	-8750
▁Turn	-8751
▁dimin	-8752
▁scope	-8753
▁definite	-8754
▁opinions	-8755
▁experiment	-8756
▁wives	-8757
▁anticip	-8758
++	-8759
▁bin	-8760
▁grim	-8761
▁flock	-8762
▁perpet	-8763
▁abandoned	-8764
_--	-8765
fty	-8766
▁cher	-8767
▁coal	-8768
▁Calif	-8769
▁prize	-8770
▁entering	-8771
Val	-8772
olt	-8773
▁brid	-8774
▁1916.	-8775
ironment	-8776
xx	-8777
▁""	-8778
puted	-8779
arange	-8780
▁leads	-8781
▁horrible	-8782
parameters	-8783
wik	-8784
▁AS	-8785
json	-8786
ection	-8787
▁Right	-8788
▁stupid	-8789
▁Constant	-8790
▁nevertheless	-8791
(0)	-8792
▁MA	-8793
inductor	-8794
▁feather	-8795
transforms	-8796
ila	-8797
▁Jews	-8798
db	-8799
othy	-8800
▁JAX	-8801
glyph	-8802
osh	-8803
▁seconds	-8804
▁disposition	-8805
]):	-8806
osure	-8807
▁Mean	-8808
umbled	-8809
▁minimum	-8810
▁matrices	-8811
▁continually	-8812
(2	-8813
tw	-8814
chn	-8815
▁1-	-8816
▁1/	-8817
elly	-8818
scape	-8819
▁madam	-8820
▁Southern	-8821
▁recovered	-8822
.-	-8823
08	-8824
buff	-8825
ships	-8826
▁PH	-8827
▁},	-8828
▁End	-8829
▁duke	-8830
construct	-8831
▁acquired	-8832
▁helpless	-8833
Parser	-8834
▁Cross	-8835
ceptions	-8836
istle	-8837
▁wire	-8838
▁beings	-8839
▁eleven	-8840
▁strain	-8841
▁seriously	-8842
▁stablehlo	-8843
:—	-8844
cks	-8845
▁largely	-8846
▁behavior	-8847
▁Camp	-8848
▁este	-8849
Format	-8850
▁shake	-8851
▁favourite	-8852
16',	-8853
▁NaN	-8854
▁fed	-8855
▁alle	-8856
▁roads	-8857
▁lighted	-8858
▁masters	-8859
▁seeking	-8860
▁exhausted	-8861
PO	-8862
▁ours	-8863
▁annoy	-8864
▁firmly	-8865
▁intern	-8866
▁riding	-8867
▁ashamed	-8868
▁estimate	-8869
▁flung	-8870
▁instit	-8871
variance	-8872
tyle	-8873
▁Fox	-8874
Table	-8875
▁medic	-8876
functional	-8877
AVE	-8878
Code	-8879
▁Pre	-8880
water	-8881
versed	-8882
▁protest	-8883
▁Americans	-8884
48,	-8885
▁Sar	-8886
guard	-8887
▁dtypes	-8888
▁experienced	-8889
ocal	-8890
Aside	-8891
▁gazed	-8892
▁shapes	-8893
▁campaign	-8894
▁provisions	-8895
64,	-8896
coln	-8897
▁dil	-8898
▁idle	-8899
▁beaten	-8900
▁colored	-8901
▁shelter	-8902
TP	-8903
uan	-8904
▁Has	-8905
mother	-8906
▁hunting	-8907
▁functools	-8908
2;	-8909
▁9.	-8910
bias	-8911
cext	-8912
▁Castle	-8913
▁senses	-8914
▁steady	-8915
▁hitherto	-8916
}}	-8917
▁Cy	-8918
frac	-8919
▁brig	-8920
▁county	-8921
32)	-8922
ashes	-8923
astype	-8924
▁Helen	-8925
▁burned	-8926
▁lonely	-8927
▁intervals	-8928
ARY	-8929
▁churches	-8930
Rule	-8931
▁Rog	-8932
▁sorts	-8933
mindepth	-8934
▁existed	-8935
▁inferior	-8936
kw	-8937
▁ED	-8938
▁crying	-8939
▁partition	-8940
▁threshold	-8941
shine	-8942
ending	-8943
▁recover	-8944
isely	-8945
▁tang	-8946
hearted	-8947
▁hungry	-8948
▁contact	-8949
▁records	-8950
▁consequently	-8951
ado	-8952
asped	-8953
helper	-8954
system	-8955
▁clock	-8956
▁deeds	-8957
▁permit	-8958
▁realized	-8959
▁suggestion	-8960
jnp	-8961
▁65	-8962
▁183	-8963
▁Fol	-8964
▁cas	-8965
▁Line	-8966
▁painful	-8967
▁individuals	-8968
recur	-8969
sympy	-8970
▁trip	-8971
shapes	-8972
▁consol	-8973
▁hastily	-8974
▁sleeping	-8975
FILE	-8976
urst	-8977
▁torn	-8978
▁substit	-8979
▁Pan	-8980
▁prejud	-8981
▁originally	-8982
kv	-8983
▁Qq	-8984
▁pad	-8985
allas	-8986
▁burden	-8987
////////////////	-8988
bow	-8989
ibr	-8990
aunt	-8991
udent	-8992
▁comr	-8993
▁borrow	-8994
▁daughters	-8995
▁perceived	-8996
equal	-8997
▁diver	-8998
▁keeps	-8999
▁shadows	-9000
▁concealed	-9001
▁BL	-9002
▁_(	-9003
▁Next	-9004
▁vary	-9005
events	-9006
▁nights	-9007
;'	-9008
pic	-9009
loss	-9010
hetic	-9011
▁rival	-9012
▁trail	-9013
▁bottle	-9014
▁farmer	-9015
▁rarely	-9016
▁properties	-9017
▁resistance	-9018
pick	-9019
▁items	-9020
▁obvious	-9021
bor	-9022
fid	-9023
▁genu	-9024
▁Islands	-9025
09	-9026
▁||	-9027
aham	-9028
geon	-9029
▁OPER	-9030
▁bull	-9031
equ	-9032
URES	-9033
ayed	-9034
▁leb	-9035
▁256,	-9036
▁selection	-9037
exit	-9038
otic	-9039
▁VII	-9040
users	-9041
ricult	-9042
▁president	-9043
▁Rad	-9044
▁lap	-9045
▁Adam	-9046
▁arbit	-9047
▁elected	-9048
▁tobacco	-9049
▁describe	-9050
▁primitive	-9051
Lay	-9052
▁staff	-9053
▁eating	-9054
▁grounds	-9055
▁devotion	-9056
'``	-9057
▁39	-9058
anes	-9059
▁(0.	-9060
▁tide	-9061
73	-9062
alty	-9063
adelph	-9064
▁admire	-9065
▁landed	-9066
▁widget	-9067
▁wrapper	-9068
▁ceremony	-9069
▁imagined	-9070
▁gratitude	-9071
ILD	-9072
mann	-9073
west	-9074
icing	-9075
omach	-9076
▁stared	-9077
pton	-9078
▁12,	-9079
engers	-9080
Options	-9081
▁requested	-9082
SEG	-9083
zed	-9084
▁&&	-9085
ribe	-9086
▁dims	-9087
padding	-9088
▁prevented	-9089
▁Faith	-9090
▁tribe	-9091
qn	-9092
ala	-9093
bid	-9094
▁(2	-9095
leness	-9096
-+	-9097
▁ult	-9098
▁Austr	-9099
▁Madam	-9100
▁disable	-9101
▁drinking	-9102
▁Fle	-9103
▁SIR	-9104
named	-9105
verty	-9106
height	-9107
▁fetch	-9108
achment	-9109
▁County	-9110
▁reverse	-9111
▁agreeable	-9112
25.	-9113
▁EN	-9114
▁Leg	-9115
▁trem	-9116
▁deriv	-9117
▁lofty	-9118
▁stout	-9119
▁studied	-9120
▁agricult	-9121
▁peril	-9122
▁prior	-9123
inations	-9124
location	-9125
▁departed	-9126
▁maintained	-9127
▁slain	-9128
▁wrath	-9129
▁adding	-9130
plication	-9131
▁Christians	-9132
BLE	-9133
iger	-9134
▁query	-9135
amation	-9136
factory	-9137
▁Gentle	-9138
▁begged	-9139
conf	-9140
incl	-9141
▁Sym	-9142
▁pir	-9143
ospel	-9144
▁(2004	-9145
▁intense	-9146
▁observations	-9147
4*	-9148
denly	-9149
▁Down	-9150
▁rsync	-9151
▁neat	-9152
▁Israel	-9153
▁accompany	-9154
rane	-9155
Vector	-9156
natural	-9157
▁decide	-9158
▁sending	-9159
▁murmured	-9160
▁matplotlib	-9161
meth	-9162
▁possibility	-9163
single	-9164
▁python	-9165
piration	-9166
AttrBuilder	-9167
DIR	-9168
▁Put	-9169
hedral	-9170
▁princess	-9171
▁automatic	-9172
▁phen	-9173
▁sang	-9174
itating	-9175
▁poured	-9176
▁revenge	-9177
▁unusual	-9178
▁sharding	-9179
successors	-9180
▁Exception	-9181
▁rav	-9182
▁recorded	-9183
▁astonishment	-9184
▁lamp	-9185
Adaptor	-9186
▁assure	-9187
▁Californ	-9188
oys	-9189
▁HT	-9190
▁preceding	-9191
zo	-9192
▁ped	-9193
CTION	-9194
▁lust	-9195
▁merc	-9196
▁loaded	-9197
▁shield	-9198
▁merchant	-9199
▁Spaniards	-9200
1"	-9201
▁sources	-9202
Ed	-9203
`:	-9204
▁Wes	-9205
fro	-9206
▁opposed	-9207
▁modified	-9208
▁9,	-9209
FAULT	-9210
▁Card	-9211
▁nurse	-9212
adelphia	-9213
▁Chicago	-9214
▁portrait	-9215
▁somebody	-9216
}\	-9217
2.0	-9218
▁rv	-9219
▁Bre	-9220
eling	-9221
paths	-9222
▁Were	-9223
▁sore	-9224
orable	-9225
▁straw	-9226
▁poverty	-9227
reduction	-9228
▁[5	-9229
▁Sum	-9230
▁Jeff	-9231
▁bowed	-9232
▁cavalry	-9233
▁somehow	-9234
▁wedding	-9235
ulf	-9236
▁Di	-9237
▁Ward	-9238
stable	-9239
▁stretch	-9240
▁callback	-9241
▁reaching	-9242
▁inev	-9243
▁songs	-9244
▁exclude	-9245
▁Vit	-9246
▁exquis	-9247
▁finish	-9248
▁contempl	-9249
)',	-9250
anked	-9251
oubted	-9252
▁Japanese	-9253
96,	-9254
cia	-9255
cpp	-9256
atime	-9257
ulating	-9258
▁attempts	-9259
lax	-9260
anim	-9261
▁inch	-9262
▁flash	-9263
▁barbar	-9264
SEGMENTS	-9265
▁executed	-9266
Ty	-9267
▁FIFF	-9268
▁Canada	-9269
▁eps	-9270
▁Test	-9271
▁refer	-9272
icients	-9273
▁Secretary	-9274
access	-9275
▁quoted	-9276
variable	-9277
▁entreat	-9278
▁electric	-9279
Off	-9280
year	-9281
▁Form	-9282
▁treas	-9283
▁slightest	-9284
▁permission	-9285
ENSE	-9286
ader	-9287
▁elo	-9288
▁noon	-9289
▁poets	-9290
▁conviction	-9291
high	-9292
seed	-9293
geant	-9294
▁seas	-9295
blocks	-9296
tokens	-9297
worthy	-9298
initely	-9299
▁claims	-9300
▁package	-9301
OpAdaptor	-9302
▁descended	-9303
▁reasonable	-9304
--+	-9305
ieu	-9306
▁Till	-9307
errors	-9308
▁humour	-9309
▁Germans	-9310
▁Western	-9311
La	-9312
ARE	-9313
▁DU	-9314
▁——	-9315
ello	-9316
▁retire	-9317
TOR	-9318
bye	-9319
▁actors	-9320
▁passages	-9321
▁NEW	-9322
ugged	-9323
▁Earth	-9324
▁Grace	-9325
▁shoes	-9326
▁replaced	-9327
▁ArrayLike	-9328
▁threatened	-9329
ucky	-9330
▁178	-9331
▁84,	-9332
▁pip	-9333
erity	-9334
▁disg	-9335
▁poems	-9336
gly	-9337
occ	-9338
▁tiny	-9339
▁disgu	-9340
▁limbs	-9341
▁definition	-9342
▁Temple	-9343
operator	-9344
▁commonly	-9345
sar	-9346
poon	-9347
▁Class	-9348
▁Knight	-9349
▁ambition	-9350
alph	-9351
tags	-9352
Count	-9353
gather	-9354
▁inverse	-9355
▁symbolic	-9356
▁composition	-9357
-1,	-9358
LOW	-9359
▁lect	-9360
▁shortly	-9361
▁OPERATION	-9362
God	-9363
▁Town	-9364
▁toss	-9365
▁queer	-9366
▁blocks	-9367
▁refuge	-9368
62	-9369
sur	-9370
comb	-9371
▁hem	-9372
▁marble	-9373
▁heavens	-9374
▁pursued	-9375
"))	-9376
OOD	-9377
ABLE	-9378
▁parish	-9379
children	-9380
▁tendency	-9381
▁assembled	-9382
▁conducted	-9383
▁responsible	-9384
▁MU	-9385
▁vice	-9386
▁gallant	-9387
▁examined	-9388
IRST	-9389
bell	-9390
oting	-9391
multi	-9392
Insertion	-9393
▁exchange	-9394
▁==========	-9395
Desc	-9396
grap	-9397
▁leis	-9398
▁slip	-9399
▁empire	-9400
jor	-9401
▁[[	-9402
ckets	-9403
arrass	-9404
isting	-9405
signature	-9406
▁phenomen	-9407
▁validate	-9408
▁Christianity	-9409
iah	-9410
▁(4,	-9411
▁folk	-9412
Object	-9413
rhs	-9414
tic	-9415
orial	-9416
▁autumn	-9417
▁supports	-9418
▁receiving	-9419
▁regarding	-9420
New	-9421
onical	-9422
▁ingen	-9423
▁seats	-9424
▁fearful	-9425
▁respond	-9426
▁indicated	-9427
▁foundation	-9428
IUS	-9429
exc	-9430
ENCE	-9431
Exeunt	-9432
▁rises	-9433
▁patron	-9434
▁examination	-9435
ym	-9436
alm	-9437
▁[4	-9438
avig	-9439
▁Admir	-9440
ordered	-9441
▁remainder	-9442
eur	-9443
__()	-9444
▁WILL	-9445
▁stol	-9446
▁cliff	-9447
osition	-9448
plicate	-9449
▁authors	-9450
▁displayed	-9451
▁introduction	-9452
▁bon	-9453
▁enl	-9454
irmed	-9455
owing	-9456
▁aven	-9457
▁craft	-9458
▁folks	-9459
▁occurs	-9460
▁calculated	-9461
Fe	-9462
}:	-9463
ANS	-9464
▁Pray	-9465
▁bits	-9466
▁rude	-9467
▁Please	-9468
original	-9469
▁earliest	-9470
▁goodness	-9471
▁Presented	-9472
REGIONS	-9473
▁heavily	-9474
▁deserted	-9475
:_	-9476
▁Sun	-9477
▁Cape	-9478
▁drag	-9479
▁shed	-9480
udence	-9481
▁fires	-9482
▁script	-9483
▁stored	-9484
▁Lincoln	-9485
▁cleared	-9486
▁materials	-9487
distributed	-9488
_0	-9489
▁2*	-9490
weet	-9491
▁-1,	-9492
▁marg	-9493
▁absent	-9494
▁Stephen	-9495
▁combination	-9496
InsertionPoint	-9497
▁plun	-9498
▁insisted	-9499
Lib	-9500
suffix	-9501
▁cease	-9502
▁pains	-9503
regular	-9504
contains	-9505
▁concent	-9506
▁accounts	-9507
bet	-9508
agic	-9509
ipro	-9510
▁Post	-9511
▁1914.	-9512
▁bench	-9513
▁folly	-9514
▁ability	-9515
▁cottage	-9516
,_	-9517
eded	-9518
▁177	-9519
▁\*.	-9520
upper	-9521
▁naked	-9522
▁commander	-9523
ga	-9524
thel	-9525
▁179	-9526
apsed	-9527
template	-9528
▁railroad	-9529
igs	-9530
▁CR	-9531
arry	-9532
▁cutting	-9533
▁desires	-9534
5*	-9535
17,	-9536
▁TY	-9537
Have	-9538
going	-9539
ontal	-9540
aments	-9541
▁readers	-9542
ORK	-9543
igue	-9544
▁Anne	-9545
transpose	-9546
bra	-9547
oming	-9548
▁lift	-9549
▁swim	-9550
▁conquer	-9551
▁forming	-9552
▁overcome	-9553
▁3)	-9554
parts	-9555
ushes	-9556
▁gifts	-9557
▁impulse	-9558
▁strangers	-9559
Po	-9560
▁bishop	-9561
▁purple	-9562
▁Chapter	-9563
▁Comment	-9564
▁Philadelphia	-9565
▁fury	-9566
▁ignored	-9567
▁sisters	-9568
▁whereas	-9569
▁politics	-9570
>`	-9571
thr	-9572
burn	-9573
▁PRO	-9574
▁elev	-9575
▁mild	-9576
▁tags	-9577
estimator	-9578
pa	-9579
cked	-9580
▁dost	-9581
▁sqrt	-9582
▁slipped	-9583
▁Columbia	-9584
▁generate	-9585
▁establishment	-9586
LEY	-9587
olas	-9588
▁aux	-9589
▁mix	-9590
▁rud	-9591
sorted	-9592
▁waist	-9593
▁exceedingly	-9594
▁",	-9595
pent	-9596
▁gover	-9597
▁Author	-9598
▁contemp	-9599
▁flatter	-9600
)`	-9601
fd	-9602
▁ox	-9603
▁END	-9604
▁Rol	-9605
▁cum	-9606
▁Gall	-9607
depend	-9608
▁cheap	-9609
▁homes	-9610
10.	-9611
****	-9612
▁Mas	-9613
▁tmp	-9614
anting	-9615
▁agent	-9616
▁grateful	-9617
▁organization	-9618
▁Michael	-9619
▁computed	-9620
ifications	-9621
Very	-9622
▁Ele	-9623
CHECK	-9624
andal	-9625
encode	-9626
triton	-9627
▁coward	-9628
▁mostly	-9629
ications	-9630
▁tradition	-9631
COL	-9632
▁'\\	-9633
phone	-9634
▁Sever	-9635
▁guest	-9636
onsense	-9637
▁gracious	-9638
▁indicate	-9639
ENS	-9640
▁pairs	-9641
▁consum	-9642
Expected	-9643
quarters	-9644
sequence	-9645
▁modules	-9646
▁situated	-9647
App	-9648
▁Dave	-9649
▁pool	-9650
▁notion	-9651
▁frequency	-9652
hist	-9653
mont	-9654
▁bloss	-9655
▁Greeks	-9656
▁perceive	-9657
era	-9658
irk	-9659
▁ming	-9660
▁wool	-9661
▁beheld	-9662
▁revealed	-9663
startswith	-9664
composition	-9665
'],	-9666
▁"/	-9667
late	-9668
▁mead	-9669
coming	-9670
▁rivers	-9671
▁victim	-9672
▁wanting	-9673
▁anywhere	-9674
▁dwelling	-9675
bf	-9676
finite	-9677
▁aloud	-9678
▁awake	-9679
▁sizes	-9680
▁College	-9681
▁declare	-9682
▁temporary	-9683
uh	-9684
RAW	-9685
▁Gal	-9686
▁hid	-9687
▁Nich	-9688
▁meta	-9689
▁sank	-9690
▁exert	-9691
▁railway	-9692
▁historical	-9693
:]	-9694
vest	-9695
▁dispatch	-9696
EP	-9697
▁[2	-9698
beta	-9699
subs	-9700
▁Sat	-9701
inery	-9702
ICENSE	-9703
ategor	-9704
▁chose	-9705
▁feels	-9706
▁hatred	-9707
▁fathers	-9708
▁invalid	-9709
iods	-9710
▁boast	-9711
isation	-9712
scatter	-9713
▁compare	-9714
▁eastern	-9715
▁afterward	-9716
▁reflection	-9717
72	-9718
▁́	-9719
▁MS	-9720
▁Doc	-9721
▁Alice	-9722
▁altar	-9723
▁debug	-9724
actions	-9725
▁Mexico	-9726
▁vulgar	-9727
▁disgrace	-9728
ilson	-9729
▁Could	-9730
▁Script	-9731
▁lowest	-9732
▁driving	-9733
▁Bell	-9734
▁Buck	-9735
▁sequ	-9736
▁Chief	-9737
▁Associ	-9738
▁Greece	-9739
▁stroke	-9740
▁stomach	-9741
▁hopeless	-9742
▁wondering	-9743
nv	-9744
▁$2	-9745
half	-9746
final	-9747
offsets	-9748
ributing	-9749
▁perfection	-9750
wart	-9751
astern	-9752
▁vivid	-9753
▁abrupt	-9754
▁sailed	-9755
▁purchase	-9756
olph	-9757
▁fasc	-9758
ingham	-9759
dataset	-9760
▁denied	-9761
▁faster	-9762
▁scarce	-9763
▁thirst	-9764
▁realize	-9765
Gu	-9766
▁darling	-9767
▁storage	-9768
▁sensible	-9769
▁throwing	-9770
▁settlement	-9771
ORY	-9772
gate	-9773
jobs	-9774
tile	-9775
▁satisfy	-9776
Log	-9777
▁[2]	-9778
total	-9779
angers	-9780
▁Stand	-9781
▁binary	-9782
▁supreme	-9783
▁hundreds	-9784
▁residence	-9785
▁California	-9786
▁HER	-9787
aneous	-9788
▁venge	-9789
▁heap	-9790
isible	-9791
▁badly	-9792
▁comedy	-9793
▁guards	-9794
▁raising	-9795
▁applicable	-9796
1*	-9797
<2	-9798
polys	-9799
▁prod	-9800
▁chunk	-9801
umbling	-9802
▁handler	-9803
abilities	-9804
0*	-9805
-18	-9806
▁${	-9807
uish	-9808
▁cave	-9809
▁puts	-9810
▁Crown	-9811
▁emperor	-9812
▁suspected	-9813
▁institution	-9814
buf	-9815
ithe	-9816
▁arts	-9817
▁shar	-9818
degree	-9819
iciency	-9820
▁masses	-9821
▁precip	-9822
▁Literal	-9823
▁princes	-9824
▁pursuit	-9825
▁crossing	-9826
▁villages	-9827
▁civilization	-9828
MP	-9829
=["	-9830
Font	-9831
glob	-9832
▁(3,	-9833
woman	-9834
▁cure	-9835
▁cloak	-9836
▁employment	-9837
FOR	-9838
alo	-9839
uther	-9840
▁disci	-9841
▁sheet	-9842
▁export	-9843
▁powder	-9844
parameter	-9845
▁ju	-9846
▁Arn	-9847
▁Sign	-9848
acter	-9849
▁Pruss	-9850
▁categ	-9851
Dataset	-9852
warning	-9853
▁Florence	-9854
YS	-9855
-01	-9856
▁foe	-9857
▁beta	-9858
▁reckon	-9859
cm	-9860
▁Ray	-9861
Gener	-9862
record	-9863
▁overt	-9864
▁prime	-9865
▁dismiss	-9866
▁permute	-9867
OND	-9868
omp	-9869
umps	-9870
oping	-9871
▁eighteen	-9872
▁distinctly	-9873
▁48	-9874
▁ff	-9875
agle	-9876
▁sne	-9877
entry	-9878
maybe	-9879
▁exit	-9880
▁scal	-9881
▁shew	-9882
ruption	-9883
▁genuine	-9884
▁continuous	-9885
▁Nob	-9886
▁KING	-9887
▁awak	-9888
▁Short	-9889
▁effective	-9890
\|	-9891
RES	-9892
oped	-9893
BLOCK	-9894
itors	-9895
buffers	-9896
iograph	-9897
▁careless	-9898
rv	-9899
anda	-9900
aned	-9901
▁Pur	-9902
▁avo	-9903
▁Carl	-9904
▁sale	-9905
decode	-9906
▁curse	-9907
▁landl	-9908
▁Empire	-9909
▁resting	-9910
▁instruction	-9911
/.	-9912
▁((	-9913
sent	-9914
▁Gil	-9915
called	-9916
▁contrad	-9917
▁devices	-9918
▁notwithstanding	-9919
His	-9920
▁haz	-9921
▁owe	-9922
hension	-9923
▁stayed	-9924
reference	-9925
BS	-9926
ME	-9927
▁Fel	-9928
akers	-9929
▁Hard	-9930
▁Being	-9931
▁trait	-9932
▁armies	-9933
▁cheerful	-9934
Fig	-9935
inson	-9936
▁knee	-9937
▁images	-9938
.),	-9939
lance	-9940
osity	-9941
▁affl	-9942
▁chim	-9943
▁techn	-9944
▁Symbol	-9945
▁involved	-9946
unit	-9947
▁COL	-9948
▁charg	-9949
matrices	-9950
▁demands	-9951
▁constructed	-9952
⁄2	-9953
Param	-9954
▁fert	-9955
▁rect	-9956
▁Graph	-9957
▁tones	-9958
▁colony	-9959
cp	-9960
▁mob	-9961
▁bade	-9962
folder	-9963
product	-9964
▁determination	-9965
=1)	-9966
▁US	-9967
▁md	-9968
.--_	-9969
pres	-9970
▁Haw	-9971
▁Tri	-9972
▁rhy	-9973
inate	-9974
▁Rock	-9975
▁sins	-9976
▁Elect	-9977
▁leather	-9978
▁network	-9979
▁blessing	-9980
▁reserved	-9981
Lo	-9982
agu	-9983
▁Nat	-9984
Glyph	-9985
▁customs	-9986
▁Countess	-9987
▁relieved	-9988
([1,	-9989
before	-9990
▁paste	-9991
acements	-9992
▁thereby	-9993
rage	-9994
burgh	-9995
▁chem	-9996
▁push	-9997
▁zeal	-9998
▁Punctuation	-9999
rout	-10000
stat	-10001
▁von	-10002
▁neglect	-10003
▁disturbed	-10004
ETH	-10005
dro	-10006
▁ln	-10007
ester	-10008
▁prem	-10009
▁Iterable	-10010
▁consisted	-10011
▁embarrass	-10012
▁extensive	-10013
▁motive	-10014
▁hospital	-10015
ban	-10016
vin	-10017
▁Find	-10018
▁jest	-10019
▁arrive	-10020
▁weapons	-10021
thy	-10022
round	-10023
thren	-10024
▁Swed	-10025
▁dial	-10026
uscript	-10027
▁artillery	-10028
whel	-10029
▁Pot	-10030
▁Angel	-10031
▁races	-10032
aturday	-10033
▁testim	-10034
0-	-10035
tz	-10036
00.	-10037
enum	-10038
▁Ned	-10039
▁PAR	-10040
▁Tro	-10041
▁Unless	-10042
▁enters	-10043
▁locked	-10044
72,	-10045
▁antiqu	-10046
bes	-10047
syl	-10048
▁ID	-10049
▁shard	-10050
▁harmony	-10051
▁musical	-10052
▁Moreover	-10053
▁sunshine	-10054
egers	-10055
oster	-10056
▁Ruth	-10057
colors	-10058
▁beasts	-10059
▁prophe	-10060
atherine	-10061
────────	-10062
▁Meanwhile	-10063
▁consequences	-10064
SK	-10065
▁Pri	-10066
keeper	-10067
▁Light	-10068
▁rifle	-10069
▁warrant	-10070
▁Suddenly	-10071
▁identity	-10072
▁apartment	-10073
▁indifferent	-10074
53	-10075
_.)	-10076
eeze	-10077
▁"$(	-10078
▁oft	-10079
▁quart	-10080
oiselle	-10081
▁entries	-10082
Ne	-10083
▁bone	-10084
▁mast	-10085
▁Albert	-10086
▁manage	-10087
▁advantages	-10088
▁Constitution	-10089
▁Ill	-10090
plate	-10091
▁Soon	-10092
▁Stan	-10093
▁guar	-10094
wrapped	-10095
▁lesson	-10096
▁moreover	-10097
RED	-10098
▁(17	-10099
integr	-10100
otions	-10101
▁Common	-10102
▁majesty	-10103
▁reflected	-10104
▁ACT	-10105
▁fet	-10106
▁parad	-10107
▁status	-10108
▁commands	-10109
▁Oxford	-10110
▁endure	-10111
▁induced	-10112
▁seventy	-10113
▁\\	-10114
▁honey	-10115
angular	-10116
▁cunning	-10117
▁deliber	-10118
▁gardens	-10119
8_	-10120
=0)	-10121
=2)	-10122
orce	-10123
ammed	-10124
▁gown	-10125
Stream	-10126
apache	-10127
▁sphere	-10128
▁verses	-10129
▁implied	-10130
▁virtues	-10131
▁pointing	-10132
▁tx	-10133
▁urg	-10134
▁desk	-10135
▁sits	-10136
▁ugly	-10137
▁Jackson	-10138
▁subsequent	-10139
mne	-10140
oda	-10141
proc	-10142
▁SIGN	-10143
▁giant	-10144
mediate	-10145
▁School	-10146
▁African	-10147
▁grandfather	-10148
▁hash	-10149
ellers	-10150
graphs	-10151
▁Northern	-10152
▁Play	-10153
▁grin	-10154
▁rejo	-10155
▁revel	-10156
▁lawyer	-10157
▁strictly	-10158
▁precisely	-10159
.).	-10160
uto	-10161
▁QU	-10162
workX	-10163
▁Asia	-10164
▁hastened	-10165
▁permanent	-10166
rich	-10167
▁```	-10168
Dtype	-10169
raise	-10170
oubtedly	-10171
▁Defaults	-10172
▁intelligent	-10173
pare	-10174
prob	-10175
▁Low	-10176
amily	-10177
three	-10178
insert	-10179
▁companies	-10180
▁succession	-10181
▁considering	-10182
▁wilt	-10183
▁streams	-10184
▁steadily	-10185
__,	-10186
aum	-10187
whe	-10188
▁tyr	-10189
▁pace	-10190
▁chron	-10191
▁convent	-10192
▁designed	-10193
▁Æ	-10194
lest	-10195
▁complaint	-10196
▁fortunate	-10197
eman	-10198
good	-10199
▁SER	-10200
▁clerk	-10201
▁daring	-10202
▁depths	-10203
▁achieve	-10204
▁security	-10205
▁condemned	-10206
even	-10207
▁fake	-10208
Python	-10209
bounds	-10210
▁outward	-10211
positions	-10212
}",	-10213
anqu	-10214
prev	-10215
skin	-10216
▁hed	-10217
▁agre	-10218
▁wake	-10219
▁Super	-10220
attribute	-10221
▁astonished	-10222
tha	-10223
ulpt	-10224
ocracy	-10225
▁defeat	-10226
▁url	-10227
▁Protest	-10228
▁furnish	-10229
▁sounded	-10230
▁Whitespace	-10231
▁department	-10232
urt	-10233
HOME	-10234
otte	-10235
▁apost	-10236
▁arise	-10237
▁survey	-10238
▁rolling	-10239
▁imprison	-10240
▁cir	-10241
▁GEOR	-10242
▁Know	-10243
▁copies	-10244
▁touching	-10245
▁vengeance	-10246
})"	-10247
▁Cæ	-10248
▁null	-10249
serial	-10250
▁Marsh	-10251
imately	-10252
▁objection	-10253
▁manufacture	-10254
prod	-10255
▁ori	-10256
▁trim	-10257
arrays	-10258
▁grows	-10259
▁shone	-10260
▁allows	-10261
▁angels	-10262
▁deeper	-10263
▁respects	-10264
▁procession	-10265
▁differences	-10266
OUS	-10267
▁cd	-10268
contin	-10269
▁attain	-10270
▁insect	-10271
complete	-10272
kerchief	-10273
precision	-10274
▁farewell	-10275
TS	-10276
aur	-10277
page	-10278
Float	-10279
▁FIRST	-10280
▁corps	-10281
▁trunk	-10282
▁lament	-10283
▁rested	-10284
▁yonder	-10285
ustrious	-10286
▁descent	-10287
exception	-10288
▁passions	-10289
YN	-10290
sch	-10291
arly	-10292
atre	-10293
▁clay	-10294
▁guilt	-10295
allowed	-10296
▁cannon	-10297
▁closer	-10298
▁dragged	-10299
▁supplies	-10300
▁wherever	-10301
▁dataclass	-10302
/^	-10303
Bar	-10304
bax	-10305
ltk	-10306
Miss	-10307
Over	-10308
▁Hun	-10309
▁bygroups	-10310
▁retained	-10311
▁Revolution	-10312
_3	-10313
IAM	-10314
ques	-10315
▁chall	-10316
▁incon	-10317
essions	-10318
▁computation	-10319
STR	-10320
▁Ach	-10321
▁wrap	-10322
necess	-10323
▁silly	-10324
▁assign	-10325
entially	-10326
▁Finally	-10327
▁Otherwise	-10328
▁furniture	-10329
cov	-10330
▁ds	-10331
▁vi	-10332
▁Han	-10333
▁Mfg	-10334
▁insc	-10335
▁lion	-10336
▁vine	-10337
strides	-10338
▁Assemb	-10339
▁closing	-10340
▁workers	-10341
▁neighbors	-10342
▁responsibility	-10343
19,	-10344
clip	-10345
▁"{}"	-10346
figure	-10347
issions	-10348
▁covering	-10349
▁fastened	-10350
hol	-10351
▁mu	-10352
were	-10353
▁git	-10354
anche	-10355
▁ruins	-10356
▁formal	-10357
▁retain	-10358
▁stores	-10359
symbolic	-10360
▁committee	-10361
▁processes	-10362
▁mail	-10363
▁tour	-10364
▁Multi	-10365
▁Order	-10366
▁boots	-10367
▁solve	-10368
▁persec	-10369
▁administration	-10370
COM	-10371
grat	-10372
▁1],	-10373
▁Wilson	-10374
▁elabor	-10375
▁abandon	-10376
▁inspired	-10377
=,	-10378
▁acid	-10379
icians	-10380
▁adorn	-10381
▁cared	-10382
▁lists	-10383
▁modest	-10384
▁student	-10385
▁fourteen	-10386
(0	-10387
000,	-10388
ibus	-10389
▁(16	-10390
▁Sid	-10391
▁prey	-10392
▁ward	-10393
▁injury	-10394
xtension	-10395
▁matches	-10396
▁arrested	-10397
▁overwhel	-10398
Dist	-10399
repe	-10400
▁11.	-10401
▁Anton	-10402
▁champ	-10403
▁canvas	-10404
▁parted	-10405
▁colours	-10406
▁tremend	-10407
ategorical	-10408
▁obedience	-10409
▁satisfactory	-10410
imag	-10411
union	-10412
▁wash	-10413
leaves	-10414
artment	-10415
▁attent	-10416
▁painting	-10417
▁ME	-10418
fortune	-10419
utenberg	-10420
▁resumed	-10421
▁selfish	-10422
▁republic	-10423
▁enterprise	-10424
utf	-10425
▁55	-10426
▁vex	-10427
clear	-10428
▁adds	-10429
▁mate	-10430
▁heavenly	-10431
▁Si	-10432
▁Pop	-10433
never	-10434
▁peas	-10435
▁Middle	-10436
▁session	-10437
▁visitor	-10438
_.]	-10439
six	-10440
okes	-10441
▁Sound	-10442
▁activ	-10443
▁Alfred	-10444
▁pytree	-10445
▁reports	-10446
ima	-10447
shift	-10448
sters	-10449
▁Homer	-10450
▁gloom	-10451
▁flames	-10452
plicated	-10453
▁muttered	-10454
▁provinces	-10455
▁Dun	-10456
▁les	-10457
▁astr	-10458
▁1917.	-10459
▁shaking	-10460
▁intimate	-10461
▁treacher	-10462
▁Frederick	-10463
▁lightning	-10464
▁preparing	-10465
uz	-10466
had	-10467
▁-=	-10468
▁0]	-10469
phys	-10470
outer	-10471
▁Lucy	-10472
partition	-10473
ya	-10474
▁Pow	-10475
▁Than	-10476
▁trif	-10477
bishop	-10478
▁doubtful	-10479
▁convenient	-10480
ELD	-10481
achus	-10482
▁Doug	-10483
▁packed	-10484
▁boundary	-10485
ati	-10486
sing	-10487
▁Arm	-10488
▁bash	-10489
▁harsh	-10490
▁Divine	-10491
▁lively	-10492
▁criminal	-10493
▁environment	-10494
limit	-10495
specs	-10496
▁abol	-10497
▁flood	-10498
▁wounds	-10499
override	-10500
▁criticism	-10501
▁endeavour	-10502
arc	-10503
▁[3	-10504
John	-10505
Test	-10506
▁Neg	-10507
▁STR	-10508
▁tit	-10509
piece	-10510
▁spell	-10511
▁usage	-10512
▁wearing	-10513
▁dressing	-10514
▁privilege	-10515
;':	-10516
▁Du	-10517
▁12.	-10518
▁Sel	-10519
typed	-10520
argets	-10521
itudes	-10522
▁commerce	-10523
▁distinguish	-10524
▁wars	-10525
▁arrow	-10526
▁magistr	-10527
▁slender	-10528
▁students	-10529
▁({	-10530
chunk	-10531
inder	-10532
▁bend	-10533
▁eaten	-10534
▁slope	-10535
▁Ordered	-10536
▁newspaper	-10537
▁pronounced	-10538
▁coefficients	-10539
vous	-10540
▁bond	-10541
▁Grant	-10542
▁stair	-10543
▁basket	-10544
▁balance	-10545
▁problems	-10546
Char	-10547
iege	-10548
▁slee	-10549
verted	-10550
▁layer	-10551
feature	-10552
▁treaty	-10553
▁checked	-10554
▁temperature	-10555
SP	-10556
▁mne	-10557
mouth	-10558
▁Liber	-10559
▁irres	-10560
▁shift	-10561
▁vague	-10562
▁hospit	-10563
ao	-10564
Mod	-10565
git	-10566
olate	-10567
▁Dear	-10568
▁Work	-10569
Device	-10570
numbers	-10571
▁boolean	-10572
ras	-10573
▁Pap	-10574
ensure	-10575
▁Woman	-10576
▁appet	-10577
▁studies	-10578
=`	-10579
agn	-10580
▁75	-10581
enny	-10582
sych	-10583
▁pine	-10584
▁fount	-10585
+',	-10586
.”[	-10587
IME	-10588
▁"${	-10589
▁rab	-10590
▁thir	-10591
▁motor	-10592
▁namely	-10593
▁ruined	-10594
▁respectable	-10595
3;	-10596
status	-10597
control	-10598
▁chapel	-10599
▁weapon	-10600
hal	-10601
▁-2	-10602
▁175	-10603
▁cub	-10604
OUBLE	-10605
setter	-10606
▁drank	-10607
▁fifth	-10608
▁combat	-10609
ibilities	-10610
▁vanished	-10611
3:	-10612
ITE	-10613
esar	-10614
heads	-10615
ulars	-10616
▁Baron	-10617
▁smell	-10618
▁finest	-10619
▁rebell	-10620
▁Authors	-10621
▁leaning	-10622
▁release	-10623
2(	-10624
agues	-10625
front	-10626
▁park	-10627
▁1927.	-10628
▁beach	-10629
▁blows	-10630
▁drops	-10631
▁mould	-10632
▁anchor	-10633
▁recognised	-10634
King	-10635
have	-10636
sets	-10637
▁nic	-10638
ilton	-10639
▁grasp	-10640
▁landing	-10641
▁planted	-10642
▁confident	-10643
▁manuscript	-10644
DF	-10645
_1,	-10646
▁na	-10647
▁Mir	-10648
▁ber	-10649
unted	-10650
▁Cook	-10651
▁FROM	-10652
should	-10653
▁worry	-10654
▁bloody	-10655
▁shouldn	-10656
▁startled	-10657
▁resources	-10658
▁Nevertheless	-10659
▁independence	-10660
▁pi	-10661
orse	-10662
▁beard	-10663
▁advert	-10664
▁defect	-10665
▁Holland	-10666
ULL	-10667
▁IX	-10668
alloc	-10669
▁prol	-10670
mutation	-10671
positive	-10672
▁Compute	-10673
▁substant	-10674
TensorType	-10675
▁af	-10676
Input	-10677
chron	-10678
vania	-10679
▁hated	-10680
▁moist	-10681
getitem	-10682
olve	-10683
quer	-10684
▁heed	-10685
iverse	-10686
▁wheat	-10687
flag	-10688
▁MAT	-10689
▁aug	-10690
▁dot	-10691
acked	-10692
▁metal	-10693
▁wrought	-10694
▁conceived	-10695
▁recommend	-10696
▁surrender	-10697
▁engagement	-10698
|'	-10699
leton	-10700
▁Edition	-10701
▁someone	-10702
▁Saturday	-10703
ogg	-10704
wyn	-10705
course	-10706
▁goddess	-10707
▁offices	-10708
▁hesitated	-10709
beg	-10710
seud	-10711
▁woe	-10712
Image	-10713
▁barg	-10714
dynamo	-10715
▁Pierre	-10716
▁mischief	-10717
compatible	-10718
▁machinery	-10719
▁proceeding	-10720
pled	-10721
▁Der	-10722
▁barr	-10723
▁bund	-10724
▁pink	-10725
assador	-10726
▁feeble	-10727
▁Instead	-10728
▁simplicity	-10729
82	-10730
logg	-10731
ampling	-10732
▁gloomy	-10733
▁Central	-10734
▁artific	-10735
▁assembly	-10736
▁candidate	-10737
▁preparation	-10738
ERN	-10739
▁myth	-10740
▁sanct	-10741
▁behalf	-10742
▁deadly	-10743
▁propag	-10744
OpResult	-10745
▁critical	-10746
▁descript	-10747
experimental	-10748
▁limitations	-10749
ogle	-10750
▁Alas	-10751
▁culture	-10752
▁offering	-10753
▁sentiments	-10754
▁implemented	-10755
ORS	-10756
shot	-10757
▁rays	-10758
Source	-10759
▁dining	-10760
▁losing	-10761
internal	-10762
▁lightly	-10763
▁writings	-10764
▁occupation	-10765
agan	-10766
▁Cab	-10767
▁Cow	-10768
exact	-10769
Buffer	-10770
▁courts	-10771
▁Dorothy	-10772
Am	-10773
FC	-10774
▁fug	-10775
▁Method	-10776
▁fruits	-10777
▁plains	-10778
▁dynamic	-10779
▁trained	-10780
▁attracted	-10781
ANK	-10782
prop	-10783
pson	-10784
async	-10785
▁murde	-10786
▁theme	-10787
▁matching	-10788
▁-1.	-10789
alion	-10790
ribly	-10791
request	-10792
▁easier	-10793
▁gazing	-10794
▁saddle	-10795
▁curtain	-10796
▁prosperity	-10797
eh	-10798
Max	-10799
uting	-10800
▁Hell	-10801
▁TYPE	-10802
▁freq	-10803
pytree	-10804
▁nephe	-10805
▁copper	-10806
▁lovers	-10807
▁brethren	-10808
▁products	-10809
▁gathering	-10810
▁multitude	-10811
▁travelling	-10812
rol	-10813
▁Log	-10814
▁refr	-10815
▁scan	-10816
headed	-10817
terior	-10818
▁sculpt	-10819
▁graceful	-10820
▁ministers	-10821
AU	-10822
ISE	-10823
▁46	-10824
▁OS	-10825
▁Win	-10826
validation	-10827
java	-10828
▁11,	-10829
▁unw	-10830
erving	-10831
▁jumped	-10832
▁masked	-10833
▁dearest	-10834
▁examine	-10835
▁amusement	-10836
▁narrative	-10837
*(	-10838
_10	-10839
▁lev	-10840
onday	-10841
▁subd	-10842
▁Place	-10843
▁cream	-10844
▁Create	-10845
▁ANY	-10846
▁Fur	-10847
utter	-10848
▁Pick	-10849
▁perl	-10850
apture	-10851
▁jaxpr	-10852
▁horizon	-10853
▁percent	-10854
▁silently	-10855
▁arrangements	-10856
(2)	-10857
▁FL	-10858
▁vs	-10859
ports	-10860
▁quit	-10861
▁villain	-10862
▁Minister	-10863
▁consisting	-10864
91	-10865
▁15,	-10866
▁Atl	-10867
eight	-10868
▁Does	-10869
▁byte	-10870
▁delic	-10871
▁walks	-10872
CHECKING	-10873
emoiselle	-10874
▁medicine	-10875
cdf	-10876
pid	-10877
▁80	-10878
▁DO	-10879
▁mm	-10880
iner	-10881
putes	-10882
▁Node	-10883
▁mant	-10884
▁veil	-10885
▁eigen	-10886
▁intend	-10887
▁sighed	-10888
▁varied	-10889
▁smallest	-10890
▁exquisite	-10891
ki	-10892
▁}'	-10893
bird	-10894
▁Moh	-10895
▁tid	-10896
▁Bart	-10897
filled	-10898
interval	-10899
▁offence	-10900
▁steamer	-10901
▁compiled	-10902
▁subclass	-10903
▁persuaded	-10904
▁disappointed	-10905
(2,	-10906
=2,	-10907
▁cru	-10908
▁Spec	-10909
▁burnt	-10910
▁stoop	-10911
▁claimed	-10912
▁clothing	-10913
▁successors	-10914
upt	-10915
▁Budd	-10916
acific	-10917
series	-10918
▁interpol	-10919
▁commercial	-10920
)'	-10921
ROW	-10922
boy	-10923
▁3:	-10924
▁44	-10925
▁TW	-10926
drop	-10927
http	-10928
▁Wel	-10929
▁mutual	-10930
▁repent	-10931
▁reprodu	-10932
▁visitors	-10933
▁followers	-10934
▁rendering	-10935
ASH	-10936
]),	-10937
▁dst	-10938
▁mour	-10939
▁chorus	-10940
▁prominent	-10941
▁wandering	-10942
▁ridiculous	-10943
som	-10944
onia	-10945
▁adj	-10946
aying	-10947
▁Last	-10948
▁nois	-10949
▁agony	-10950
▁romantic	-10951
2",	-10952
INA	-10953
▁Sn	-10954
▁org	-10955
▁peop	-10956
▁knocked	-10957
▁messenger	-10958
▁improvement	-10959
ubb	-10960
▁*=	-10961
▁42	-10962
▁missed	-10963
▁scatter	-10964
▁Function	-10965
▁recommended	-10966
BY	-10967
Her	-10968
▁remem	-10969
▁Illustr	-10970
▁beating	-10971
▁embrace	-10972
▁changing	-10973
contiguous	-10974
[2	-10975
ano	-10976
numel	-10977
▁Mist	-10978
▁dirty	-10979
anguage	-10980
▁resign	-10981
▁timeout	-10982
bey	-10983
cio	-10984
▁Bed	-10985
Event	-10986
▁incons	-10987
▁purely	-10988
▁climate	-10989
descriptor	-10990
▁sensation	-10991
▁handkerchief	-10992
CA	-10993
▁._	-10994
▁dy	-10995
rels	-10996
pytest	-10997
▁confused	-10998
rum	-10999
adic	-11000
arte	-11001
tery	-11002
isons	-11003
binary	-11004
▁Jerry	-11005
subgraph	-11006
▁reception	-11007
▁strengthen	-11008
▁surrounding	-11009
ela	-11010
mid	-11011
▁ly	-11012
384,	-11013
olis	-11014
Tuple	-11015
▁Brig	-11016
▁(2003	-11017
▁Input	-11018
▁corrupt	-11019
▁staring	-11020
▁pleasing	-11021
▁unnecess	-11022
▁testimony	-11023
ankedTensorType	-11024
ieth	-11025
lder	-11026
rers	-11027
send	-11028
▁Six	-11029
▁unm	-11030
▁Raises	-11031
▁medium	-11032
▁Neither	-11033
▁lessons	-11034
RankedTensorType	-11035
_14	-11036
▁Dar	-11037
▁candle	-11038
mu	-11039
▁47	-11040
igger	-11041
▁quot	-11042
▁dishon	-11043
▁concentr	-11044
▁admirable	-11045
VAL	-11046
ulph	-11047
▁Hay	-11048
▁Whit	-11049
▁ling	-11050
▁Justice	-11051
/$	-11052
alls	-11053
▁Cro	-11054
▁Gord	-11055
▁Kate	-11056
▁shud	-11057
▁1913.	-11058
configs	-11059
▁traced	-11060
ervation	-11061
▁reserve	-11062
▁Assembly	-11063
▁comparatively	-11064
lain	-11065
same	-11066
typing	-11067
widget	-11068
▁appar	-11069
▁leaned	-11070
▁inquiry	-11071
▁preparations	-11072
ONG	-11073
raft	-11074
▁Hot	-11075
othed	-11076
useum	-11077
▁Half	-11078
▁weep	-11079
backed	-11080
urious	-11081
▁disag	-11082
▁mourn	-11083
▁sched	-11084
▁sailor	-11085
▁adapted	-11086
▁colonies	-11087
▁representative	-11088
▁lic	-11089
▁Mort	-11090
▁foul	-11091
▁Wesley	-11092
▁divide	-11093
▁assault	-11094
meg	-11095
▁nom	-11096
▁ske	-11097
▁patch	-11098
▁Venice	-11099
▁thither	-11100
▁volumes	-11101
▁attained	-11102
▁arbitrary	-11103
▁iteration	-11104
▁recognize	-11105
▁misfortune	-11106
AW	-11107
ders	-11108
▁nay	-11109
▁Jour	-11110
▁charity	-11111
▁contest	-11112
▁produces	-11113
_15	-11114
▁Lic	-11115
▁palm	-11116
ighted	-11117
▁flies	-11118
▁GEORGE	-11119
▁stolen	-11120
▁submit	-11121
▁deserve	-11122
▁sharply	-11123
IZE	-11124
rat	-11125
▁EL	-11126
FEAT	-11127
brew	-11128
inus	-11129
▁eleph	-11130
▁pitch	-11131
▁Lawrence	-11132
▁statements	-11133
▁institutions	-11134
nut	-11135
▁std	-11136
press	-11137
▁Home	-11138
▁coarse	-11139
▁Pennsyl	-11140
▁funeral	-11141
▁Englishman	-11142
LAND	-11143
avag	-11144
isms	-11145
▁mul	-11146
▁unb	-11147
▁wax	-11148
Block	-11149
▁cock	-11150
▁iterable	-11151
▁acknowledged	-11152
unte	-11153
▁wont	-11154
houses	-11155
▁brass	-11156
▁wagon	-11157
▁ending	-11158
▁nerves	-11159
ITT	-11160
_12	-11161
▁Tay	-11162
▁Wild	-11163
▁vener	-11164
project	-11165
▁Within	-11166
▁starts	-11167
▁accuracy	-11168
9;	-11169
▁[-	-11170
Only	-11171
fare	-11172
athan	-11173
ernels	-11174
▁logic	-11175
▁pilgr	-11176
▁shaft	-11177
etermin	-11178
▁breeze	-11179
▁laying	-11180
▁Lind	-11181
second	-11182
▁smart	-11183
▁alarmed	-11184
▁shepher	-11185
▁Distributing	-11186
__)	-11187
Zero	-11188
eyed	-11189
▁nut	-11190
▁rang	-11191
usalem	-11192
▁delta	-11193
▁swung	-11194
▁Samuel	-11195
▁widely	-11196
response	-11197
▁congrat	-11198
▁evaluate	-11199
▁resulting	-11200
mmin	-11201
▁trump	-11202
▁paying	-11203
▁romance	-11204
▁fortunes	-11205
▁moderate	-11206
▁proceedings	-11207
6)	-11208
IER	-11209
iano	-11210
rick	-11211
atted	-11212
Series	-11213
atches	-11214
vision	-11215
▁purse	-11216
▁strip	-11217
▁zeros	-11218
▁Several	-11219
▁Version	-11220
ANC	-11221
NOT	-11222
▁Lew	-11223
▁Bank	-11224
▁Sand	-11225
rement	-11226
▁counted	-11227
▁particip	-11228
▁Paramount	-11229
▁timid	-11230
ountered	-11231
▁transformed	-11232
41	-11233
onym	-11234
▁site	-11235
▁vest	-11236
▁metric	-11237
▁saving	-11238
▁instruments	-11239
▁ALL	-11240
▁ate	-11241
▁yer	-11242
berry	-11243
▁cryst	-11244
▁button	-11245
▁improved	-11246
▁summoned	-11247
EE	-11248
▁opens	-11249
000,000	-11250
▁altered	-11251
▁neglected	-11252
▁accomplish	-11253
▁occasional	-11254
▁fs	-11255
▁ta	-11256
ilian	-11257
separ	-11258
▁hunt	-11259
▁lend	-11260
devices	-11261
▁review	-11262
▁sixteen	-11263
Eng	-11264
▁(-	-11265
aman	-11266
azine	-11267
▁craw	-11268
▁Image	-11269
▁risen	-11270
▁perplex	-11271
▁discharge	-11272
▁VariableTracker	-11273
ugs	-11274
▁tt	-11275
train	-11276
Layout	-11277
double	-11278
▁ashes	-11279
▁heels	-11280
extract	-11281
▁inward	-11282
▁liberal	-11283
▁garrison	-11284
▁rational	-11285
▁components	-11286
▁discipline	-11287
▁tremendous	-11288
olo	-11289
▁BOX	-11290
▁hut	-11291
▁File	-11292
▁lear	-11293
▁roar	-11294
datetime	-11295
▁strides	-11296
▁impressed	-11297
pin	-11298
hered	-11299
▁beds	-11300
▁pile	-11301
▁washed	-11302
▁guarant	-11303
▁inherit	-11304
▁peaceful	-11305
▁encountered	-11306
68,	-11307
got	-11308
lies	-11309
onnx	-11310
Torch	-11311
▁gang	-11312
▁periods	-11313
▁daylight	-11314
▁destination	-11315
▁indignation	-11316
8:	-11317
}_	-11318
try	-11319
▁Les	-11320
▁brav	-11321
indent	-11322
▁incred	-11323
▁heartily	-11324
▁discussed	-11325
▁BAS	-11326
▁``(	-11327
▁oak	-11328
onies	-11329
▁deer	-11330
▁Imper	-11331
▁arist	-11332
attened	-11333
strings	-11334
▁append	-11335
▁indent	-11336
▁upward	-11337
urrection	-11338
▁afforded	-11339
▁irregular	-11340
▁compliance	-11341
▁1))	-11342
▁Gar	-11343
utive	-11344
▁PRIN	-11345
▁dumb	-11346
▁earnestly	-11347
[1],	-11348
soft	-11349
▁Cond	-11350
▁weigh	-11351
▁upright	-11352
▁pleasures	-11353
▁undoubtedly	-11354
wa	-11355
IFE	-11356
ODU	-11357
▁UP	-11358
works	-11359
▁eighty	-11360
▁resent	-11361
▁wherein	-11362
▁transformation	-11363
ui	-11364
Just	-11365
Field	-11366
ouped	-11367
▁Prob	-11368
▁calc	-11369
Number	-11370
strict	-11371
▁cards	-11372
▁faire	-11373
▁sailors	-11374
▁coordinates	-11375
▁publication	-11376
lik	-11377
byte	-11378
▁Rod	-11379
▁tol	-11380
After	-11381
agers	-11382
▁alas	-11383
▁glob	-11384
▁Cæsar	-11385
▁vital	-11386
▁anyway	-11387
▁confessed	-11388
constraints	-11389
▁Pennsylvania	-11390
task	-11391
▁vow	-11392
essel	-11393
query	-11394
▁neut	-11395
erring	-11396
▁lords	-11397
▁Import	-11398
▁passionate	-11399
FR	-11400
07\	-11401
300	-11402
dated	-11403
▁512,	-11404
▁lazy	-11405
▁util	-11406
liness	-11407
▁Athen	-11408
▁advoc	-11409
▁crept	-11410
▁Jewish	-11411
▁carries	-11412
▁courtes	-11413
▁management	-11414
OB	-11415
aa	-11416
ERT	-11417
▁Cos	-11418
▁Unt	-11419
▁tenderness	-11420
▁Word	-11421
▁grie	-11422
▁mand	-11423
▁unple	-11424
▁Austria	-11425
▁accused	-11426
▁amusing	-11427
▁hostile	-11428
▁thyself	-11429
▁lieutenant	-11430
▁newspapers	-11431
eler	-11432
▁liv	-11433
▁marv	-11434
▁hiding	-11435
▁mingled	-11436
▁swiftly	-11437
▁promptly	-11438
▁solitary	-11439
Ge	-11440
png	-11441
▁FA	-11442
▁Fro	-11443
sched	-11444
artial	-11445
reason	-11446
▁Georg	-11447
▁fairy	-11448
▁define	-11449
▁cluster	-11450
▁·	-11451
dst	-11452
▁43	-11453
▁FO	-11454
▁Lad	-11455
▁DRAW	-11456
▁NOTE	-11457
▁Admiral	-11458
->	-11459
];	-11460
LET	-11461
0001	-11462
▁MARY	-11463
▁WARR	-11464
▁engr	-11465
▁apple	-11466
▁franc	-11467
▁newly	-11468
▁conspir	-11469
▁mixture	-11470
▁deceived	-11471
."[	-11472
UDA	-11473
coat	-11474
eches	-11475
ipper	-11476
▁ment	-11477
uously	-11478
▁recon	-11479
▁emphas	-11480
ordinate	-11481
▁exagger	-11482
▁omitted	-11483
▁destined	-11484
▁currently	-11485
▁considerably	-11486
11\	-11487
iac	-11488
▁IT	-11489
iams	-11490
itus	-11491
rors	-11492
▁McC	-11493
▁Tor	-11494
▁Burn	-11495
ograph	-11496
▁ninet	-11497
▁includes	-11498
etic	-11499
▁755	-11500
▁FIG	-11501
▁[],	-11502
▁chin	-11503
atcher	-11504
▁acres	-11505
▁seize	-11506
▁tales	-11507
autograd	-11508
▁offsets	-11509
1",	-11510
ACH	-11511
▁tin	-11512
▁boil	-11513
▁lamb	-11514
▁sink	-11515
edelta	-11516
itives	-11517
lements	-11518
▁income	-11519
▁betrayed	-11520
▁software	-11521
▁disappear	-11522
+0	-11523
");	-11524
IAL	-11525
IRE	-11526
ammar	-11527
bered	-11528
▁Arist	-11529
▁Think	-11530
▁Wales	-11531
▁Office	-11532
▁charms	-11533
▁induce	-11534
▁shells	-11535
▁stirred	-11536
▁meantime	-11537
▁Air	-11538
ellor	-11539
▁Bert	-11540
▁bush	-11541
▁citizen	-11542
▁garments	-11543
▁immortal	-11544
▁13,	-11545
First	-11546
▁Burg	-11547
▁Hind	-11548
▁Self	-11549
▁aged	-11550
▁sober	-11551
License	-11552
▁provision	-11553
▁Commission	-11554
500	-11555
Ant	-11556
▁ec	-11557
▁nan	-11558
▁sunk	-11559
▁boxes	-11560
▁killing	-11561
▁invitation	-11562
▁Ow	-11563
derr	-11564
▁awa	-11565
xargs	-11566
▁toil	-11567
▁funny	-11568
amental	-11569
package	-11570
▁commit	-11571
▁nephew	-11572
▁dependent	-11573
▁secretary	-11574
ée	-11575
sql	-11576
aton	-11577
sion	-11578
herent	-11579
ifting	-11580
rivate	-11581
▁mirror	-11582
▁statue	-11583
FEATURES	-11584
▁leisure	-11585
▁jealousy	-11586
▁governing	-11587
▁constraints	-11588
why	-11589
▁UR	-11590
Some	-11591
sett	-11592
▁Aud	-11593
▁eth	-11594
▁Girl	-11595
▁1928.	-11596
▁wilder	-11597
▁Duchess	-11598
▁Presently	-11599
▁formation	-11600
▁eh	-11601
hent	-11602
short	-11603
▁Quix	-11604
▁chairs	-11605
▁prohib	-11606
▁weeping	-11607
▁correspondence	-11608
52	-11609
ère	-11610
▁".*	-11611
▁14,	-11612
▁lan	-11613
▁Color	-11614
▁honourable	-11615
▁70	-11616
OUND	-11617
bott	-11618
forth	-11619
idget	-11620
▁whit	-11621
▁bands	-11622
▁quadr	-11623
getattr	-11624
▁unlike	-11625
▁warned	-11626
semantic	-11627
▁Douglas	-11628
▁exhaust	-11629
▁fitting	-11630
▁Division	-11631
▁gradient	-11632
gt	-11633
ali	-11634
eron	-11635
▁MISS	-11636
▁spin	-11637
Reader	-11638
ishops	-11639
▁steal	-11640
▁Intern	-11641
▁advised	-11642
▁compile	-11643
▁draught	-11644
▁gesture	-11645
▁datetime	-11646
▁extravag	-11647
▁preacher	-11648
▁pressing	-11649
▁assurance	-11650
▁confession	-11651
▁Kr	-11652
hard	-11653
found	-11654
third	-11655
▁Oliver	-11656
▁recognition	-11657
▁disappointment	-11658
cv	-11659
AMP	-11660
world	-11661
termin	-11662
▁Whose	-11663
enabled	-11664
▁mainly	-11665
▁summit	-11666
▁barrier	-11667
▁healthy	-11668
(**	-11669
acr	-11670
▁Lane	-11671
▁resid	-11672
▁annual	-11673
▁scenario	-11674
FEATURESET	-11675
▁imperfect	-11676
▁recollect	-11677
▁cultivated	-11678
inch	-11679
ippi	-11680
maid	-11681
cross	-11682
Method	-11683
▁Beaut	-11684
▁monot	-11685
▁throng	-11686
▁boiling	-11687
▁heights	-11688
▁accurate	-11689
▁frontier	-11690
▁handling	-11691
▁agreement	-11692
▁enjoyment	-11693
▁strangely	-11694
▁references	-11695
WARD	-11696
▁Hast	-11697
▁joke	-11698
nested	-11699
▁siege	-11700
comfort	-11701
▁Norman	-11702
▁differ	-11703
hall	-11704
▁Fif	-11705
▁succ	-11706
parser	-11707
riages	-11708
Perhaps	-11709
parallel	-11710
▁vigorous	-11711
▁childhood	-11712
NO	-11713
]]:	-11714
ubs	-11715
▁2],	-11716
▁ade	-11717
▁duck	-11718
▁phase	-11719
unknown	-11720
▁Senate	-11721
▁commence	-11722
▁Jerusalem	-11723
▁passengers	-11724
inge	-11725
▁160	-11726
▁dup	-11727
▁admired	-11728
▁Nicholas	-11729
▁announce	-11730
▁certainty	-11731
▁appointment	-11732
,),	-11733
KEY	-11734
spl	-11735
**3*	-11736
nums	-11737
white	-11738
▁butt	-11739
enable	-11740
▁linen	-11741
▁roses	-11742
▁vault	-11743
▁eccles	-11744
▁physician	-11745
Bl	-11746
igm	-11747
▁scre	-11748
▁surf	-11749
cester	-11750
▁clust	-11751
OWN	-11752
irts	-11753
▁Tex	-11754
enery	-11755
orders	-11756
regions	-11757
strategy	-11758
▁handled	-11759
▁painter	-11760
ArrayAttr	-11761
▁portions	-11762
writ	-11763
▁ton	-11764
▁Joan	-11765
▁Lamb	-11766
▁Tree	-11767
▁Power	-11768
▁invari	-11769
generate	-11770
▁medical	-11771
▁fp	-11772
fixed	-11773
▁Lanc	-11774
▁buck	-11775
▁tragic	-11776
▁restless	-11777
▁successfully	-11778
''	-11779
▁(3	-11780
epend	-11781
ivari	-11782
▁Terr	-11783
▁psych	-11784
timeout	-11785
▁wander	-11786
▁temples	-11787
▁constraint	-11788
▁registered	-11789
▁"-	-11790
▁2-	-11791
▁Abr	-11792
▁Dom	-11793
ioned	-11794
uffle	-11795
▁ener	-11796
▁1024,	-11797
▁Polly	-11798
▁stuck	-11799
▁Athens	-11800
▁subtle	-11801
▁awkward	-11802
▁thereof	-11803
▁effected	-11804
▁advancing	-11805
▁organized	-11806
▁neighbours	-11807
pm	-11808
Dim	-11809
UTH	-11810
▁'^	-11811
rules	-11812
▁brick	-11813
▁gross	-11814
poonful	-11815
▁amused	-11816
▁jewels	-11817
▁experiments	-11818
sd	-11819
ICT	-11820
▁eq	-11821
▁fx	-11822
pert	-11823
▁128	-11824
▁Jove	-11825
▁Prop	-11826
▁Daniel	-11827
▁avoided	-11828
▁conspic	-11829
▁disgust	-11830
▁factors	-11831
▁resolve	-11832
▁Egyptian	-11833
▁integers	-11834
▁reproach	-11835
{\	-11836
▁[(	-11837
ntax	-11838
▁stem	-11839
▁talent	-11840
▁wheels	-11841
▁artistic	-11842
vp	-11843
ENTS	-11844
wich	-11845
▁sho	-11846
Tools	-11847
▁Full	-11848
▁cruelty	-11849
▁philosoph	-11850
▁entertained	-11851
tf	-11852
_13	-11853
AAAA	-11854
urred	-11855
▁Hist	-11856
▁Ohio	-11857
▁Walk	-11858
▁ench	-11859
▁rice	-11860
Offset	-11861
▁1929.	-11862
▁Moses	-11863
▁navig	-11864
▁everyone	-11865
▁alternative	-11866
▁association	-11867
**3	-11868
zes	-11869
▁HOR	-11870
ensely	-11871
▁seeds	-11872
▁rescue	-11873
▁compens	-11874
▁regards	-11875
▁nonsense	-11876
▁proposition	-11877
▁Ho	-11878
BERT	-11879
twas	-11880
Cache	-11881
▁jump	-11882
▁reco	-11883
▁driver	-11884
▁nested	-11885
Constant	-11886
▁Williams	-11887
▁emotions	-11888
▁unnecessary	-11889
Hel	-11890
gens	-11891
pair	-11892
▁cents	-11893
builder	-11894
▁occupy	-11895
▁trusted	-11896
▁petition	-11897
▁confirmed	-11898
▁innocence	-11899
▁translated	-11900
▁à	-11901
1.0	-11902
iline	-11903
▁COMP	-11904
▁Vill	-11905
▁moves	-11906
▁rings	-11907
▁tread	-11908
perties	-11909
▁bushes	-11910
▁hunger	-11911
▁longing	-11912
▁motives	-11913
▁univers	-11914
▁significance	-11915
LA	-11916
25*	-11917
bot	-11918
Kind	-11919
leys	-11920
actor	-11921
▁Beau	-11922
▁Kings	-11923
▁frost	-11924
▁engage	-11925
▁dispute	-11926
▁favorite	-11927
▁ancestors	-11928
▁normalize	-11929
▁exceptions	-11930
-\	-11931
WH	-11932
rb	-11933
▁49	-11934
star	-11935
angel	-11936
athed	-11937
ighty	-11938
▁chase	-11939
▁learnt	-11940
▁owners	-11941
▁shores	-11942
▁artists	-11943
▁underlying	-11944
!—	-11945
▁PO	-11946
▁Mos	-11947
▁Ped	-11948
▁Sax	-11949
urable	-11950
▁baron	-11951
▁propose	-11952
▁telephone	-11953
dimensional	-11954
0.0	-11955
▁Id	-11956
ilde	-11957
▁Inn	-11958
▁vit	-11959
ambers	-11960
▁pious	-11961
▁frozen	-11962
▁latest	-11963
gorithms	-11964
▁Quixote	-11965
▁abundant	-11966
▁circular	-11967
ODE	-11968
pit	-11969
sex	-11970
▁MY	-11971
uris	-11972
quate	-11973
▁Gray	-11974
▁Billy	-11975
▁Clare	-11976
▁cares	-11977
▁likes	-11978
▁proxy	-11979
▁firing	-11980
▁namespace	-11981
▁Av	-11982
▁176	-11983
bands	-11984
estamp	-11985
▁picks	-11986
▁dashed	-11987
▁disple	-11988
▁prosec	-11989
▁stopping	-11990
▁districts	-11991
▁invention	-11992
1\	-11993
▁tun	-11994
armed	-11995
ridge	-11996
▁bapt	-11997
▁cant	-11998
▁team	-11999
▁Canad	-12000
▁wages	-12001
▁Apache	-12002
▁fisher	-12003
▁timber	-12004
▁scandal	-12005
▁contented	-12006
▁fragments	-12007
▁overwrite	-12008
▁reverence	-12009
▁comprehend	-12010
▁conversion	-12011
én	-12012
ERAL	-12013
joint	-12014
▁heir	-12015
Output	-12016
minded	-12017
▁epoch	-12018
▁fails	-12019
ertools	-12020
▁Capell	-12021
▁degrad	-12022
▁judges	-12023
▁traces	-12024
▁Library	-12025
attention	-12026
mv	-12027
INS	-12028
▁Bad	-12029
▁HIS	-12030
emale	-12031
▁seal	-12032
▁sung	-12033
▁costume	-12034
▁fishing	-12035
▁gravely	-12036
▁placing	-12037
assignment	-12038
▁contribut	-12039
}')	-12040
————	-12041
▁Lat	-12042
▁Ren	-12043
▁Ten	-12044
Never	-12045
▁Mars	-12046
▁Rail	-12047
▁Guard	-12048
▁Lower	-12049
▁ratio	-12050
▁sadly	-12051
▁DOUBLE	-12052
▁reluct	-12053
▁climbed	-12054
▁flashed	-12055
▁payment	-12056
▁DRAWINGS	-12057
▁breathing	-12058
▁Dat	-12059
▁Lay	-12060
▁papa	-12061
public	-12062
▁pluck	-12063
▁pursue	-12064
▁unjust	-12065
ivariate	-12066
▁Unknown	-12067
▁peasant	-12068
shardings	-12069
▁absorbed	-12070
▁complain	-12071
▁automatically	-12072
'(	-12073
Dr	-12074
Te	-12075
buck	-12076
etts	-12077
oard	-12078
▁13.	-12079
▁glit	-12080
▁1926.	-12081
▁remedy	-12082
▁bitterly	-12083
▁Committee	-12084
VE	-12085
sn	-12086
]))	-12087
ibl	-12088
help	-12089
▁';'	-12090
stein	-12091
▁musk	-12092
▁fence	-12093
▁sweep	-12094
Manager	-12095
ressing	-12096
▁earthly	-12097
▁accommod	-12098
▁conquest	-12099
▁educated	-12100
Mix	-12101
▁Hold	-12102
▁bills	-12103
atenate	-12104
▁Caesar	-12105
▁constr	-12106
▁Service	-12107
▁doorway	-12108
▁introduce	-12109
ti	-12110
▁90	-12111
auss	-12112
▁Roger	-12113
▁decay	-12114
▁skull	-12115
othesis	-12116
▁murdered	-12117
▁teachers	-12118
▁indicates	-12119
▁acknowledge	-12120
BE	-12121
gal	-12122
bery	-12123
▁buf	-12124
▁Greg	-12125
▁dipl	-12126
▁verb	-12127
▁chari	-12128
▁Berlin	-12129
▁Pacific	-12130
▁Wallace	-12131
▁imperial	-12132
▁Cambridge	-12133
API	-12134
ERR	-12135
hint	-12136
verb	-12137
▁XIV	-12138
▁mol	-12139
Flags	-12140
▁Back	-12141
▁isol	-12142
▁Venus	-12143
▁incap	-12144
▁counts	-12145
▁liquor	-12146
▁triton	-12147
▁discour	-12148
▁knights	-12149
▁springs	-12150
▁propriet	-12151
▁picturesque	-12152
▁indifference	-12153
▁professional	-12154
/"	-12155
hr	-12156
13\	-12157
awk	-12158
cca	-12159
ira	-12160
must	-12161
udge	-12162
uled	-12163
▁fox	-12164
▁tab	-12165
itial	-12166
▁Lion	-12167
▁aren	-12168
▁fain	-12169
▁Party	-12170
▁Gordon	-12171
▁esteem	-12172
▁destiny	-12173
▁muscles	-12174
▁outline	-12175
▁salvation	-12176
SC	-12177
dem	-12178
appe	-12179
▁fal	-12180
▁Ralph	-12181
▁organs	-12182
▁smoking	-12183
▁generator	-12184
▁inevitable	-12185
rup	-12186
▁asks	-12187
▁tube	-12188
▁breaks	-12189
basename	-12190
▁harbour	-12191
▁surround	-12192
▁efficient	-12193
▁indicating	-12194
1>	-12195
—“	-12196
tab	-12197
ione	-12198
▁BAR	-12199
onson	-12200
riors	-12201
▁Hugh	-12202
▁arith	-12203
indexer	-12204
usively	-12205
▁repose	-12206
▁worker	-12207
▁varieties	-12208
▁respectively	-12209
/(	-12210
▁AG	-12211
▁GRE	-12212
▁Capt	-12213
▁Made	-12214
▁Stud	-12215
Record	-12216
▁Story	-12217
▁brush	-12218
▁climb	-12219
▁shrew	-12220
uations	-12221
▁illness	-12222
▁sailing	-12223
variables	-12224
▁purchased	-12225
▁declaration	-12226
LEX	-12227
Rem	-12228
ami	-12229
aired	-12230
▁goss	-12231
▁humb	-12232
▁orth	-12233
ulative	-12234
▁Arnold	-12235
▁Luther	-12236
▁volcan	-12237
hin	-12238
ota	-12239
uese	-12240
encil	-12241
▁Anth	-12242
▁COND	-12243
▁rasc	-12244
▁repr	-12245
▁thief	-12246
headers	-12247
runtime	-12248
▁heroes	-12249
▁Theatre	-12250
▁abruptly	-12251
▁analysis	-12252
15;	-12253
ouri	-12254
▁300	-12255
intend	-12256
▁Women	-12257
▁colle	-12258
▁fanci	-12259
▁reads	-12260
▁sacrific	-12261
Descriptor	-12262
▁commanding	-12263
▁cf	-12264
fail	-12265
▁OLD	-12266
▁trop	-12267
itively	-12268
▁anguish	-12269
▁greatness	-12270
Min	-12271
▁Non	-12272
▁tac	-12273
▁tie	-12274
channel	-12275
▁Between	-12276
▁elegant	-12277
▁furious	-12278
▁severely	-12279
▁Attribute	-12280
2}	-12281
▁'$	-12282
▁Barn	-12283
▁hymn	-12284
▁pond	-12285
▁vols	-12286
▁Maria	-12287
▁spear	-12288
▁veins	-12289
DEFAULT	-12290
layouts	-12291
▁roused	-12292
▁despite	-12293
▁superst	-12294
▁conceive	-12295
▁conquered	-12296
▁exhibited	-12297
PUT	-12298
deep	-12299
span	-12300
ugin	-12301
▁Eth	-12302
▁foes	-12303
▁Thank	-12304
▁folded	-12305
▁WARRANT	-12306
▁prolong	-12307
▁printing	-12308
10,	-12309
▁Kn	-12310
▁ven	-12311
▁Orle	-12312
▁shri	-12313
▁Felix	-12314
▁ample	-12315
▁bells	-12316
▁insol	-12317
▁negot	-12318
▁Whatever	-12319
▁righteous	-12320
:%	-12321
").	-12322
▁ml	-12323
Meta	-12324
[1])	-12325
amous	-12326
▁boot	-12327
▁kick	-12328
▁indef	-12329
▁candid	-12330
▁punish	-12331
▁sketch	-12332
▁Turkish	-12333
▁comrades	-12334
Up	-12335
.')	-12336
ige	-12337
inea	-12338
▁Merc	-12339
▁perf	-12340
address	-12341
▁forests	-12342
▁compliment	-12343
▁GU	-12344
192,	-12345
SKIP	-12346
take	-12347
▁Pom	-12348
▁[10	-12349
▁formula	-12350
▁yielded	-12351
▁Imperial	-12352
▁anxiously	-12353
▁generations	-12354
ullen	-12355
▁Ball	-12356
▁cert	-12357
▁sear	-12358
efined	-12359
▁leaped	-12360
▁dangers	-12361
▁Something	-12362
▁Department	-12363
▁adaptation	-12364
▁attractive	-12365
▁significant	-12366
ili	-12367
cker	-12368
plus	-12369
false	-12370
▁Cass	-12371
▁Farm	-12372
▁nltk	-12373
▁holes	-12374
▁units	-12375
platform	-12376
▁condemn	-12377
▁install	-12378
▁reminded	-12379
Sp	-12380
Ent	-12381
▁dw	-12382
).__	-12383
amen	-12384
▁sep	-12385
ratio	-12386
▁Poet	-12387
▁barn	-12388
▁deemed	-12389
▁infant	-12390
▁justly	-12391
▁perish	-12392
▁fancied	-12393
▁systems	-12394
▁conveyed	-12395
▁continues	-12396
▁describes	-12397
▁protected	-12398
▁entertainment	-12399
]'	-12400
36,	-12401
mun	-12402
▁gi	-12403
▁20,	-12404
▁damp	-12405
▁gzip	-12406
▁morn	-12407
▁tact	-12408
▁ridge	-12409
▁tests	-12410
issippi	-12411
▁francs	-12412
▁prodig	-12413
▁madness	-12414
▁Franklin	-12415
)?	-12416
▁Peg	-12417
▁dus	-12418
Thank	-12419
▁Tele	-12420
▁bust	-12421
▁bliss	-12422
illings	-12423
▁vanity	-12424
Sharding	-12425
requires	-12426
▁breathe	-12427
▁template	-12428
▁desirable	-12429
▁justified	-12430
)",	-12431
PAR	-12432
mus	-12433
mut	-12434
▁Equ	-12435
▁Sem	-12436
▁kid	-12437
Token	-12438
opher	-12439
▁damn	-12440
ometer	-12441
▁equip	-12442
▁hints	-12443
▁heroic	-12444
▁repair	-12445
licenses	-12446
▁conclude	-12447
▁dialogue	-12448
▁struggling	-12449
;”	-12450
▁CYR	-12451
▁crop	-12452
▁encl	-12453
▁today	-12454
▁tranqu	-12455
▁impatient	-12456
▁moonlight	-12457
▁specimens	-12458
aze	-12459
wds	-12460
ANCE	-12461
Lord	-12462
away	-12463
▁Dam	-12464
▁cel	-12465
arius	-12466
▁Ivan	-12467
▁Ethel	-12468
▁designs	-12469
▁vectors	-12470
▁constants	-12471
▁identical	-12472
cf	-12473
vy	-12474
▁gm	-12475
mons	-12476
▁PER	-12477
▁pole	-12478
▁tune	-12479
without	-12480
▁rename	-12481
▁aroused	-12482
▁dealing	-12483
▁updates	-12484
▁adventures	-12485
</	-12486
MS	-12487
|\	-12488
rite	-12489
codes	-12490
▁worsh	-12491
▁merits	-12492
▁openly	-12493
elements	-12494
▁combine	-12495
▁shooting	-12496
▁universe	-12497
▁prevailed	-12498
▁compassion	-12499
▁resemblance	-12500
dia	-12501
▁57	-12502
oule	-12503
▁wept	-12504
▁naval	-12505
▁expend	-12506
▁theirs	-12507
▁factory	-12508
▁filling	-12509
▁KeyError	-12510
▁expanded	-12511
▁ventured	-12512
door	-12513
▁HEN	-12514
▁Module	-12515
▁gladly	-12516
▁colonel	-12517
▁conject	-12518
▁recalled	-12519
▁responded	-12520
▁cul	-12521
▁kin	-12522
avour	-12523
▁Hans	-12524
▁Hope	-12525
▁goin	-12526
center	-12527
▁sails	-12528
effects	-12529
▁Eastern	-12530
▁Cardinal	-12531
▁bestowed	-12532
▁paragraph	-12533
ja	-12534
mk	-12535
eli	-12536
acts	-12537
▁ger	-12538
▁shy	-12539
preter	-12540
▁stole	-12541
▁Letter	-12542
▁crimes	-12543
▁naught	-12544
▁warmth	-12545
Callable	-12546
▁billion	-12547
▁runtime	-12548
▁segment	-12549
▁defeated	-12550
▁promises	-12551
61	-12552
pwd	-12553
▁Es	-12554
▁000	-12555
▁gamb	-12556
▁whip	-12557
▁griev	-12558
▁presc	-12559
▁rigid	-12560
▁injured	-12561
▁planned	-12562
▁surprising	-12563
:'	-12564
NY	-12565
)(\	-12566
OVE	-12567
▁Cas	-12568
aning	-12569
inted	-12570
▁dealt	-12571
ailable	-12572
average	-12573
▁commod	-12574
▁overflow	-12575
▁specially	-12576
Rep	-12577
cum	-12578
Poly	-12579
ourt	-12580
antom	-12581
taire	-12582
▁Anna	-12583
▁Expl	-12584
▁bron	-12585
▁Atlantic	-12586
▁provides	-12587
▁invisible	-12588
▁producing	-12589
_!	-12590
yll	-12591
stra	-12592
▁Jun	-12593
▁fut	-12594
▁wol	-12595
asets	-12596
▁fanc	-12597
▁inex	-12598
▁frown	-12599
▁gamma	-12600
▁facing	-12601
▁liable	-12602
standard	-12603
▁happily	-12604
▁wilderness	-12605
DP	-12606
such	-12607
▁lip	-12608
glass	-12609
ormap	-12610
consts	-12611
▁gorge	-12612
▁dissol	-12613
▁recurs	-12614
▁Richmond	-12615
▁economic	-12616
▁explicitly	-12617
▁AC	-12618
▁XI	-12619
Order	-12620
ansas	-12621
▁Much	-12622
▁subl	-12623
ITIONS	-12624
▁Table	-12625
▁curve	-12626
LICENSE	-12627
support	-12628
▁obeyed	-12629
▁concert	-12630
▁density	-12631
▁doctest	-12632
▁promote	-12633
▁landscape	-12634
▁merchants	-12635
▁τ	-12636
ilda	-12637
oner	-12638
▁Fre	-12639
▁Rest	-12640
▁marty	-12641
▁Matthe	-12642
▁Sancho	-12643
▁levels	-12644
▁tuples	-12645
igration	-12646
▁Chamber	-12647
▁parting	-12648
▁Hamilton	-12649
▁concrete	-12650
▁extending	-12651
'}	-12652
/{	-12653
nde	-12654
eech	-12655
▁bomb	-12656
▁brut	-12657
▁1937.	-12658
▁Tuple	-12659
▁brook	-12660
▁couch	-12661
▁Roland	-12662
▁Spring	-12663
▁forbid	-12664
▁visits	-12665
▁gallery	-12666
▁logical	-12667
▁monster	-12668
▁behaviour	-12669
▁WARRANTIES	-12670
▁parliament	-12671
▁threatening	-12672
pc	-12673
aque	-12674
categ	-12675
picks	-12676
▁drum	-12677
▁Early	-12678
▁chuck	-12679
▁realm	-12680
dimensions	-12681
▁ascertain	-12682
▁encounter	-12683
▁architecture	-12684
ASE	-12685
oir	-12686
▁si	-12687
-2.0	-12688
▁Bul	-12689
▁Ess	-12690
heart	-12691
▁Care	-12692
▁irre	-12693
▁json	-12694
▁stub	-12695
retion	-12696
▁dried	-12697
▁Palace	-12698
▁stirring	-12699
▁wandered	-12700
▁questioned	-12701
▁expectation	-12702
td	-12703
-1)	-12704
AMES	-12705
OUNT	-12706
simpl	-12707
▁Tenn	-12708
▁ndim	-12709
egment	-12710
▁1930.	-12711
▁attrs	-12712
▁margin	-12713
▁obscure	-12714
▁peoples	-12715
▁inserted	-12716
▁assumptions	-12717
'[	-12718
CTOR	-12719
anth	-12720
rice	-12721
▁Det	-12722
▁Gods	-12723
▁soci	-12724
antics	-12725
▁Santa	-12726
▁sympt	-12727
▁prophet	-12728
▁puzzled	-12729
▁approved	-12730
▁disagree	-12731
▁measured	-12732
▁divisions	-12733
▁estimated	-12734
IntegerType	-12735
Sec	-12736
▁Pa	-12737
▁Ze	-12738
CRIP	-12739
Mark	-12740
osis	-12741
▁0.,	-12742
major	-12743
▁gran	-12744
▁Domin	-12745
▁cells	-12746
pytorch	-12747
▁sunset	-12748
▁gravity	-12749
▁Portuguese	-12750
▁philosopher	-12751
hum	-12752
imer	-12753
obser	-12754
▁Nick	-12755
▁Robin	-12756
Invalid	-12757
▁analog	-12758
▁lantern	-12759
▁surpass	-12760
▁tracing	-12761
▁equation	-12762
▁delicious	-12763
▁artificial	-12764
▁bee	-12765
▁gal	-12766
▁blew	-12767
▁Creat	-12768
▁dates	-12769
▁stamp	-12770
▁dramat	-12771
▁pupils	-12772
▁Australia	-12773
▁favourable	-12774
via	-12775
▁54	-12776
▁ol	-12777
ptim	-12778
▁150	-12779
▁Jon	-12780
atching	-12781
▁brains	-12782
▁guessed	-12783
▁inquire	-12784
▁rushing	-12785
▁appetite	-12786
▁override	-12787
▁scholars	-12788
▁affections	-12789
xA	-12790
ilia	-12791
▁(2)	-12792
▁Bal	-12793
▁Var	-12794
ength	-12795
▁Brah	-12796
▁wholes	-12797
▁youthful	-12798
▁languages	-12799
▁traveller	-12800
▁Everything	-12801
▁motionless	-12802
▁transforms	-12803
-4	-12804
Mad	-12805
Pat	-12806
▁SO	-12807
would	-12808
▁KIND	-12809
▁fors	-12810
ummary	-12811
▁finan	-12812
▁shirt	-12813
▁Peters	-12814
distance	-12815
▁marvell	-12816
▁numeric	-12817
▁renewed	-12818
traceback	-12819
▁breathed	-12820
▁defaults	-12821
PY	-12822
mph	-12823
▁"#	-12824
▁gig	-12825
atoes	-12826
▁dies	-12827
▁fant	-12828
▁wits	-12829
Scalar	-12830
Script	-12831
issues	-12832
▁unity	-12833
borough	-12834
subclass	-12835
▁attacks	-12836
▁bedroom	-12837
DataFrame	-12838
▁duration	-12839
▁trembled	-12840
6;	-12841
anna	-12842
move	-12843
▁bug	-12844
▁sob	-12845
▁leap	-12846
numeric	-12847
▁spaces	-12848
▁unwill	-12849
▁letting	-12850
▁pretended	-12851
PT	-12852
‐‐	-12853
▁:]	-12854
▁Free	-12855
▁sofa	-12856
▁trap	-12857
▁intercourse	-12858
81	-12859
IDS	-12860
bear	-12861
cian	-12862
circ	-12863
▁500	-12864
▁awe	-12865
▁oun	-12866
theta	-12867
▁Ross	-12868
brance	-12869
▁draws	-12870
▁Monday	-12871
▁haught	-12872
▁answers	-12873
▁monument	-12874
▁released	-12875
▁subgraph	-12876
▁consistent	-12877
▁illustration	-12878
hev	-12879
wall	-12880
▁Nev	-12881
▁omn	-12882
FIELD	-12883
▁Blue	-12884
▁Educ	-12885
rovers	-12886
▁1921.	-12887
▁NumPy	-12888
▁wreck	-12889
▁Milton	-12890
▁Country	-12891
▁crushed	-12892
▁fraction	-12893
▁infantry	-12894
▁sentences	-12895
▁undertake	-12896
tu	-12897
mal	-12898
sep	-12899
▁'__	-12900
▁Flor	-12901
▁Sing	-12902
Mapping	-12903
▁checks	-12904
▁scream	-12905
▁monaster	-12906
▁specimen	-12907
▁collective	-12908
`)	-12909
▁`.	-12910
Tell	-12911
▁2>/	-12912
▁Belg	-12913
Writer	-12914
▁Block	-12915
Version	-12916
▁Friend	-12917
▁WILLIAM	-12918
▁confirm	-12919
▁congreg	-12920
▁diagonal	-12921
▁believing	-12922
▁Mississippi	-12923
▁neighborhood	-12924
▁compatibility	-12925
Our	-12926
hte	-12927
oven	-12928
▁(20	-12929
▁Vis	-12930
▁bud	-12931
accur	-12932
▁Charl	-12933
▁Ocean	-12934
▁dirname	-12935
▁endless	-12936
▁serving	-12937
▁speedily	-12938
▁warriors	-12939
description	-12940
▁separation	-12941
--'	-12942
▁Il	-12943
▁SW	-12944
▁ZZ	-12945
azed	-12946
▁XII	-12947
▁0.000	-12948
▁Morgan	-12949
▁presum	-12950
▁Fortune	-12951
▁personality	-12952
▁conventional	-12953
71	-12954
ATA	-12955
Take	-12956
▁Hung	-12957
▁decre	-12958
matical	-12959
▁Scotch	-12960
▁ranges	-12961
▁trials	-12962
NF	-12963
mi	-12964
gered	-12965
▁BOOK	-12966
▁Circ	-12967
ilight	-12968
▁subsc	-12969
istence	-12970
▁ashore	-12971
▁nobles	-12972
▁therein	-12973
▁NetworkX	-12974
▁Voltaire	-12975
▁unpleasant	-12976
▁experiences	-12977
pd	-12978
()]	-12979
:`\	-12980
UTE	-12981
bec	-12982
pars	-12983
hooks	-12984
ienna	-12985
ieves	-12986
▁Relig	-12987
▁vigor	-12988
▁plunged	-12989
▁protocol	-12990
▁searching	-12991
▁inspiration	-12992
"]:	-12993
addr	-12994
zing	-12995
▁SCH	-12996
every	-12997
green	-12998
▁Carr	-12999
▁Fare	-13000
▁Open	-13001
exists	-13002
shaped	-13003
▁opera	-13004
▁Taylor	-13005
placement	-13006
▁Operator	-13007
▁Transform	-13008
▁yourselves	-13009
*\	-13010
0'	-13011
tan	-13012
▁NO	-13013
iply	-13014
orum	-13015
▁bef	-13016
▁Goth	-13017
▁idol	-13018
▁Sweet	-13019
▁plane	-13020
▁(2003)	-13021
▁Sister	-13022
▁Surely	-13023
▁dispos	-13024
compiler	-13025
▁miracle	-13026
▁patriot	-13027
▁elaborate	-13028
MER	-13029
bus	-13030
did	-13031
disc	-13032
▁17,	-13033
▁Beg	-13034
▁dew	-13035
▁rat	-13036
oment	-13037
since	-13038
masked	-13039
▁quote	-13040
justice	-13041
▁solver	-13042
▁discern	-13043
▁flowing	-13044
▁license	-13045
▁upstairs	-13046
▁abundance	-13047
NR	-13048
xF	-13049
ANY	-13050
fmt	-13051
iser	-13052
▁Big	-13053
itious	-13054
▁Warner	-13055
▁lasted	-13056
▁prices	-13057
▁equality	-13058
▁virtuous	-13059
css	-13060
▁QQ	-13061
mlir	-13062
Please	-13063
▁Devil	-13064
▁lucky	-13065
▁owned	-13066
Default	-13067
▁boldly	-13068
▁economy	-13069
▁scenery	-13070
▁wishing	-13071
▁Francisco	-13072
▁distances	-13073
▁docstring	-13074
▁documents	-13075
2/	-13076
Box	-13077
GER	-13078
▁tp	-13079
made	-13080
▁14.	-13081
ainer	-13082
faced	-13083
riers	-13084
▁Club	-13085
▁Harr	-13086
▁Scar	-13087
▁cris	-13088
▁chains	-13089
▁Licensed	-13090
▁shillings	-13091
▁witnesses	-13092
ni	-13093
)).	-13094
Est	-13095
▁alo	-13096
▁fel	-13097
▁qui	-13098
asper	-13099
unken	-13100
▁Batt	-13101
▁Maid	-13102
▁mlir	-13103
▁afore	-13104
▁brows	-13105
▁hyper	-13106
▁overr	-13107
extended	-13108
BO	-13109
BR	-13110
64_	-13111
Sym	-13112
oric	-13113
▁644	-13114
▁Eve	-13115
▁NOR	-13116
estion	-13117
▁Lords	-13118
▁etern	-13119
▁relax	-13120
ustrial	-13121
▁divers	-13122
▁dollar	-13123
▁Herbert	-13124
▁inplace	-13125
▁expenses	-13126
▁feathers	-13127
▁sufferings	-13128
:00	-13129
bur	-13130
▁Joy	-13131
Mixin	-13132
onstr	-13133
▁wolf	-13134
▁Brook	-13135
▁adjac	-13136
ivering	-13137
▁deaths	-13138
▁chances	-13139
▁procure	-13140
▁specify	-13141
▁torture	-13142
achusetts	-13143
▁correctly	-13144
;[	-13145
_[	-13146
ENC	-13147
fwd	-13148
▁Cart	-13149
▁beer	-13150
▁Marie	-13151
▁tools	-13152
▁eldest	-13153
▁needle	-13154
▁Century	-13155
▁Natural	-13156
▁WITHOUT	-13157
▁respecting	-13158
▁particulars	-13159
▁documentation	-13160
_."	-13161
▁Dy	-13162
tail	-13163
▁15.	-13164
▁mpf	-13165
▁beef	-13166
▁span	-13167
chance	-13168
▁Barry	-13169
▁calmly	-13170
▁suited	-13171
▁trifle	-13172
Abstract	-13173
▁conform	-13174
▁console	-13175
▁dreamed	-13176
▁headers	-13177
:/	-13178
Red	-13179
arms	-13180
▁'.*	-13181
▁fiery	-13182
▁ordin	-13183
▁troop	-13184
▁spared	-13185
▁tumult	-13186
▁pygments	-13187
.:	-13188
--”	-13189
75*	-13190
fin	-13191
walk	-13192
inkle	-13193
idable	-13194
▁Later	-13195
▁Third	-13196
▁doubts	-13197
▁faults	-13198
▁deprived	-13199
▁Providence	-13200
▁Christopher	-13201
:\	-13202
[-	-13203
etta	-13204
▁Ori	-13205
▁Pil	-13206
▁bars	-13207
▁conn	-13208
▁2048,	-13209
inement	-13210
reation	-13211
▁offended	-13212
▁Certainly	-13213
▁interfere	-13214
▁officials	-13215
▁witnessed	-13216
/4	-13217
.'"	-13218
23,	-13219
▁159	-13220
▁Mul	-13221
▁cyl	-13222
▁fab	-13223
neighb	-13224
ranean	-13225
▁1936.	-13226
▁micro	-13227
▁orbax	-13228
▁prose	-13229
▁loudly	-13230
▁TypeVar	-13231
▁pockets	-13232
▁hereafter	-13233
▁dataclasses	-13234
epo	-13235
lat	-13236
▁HEL	-13237
▁PRE	-13238
OTHER	-13239
▁Axis	-13240
▁Mack	-13241
▁deaf	-13242
ipedia	-13243
Process	-13244
▁liquid	-13245
▁requis	-13246
▁scores	-13247
▁acquire	-13248
▁achieved	-13249
▁continent	-13250
▁suspended	-13251
16;	-13252
har	-13253
Time	-13254
▁Alb	-13255
▁Bol	-13256
▁Rowe	-13257
▁coin	-13258
frozen	-13259
▁1931.	-13260
▁bullet	-13261
▁enlight	-13262
▁players	-13263
▁allowing	-13264
▁messages	-13265
▁exercised	-13266
▁extremity	-13267
▁Mut	-13268
▁mun	-13269
▁tore	-13270
lineno	-13271
▁1925.	-13272
▁blast	-13273
permute	-13274
▁horrid	-13275
▁prayed	-13276
▁saints	-13277
▁justify	-13278
▁ecclesiast	-13279
▁respective	-13280
hot	-13281
▁cu	-13282
acht	-13283
avar	-13284
▁"",	-13285
▁COR	-13286
▁XXV	-13287
▁dun	-13288
▁riv	-13289
▁tha	-13290
▁Into	-13291
▁Allen	-13292
ciences	-13293
▁predec	-13294
▁codegen	-13295
▁volunte	-13296
▁invariably	-13297
PS	-13298
LED	-13299
fif	-13300
Lady	-13301
argo	-13302
emen	-13303
▁Bow	-13304
▁por	-13305
▁unp	-13306
▁viz	-13307
atial	-13308
▁Hart	-13309
▁aval	-13310
ifices	-13311
report	-13312
▁Upper	-13313
▁lunch	-13314
▁whist	-13315
▁Howard	-13316
▁Public	-13317
▁orient	-13318
▁casting	-13319
▁corners	-13320
▁threads	-13321
▁Missouri	-13322
▁component	-13323
7;	-13324
OF	-13325
**(	-13326
Pre	-13327
die	-13328
ees	-13329
▁vap	-13330
based	-13331
egral	-13332
olved	-13333
share	-13334
alling	-13335
▁blown	-13336
▁stats	-13337
Because	-13338
▁orange	-13339
▁plates	-13340
▁swords	-13341
▁lordship	-13342
▁curiously	-13343
▁stacklevel	-13344
-10	-13345
lam	-13346
▁53	-13347
Twas	-13348
▁Aut	-13349
▁Blo	-13350
▁din	-13351
Shape	-13352
▁Star	-13353
region	-13354
▁shine	-13355
▁throws	-13356
▁guarded	-13357
▁hideous	-13358
▁rightly	-13359
▁secrets	-13360
condition	-13361
▁courtesy	-13362
isinstance	-13363
▁agitation	-13364
▁corrected	-13365
▁objective	-13366
▁OrderedSet	-13367
▁missionary	-13368
-01,	-13369
▁URL	-13370
▁Juan	-13371
Cannot	-13372
socket	-13373
▁offers	-13374
▁Orleans	-13375
▁charges	-13376
▁glowing	-13377
▁partner	-13378
▁primary	-13379
▁upwards	-13380
▁applause	-13381
=2	-13382
LU	-13383
mag	-13384
ampled	-13385
soever	-13386
▁judged	-13387
▁lookup	-13388
readlink	-13389
▁monsieur	-13390
▁nobility	-13391
▁literally	-13392
▁violently	-13393
▁subsequently	-13394
▁Massachusetts	-13395
AH	-13396
=""	-13397
PATH	-13398
▁25,	-13399
▁hay	-13400
Dense	-13401
about	-13402
fetch	-13403
funcs	-13404
▁2003	-13405
▁Monte	-13406
▁abode	-13407
▁eminent	-13408
arguments	-13409
▁vertical	-13410
▁expecting	-13411
▁travelled	-13412
▁intermediate	-13413
▁AttributeError	-13414
rr	-13415
ANE	-13416
Enc	-13417
Old	-13418
▁4)	-13419
▁6_	-13420
Mult	-13421
▁(1)	-13422
▁1):	-13423
▁dug	-13424
▁exh	-13425
reader	-13426
▁canoe	-13427
▁optax	-13428
▁crimson	-13429
▁speaker	-13430
▁conspicuous	-13431
▁permissions	-13432
dt	-13433
ETT	-13434
pip	-13435
▁Lang	-13436
▁hasn	-13437
Params	-13438
▁pupil	-13439
▁reconc	-13440
▁detected	-13441
▁fortress	-13442
▁sections	-13443
▁discourse	-13444
▁encouraged	-13445
Exp	-13446
▁:=	-13447
▁Ash	-13448
▁Lis	-13449
▁QUE	-13450
▁veh	-13451
Store	-13452
bbing	-13453
gebra	-13454
icker	-13455
▁Press	-13456
▁pistol	-13457
▁Soundies	-13458
▁assisted	-13459
▁consumed	-13460
annotation	-13461
▁quantities	-13462
32_	-13463
tre	-13464
▁Os	-13465
anke	-13466
arith	-13467
▁logs	-13468
ilogue	-13469
▁1934.	-13470
▁mouse	-13471
constants	-13472
▁rebellion	-13473
▁Protestant	-13474
▁horizontal	-13475
'"	-13476
nat	-13477
nel	-13478
odd	-13479
hile	-13480
ocity	-13481
osaic	-13482
▁envy	-13483
Kernel	-13484
▁crest	-13485
▁fools	-13486
cluster	-13487
▁Bridge	-13488
▁quaint	-13489
contract	-13490
▁awakened	-13491
▁deserved	-13492
VectorType	-13493
▁endeavoured	-13494
_?	-13495
agne	-13496
elia	-13497
▁WAR	-13498
▁hue	-13499
▁Keep	-13500
simple	-13501
▁Reform	-13502
▁server	-13503
▁subset	-13504
▁persuade	-13505
▁exclusive	-13506
▁forbidden	-13507
▁sustained	-13508
rah	-13509
▁(4	-13510
▁ER	-13511
cius	-13512
arson	-13513
▁Troy	-13514
arians	-13515
origin	-13516
▁marsh	-13517
Dialect	-13518
▁stages	-13519
▁international	-13520
$'	-13521
Conv	-13522
azar	-13523
etri	-13524
seek	-13525
▁tap	-13526
▁lots	-13527
pending	-13528
▁volunt	-13529
▁denomin	-13530
▁glasses	-13531
▁invented	-13532
▁gutenberg	-13533
▁willingly	-13534
du	-13535
+0.	-13536
//'	-13537
defs	-13538
▁fname	-13539
▁decent	-13540
▁purity	-13541
optional	-13542
▁disorder	-13543
▁integral	-13544
▁solitude	-13545
Args	-13546
both	-13547
hast	-13548
icer	-13549
ifer	-13550
ademy	-13551
alend	-13552
terms	-13553
▁sums	-13554
▁tren	-13555
▁dated	-13556
▁embark	-13557
▁morrow	-13558
▁whither	-13559
▁enclosed	-13560
▁backwards	-13561
▁practised	-13562
▁controvers	-13563
Ham	-13564
iva	-13565
mpf	-13566
▁wp	-13567
Part	-13568
▁Spr	-13569
▁sect	-13570
▁Susan	-13571
Nothing	-13572
▁explos	-13573
▁luxury	-13574
▁polite	-13575
▁transm	-13576
▁rotation	-13577
▁secretly	-13578
▁vicinity	-13579
▁amazement	-13580
"}	-13581
pot	-13582
wiki	-13583
▁LUC	-13584
▁Bull	-13585
enames	-13586
▁1924.	-13587
▁fragr	-13588
▁Horace	-13589
▁lowered	-13590
▁talents	-13591
▁alliance	-13592
▁Testament	-13593
annotations	-13594
sf	-13595
jar	-13596
Head	-13597
best	-13598
▁Beh	-13599
▁Bour	-13600
▁beam	-13601
native	-13602
▁Annot	-13603
▁dwelt	-13604
imation	-13605
▁Barbar	-13606
▁aboard	-13607
▁fulfil	-13608
▁smiles	-13609
▁Further	-13610
▁sensitive	-13611
▁formidable	-13612
lov	-13613
▁Eu	-13614
▁`~	-13615
Gold	-13616
▁Isa	-13617
delta	-13618
ilful	-13619
▁pear	-13620
icular	-13621
ouched	-13622
▁polic	-13623
▁Chester	-13624
▁removal	-13625
▁tempted	-13626
▁receives	-13627
)._	-13628
imo	-13629
wed	-13630
▁(15	-13631
▁30,	-13632
▁tan	-13633
loads	-13634
▁Turks	-13635
▁victims	-13636
▁memories	-13637
▁punished	-13638
Checkpoint	-13639
▁incidents	-13640
▁56	-13641
Thou	-13642
▁Rand	-13643
▁hire	-13644
posite	-13645
▁(2001)	-13646
▁hoping	-13647
▁ladder	-13648
▁schema	-13649
▁Convert	-13650
▁seeming	-13651
▁detailed	-13652
▁visiting	-13653
▁mechanical	-13654
4:	-13655
dl	-13656
COND	-13657
aude	-13658
odge	-13659
▁Dog	-13660
▁Fal	-13661
▁chop	-13662
epochs	-13663
making	-13664
▁embro	-13665
codegen	-13666
fashion	-13667
▁precaut	-13668
▁wealthy	-13669
▁Exchange	-13670
▁unworthy	-13671
▁footsteps	-13672
▁accordance	-13673
sr	-13674
anz	-13675
misc	-13676
▁Thor	-13677
▁belt	-13678
elfare	-13679
▁faced	-13680
counter	-13681
▁Friday	-13682
▁halted	-13683
▁shallow	-13684
▁stately	-13685
▁hesitation	-13686
▁cultivation	-13687
EXT	-13688
coo	-13689
seg	-13690
▁$0	-13691
▁nu	-13692
▁18,	-13693
ATHER	-13694
oughs	-13695
▁Axes	-13696
▁dine	-13697
▁Armen	-13698
▁Lewis	-13699
▁games	-13700
▁sends	-13701
inverse	-13702
reading	-13703
▁affirm	-13704
▁chiefs	-13705
▁graphs	-13706
relation	-13707
▁harvest	-13708
▁Carolina	-13709
▁observer	-13710
▁rejected	-13711
▁stations	-13712
▁offensive	-13713
▁neighbouring	-13714
▁characteristics	-13715
nu	-13716
/.*	-13717
too	-13718
▁Wy	-13719
!...	-13720
Comp	-13721
oria	-13722
▁ros	-13723
▁32),	-13724
▁Bird	-13725
▁mend	-13726
itical	-13727
ulsion	-13728
library	-13729
squeeze	-13730
▁------	-13731
▁issues	-13732
▁Children	-13733
▁diameter	-13734
▁proceeds	-13735
▁itertools	-13736
▁submitted	-13737
ani	-13738
phi	-13739
▁Tal	-13740
▁fog	-13741
▁sher	-13742
inkled	-13743
pandas	-13744
▁spoil	-13745
▁danced	-13746
▁pepper	-13747
▁circles	-13748
▁journal	-13749
▁hypothesis	-13750
▁illustrated	-13751
▁relationship	-13752
Na	-13753
ALE	-13754
[0,	-13755
cmd	-13756
????	-13757
ATED	-13758
asse	-13759
ials	-13760
▁Balt	-13761
▁Bear	-13762
▁Expr	-13763
▁niece	-13764
▁bucket	-13765
▁Bernard	-13766
▁farmers	-13767
▁CONDITIONS	-13768
▁occurrence	-13769
)}"	-13770
Art	-13771
zens	-13772
▁dmp	-13773
edies	-13774
▁Road	-13775
▁puff	-13776
pointer	-13777
stitute	-13778
▁Hebrew	-13779
▁lecture	-13780
▁landlord	-13781
▁thirteen	-13782
▁normalized	-13783
NS	-13784
](	-13785
lu	-13786
AIL	-13787
svn	-13788
utt	-13789
▁(5	-13790
▁hi	-13791
coef	-13792
▁197	-13793
▁Fed	-13794
hints	-13795
igher	-13796
neath	-13797
▁tops	-13798
ansion	-13799
ugging	-13800
▁crops	-13801
▁rocky	-13802
▁advers	-13803
▁fascin	-13804
▁Command	-13805
▁declined	-13806
▁shouting	-13807
▁speeches	-13808
▁appearing	-13809
▁perpetual	-13810
Supp	-13811
asty	-13812
enes	-13813
▁MAD	-13814
chers	-13815
isive	-13816
▁disd	-13817
▁earn	-13818
▁lads	-13819
▁comic	-13820
▁Square	-13821
▁wretch	-13822
▁indirect	-13823
▁sickness	-13824
▁regiments	-13825
▁iterations	-13826
:"	-13827
zy	-13828
GAR	-13829
lee	-13830
boat	-13831
dirs	-13832
▁Wol	-13833
▁ink	-13834
▁Appl	-13835
▁Bapt	-13836
▁Brad	-13837
▁Vienna	-13838
▁ardent	-13839
▁socket	-13840
▁Marquis	-13841
▁mothers	-13842
extension	-13843
▁overhead	-13844
▁interpreted	-13845
6*	-13846
lace	-13847
rodu	-13848
ulent	-13849
athetic	-13850
invalid	-13851
updates	-13852
▁bargain	-13853
▁positively	-13854
!!	-13855
▁58	-13856
Axis	-13857
aise	-13858
▁Dal	-13859
▁Try	-13860
blest	-13861
▁HTTP	-13862
▁PART	-13863
▁piano	-13864
▁Hamlet	-13865
▁compact	-13866
▁treason	-13867
▁attributed	-13868
▁investigation	-13869
(%	-13870
▁IR	-13871
REEK	-13872
ilus	-13873
atern	-13874
▁orch	-13875
cursor	-13876
▁abuse	-13877
▁adopt	-13878
▁utils	-13879
primitive	-13880
▁inherited	-13881
*,	-13882
64)	-13883
eeg	-13884
typ	-13885
lazy	-13886
ocks	-13887
▁jer	-13888
throw	-13889
▁Pitt	-13890
▁nurs	-13891
▁RIGHT	-13892
▁Valley	-13893
simplify	-13894
▁varying	-13895
▁discharged	-13896
▁theatrical	-13897
▁Association	-13898
Ke	-13899
Me	-13900
csr	-13901
past	-13902
▁ruff	-13903
iastic	-13904
▁greeted	-13905
▁asserted	-13906
▁morality	-13907
▁professor	-13908
Tag	-13909
▁'<	-13910
▁haw	-13911
▁bulk	-13912
▁doom	-13913
lexers	-13914
▁Shape	-13915
▁Marian	-13916
▁velvet	-13917
aneously	-13918
▁Commons	-13919
Parameter	-13920
▁coloured	-13921
▁patterns	-13922
▁proposal	-13923
▁phenomena	-13924
▁appreciate	-13925
▁affectionate	-13926
26;	-13927
unci	-13928
▁mypy	-13929
styles	-13930
▁1919.	-13931
▁Negro	-13932
▁embed	-13933
Wrapper	-13934
▁Gospel	-13935
▁Journal	-13936
▁meanwhile	-13937
▁je	-13938
lint	-13939
▁ell	-13940
▁spy	-13941
ITION	-13942
▁Flet	-13943
▁Suff	-13944
▁whir	-13945
▁couns	-13946
▁globe	-13947
▁penny	-13948
▁collar	-13949
Des	-13950
amph	-13951
▁8),	-13952
▁lur	-13953
Every	-13954
ected	-13955
itzer	-13956
▁Five	-13957
▁humor	-13958
▁porch	-13959
▁witch	-13960
because	-13961
writing	-13962
▁crisis	-13963
itations	-13964
▁printer	-13965
▁refresh	-13966
▁textual	-13967
▁strongest	-13968
implemented	-13969
▁compatible	-13970
${	-13971
ea	-13972
_].	-13973
pole	-13974
aware	-13975
▁Publ	-13976
▁Wolf	-13977
▁maps	-13978
▁Films	-13979
mounted	-13980
ometric	-13981
▁Museum	-13982
▁marvel	-13983
Infinity	-13984
▁ordering	-13985
▁consented	-13986
▁contemporary	-13987
-5	-13988
orr	-13989
owl	-13990
tang	-13991
▁1000	-13992
▁Hath	-13993
▁cars	-13994
▁padd	-13995
▁Style	-13996
physics	-13997
▁Nether	-13998
▁angles	-13999
▁rebels	-14000
▁bending	-14001
▁dialect	-14002
▁flushed	-14003
▁twisted	-14004
▁describing	-14005
▁excellence	-14006
8)	-14007
12]	-14008
▁+1	-14009
lyss	-14010
▁22,	-14011
▁Raw	-14012
Child	-14013
ravel	-14014
smith	-14015
▁Soph	-14016
▁jury	-14017
▁models	-14018
▁relate	-14019
▁shaken	-14020
▁breadth	-14021
▁cabinet	-14022
▁twilight	-14023
▁decorated	-14024
▁fortnight	-14025
és	-14026
Pen	-14027
xla	-14028
▁io	-14029
SIZE	-14030
▁Eug	-14031
▁Kit	-14032
▁Tow	-14033
dinand	-14034
▁1920.	-14035
▁Parad	-14036
▁Scene	-14037
▁faded	-14038
▁monks	-14039
▁wasted	-14040
subjects	-14041
▁benevol	-14042
▁drowned	-14043
structure	-14044
▁sunlight	-14045
▁expensive	-14046
▁eventually	-14047
▁marvellous	-14048
▁fundamental	-14049
▁representatives	-14050
_"	-14051
HAM	-14052
cost	-14053
▁28,	-14054
▁3],	-14055
▁alt	-14056
▁rod	-14057
▁Gent	-14058
▁dazz	-14059
▁ratt	-14060
asping	-14061
▁Edgar	-14062
▁Simon	-14063
▁juice	-14064
▁squad	-14065
▁ceiling	-14066
▁animation	-14067
▁conference	-14068
▁remembrance	-14069
^^	-14070
blo	-14071
▁Gro	-14072
▁MNE	-14073
▁xxx	-14074
great	-14075
roots	-14076
▁Wife	-14077
▁rash	-14078
▁BASIS	-14079
▁jolly	-14080
▁spake	-14081
▁dismay	-14082
▁strife	-14083
▁Alexand	-14084
▁disguise	-14085
▁observing	-14086
▁treasures	-14087
▁descending	-14088
CP	-14089
csv	-14090
ito	-14091
mma	-14092
fire	-14093
ripp	-14094
insum	-14095
▁Song	-14096
▁Creek	-14097
▁swell	-14098
▁barren	-14099
▁resort	-14100
▁Matthew	-14101
▁swallow	-14102
▁totally	-14103
▁compiler	-14104
▁dropping	-14105
▁imported	-14106
▁removing	-14107
▁container	-14108
▁injustice	-14109
▁interface	-14110
▁countrymen	-14111
▁CONT	-14112
▁jail	-14113
Linear	-14114
▁Moore	-14115
▁Words	-14116
▁codes	-14117
▁Contin	-14118
▁allied	-14119
▁beggar	-14120
▁shrewd	-14121
▁tremble	-14122
▁welfare	-14123
▁intentions	-14124
▁Mademoiselle	-14125
]"	-14126
')(	-14127
Phil	-14128
icon	-14129
▁Dry	-14130
▁MER	-14131
▁Fire	-14132
▁Hood	-14133
▁cash	-14134
▁lent	-14135
ifiers	-14136
▁Geoff	-14137
▁mines	-14138
OPERAND	-14139
▁awhile	-14140
________	-14141
▁relieve	-14142
matplotlib	-14143
▁Charlotte	-14144
▁obligation	-14145
▁essentially	-14146
+1	-14147
dc	-14148
gb	-14149
-19	-14150
Dis	-14151
rom	-14152
uri	-14153
1.0,	-14154
▁"--	-14155
▁+10	-14156
▁Sic	-14157
▁mos	-14158
▁nin	-14159
▁Wait	-14160
▁clam	-14161
▁...],	-14162
▁bloom	-14163
▁posts	-14164
▁swore	-14165
▁folder	-14166
hostname	-14167
▁critics	-14168
▁heathen	-14169
▁inconven	-14170
▁relating	-14171
▁regularly	-14172
▁privileges	-14173
"`	-14174
[3	-14175
Mul	-14176
PRE	-14177
ori	-14178
▁<<	-14179
conj	-14180
▁doe	-14181
organ	-14182
▁cake	-14183
▁herd	-14184
▁poll	-14185
ossibly	-14186
sharded	-14187
handlers	-14188
▁Biograph	-14189
▁personally	-14190
#,	-14191
}`	-14192
▁DIS	-14193
▁Nov	-14194
▁Sold	-14195
legend	-14196
ressor	-14197
▁Apost	-14198
▁Peggy	-14199
▁hearty	-14200
▁monstr	-14201
▁styles	-14202
threshold	-14203
umberland	-14204
▁Interval	-14205
▁obtaining	-14206
AF	-14207
ights	-14208
setup	-14209
▁Aven	-14210
▁Crom	-14211
▁Edin	-14212
▁tast	-14213
ispens	-14214
▁Based	-14215
landers	-14216
▁preach	-14217
▁Philipp	-14218
▁typical	-14219
▁dismissed	-14220
▁incapable	-14221
pal	-14222
▁lb	-14223
▁110	-14224
align	-14225
▁cows	-14226
▁Laura	-14227
▁intol	-14228
nonzero	-14229
▁raises	-14230
ancellor	-14231
▁chimney	-14232
▁drunken	-14233
▁reaches	-14234
▁Victoria	-14235
▁spectacle	-14236
▁temptation	-14237
▁exclusively	-14238
▁decomposition	-14239
hl	-14240
User	-14241
serv	-14242
clone	-14243
prior	-14244
culate	-14245
▁calam	-14246
untyped	-14247
▁allies	-14248
▁corrid	-14249
▁Mapping	-14250
▁briefly	-14251
▁fountain	-14252
▁implicit	-14253
9*	-14254
xE	-14255
”;	-14256
▁LO	-14257
uart	-14258
▁Ted	-14259
ctime	-14260
▁tool	-14261
entine	-14262
▁canal	-14263
▁tries	-14264
elihood	-14265
session	-14266
▁Garden	-14267
▁copied	-14268
ceptible	-14269
interest	-14270
▁Persian	-14271
▁Russians	-14272
▁indexing	-14273
▁solemnly	-14274
▁possesses	-14275
▁ceremonies	-14276
▁corresponds	-14277
Net	-14278
pie	-14279
▁TE	-14280
▁da	-14281
reset	-14282
▁alloc	-14283
▁pilot	-14284
▁advise	-14285
▁damned	-14286
▁penalty	-14287
▁updated	-14288
▁Mistress	-14289
▁strategy	-14290
▁relatives	-14291
▁interpretation	-14292
NG	-14293
}(	-14294
(3,	-14295
inel	-14296
ernon	-14297
▁bowl	-14298
RESULT	-14299
▁Davis	-14300
▁genus	-14301
▁hears	-14302
▁thumb	-14303
metrics	-14304
predict	-14305
▁battery	-14306
▁scarlet	-14307
▁borrowed	-14308
▁sessions	-14309
▁uncommon	-14310
1'	-14311
▁Cf	-14312
▁ny	-14313
ruct	-14314
elity	-14315
floor	-14316
impse	-14317
ultan	-14318
▁lace	-14319
▁tons	-14320
▁spots	-14321
▁termed	-14322
▁faculty	-14323
▁glimpse	-14324
quantized	-14325
▁excluded	-14326
▁murderer	-14327
IDE	-14328
uen	-14329
oche	-14330
▁lex	-14331
Alias	-14332
▁pint	-14333
ometry	-14334
▁4096,	-14335
▁murmur	-14336
document	-14337
▁Anthony	-14338
▁battles	-14339
▁refined	-14340
▁cathedral	-14341
▁optimizer	-14342
9:	-14343
()}	-14344
UND	-14345
▁dt	-14346
__.__	-14347
▁backs	-14348
▁flank	-14349
▁tents	-14350
▁epochs	-14351
▁harmon	-14352
something	-14353
▁machines	-14354
▁traceback	-14355
▁contributed	-14356
GL	-14357
[4	-14358
nr	-14359
arks	-14360
dump	-14361
itic	-14362
▁165	-14363
ogene	-14364
▁bows	-14365
▁vile	-14366
states	-14367
▁Swift	-14368
▁drown	-14369
▁traff	-14370
▁assass	-14371
▁carved	-14372
▁sinking	-14373
▁fragment	-14374
processing	-14375
▁preaching	-14376
▁unfortunately	-14377
Co	-14378
fc	-14379
ACT	-14380
OMAN	-14381
ully	-14382
▁Age	-14383
▁ray	-14384
▁tip	-14385
grads	-14386
inine	-14387
▁Gran	-14388
▁Grey	-14389
▁LORD	-14390
▁Nile	-14391
except	-14392
▁analy	-14393
▁horns	-14394
▁trous	-14395
▁ragged	-14396
▁welcom	-14397
Argument	-14398
▁variance	-14399
placements	-14400
'},	-14401
ECT	-14402
HEN	-14403
MEM	-14404
pts	-14405
say	-14406
▁4:	-14407
▁Ba	-14408
itia	-14409
avens	-14410
▁pall	-14411
▁peak	-14412
ippers	-14413
▁1923.	-14414
▁explo	-14415
eration	-14416
▁boiled	-14417
▁dishes	-14418
▁finite	-14419
▁presume	-14420
▁imaginary	-14421
▁possessions	-14422
▁superiority	-14423
>"	-14424
lig	-14425
▁85	-14426
▁ul	-14427
▁Tob	-14428
▁bite	-14429
Struct	-14430
ologue	-14431
remote	-14432
writer	-14433
▁awoke	-14434
▁brand	-14435
▁mirth	-14436
▁scales	-14437
▁pulling	-14438
▁tribute	-14439
▁warrior	-14440
▁basename	-14441
▁festival	-14442
▁challenge	-14443
'])	-14444
cand	-14445
drew	-14446
erton	-14447
▁lane	-14448
▁1938.	-14449
minster	-14450
▁amidst	-14451
▁caution	-14452
▁routine	-14453
▁tongues	-14454
▁calculate	-14455
▁imitation	-14456
[\	-14457
cup	-14458
inp	-14459
nor	-14460
▁"<	-14461
▁ib	-14462
▁(12	-14463
▁bmm	-14464
▁jit	-14465
essie	-14466
▁bids	-14467
▁joys	-14468
▁ster	-14469
broken	-14470
loader	-14471
▁uneas	-14472
entieth	-14473
▁Johnny	-14474
▁pickle	-14475
▁prejudice	-14476
▁sweetness	-14477
▁attempting	-14478
▁impatience	-14479
▁spectators	-14480
▁proportions	-14481
14;	-14482
▁kv	-14483
▁tl	-14484
Axes	-14485
Bool	-14486
NING	-14487
meas	-14488
▁181	-14489
▁Hann	-14490
▁sinc	-14491
▁Horse	-14492
▁alien	-14493
▁juris	-14494
▁punct	-14495
inplace	-14496
▁agents	-14497
▁pencil	-14498
▁towers	-14499
callable	-14500
▁Mohammed	-14501
▁admission	-14502
▁unwilling	-14503
AYS	-14504
MAR	-14505
cii	-14506
hon	-14507
▁pt	-14508
ogram	-14509
venth	-14510
itably	-14511
raries	-14512
▁1918.	-14513
▁Mayor	-14514
▁repet	-14515
rewrite	-14516
coloured	-14517
▁clasped	-14518
▁preceded	-14519
▁trenches	-14520
▁civilized	-14521
CD	-14522
]+	-14523
ERE	-14524
▁41	-14525
▁68	-14526
▁gn	-14527
▁kw	-14528
blue	-14529
icts	-14530
▁Wed	-14531
▁flee	-14532
▁rede	-14533
angles	-14534
▁Ellen	-14535
▁Metro	-14536
▁Tower	-14537
▁cigar	-14538
▁legit	-14539
▁reinf	-14540
▁keepdims	-14541
▁reversed	-14542
▁sergeant	-14543
▁numerical	-14544
▁illustrious	-14545
▁MOR	-14546
▁Ple	-14547
▁Moor	-14548
▁sworn	-14549
▁trunc	-14550
▁Naples	-14551
=-=-=-=-	-14552
▁Charlie	-14553
▁deserves	-14554
▁irresist	-14555
▁Catherine	-14556
▁obviously	-14557
▁convenience	-14558
Hen	-14559
Two	-14560
fly	-14561
ube	-14562
bins	-14563
▁Bos	-14564
▁Sup	-14565
1,000	-14566
FIFFV	-14567
ILLIC	-14568
Sched	-14569
inous	-14570
▁Cant	-14571
▁XIII	-14572
▁limb	-14573
aparte	-14574
▁Lieut	-14575
▁brisk	-14576
▁brute	-14577
▁deleg	-14578
▁plague	-14579
▁Connect	-14580
▁rounded	-14581
▁CYRILLIC	-14582
▁marching	-14583
▁consumption	-14584
▁descendants	-14585
▁recollection	-14586
VENT	-14587
orer	-14588
▁Lab	-14589
Found	-14590
small	-14591
counts	-14592
inline	-14593
▁covers	-14594
▁illumin	-14595
▁imposed	-14596
emm	-14597
oni	-14598
rod	-14599
folk	-14600
omon	-14601
▁Gab	-14602
▁Too	-14603
▁goal	-14604
▁ripe	-14605
▁semi	-14606
▁1935.	-14607
▁Adams	-14608
▁poles	-14609
▁Jonson	-14610
▁insist	-14611
▁tricks	-14612
▁CHARLES	-14613
▁crowned	-14614
▁scholar	-14615
▁reaction	-14616
▁Edinburgh	-14617
▁doctrines	-14618
▁eloquence	-14619
▁flattened	-14620
▁thoughtful	-14621
▁ImportError	-14622
................	-14623
▁"`	-14624
dale	-14625
▁0.7	-14626
▁170	-14627
▁Braz	-14628
▁dash	-14629
umbers	-14630
▁solic	-14631
▁Gerald	-14632
▁shades	-14633
▁uneasy	-14634
▁torrent	-14635
fashioned	-14636
▁meetings	-14637
▁Ferdinand	-14638
▁answering	-14639
ght	-14640
▁il	-14641
roke	-14642
▁0.2	-14643
▁[2,	-14644
ancel	-14645
▁nour	-14646
orient	-14647
policy	-14648
▁bunch	-14649
▁exult	-14650
▁Murray	-14651
▁bestow	-14652
▁workmen	-14653
▁enjoying	-14654
▁lowering	-14655
▁deliberately	-14656
GS	-14657
je	-14658
--“	-14659
Mus	-14660
▁SY	-14661
cott	-14662
refs	-14663
▁Aff	-14664
rooms	-14665
▁Kirk	-14666
▁bees	-14667
▁enqu	-14668
unpack	-14669
logical	-14670
▁hanged	-14671
▁decline	-14672
▁savages	-14673
▁instructed	-14674
gi	-14675
▁?	-14676
76;	-14677
nox	-14678
asso	-14679
done	-14680
gent	-14681
tick	-14682
▁$1.	-14683
▁24,	-14684
▁tho	-14685
Names	-14686
▁Desc	-14687
▁Magg	-14688
▁Moon	-14689
▁loos	-14690
▁lung	-14691
[0-9]+	-14692
acking	-14693
spring	-14694
▁Civil	-14695
▁users	-14696
▁Comedy	-14697
▁carpet	-14698
▁refers	-14699
▁titles	-14700
▁Kingdom	-14701
▁shudder	-14702
▁strikes	-14703
6-	-14704
Cor	-14705
oli	-14706
▁()	-14707
iche	-14708
mund	-14709
quin	-14710
▁130	-14711
▁CBS	-14712
▁Cut	-14713
▁Hop	-14714
▁LIN	-14715
▁fib	-14716
month	-14717
queue	-14718
▁Maur	-14719
Christ	-14720
▁Stock	-14721
▁gleam	-14722
▁snake	-14723
▁arrows	-14724
▁shouts	-14725
▁trifling	-14726
▁suspicious	-14727
▁fashionable	-14728
6:	-14729
GH	-14730
voc	-14731
angs	-14732
neys	-14733
rene	-14734
▁Bus	-14735
Space	-14736
ifles	-14737
orney	-14738
strong	-14739
▁stops	-14740
▁Judith	-14741
▁losses	-14742
▁Gilbert	-14743
▁ornaments	-14744
▁successive	-14745
▁hospitality	-14746
FO	-14747
Mon	-14748
▁ay	-14749
▁1.,	-14750
▁SHE	-14751
▁Way	-14752
▁Barr	-14753
▁Ever	-14754
ezvous	-14755
▁evils	-14756
▁pillow	-14757
izations	-14758
▁contend	-14759
▁grammar	-14760
▁elevated	-14761
▁polished	-14762
▁tolerance	-14763
▁attachment	-14764
▁coordinate	-14765
($	-14766
<4	-14767
▁17.	-14768
▁Lim	-14769
▁Ram	-14770
▁wag	-14771
These	-14772
▁Gene	-14773
▁proves	-14774
▁handles	-14775
▁childish	-14776
▁latitude	-14777
▁fulfilled	-14778
▁partially	-14779
▁Archbishop	-14780
▁constructor	-14781
▁inclination	-14782
xs	-14783
oren	-14784
▁Run	-14785
lings	-14786
patch	-14787
lysses	-14788
▁1933.	-14789
▁Heart	-14790
▁ambit	-14791
▁capit	-14792
ivative	-14793
sklearn	-14794
▁Honour	-14795
▁destro	-14796
▁reveal	-14797
▁consecr	-14798
▁valleys	-14799
▁antiquity	-14800
▁influences	-14801
▁beautifully	-14802
27;	-14803
▁Ur	-14804
▁cv	-14805
▁nd	-14806
isen	-14807
ancip	-14808
appers	-14809
compar	-14810
guards	-14811
▁1939.	-14812
▁chast	-14813
▁exile	-14814
▁nerve	-14815
▁shops	-14816
Compute	-14817
▁client	-14818
iprocess	-14819
▁terribly	-14820
▁withdrew	-14821
▁seventeen	-14822
▁substantial	-14823
▁disagreeable	-14824
El	-14825
\.\	-14826
uba	-14827
▁Kh	-14828
▁jaw	-14829
▁woo	-14830
archy	-14831
chars	-14832
▁Fake	-14833
▁compr	-14834
▁casual	-14835
▁trades	-14836
▁sublime	-14837
▁likeness	-14838
▁fontTools	-14839
▁successor	-14840
▁university	-14841
▁transferred	-14842
▁ecclesiastical	-14843
16]	-14844
256	-14845
Obs	-14846
SDP	-14847
gel	-14848
idd	-14849
kit	-14850
mac	-14851
web	-14852
diag	-14853
chair	-14854
▁Shaw	-14855
▁navy	-14856
udding	-14857
verend	-14858
▁alleg	-14859
▁tossed	-14860
▁visual	-14861
munition	-14862
▁lifting	-14863
OPERATION	-14864
▁animated	-14865
▁potatoes	-14866
▁procured	-14867
▁opportunities	-14868
3-	-14869
^2	-14870
▁',	-14871
([0,	-14872
proj	-14873
▁Gib	-14874
▁Tol	-14875
achine	-14876
ulties	-14877
▁balls	-14878
▁egrep	-14879
▁incess	-14880
▁lawful	-14881
▁Project	-14882
▁beseech	-14883
▁nowhere	-14884
▁surgeon	-14885
ictionary	-14886
▁networkx	-14887
▁proclaim	-14888
▁agricultural	-14889
NER	-14890
Ser	-14891
▁Fa	-14892
mary	-14893
▁168	-14894
▁caps	-14895
▁dilig	-14896
▁stake	-14897
▁Marcus	-14898
▁insign	-14899
▁clothed	-14900
▁tempest	-14901
▁winding	-14902
wikipedia	-14903
▁symptoms	-14904
▁revelation	-14905
▁supporting	-14906
Mesh	-14907
ctic	-14908
▁'''	-14909
cover	-14910
immer	-14911
▁asyn	-14912
▁hasty	-14913
▁skies	-14914
globals	-14915
ography	-14916
▁poetic	-14917
defaults	-14918
▁grouped	-14919
▁defended	-14920
▁hesitate	-14921
▁resource	-14922
▁monstrous	-14923
▁apprehension	-14924
uy	-14925
▁+7	-14926
▁51	-14927
▁fa	-14928
()):	-14929
▁BSD	-14930
▁Dim	-14931
▁Shak	-14932
▁Eight	-14933
▁whale	-14934
patches	-14935
▁inquis	-14936
▁proofs	-14937
interpol	-14938
▁mansion	-14939
▁thanked	-14940
numerable	-14941
▁curtains	-14942
▁preached	-14943
▁suggests	-14944
▁boundaries	-14945
'{	-14946
4;	-14947
GB	-14948
._;	-14949
▁mi	-14950
▁{{	-14951
▁16.	-14952
▁Cec	-14953
▁Glo	-14954
iller	-14955
▁DUKE	-14956
▁Board	-14957
▁waved	-14958
joining	-14959
▁melted	-14960
▁Antonio	-14961
▁fertile	-14962
▁precise	-14963
▁approval	-14964
▁ambitious	-14965
14]	-14966
UNT	-14967
▁GH	-14968
▁inp	-14969
carry	-14970
▁Diff	-14971
escope	-14972
▁Blake	-14973
▁Others	-14974
▁robbed	-14975
▁amiable	-14976
▁Canadian	-14977
▁iterator	-14978
▁financial	-14979
▁frightful	-14980
▁separately	-14981
▁59	-14982
OUSE	-14983
Page	-14984
days	-14985
ranges	-14986
▁1922.	-14987
▁crazy	-14988
▁orche	-14989
barrier	-14990
holders	-14991
▁accent	-14992
▁oldest	-14993
▁sermon	-14994
▁whites	-14995
▁holiday	-14996
generator	-14997
▁Remember	-14998
▁guardian	-14999
▁impressions	-15000
111	-15001
▁dx	-15002
Norm	-15003
Note	-15004
decl	-15005
lett	-15006
onal	-15007
chema	-15008
▁Beth	-15009
▁dirt	-15010
▁impet	-15011
▁bundle	-15012
▁headed	-15013
▁waving	-15014
Interval	-15015
▁Russell	-15016
▁deepest	-15017
▁manhood	-15018
▁invasion	-15019
▁customary	-15020
▁telegraph	-15021
▁þ	-15022
PRO	-15023
▁[8	-15024
▁wi	-15025
acre	-15026
▁Nic	-15027
▁YOU	-15028
▁[3,	-15029
grily	-15030
▁Orig	-15031
▁aver	-15032
▁didst	-15033
▁lovel	-15034
▁myfile	-15035
▁pylint	-15036
registry	-15037
ispatcher	-15038
▁creating	-15039
▁searched	-15040
deprecated	-15041
▁bitterness	-15042
▁descriptor	-15043
▁traditions	-15044
Mer	-15045
UFF	-15046
dam	-15047
▁-60	-15048
embed	-15049
imize	-15050
▁moss	-15051
docstr	-15052
velope	-15053
▁Beaum	-15054
▁Brand	-15055
▁Colon	-15056
▁breed	-15057
aliases	-15058
▁Edison	-15059
▁Turkey	-15060
▁gossip	-15061
▁hearth	-15062
▁builder	-15063
▁frankly	-15064
▁helping	-15065
▁lodging	-15066
▁worldly	-15067
unflatten	-15068
▁partners	-15069
▁elevation	-15070
▁magnitude	-15071
▁operators	-15072
iors	-15073
▁0.4	-15074
▁23,	-15075
Style	-15076
▁Away	-15077
▁turb	-15078
▁perse	-15079
▁shorter	-15080
▁Highness	-15081
▁category	-15082
▁vertices	-15083
▁reasoning	-15084
_,"	-15085
emon	-15086
▁cav	-15087
arers	-15088
plied	-15089
▁flax	-15090
▁monk	-15091
▁void	-15092
▁sixth	-15093
▁planet	-15094
▁sheets	-15095
▁blowing	-15096
▁estates	-15097
▁insects	-15098
▁receipt	-15099
▁subdued	-15100
▁confront	-15101
▁slaughter	-15102
▁addressing	-15103
▁ammunition	-15104
▁substitute	-15105
64>	-15106
LIN	-15107
▁[6	-15108
▁\!	-15109
()))	-15110
)``.	-15111
Enum	-15112
ilon	-15113
▁ELE	-15114
▁ONE	-15115
▁rog	-15116
▁sap	-15117
heard	-15118
notes	-15119
riend	-15120
▁Stop	-15121
▁Year	-15122
▁pave	-15123
erance	-15124
screen	-15125
▁screw	-15126
ouncing	-15127
▁ninety	-15128
▁exclaim	-15129
▁execute	-15130
▁gigantic	-15131
▁faithfully	-15132
ropy	-15133
▁120	-15134
▁19,	-15135
▁piv	-15136
▁Beat	-15137
▁pert	-15138
atting	-15139
cached	-15140
locals	-15141
signal	-15142
▁clung	-15143
▁mustn	-15144
environ	-15145
▁corpse	-15146
▁hypocr	-15147
▁metaph	-15148
▁fatigue	-15149
▁serpent	-15150
▁peasants	-15151
?\	-15152
Pe	-15153
▁^	-15154
("_	-15155
bbox	-15156
gone	-15157
▁-1)	-15158
Greek	-15159
seudo	-15160
▁Dean	-15161
▁hats	-15162
▁plac	-15163
▁Larry	-15164
▁jewel	-15165
▁whirl	-15166
program	-15167
▁aggreg	-15168
▁breach	-15169
▁longed	-15170
▁sports	-15171
▁sprung	-15172
▁Prussia	-15173
▁enforce	-15174
▁Military	-15175
▁embraced	-15176
▁engineer	-15177
▁Accordingly	-15178
FS	-15179
13]	-15180
16_	-15181
▁77	-15182
▁tz	-15183
Comm	-15184
IGIT	-15185
quent	-15186
▁+100	-15187
▁Fitz	-15188
▁Owen	-15189
▁carp	-15190
▁lawn	-15191
stages	-15192
▁Abbey	-15193
▁Babyl	-15194
▁Truth	-15195
▁prair	-15196
▁bodily	-15197
▁Himself	-15198
▁Mexican	-15199
▁Suppose	-15200
▁applies	-15201
▁Fletcher	-15202
▁encouragement	-15203
RI	-15204
("'	-15205
MAX	-15206
amy	-15207
▁PA	-15208
Pred	-15209
Sign	-15210
fied	-15211
lymp	-15212
vens	-15213
▁20.	-15214
shared	-15215
▁wrest	-15216
▁Fortun	-15217
▁revolt	-15218
▁antagon	-15219
▁feeding	-15220
functools	-15221
▁intercept	-15222
1(	-15223
>'	-15224
Di	-15225
1),	-15226
ede	-15227
imm	-15228
hill	-15229
alian	-15230
Handle	-15231
upiter	-15232
▁Fleet	-15233
▁cycle	-15234
▁seeks	-15235
▁Figure	-15236
▁harder	-15237
▁sticks	-15238
▁Abraham	-15239
▁summary	-15240
▁Geoffrey	-15241
▁elephant	-15242
▁derivative	-15243
=$	-15244
?_	-15245
▁yo	-15246
Dear	-15247
▁mim	-15248
ainty	-15249
aside	-15250
umble	-15251
OpView	-15252
scroll	-15253
▁blush	-15254
▁enfor	-15255
▁lemon	-15256
▁sheer	-15257
▁thorn	-15258
comment	-15259
grapher	-15260
▁Golden	-15261
▁Miller	-15262
▁Social	-15263
▁imagin	-15264
▁riches	-15265
▁commend	-15266
▁deceive	-15267
▁theater	-15268
▁whistle	-15269
▁winning	-15270
▁Probably	-15271
▁depending	-15272
▁respected	-15273
NN	-15274
`).	-15275
chi	-15276
isse	-15277
scan	-15278
▁Cyr	-15279
▁Syl	-15280
▁Bath	-15281
▁duly	-15282
wealth	-15283
▁reset	-15284
▁Irving	-15285
▁bother	-15286
Operator	-15287
▁Against	-15288
▁labours	-15289
▁Achilles	-15290
▁concerns	-15291
▁spreading	-15292
concatenate	-15293
▁transition	-15294
Que	-15295
aot	-15296
nie	-15297
said	-15298
▁Cop	-15299
▁lav	-15300
iolet	-15301
metic	-15302
▁Mild	-15303
▁exal	-15304
▁merr	-15305
coords	-15306
mighty	-15307
▁Above	-15308
▁Indies	-15309
▁Object	-15310
▁courte	-15311
daystart	-15312
▁awaited	-15313
▁cooking	-15314
▁defense	-15315
▁grasped	-15316
▁eagerness	-15317
▁supposing	-15318
▁undertaking	-15319
=%	-15320
DS	-15321
/__	-15322
ben	-15323
pen	-15324
▁95	-15325
mill	-15326
push	-15327
▁fits	-15328
▁sway	-15329
aphone	-15330
▁Edith	-15331
▁Stone	-15332
▁draft	-15333
▁hedge	-15334
▁regex	-15335
lasting	-15336
▁amazed	-15337
▁unseen	-15338
duration	-15339
▁tidings	-15340
▁warfare	-15341
▁versions	-15342
▁exchanged	-15343
▁indispens	-15344
▁serialized	-15345
▁grandmother	-15346
bn	-15347
▁-3	-15348
▁52	-15349
000.	-15350
▁fir	-15351
amble	-15352
begin	-15353
▁consul	-15354
▁Generic	-15355
▁comprom	-15356
▁diamond	-15357
▁dislike	-15358
▁Scottish	-15359
▁simplify	-15360
▁promising	-15361
ARS	-15362
Fil	-15363
▁'-	-15364
▁Et	-15365
__",	-15366
dark	-15367
heon	-15368
▁maj	-15369
▁Navy	-15370
Single	-15371
▁align	-15372
nothing	-15373
▁sullen	-15374
▁wildly	-15375
▁adorned	-15376
▁awfully	-15377
▁catching	-15378
▁dreaming	-15379
▁readiness	-15380
GraphModule	-15381
PORT	-15382
iage	-15383
▁Aust	-15384
▁Mosc	-15385
▁pomp	-15386
▁elbow	-15387
▁sulph	-15388
▁Output	-15389
▁damage	-15390
▁shrink	-15391
▁husbands	-15392
(3)	-15393
Cle	-15394
oubt	-15395
▁21,	-15396
▁fmt	-15397
aters	-15398
▁Stat	-15399
▁soap	-15400
▁hered	-15401
▁upset	-15402
ildered	-15403
▁Orange	-15404
▁barely	-15405
▁Process	-15406
▁loyalty	-15407
alignment	-15408
▁awaiting	-15409
▁assertion	-15410
▁glittering	-15411
▁travellers	-15412
▁appreciation	-15413
_4	-15414
cb	-15415
zar	-15416
**4*	-15417
oust	-15418
tell	-15419
▁Ford	-15420
▁Sarah	-15421
▁Works	-15422
▁tooth	-15423
alendar	-15424
icating	-15425
isement	-15426
perhaps	-15427
▁Commun	-15428
▁Winter	-15429
▁kisses	-15430
lessness	-15431
variadic	-15432
▁doubted	-15433
▁transpose	-15434
▁productions	-15435
(?:	-15436
2),	-15437
?',	-15438
Down	-15439
▁gap	-15440
[:-1]	-15441
ighed	-15442
▁Soul	-15443
levels	-15444
▁Yanke	-15445
pection	-15446
▁Remove	-15447
▁oppose	-15448
▁solely	-15449
▁Ulysses	-15450
exceptions	-15451
▁Scripture	-15452
▁canonical	-15453
▁peculiarly	-15454
(0.	-15455
15]	-15456
IGH	-15457
igo	-15458
▁MO	-15459
TERS	-15460
vard	-15461
▁Wis	-15462
▁XVI	-15463
▁daw	-15464
----+	-15465
Equal	-15466
igate	-15467
ordan	-15468
seven	-15469
▁Ages	-15470
▁Code	-15471
▁bred	-15472
arette	-15473
commun	-15474
pecial	-15475
▁Broad	-15476
▁Clara	-15477
▁Pathe	-15478
▁clone	-15479
▁skins	-15480
▁Martha	-15481
▁Poland	-15482
▁coffin	-15483
▁exting	-15484
▁frames	-15485
▁scaling	-15486
▁attendant	-15487
▁constitute	-15488
▁proclaimed	-15489
Sm	-15490
17;	-15491
Neg	-15492
fish	-15493
▁Dur	-15494
▁Ent	-15495
▁Ken	-15496
▁Tar	-15497
agram	-15498
obile	-15499
these	-15500
verts	-15501
▁flex	-15502
▁Lydia	-15503
▁chival	-15504
▁escort	-15505
▁mouths	-15506
▁refres	-15507
▁binding	-15508
▁disaster	-15509
▁exciting	-15510
▁allowance	-15511
▁contracted	-15512
▁covariance	-15513
▁eighteenth	-15514
▁ultimately	-15515
▁consolation	-15516
rw	-15517
MIN	-15518
lad	-15519
lyn	-15520
addy	-15521
▁27,	-15522
▁CHR	-15523
▁Mot	-15524
▁Gren	-15525
Logger	-15526
London	-15527
haired	-15528
uesday	-15529
▁Texas	-15530
adaptor	-15531
▁Linear	-15532
▁impuls	-15533
▁slices	-15534
endswith	-15535
[...]
