<pad>	0
<s>	0
</s>	0
<unk>	0
▁t	-0
he	-1
▁a	-2
▁s	-3
ou	-4
in	-5
ha	-6
▁m	-7
▁w	-8
er	-9
re	-10
▁b	-11
nd	-12
▁I	-13
▁the	-14
is	-15
▁f	-16
on	-17
ll	-18
it	-19
▁l	-20
▁d	-21
▁c	-22
or	-23
▁th	-24
hat	-25
es	-26
▁n	-27
▁to	-28
▁y	-29
ar	-30
▁T	-31
en	-32
om	-33
▁you	-34
▁o	-35
ing	-36
▁p	-37
an	-38
et	-39
ve	-40
▁he	-41
▁h	-42
▁A	-43
▁and	-44
ot	-45
▁g	-46
ck	-47
at	-48
▁W	-49
▁of	-50
ow	-51
ay	-52
▁D	-53
st	-54
▁be	-55
se	-56
▁in	-57
le	-58
ome	-59
▁R	-60
▁is	-61
gh	-62
▁me	-63
ce	-64
▁U	-65
▁ha	-66
ut	-67
uck	-68
▁S	-69
ith	-70
▁e	-71
ad	-72
ucky	-73
▁Ducky	-74
ser	-75
▁M	-76
▁that	-77
▁User	-78
▁C	-79
▁my	-80
ch	-81
ld	-82
oo	-83
▁li	-84
ke	-85
ri	-86
▁B	-87
ght	-88
▁with	-89
▁it	-90
▁st	-91
ul	-92
▁not	-93
▁thou	-94
▁for	-95
al	-96
ir	-97
▁N	-98
ill	-99
▁O	-100
im	-101
▁u	-102
▁F	-103
▁And	-104
ur	-105
ent	-106
ed	-107
▁J	-108
ET	-109
ver	-110
▁L	-111
▁de	-112
▁H	-113
UL	-114
▁on	-115
ter	-116
▁lo	-117
id	-118
am	-119
▁P	-120
▁What	-121
ly	-122
ell	-123
▁so	-124
▁this	-125
ood	-126
our	-127
▁as	-128
▁do	-129
ink	-130
ain	-131
omeo	-132
▁re	-133
▁Romeo	-134
▁k	-135
▁That	-136
ore	-137
her	-138
EO	-139
OM	-140
OMEO	-141
▁ROMEO	-142
ight	-143
▁her	-144
▁love	-145
as	-146
ion	-147
▁an	-148
▁The	-149
▁thy	-150
▁think	-151
han	-152
ee	-153
▁G	-154
out	-155
▁have	-156
est	-157
▁fa	-158
ra	-159
ould	-160
EN	-161
if	-162
▁your	-163
▁will	-164
ear	-165
▁Th	-166
▁but	-167
ea	-168
▁thee	-169
▁sha	-170
hi	-171
un	-172
art	-173
▁his	-174
IO	-175
ag	-176
all	-177
[_	-178
_]	-179
il	-180
▁[_	-181
._]	-182
IET	-183
▁JUL	-184
▁JULIET	-185
▁like	-186
▁ne	-187
op	-188
RS	-189
ath	-190
ake	-191
▁sh	-192
▁E	-193
ant	-194
▁she	-195
▁him	-196
ind	-197
▁mu	-198
iet	-199
▁can	-200
▁con	-201
ord	-202
▁LA	-203
▁good	-204
AR	-205
▁man	-206
▁r	-207
one	-208
▁up	-209
AP	-210
ap	-211
APUL	-212
APULET	-213
▁CAPULET	-214
ue	-215
▁fr	-216
▁su	-217
ER	-218
▁It	-219
▁ab	-220
▁too	-221
▁whe	-222
▁v	-223
ous	-224
▁no	-225
▁shall	-226
qu	-227
ry	-228
ess	-229
▁are	-230
▁kn	-231
▁all	-232
uliet	-233
RSE	-234
▁NU	-235
▁we	-236
▁NURSE	-237
ho	-238
ine	-239
▁Juliet	-240
oth	-241
▁by	-242
▁what	-243
end	-244
ady	-245
▁sp	-246
▁com	-247
ort	-248
▁from	-249
▁go	-250
▁But	-251
ct	-252
and	-253
ven	-254
▁To	-255
▁one	-256
ound	-257
▁more	-258
row	-259
▁at	-260
nter	-261
alt	-262
ere	-263
ak	-264
▁night	-265
ast	-266
▁pr	-267
RI	-268
ive	-269
▁ar	-270
▁say	-271
ful	-272
▁Do	-273
▁if	-274
▁Cap	-275
▁day	-276
us	-277
sel	-278
▁am	-279
▁qu	-280
▁sw	-281
▁hat	-282
▁here	-283
▁some	-284
▁there	-285
ong	-286
ook	-287
ulet	-288
▁Enter	-289
▁Capulet	-290
CE	-291
ep	-292
ge	-293
ic	-294
ie	-295
ame	-296
▁Y	-297
ate	-298
ies	-299
▁about	-300
pp	-301
▁j	-302
ack	-303
▁death	-304
▁bl	-305
hich	-306
ure	-307
▁now	-308
▁know	-309
Ex	-310
OL	-311
hy	-312
are	-313
▁tr	-314
hing	-315
▁than	-316
mb	-317
ard	-318
▁al	-319
ENV	-320
▁un	-321
OLIO	-322
very	-323
▁For	-324
▁BENV	-325
▁BENVOLIO	-326
CU	-327
yb	-328
CUT	-329
ers	-330
ite	-331
ings	-332
urse	-333
▁MER	-334
CUTIO	-335
ybalt	-336
▁MERCUTIO	-337
▁our	-338
▁would	-339
▁Tybalt	-340
▁pl	-341
RIAR	-342
▁FRIAR	-343
au	-344
self	-345
nce	-346
▁Go	-347
▁mo	-348
fore	-349
vers	-350
▁let	-351
▁see	-352
ation	-353
▁come	-354
▁ho	-355
▁or	-356
▁sir	-357
WR	-358
aw	-359
ENCE	-360
▁LAWR	-361
▁then	-362
▁they	-363
▁Nurse	-364
▁LAWRENCE	-365
ime	-366
▁ag	-367
▁out	-368
▁them	-369
▁well	-370
▁when	-371
io	-372
os	-373
ble	-374
eel	-375
▁My	-376
▁hath	-377
▁their	-378
alk	-379
nder	-380
▁art	-381
▁was	-382
▁should	-383
fe	-384
ps	-385
▁’	-386
res	-387
▁ey	-388
▁mar	-389
▁wor	-390
▁fair	-391
ves	-392
▁en	-393
▁ex	-394
DY	-395
here	-396
▁dead	-397
▁much	-398
oy	-399
ice	-400
▁LADY	-401
▁feel	-402
age	-403
eet	-404
▁sl	-405
ont	-406
omet	-407
▁did	-408
▁dis	-409
▁mad	-410
▁Than	-411
ty	-412
▁po	-413
▁wo	-414
▁may	-415
▁lady	-416
ON	-417
ust	-418
ouse	-419
▁hea	-420
▁yet	-421
▁Thou	-422
▁talk	-423
▁tell	-424
um	-425
ise	-426
oun	-427
ince	-428
riar	-429
▁new	-430
▁This	-431
▁again	-432
aid	-433
eak	-434
▁Is	-435
entle	-436
▁make	-437
▁such	-438
▁word	-439
▁Friar	-440
eop	-441
ish	-442
eople	-443
▁time	-444
ol	-445
▁V	-446
ose	-447
▁hel	-448
ather	-449
ontag	-450
other	-451
▁hand	-452
▁hast	-453
▁Montag	-454
versation	-455
ig	-456
th	-457
erc	-458
unt	-459
▁Be	-460
▁mis	-461
▁way	-462
▁stor	-463
▁people	-464
▁conversation	-465
urn	-466
▁As	-467
▁tw	-468
ence	-469
ther	-470
▁bre	-471
▁ear	-472
▁who	-473
▁give	-474
▁mean	-475
▁must	-476
▁part	-477
▁light	-478
▁sound	-479
wn	-480
orn	-481
way	-482
▁co	-483
aris	-484
▁How	-485
▁Come	-486
▁look	-487
▁Paris	-488
▁sweet	-489
▁where	-490
day	-491
itt	-492
man	-493
▁Pr	-494
▁br	-495
▁fl	-496
akes	-497
▁Why	-498
▁You	-499
▁end	-500
▁how	-501
▁back	-502
▁upon	-503
▁Thank	-504
▁which	-505
▁gentle	-506
el	-507
ng	-508
ide	-509
▁us	-510
▁dre	-511
▁old	-512
▁true	-513
▁heart	-514
▁somet	-515
▁these	-516
me	-517
pe	-518
ire	-519
ity	-520
▁In	-521
▁cl	-522
ears	-523
▁pre	-524
orrow	-525
▁doth	-526
▁name	-527
▁take	-528
AN	-529
de	-530
Exe	-531
▁Of	-532
▁So	-533
▁hop	-534
▁Good	-535
Exeunt	-536
▁other	-537
ick	-538
ilt	-539
ove	-540
▁St	-541
▁ke	-542
▁se	-543
atch	-544
mber	-545
▁hon	-546
▁even	-547
▁find	-548
▁gone	-549
▁hear	-550
▁stay	-551
▁were	-552
▁dream	-553
▁Montague	-554
AL	-555
imp	-556
▁ad	-557
▁fo	-558
▁op	-559
▁ri	-560
Exit	-561
ally	-562
ance	-563
ving	-564
▁any	-565
▁fri	-566
▁chan	-567
▁eyes	-568
▁Where	-569
▁comes	-570
▁‘	-571
ALT	-572
own	-573
ull	-574
▁By	-575
▁No	-576
▁Or	-577
▁sm	-578
▁cha	-579
▁With	-580
▁call	-581
▁hope	-582
▁kind	-583
▁Which	-584
▁speak	-585
▁heaven	-586
ci	-587
hed	-588
per	-589
▁An	-590
▁af	-591
▁gr	-592
able	-593
ither	-594
ittle	-595
▁keep	-596
▁long	-597
▁marri	-598
▁little	-599
ef	-600
ave	-601
▁If	-602
rave	-603
▁ban	-604
▁beg	-605
▁bet	-606
▁men	-607
atter	-608
▁Merc	-609
▁There	-610
▁friend	-611
▁something	-612
ace	-613
ins	-614
ree	-615
ten	-616
▁sc	-617
ough	-618
ower	-619
ress	-620
utio	-621
▁God	-622
▁gre	-623
▁had	-624
▁Then	-625
▁been	-626
▁dear	-627
▁help	-628
▁very	-629
▁Mercutio	-630
,—	-631
AM	-632
ife	-633
▁Sc	-634
▁ch	-635
aint	-636
▁She	-637
▁des	-638
aught	-639
▁mine	-640
▁makes	-641
em	-642
sw	-643
to	-644
ene	-645
tis	-646
▁Ay	-647
▁wr	-648
awre	-649
▁Now	-650
▁bed	-651
▁str	-652
▁happ	-653
▁life	-654
▁most	-655
▁Lawre	-656
▁stand	-657
▁Prince	-658
▁Lawrence	-659
CEN	-660
▁He	-661
CENE	-662
leep	-663
▁own	-664
▁try	-665
▁both	-666
▁ever	-667
▁SCENE	-668
▁every	-669
IS	-670
ale	-671
raw	-672
▁II	-673
ARIS	-674
eace	-675
imes	-676
well	-677
▁bri	-678
▁wit	-679
▁Here	-680
▁Lady	-681
▁fear	-682
▁hour	-683
▁lord	-684
▁play	-685
▁wilt	-686
▁PARIS	-687
▁Scene	-688
▁blood	-689
▁could	-690
▁under	-691
▁young	-692
▁before	-693
▁father	-694
IRS	-695
ark	-696
der	-697
fer	-698
ger	-699
oud	-700
▁We	-701
IRST	-702
▁Not	-703
▁Sha	-704
▁Who	-705
▁chi	-706
▁die	-707
▁two	-708
▁FIRST	-709
▁hence	-710
▁house	-711
▁honest	-712
▁matter	-713
US	-714
int	-715
urs	-716
ment	-717
▁lea	-718
▁war	-719
▁away	-720
▁best	-721
▁cann	-722
▁comp	-723
▁cour	-724
▁head	-725
▁live	-726
▁made	-727
▁maid	-728
▁soon	-729
▁child	-730
▁often	-731
▁letter	-732
PS	-733
ud	-734
aut	-735
erv	-736
iss	-737
old	-738
oul	-739
ows	-740
AMPS	-741
arth	-742
ause	-743
fort	-744
ness	-745
▁Let	-746
▁Ver	-747
▁fav	-748
▁joy	-749
▁lie	-750
inion	-751
ished	-752
▁face	-753
▁need	-754
▁rest	-755
▁stre	-756
AMPSON	-757
▁beaut	-758
▁never	-759
▁story	-760
aughter	-761
▁cannot	-762
▁sounds	-763
▁SAMPSON	-764
OR	-765
ne	-766
ANT	-767
ERV	-768
ase	-769
hen	-770
ier	-771
igh	-772
▁gl	-773
come	-774
▁bid	-775
▁get	-776
▁har	-777
▁put	-778
▁use	-779
▁woe	-780
▁SERV	-781
▁Well	-782
▁pray	-783
▁earth	-784
▁happy	-785
▁peace	-786
▁tears	-787
▁though	-788
▁SERVANT	-789
AG	-790
od	-791
ans	-792
ass	-793
ond	-794
uri	-795
arry	-796
urch	-797
ward	-798
▁Thy	-799
▁eye	-800
▁son	-801
▁sun	-802
▁wee	-803
orite	-804
ousin	-805
▁down	-806
▁fall	-807
▁holy	-808
▁want	-809
▁means	-810
▁still	-811
▁world	-812
▁better	-813
▁cousin	-814
▁things	-815
▁married	-816
▁opinion	-817
▁thought	-818
▁favorite	-819
YB	-820
ab	-821
cc	-822
iv	-823
ks	-824
ms	-825
ach	-826
vol	-827
▁dr	-828
earn	-829
eter	-830
hile	-831
ison	-832
▁TYB	-833
▁che	-834
▁don	-835
▁gri	-836
▁pro	-837
▁run	-838
▁thr	-839
aking	-840
ction	-841
ounty	-842
stand	-843
▁hate	-844
▁just	-845
▁nice	-846
▁simp	-847
ervant	-848
illain	-849
▁Veron	-850
▁learn	-851
▁thing	-852
▁TYBALT	-853
dd	-854
ua	-855
USI	-856
ars	-857
hes	-858
ile	-859
men	-860
ock	-861
ents	-862
ious	-863
swer	-864
▁app	-865
▁exc	-866
thing	-867
▁cons	-868
▁coun	-869
▁kill	-870
▁kins	-871
▁late	-872
▁lies	-873
▁lips	-874
▁many	-875
▁mist	-876
▁morn	-877
▁same	-878
▁wife	-879
member	-880
▁early	-881
▁grave	-882
▁great	-883
▁might	-884
▁place	-885
▁slain	-886
▁County	-887
▁breath	-888
▁mother	-889
▁myself	-890
▁stories	-891
▁banished	-892
▁daughter	-893
EG	-894
UE	-895
ft	-896
▁"	-897
NCE	-898
ORY	-899
REG	-900
ary	-901
ati	-902
ign	-903
led	-904
rel	-905
sic	-906
ult	-907
▁Un	-908
▁le	-909
▁ra	-910
▁Ben	-911
▁PRI	-912
▁dif	-913
▁ere	-914
▁ill	-915
▁lot	-916
antua	-917
▁GREG	-918
▁soul	-919
estion	-920
▁Shall	-921
▁sleep	-922
▁small	-923
▁those	-924
▁Mantua	-925
▁PRINCE	-926
▁Verona	-927
▁change	-928
▁GREGORY	-929
be	-930
ew	-931
pt	-932
ro	-933
ub	-934
vy	-935
xt	-936
Tis	-937
its	-938
▁Al	-939
band	-940
llow	-941
ords	-942
rows	-943
▁Mad	-944
▁adv	-945
▁fam	-946
▁mur	-947
▁sad	-948
▁sin	-949
aster	-950
volio	-951
▁They	-952
▁When	-953
▁care	-954
▁conf	-955
▁forg	-956
▁glad	-957
▁hard	-958
▁quar	-959
▁till	-960
onight	-961
▁Peter	-962
▁being	-963
▁music	-964
▁answer	-965
▁church	-966
▁wonder	-967
▁another	-968
▁villain	-969
▁Benvolio	-970
▁remember	-971
▁gentleman	-972
▁understand	-973
CI	-974
EC	-975
ONT	-976
ail	-977
ist	-978
les	-979
lse	-980
ool	-981
umb	-982
urt	-983
▁Re	-984
▁im	-985
AGUE	-986
CIAN	-987
ETER	-988
less	-989
pect	-990
▁Nay	-991
▁ask	-992
▁bel	-993
▁enj	-994
▁hus	-995
▁per	-996
▁rem	-997
▁ser	-998
▁tor	-999
asure	-1000
cause	-1001
ought	-1002
▁Give	-1003
▁MONT	-1004
▁MUSI	-1005
▁Some	-1006
▁Your	-1007
▁cell	-1008
▁full	-1009
▁mind	-1010
▁move	-1011
▁news	-1012
▁none	-1013
▁pati	-1014
▁poor	-1015
▁turn	-1016
ursday	-1017
▁Being	-1018
▁PETER	-1019
▁alone	-1020
▁faith	-1021
▁grief	-1022
▁hands	-1023
▁haste	-1024
▁lives	-1025
▁thank	-1026
▁comfort	-1027
▁husband	-1028
▁nothing	-1029
▁tonight	-1030
▁MONTAGUE	-1031
▁MUSICIAN	-1032
▁Thursday	-1033
▁question	-1034
AS	-1035
HAS	-1036
anc	-1037
ats	-1038
ied	-1039
inn	-1040
oke	-1041
ost	-1042
une	-1043
▁Ah	-1044
▁jo	-1045
▁ro	-1046
▁wh	-1047
ains	-1048
irst	-1049
rant	-1050
tend	-1051
▁All	-1052
▁Her	-1053
▁act	-1054
▁bod	-1055
▁lam	-1056
▁off	-1057
▁ple	-1058
▁sec	-1059
▁set	-1060
▁tom	-1061
▁tri	-1062
▁unt	-1063
▁wel	-1064
HASAR	-1065
ardon	-1066
where	-1067
▁BALT	-1068
▁book	-1069
▁kiss	-1070
▁last	-1071
▁only	-1072
▁said	-1073
▁send	-1074
▁weep	-1075
▁Madam	-1076
▁after	-1077
▁enjoy	-1078
▁helps	-1079
▁since	-1080
▁thine	-1081
▁watch	-1082
▁differ	-1083
▁dreams	-1084
▁master	-1085
▁murder	-1086
▁really	-1087
▁simple	-1088
▁kinsman	-1089
▁morning	-1090
▁welcome	-1091
▁tomorrow	-1092
▁BALTHASAR	-1093
.—	-1094
up	-1095
een	-1096
ike	-1097
red	-1098
ret	-1099
sed	-1100
ues	-1101
▁Fr	-1102
▁gi	-1103
ason	-1104
ling	-1105
oose	-1106
▁III	-1107
▁May	-1108
▁big	-1109
▁bit	-1110
▁imp	-1111
▁law	-1112
▁mer	-1113
▁nat	-1114
▁nor	-1115
▁pri	-1116
▁res	-1117
▁sil	-1118
▁why	-1119
ently	-1120
ument	-1121
▁Doth	-1122
▁Fare	-1123
▁Have	-1124
▁Hold	-1125
▁Will	-1126
▁bear	-1127
▁chee	-1128
▁cont	-1129
▁disc	-1130
▁dost	-1131
▁less	-1132
▁open	-1133
▁real	-1134
▁says	-1135
▁tong	-1136
▁wall	-1137
▁wind	-1138
▁House	-1139
▁Marry	-1140
▁first	-1141
▁forth	-1142
▁heavy	-1143
▁inter	-1144
▁leave	-1145
▁point	-1146
▁quick	-1147
▁quiet	-1148
▁right	-1149
▁start	-1150
▁stran	-1151
▁today	-1152
▁words	-1153
▁years	-1154
▁hither	-1155
▁poison	-1156
▁Servant	-1157
▁without	-1158
▁Farewell	-1159
▁Therefore	-1160
▁conversations	-1161
!—	-1162
iz	-1163
lt	-1164
alm	-1165
any	-1166
ask	-1167
ens	-1168
esh	-1169
ily	-1170
oss	-1171
rag	-1172
▁Sp	-1173
▁cr	-1174
▁ye	-1175
enty	-1176
▁One	-1177
▁lay	-1178
▁mon	-1179
▁tre	-1180
▁wom	-1181
▁Take	-1182
▁body	-1183
▁comm	-1184
▁days	-1185
▁done	-1186
▁else	-1187
▁fool	-1188
▁grow	-1189
▁next	-1190
▁once	-1191
▁pass	-1192
▁supp	-1193
▁tend	-1194
▁wise	-1195
▁Somet	-1196
▁bring	-1197
▁court	-1198
▁shame	-1199
▁short	-1200
▁times	-1201
▁whose	-1202
▁beauty	-1203
▁flower	-1204
▁pardon	-1205
▁sorrow	-1206
▁tongue	-1207
▁quarrel	-1208
▁through	-1209
▁warrant	-1210
▁marriage	-1211
▁therefore	-1212
CT	-1213
ac	-1214
az	-1215
by	-1216
ff	-1217
og	-1218
OND	-1219
ade	-1220
eth	-1221
hip	-1222
ild	-1223
lic	-1224
▁At	-1225
▁IV	-1226
▁sk	-1227
▁va	-1228
esee	-1229
hold	-1230
ones	-1231
osal	-1232
ways	-1233
▁ACT	-1234
▁SEC	-1235
▁air	-1236
▁arm	-1237
▁boy	-1238
▁cho	-1239
▁gra	-1240
▁min	-1241
▁pur	-1242
▁saw	-1243
▁wed	-1244
ready	-1245
▁Hath	-1246
▁came	-1247
▁curi	-1248
▁dare	-1249
▁dist	-1250
▁draw	-1251
▁ears	-1252
▁fell	-1253
▁hide	-1254
▁high	-1255
▁hurt	-1256
▁imag	-1257
▁pale	-1258
▁pret	-1259
▁read	-1260
▁rich	-1261
▁stir	-1262
▁stra	-1263
▁town	-1264
perate	-1265
▁Rosal	-1266
▁black	-1267
▁bound	-1268
▁break	-1269
▁bride	-1270
▁calls	-1271
▁madam	-1272
▁power	-1273
▁shalt	-1274
▁while	-1275
▁SECOND	-1276
▁follow	-1277
▁honour	-1278
▁twenty	-1279
▁within	-1280
▁against	-1281
▁already	-1282
▁himself	-1283
▁matters	-1284
▁Capulets	-1285
▁Rosaline	-1286
▁mistress	-1287
▁straight	-1288
▁yourself	-1289
▁desperate	-1290
ls	-1291
ny	-1292
ug	-1293
ang	-1294
ces	-1295
eal	-1296
eed	-1297
for	-1298
ial	-1299
ory	-1300
pon	-1301
ump	-1302
ury	-1303
ush	-1304
▁On	-1305
▁ap	-1306
▁aw	-1307
▁gu	-1308
ians	-1309
ouds	-1310
reet	-1311
yard	-1312
▁Can	-1313
▁Did	-1314
▁Nor	-1315
▁acc	-1316
▁del	-1317
▁dep	-1318
▁dev	-1319
▁ent	-1320
▁fun	-1321
▁sit	-1322
cient	-1323
erson	-1324
iness	-1325
▁burn	-1326
▁case	-1327
▁does	-1328
▁foot	-1329
▁four	-1330
▁gold	-1331
▁meet	-1332
▁over	-1333
▁past	-1334
▁pres	-1335
▁show	-1336
▁sing	-1337
▁wish	-1338
▁work	-1339
▁writ	-1340
▁above	-1341
▁feels	-1342
▁fight	-1343
▁marry	-1344
▁noble	-1345
▁swear	-1346
▁torch	-1347
▁vault	-1348
▁youth	-1349
fection	-1350
▁always	-1351
▁banish	-1352
▁course	-1353
▁forget	-1354
▁ground	-1355
▁others	-1356
▁second	-1357
▁because	-1358
▁company	-1359
▁strange	-1360
▁talking	-1361
▁monument	-1362
▁somewhere	-1363
▁everything	-1364
AT	-1365
CH	-1366
mp	-1367
so	-1368
ss	-1369
bye	-1370
den	-1371
ert	-1372
ict	-1373
ned	-1374
ude	-1375
use	-1376
▁Me	-1377
▁Sh	-1378
▁es	-1379
▁fe	-1380
▁wa	-1381
ATCH	-1382
aith	-1383
ames	-1384
atis	-1385
east	-1386
ench	-1387
etch	-1388
iful	-1389
ming	-1390
olog	-1391
orth	-1392
osom	-1393
pare	-1394
peci	-1395
reat	-1396
ully	-1397
usic	-1398
▁His	-1399
▁Too	-1400
▁Yet	-1401
▁bir	-1402
▁cor	-1403
▁dog	-1404
▁far	-1405
▁hot	-1406
▁opp	-1407
▁pil	-1408
▁rep	-1409
▁sea	-1410
▁sen	-1411
▁sub	-1412
▁unc	-1413
arden	-1414
ities	-1415
ortal	-1416
▁Cell	-1417
▁Look	-1418
▁More	-1419
▁Stay	-1420
▁bite	-1421
▁char	-1422
▁cold	-1423
▁dark	-1424
▁disp	-1425
▁doom	-1426
▁enem	-1427
▁fare	-1428
▁fire	-1429
▁flow	-1430
▁goes	-1431
▁hold	-1432
▁home	-1433
▁into	-1434
▁merc	-1435
▁near	-1436
▁shri	-1437
▁slow	-1438
▁stop	-1439
▁sure	-1440
▁tomb	-1441
▁warm	-1442
▁wast	-1443
▁wear	-1444
▁woes	-1445
enture	-1446
▁Hence	-1447
▁WATCH	-1448
▁besee	-1449
▁bones	-1450
▁bosom	-1451
▁close	-1452
▁famil	-1453
▁feast	-1454
▁found	-1455
▁going	-1456
▁keeps	-1457
▁merry	-1458
▁serve	-1459
▁shows	-1460
▁sight	-1461
▁sword	-1462
▁Garden	-1463
▁Street	-1464
▁beginn	-1465
▁clouds	-1466
▁especi	-1467
▁lament	-1468
▁person	-1469
▁pretty	-1470
▁silver	-1471
▁tender	-1472
▁ancient	-1473
▁chamber	-1474
▁confess	-1475
▁counsel	-1476
▁curious	-1477
▁friends	-1478
▁imagine	-1479
▁quickly	-1480
▁someone	-1481
▁anything	-1482
▁farewell	-1483
▁interest	-1484
▁Montagues	-1485
▁Sometimes	-1486
▁wonderful	-1487
▁churchyard	-1488
▁especially	-1489
lf	-1490
mm	-1491
ts	-1492
ber	-1493
ges	-1494
irt	-1495
ked	-1496
oom	-1497
ors	-1498
ren	-1499
uch	-1500
▁Ar	-1501
▁Ch	-1502
▁Po	-1503
▁id	-1504
▁te	-1505
▁ve	-1506
dden	-1507
deed	-1508
ging	-1509
head	-1510
hood	-1511
ield	-1512
ning	-1513
oice	-1514
ping	-1515
ring	-1516
sand	-1517
▁Cha	-1518
▁Out	-1519
▁Was	-1520
▁add	-1521
▁aff	-1522
▁age	-1523
▁dag	-1524
▁dam	-1525
▁def	-1526
▁dri	-1527
▁gir	-1528
▁has	-1529
▁hit	-1530
▁hum	-1531
▁mom	-1532
▁sle	-1533
▁sur	-1534
▁ter	-1535
atisf	-1536
emper	-1537
fully	-1538
iting	-1539
otion	-1540
ually	-1541
▁Call	-1542
▁Lord	-1543
▁Love	-1544
▁Page	-1545
▁Tell	-1546
▁Till	-1547
▁Turn	-1548
▁calm	-1549
▁deep	-1550
▁each	-1551
▁fing	-1552
▁food	-1553
▁fort	-1554
▁hell	-1555
▁jest	-1556
▁lead	-1557
▁mark	-1558
▁pain	-1559
▁sick	-1560
▁sole	-1561
▁stri	-1562
▁vile	-1563
▁wedd	-1564
▁wret	-1565
ounter	-1566
▁Alack	-1567
▁belie	-1568
▁canst	-1569
▁corse	-1570
▁flesh	-1571
▁gives	-1572
▁hours	-1573
▁looks	-1574
▁quite	-1575
▁sense	-1576
▁stars	-1577
▁trust	-1578
▁behold	-1579
▁bitter	-1580
▁bloody	-1581
▁chance	-1582
▁dagger	-1583
▁enough	-1584
▁having	-1585
▁import	-1586
▁indeed	-1587
▁itself	-1588
▁longer	-1589
▁lovers	-1590
▁loving	-1591
▁reason	-1592
▁sudden	-1593
▁woeful	-1594
▁beseech	-1595
▁fearful	-1596
▁measure	-1597
▁patient	-1598
▁thyself	-1599
▁kindness	-1600
▁patience	-1601
▁thousand	-1602
▁gentlemen	-1603
."	-1604
BR	-1605
bt	-1606
gs	-1607
ip	-1608
no	-1609
pl	-1610
tw	-1611
wo	-1612
The	-1613
aly	-1614
bed	-1615
con	-1616
dom	-1617
ery	-1618
ets	-1619
fic	-1620
hal	-1621
has	-1622
hec	-1623
kes	-1624
oof	-1625
rac	-1626
rah	-1627
uff	-1628
uly	-1629
und	-1630
ute	-1631
▁De	-1632
▁Sw	-1633
▁yo	-1634
BRAM	-1635
alth	-1636
ants	-1637
augh	-1638
cher	-1639
each	-1640
eous	-1641
fect	-1642
inks	-1643
itiz	-1644
ngth	-1645
over	-1646
ract	-1647
read	-1648
ries	-1649
teen	-1650
ters	-1651
ting	-1652
udge	-1653
▁Hie	-1654
▁See	-1655
▁Two	-1656
▁bad	-1657
▁bow	-1658
▁bus	-1659
▁coz	-1660
▁cry	-1661
▁cut	-1662
▁dou	-1663
▁emp	-1664
▁env	-1665
▁foe	-1666
▁int	-1667
▁lad	-1668
▁nay	-1669
▁pen	-1670
▁pun	-1671
▁ran	-1672
▁ret	-1673
▁val	-1674
▁vis	-1675
▁vow	-1676
▁wis	-1677
▁woo	-1678
eness	-1679
enter	-1680
hasar	-1681
ining	-1682
ology	-1683
othec	-1684
stant	-1685
▁Balt	-1686
▁Both	-1687
▁From	-1688
▁Hall	-1689
▁Like	-1690
▁Room	-1691
▁conj	-1692
▁crow	-1693
▁desp	-1694
▁gall	-1695
▁girl	-1696
▁hang	-1697
▁hoar	-1698
▁lark	-1699
▁rose	-1700
▁seen	-1701
▁sent	-1702
▁side	-1703
▁sigh	-1704
▁slay	-1705
▁slew	-1706
▁tale	-1707
▁trag	-1708
▁unto	-1709
▁weak	-1710
▁ABRAM	-1711
▁Maybe	-1712
▁Saint	-1713
▁Speak	-1714
▁These	-1715
▁Watch	-1716
▁agree	-1717
▁along	-1718
▁anger	-1719
▁appre	-1720
▁brave	-1721
▁cause	-1722
▁cheek	-1723
▁cords	-1724
▁enemy	-1725
▁exile	-1726
▁fetch	-1727
▁goose	-1728
▁joint	-1729
▁maids	-1730
▁match	-1731
▁moved	-1732
▁names	-1733
▁noise	-1734
▁offer	-1735
▁prove	-1736
▁ready	-1737
▁saint	-1738
▁shape	-1739
▁skill	-1740
▁spoke	-1741
▁three	-1742
▁thumb	-1743
▁worth	-1744
▁wound	-1745
itizens	-1746
▁attend	-1747
▁breast	-1748
▁bright	-1749
▁charac	-1750
▁cheeks	-1751
▁ending	-1752
▁family	-1753
▁living	-1754
▁lovely	-1755
▁maiden	-1756
▁morrow	-1757
▁nature	-1758
▁rather	-1759
▁satisf	-1760
▁saying	-1761
▁speaks	-1762
▁yonder	-1763
othecary	-1764
▁Chamber	-1765
▁Goodbye	-1766
▁brother	-1767
▁endings	-1768
▁envious	-1769
▁feeling	-1770
▁flowers	-1771
▁herself	-1772
▁servant	-1773
▁Servants	-1774
▁families	-1775
▁feelings	-1776
▁fourteen	-1777
▁strength	-1778
▁Balthasar	-1779
▁adventure	-1780
▁different	-1781
▁banishment	-1782
▁differently	-1783
▁interesting	-1784
,’	-1785
HN	-1786
af	-1787
cl	-1788
hn	-1789
ix	-1790
mn	-1791
pr	-1792
AGE	-1793
God	-1794
OHN	-1795
agg	-1796
air	-1797
ash	-1798
ect	-1799
eds	-1800
edy	-1801
elt	-1802
get	-1803
gri	-1804
ift	-1805
nes	-1806
ohn	-1807
pic	-1808
str	-1809
unk	-1810
uth	-1811
wom	-1812
▁Am	-1813
▁Bl	-1814
▁Ha	-1815
▁Pl	-1816
▁TH	-1817
▁bu	-1818
They	-1819
With	-1820
aken	-1821
angu	-1822
ated	-1823
ched	-1824
ches	-1825
ends	-1826
enge	-1827
ever	-1828
host	-1829
ider	-1830
ired	-1831
ires	-1832
iron	-1833
ives	-1834
ivil	-1835
most	-1836
noon	-1837
ouch	-1838
ours	-1839
peri	-1840
room	-1841
upid	-1842
ween	-1843
▁Com	-1844
▁Ere	-1845
▁Get	-1846
▁Hap	-1847
▁Hel	-1848
▁Our	-1849
▁Sir	-1850
▁Wel	-1851
▁ass	-1852
▁bro	-1853
▁cap	-1854
▁car	-1855
▁cle	-1856
▁den	-1857
▁dew	-1858
▁div	-1859
▁dry	-1860
▁eas	-1861
▁enc	-1862
▁few	-1863
▁gen	-1864
▁got	-1865
▁gro	-1866
▁isn	-1867
▁lis	-1868
▁met	-1869
▁pie	-1870
▁pub	-1871
▁ref	-1872
▁rel	-1873
▁shr	-1874
▁ten	-1875
anish	-1876
cious	-1877
essed	-1878
ickle	-1879
imely	-1880
ition	-1881
itten	-1882
night	-1883
ouses	-1884
roach	-1885
under	-1886
unity	-1887
uring	-1888
ustom	-1889
▁Alas	-1890
▁Anon	-1891
▁Even	-1892
▁JOHN	-1893
▁John	-1894
▁Poor	-1895
▁Such	-1896
▁Sure	-1897
▁Upon	-1898
▁Wilt	-1899
▁Youn	-1900
▁also	-1901
▁begg	-1902
▁bold	-1903
▁braw	-1904
▁buri	-1905
▁clos	-1906
▁coll	-1907
▁cond	-1908
▁cook	-1909
▁deal	-1910
▁ease	-1911
▁feud	-1912
▁fine	-1913
▁five	-1914
▁form	-1915
▁hair	-1916
▁half	-1917
▁hare	-1918
▁heir	-1919
▁laid	-1920
▁mask	-1921
▁moon	-1922
▁nine	-1923
▁note	-1924
▁ones	-1925
▁poss	-1926
▁prom	-1927
▁ring	-1928
▁rude	-1929
▁spir	-1930
▁summ	-1931
▁tast	-1932
▁tear	-1933
▁thus	-1934
▁told	-1935
▁took	-1936
▁tort	-1937
▁wake	-1938
▁walk	-1939
▁wild	-1940
▁wits	-1941
Within	-1942
alance	-1943
ertain	-1944
iteous	-1945
stance	-1946
▁Could	-1947
▁Cupid	-1948
▁Death	-1949
▁Every	-1950
▁Italy	-1951
▁Music	-1952
▁Sweet	-1953
▁asked	-1954
▁brief	-1955
▁carry	-1956
▁chide	-1957
▁civil	-1958
▁count	-1959
▁dance	-1960
▁didst	-1961
▁funny	-1962
▁ghost	-1963
▁guest	-1964
▁hadst	-1965
▁heads	-1966
▁knock	-1967
▁known	-1968
▁laugh	-1969
▁needs	-1970
▁paint	-1971
▁pract	-1972
▁proud	-1973
▁quoth	-1974
▁rough	-1975
▁scorn	-1976
▁sighs	-1977
▁state	-1978
▁surpr	-1979
▁teach	-1980
▁truly	-1981
▁truth	-1982
▁turns	-1983
▁voice	-1984
▁wench	-1985
▁whole	-1986
▁wings	-1987
▁wrong	-1988
▁yours	-1989
▁Gentle	-1990
▁asking	-1991
▁asleep	-1992
▁awhile	-1993
▁choice	-1994
▁either	-1995
▁excuse	-1996
▁expect	-1997
▁fellow	-1998
▁houses	-1999
▁joyful	-2000
▁ladies	-2001
▁mortal	-2002
▁pilgri	-2003
▁public	-2004
▁return	-2005
▁shrift	-2006
▁swords	-2007
▁toward	-2008
▁wisdom	-2009
▁withal	-2010
▁Because	-2011
▁Welcome	-2012
▁believe	-2013
▁between	-2014
▁blessed	-2015
▁consent	-2016
▁consort	-2017
▁delight	-2018
▁fingers	-2019
▁fortune	-2020
▁learned	-2021
▁letters	-2022
▁meaning	-2023
▁prepare	-2024
▁respect	-2025
▁suppose	-2026
▁weather	-2027
▁wedding	-2028
▁written	-2029
▁exciting	-2030
▁honestly	-2031
▁pleasure	-2032
▁thinking	-2033
▁untimely	-2034
▁affection	-2035
▁afternoon	-2036
▁musicians	-2037
▁questions	-2038
▁satisfied	-2039
▁sometimes	-2040
▁honourable	-2041
▁lamentable	-2042
,"	-2043
.’	-2044
?’	-2045
Ay	-2046
Kn	-2047
OT	-2048
bb	-2049
bs	-2050
dy	-2051
ex	-2052
gr	-2053
rg	-2054
sh	-2055
uc	-2056
ARY	-2057
HEC	-2058
HOR	-2059
POT	-2060
Ret	-2061
adv	-2062
amm	-2063
aze	-2064
che	-2065
cks	-2066
ead	-2067
eft	-2068
els	-2069
gle	-2070
hap	-2071
ieu	-2072
iew	-2073
iol	-2074
ior	-2075
ips	-2076
irc	-2077
ker	-2078
ler	-2079
let	-2080
nam	-2081
rew	-2082
tre	-2083
uit	-2084
ume	-2085
ung	-2086
uts	-2087
why	-2088
▁Ab	-2089
▁Ap	-2090
▁Sm	-2091
▁Tr	-2092
▁Wh	-2093
▁ay	-2094
▁ty	-2095
Hear	-2096
atal	-2097
ates	-2098
bear	-2099
cend	-2100
esty	-2101
feit	-2102
gain	-2103
ices	-2104
imal	-2105
ised	-2106
ital	-2107
king	-2108
look	-2109
ners	-2110
oney	-2111
ount	-2112
pier	-2113
race	-2114
ship	-2115
side	-2116
some	-2117
ular	-2118
wise	-2119
▁Any	-2120
▁Art	-2121
▁Con	-2122
▁Gre	-2123
▁Had	-2124
▁Sus	-2125
▁Tut	-2126
▁baw	-2127
▁cat	-2128
▁cra	-2129
▁dec	-2130
▁det	-2131
▁exp	-2132
▁fal	-2133
▁fly	-2134
▁imm	-2135
▁its	-2136
▁lod	-2137
▁lov	-2138
▁mat	-2139
▁occ	-2140
▁odd	-2141
▁oft	-2142
▁pay	-2143
▁tra	-2144
▁wea	-2145
▁win	-2146
▁yes	-2147
HORUS	-2148
Heart	-2149
Knock	-2150
ancis	-2151
aring	-2152
asant	-2153
ately	-2154
ciate	-2155
earch	-2156
eding	-2157
faith	-2158
groom	-2159
ister	-2160
light	-2161
lling	-2162
ounds	-2163
ravel	-2164
right	-2165
sworn	-2166
woman	-2167
▁APOT	-2168
▁Away	-2169
▁Came	-2170
▁Fort	-2171
▁Happ	-2172
▁Hast	-2173
▁Just	-2174
▁Make	-2175
▁Most	-2176
▁PAGE	-2177
▁Thus	-2178
▁Were	-2179
▁bare	-2180
▁beat	-2181
▁bird	-2182
▁born	-2183
▁brow	-2184
▁bury	-2185
▁circ	-2186
▁city	-2187
▁cock	-2188
▁cure	-2189
▁curt	-2190
▁date	-2191
▁dece	-2192
▁desc	-2193
▁dies	-2194
▁dire	-2195
▁door	-2196
▁dove	-2197
▁dram	-2198
▁east	-2199
▁exce	-2200
▁fain	-2201
▁fart	-2202
▁felt	-2203
▁fier	-2204
▁fish	-2205
▁fore	-2206
▁foul	-2207
▁fray	-2208
▁free	-2209
▁gave	-2210
▁goss	-2211
▁grey	-2212
▁hers	-2213
▁hund	-2214
▁idea	-2215
▁iron	-2216
▁knew	-2217
▁lamb	-2218
▁left	-2219
▁lent	-2220
▁loss	-2221
▁lost	-2222
▁miss	-2223
▁palm	-2224
▁	-2225
e	-2226
t	-2227
o	-2228
a	-2229
s	-2230
h	-2231
n	-2232
i	-2233
r	-2234
l	-2235
d	-2236
u	-2237
y	-2238
m	-2239
.	-2240
,	-2241
c	-2242
w	-2243
f	-2244
g	-2245
b	-2246
p	-2247
I	-2248
k	-2249
v	-2250
T	-2251
E	-2252
A	-2253
R	-2254
’	-2255
O	-2256
U	-2257
:	-2258
W	-2259
S	-2260
L	-2261
?	-2262
D	-2263
C	-2264
M	-2265
N	-2266
P	-2267
;	-2268
'	-2269
B	-2270
H	-2271
!	-2272
F	-2273
_	-2274
J	-2275
G	-2276
Y	-2277
x	-2278
V	-2279
-	-2280
[	-2281
]	-2282
j	-2283
q	-2284
—	-2285
z	-2286
"	-2287
‘	-2288
K	-2289
Z	-2290
Q	-2291
&	-2292
æ	-2293
“	-2294
”	-2295
