<pad>	0
<s>	0
</s>	0
<unk>	0
in	-0
se	-1
▁t	-2
re	-3
▁a	-4
on	-5
▁i	-6
or	-7
he	-8
at	-9
st	-10
er	-11
me	-12
le	-13
de	-14
▁=	-15
▁f	-16
▁c	-17
ar	-18
al	-19
sel	-20
self	-21
▁the	-22
▁n	-23
▁o	-24
__	-25
ct	-26
nd	-27
ion	-28
it	-29
▁re	-30
▁b	-31
▁s	-32
▁e	-33
""	-34
▁w	-35
▁#	-36
▁in	-37
ur	-38
--	-39
ce	-40
nt	-41
ing	-42
ot	-43
▁p	-44
▁is	-45
▁de	-46
▁if	-47
):	-48
pe	-49
##	-50
▁m	-51
ame	-52
as	-53
▁self	-54
ue	-55
urn	-56
turn	-57
ou	-58
an	-59
▁_	-60
▁l	-61
▁def	-62
ed	-63
▁'	-64
▁return	-65
▁d	-66
▁to	-67
ra	-68
ge	-69
ro	-70
one	-71
▁th	-72
pt	-73
"""	-74
▁T	-75
▁for	-76
▁and	-77
te	-78
._	-79
ve	-80
is	-81
un	-82
▁(	-83
lo	-84
mp	-85
▁N	-86
▁not	-87
▁st	-88
▁of	-89
ad	-90
▁"""	-91
ul	-92
od	-93
name	-94
ine	-95
ass	-96
▁be	-97
----	-98
ype	-99
()	-100
▁h	-101
▁ex	-102
▁I	-103
####	-104
ction	-105
alue	-106
il	-107
ck	-108
th	-109
ch	-110
ror	-111
gs	-112
fi	-113
lass	-114
li	-115
ter	-116
==	-117
ke	-118
ut	-119
ri	-120
▁v	-121
ss	-122
co	-123
ult	-124
▁None	-125
ex	-126
bj	-127
▁"	-128
rror	-129
Error	-130
ate	-131
▁u	-132
get	-133
ld	-134
▁se	-135
ment	-136
▁A	-137
▁me	-138
ption	-139
ith	-140
ly	-141
ise	-142
▁co	-143
ab	-144
her	-145
um	-146
',	-147
▁ra	-148
▁g	-149
▁ar	-150
▁or	-151
▁an	-152
ls	-153
.__	-154
ation	-155
▁__	-156
▁fi	-157
▁*	-158
di	-159
up	-160
ap	-161
args	-162
no	-163
▁F	-164
▁as	-165
ig	-166
▁with	-167
id	-168
▁con	-169
mat	-170
▁1	-171
rom	-172
ort	-173
ring	-174
▁raise	-175
la	-176
ist	-177
ase	-178
▁+	-179
ect	-180
ath	-181
et	-182
▁that	-183
('	-184
art	-185
▁le	-186
ance	-187
▁name	-188
▁it	-189
bject	-190
▁S	-191
))	-192
en	-193
▁y	-194
########	-195
▁R	-196
▁el	-197
ite	-198
line	-199
ff	-200
ault	-201
▁else	-202
__(	-203
ive	-204
▁-	-205
▁value	-206
and	-207
▁C	-208
>>	-209
▁lo	-210
')	-211
ser	-212
▁di	-213
mple	-214
rue	-215
--------	-216
ver	-217
▁%	-218
all	-219
able	-220
▁al	-221
key	-222
▁he	-223
▁class	-224
▁from	-225
ber	-226
▁line	-227
for	-228
thod	-229
stance	-230
int	-231
class	-232
ay	-233
am	-234
ew	-235
▁0	-236
ry	-237
read	-238
▁by	-239
ata	-240
====	-241
ic	-242
tr	-243
gu	-244
▁exce	-245
ack	-246
▁are	-247
▁==	-248
ci	-249
▁type	-250
est	-251
▁`	-252
▁P	-253
▁The	-254
es	-255
ime	-256
eld	-257
qu	-258
gument	-259
▁[	-260
os	-261
ule	-262
▁this	-263
sed	-264
ther	-265
",	-266
not	-267
▁object	-268
▁on	-269
▁fun	-270
alse	-271
None	-272
ress	-273
▁we	-274
ill	-275
▁r	-276
iz	-277
▁wh	-278
value	-279
▁so	-280
▁W	-281
dd	-282
ator	-283
▁ch	-284
▁k	-285
type	-286
odule	-287
out	-288
ure	-289
//	-290
pr	-291
low	-292
ow	-293
bu	-294
▁file	-295
ext	-296
ub	-297
per	-298
▁at	-299
file	-300
ord	-301
▁other	-302
xt	-303
par	-304
ain	-305
pre	-306
ms	-307
▁par	-308
▁get	-309
instance	-310
▁{	-311
▁Th	-312
..	-313
che	-314
▁O	-315
ger	-316
▁<	-317
ip	-318
fo	-319
text	-320
▁sh	-321
mport	-322
sp	-323
▁do	-324
set	-325
attr	-326
ount	-327
▁try	-328
red	-329
▁isinstance	-330
▁M	-331
sult	-332
to	-333
▁except	-334
ca	-335
ol	-336
▁If	-337
▁argument	-338
▁default	-339
ers	-340
code	-341
ile	-342
string	-343
▁no	-344
▁will	-345
init	-346
▁import	-347
▁en	-348
ht	-349
ize	-350
dent	-351
▁string	-352
py	-353
▁B	-354
▁option	-355
con	-356
),	-357
cls	-358
mber	-359
rou	-360
fix	-361
▁ma	-362
uple	-363
ner	-364
format	-365
▁function	-366
▁can	-367
▁key	-368
▁len	-369
▁E	-370
ind	-371
▁D	-372
▁>>	-373
age	-374
ace	-375
ail	-376
▁whe	-377
def	-378
▁add	-379
▁pre	-380
▁pro	-381
add	-382
appe	-383
ated	-384
▁new	-385
ir	-386
col	-387
ast	-388
str	-389
▁has	-390
tri	-391
ant	-392
▁mo	-393
ould	-394
▁2	-395
nce	-396
▁un	-397
peci	-398
▁>>>	-399
("	-400
00	-401
ave	-402
lif	-403
▁set	-404
▁method	-405
tes	-406
data	-407
▁V	-408
err	-409
▁elif	-410
################	-411
).	-412
ll	-413
▁@	-414
ma	-415
ON	-416
▁result	-417
ust	-418
▁list	-419
put	-420
ks	-421
▁L	-422
")	-423
vel	-424
▁U	-425
default	-426
eturn	-427
▁num	-428
▁Type	-429
alueError	-430
mo	-431
tribu	-432
▁True	-433
que	-434
dict	-435
.0	-436
kw	-437
▁|	-438
▁sy	-439
▁all	-440
path	-441
ary	-442
rst	-443
lob	-444
are	-445
roup	-446
rap	-447
rite	-448
append	-449
ard	-450
obj	-451
▁you	-452
▁cls	-453
lines	-454
pro	-455
act	-456
▁format	-457
ample	-458
ameter	-459
▁False	-460
▁This	-461
fun	-462
▁os	-463
error	-464
ound	-465
▁module	-466
im	-467
len	-468
▁args	-469
ign	-470
fe	-471
oo	-472
▁out	-473
▁cont	-474
▁used	-475
op	-476
----------------	-477
OR	-478
▁use	-479
▁path	-480
method	-481
atch	-482
▁x	-483
cess	-484
▁comp	-485
us	-486
lock	-487
▁ValueError	-488
▁j	-489
arn	-490
▁time	-491
als	-492
▁H	-493
dir	-494
ctions	-495
notation	-496
ak	-497
▁**	-498
lace	-499
ition	-500
▁>	-501
ded	-502
ork	-503
▁TypeError	-504
our	-505
we	-506
ich	-507
qui	-508
▁str	-509
om	-510
ars	-511
sg	-512
sy	-513
ange	-514
rame	-515
▁int	-516
':	-517
repr	-518
▁call	-519
▁end	-520
▁have	-521
========	-522
ty	-523
back	-524
pect	-525
."""	-526
▁IP	-527
heck	-528
cur	-529
num	-530
▁J	-531
option	-532
True	-533
▁speci	-534
▁my	-535
ally	-536
arts	-537
▁test	-538
ses	-539
▁data	-540
▁sup	-541
▁base	-542
mplement	-543
ns	-544
etw	-545
oin	-546
▁ne	-547
rect	-548
▁G	-549
ari	-550
arg	-551
``	-552
ract	-553
▁exc	-554
AR	-555
...	-556
ield	-557
port	-558
ET	-559
▁one	-560
tribute	-561
ER	-562
▁any	-563
▁but	-564
space	-565
▁when	-566
▁number	-567
▁sub	-568
▁3	-569
sert	-570
IN	-571
write	-572
sc	-573
ory	-574
object	-575
mpt	-576
▁give	-577
])	-578
led	-579
▁pass	-580
val	-581
▁field	-582
new	-583
▁Not	-584
module	-585
▁first	-586
vi	-587
RE	-588
mal	-589
▁which	-590
-1	-591
etwork	-592
end	-593
std	-594
▁su	-595
sing	-596
gener	-597
iter	-598
rent	-599
▁log	-600
False	-601
▁lines	-602
▁should	-603
UL	-604
root	-605
[0	-606
▁``	-607
tern	-608
cod	-609
ome	-610
▁up	-611
ssage	-612
▁check	-613
mon	-614
Ex	-615
ink	-616
▁IPv	-617
lp	-618
other	-619
member	-620
▁kw	-621
▁--	-622
▁'__	-623
▁action	-624
ight	-625
▁thou	-626
ta	-627
pos	-628
▁must	-629
▁tuple	-630
▁arg	-631
▁col	-632
oc	-633
▁!	-634
▁cal	-635
dex	-636
ping	-637
▁case	-638
ception	-639
sub	-640
▁!=	-641
ream	-642
▁pos	-643
time	-644
kwargs	-645
▁msg	-646
arning	-647
min	-648
▁po	-649
join	-650
lags	-651
▁yield	-652
():	-653
TI	-654
Type	-655
'.	-656
ne	-657
ste	-658
▁pr	-659
▁thread	-660
▁/	-661
▁And	-662
list	-663
▁For	-664
▁arguments	-665
ME	-666
cl	-667
▁ab	-668
func	-669
▁only	-670
ial	-671
from	-672
▁glob	-673
▁match	-674
[0]	-675
▁exception	-676
▁sys	-677
(_	-678
ild	-679
mpty	-680
place	-681
▁text	-682
▁member	-683
▁context	-684
▁li	-685
▁[]	-686
group	-687
▁getattr	-688
idth	-689
test	-690
▁start	-691
info	-692
check	-693
1,	-694
////	-695
Test	-696
word	-697
▁...	-698
count	-699
msg	-700
pen	-701
lineno	-702
sent	-703
size	-704
ent	-705
▁count	-706
ml	-707
▁+=	-708
scri	-709
▁parameter	-710
▁4	-711
ght	-712
loat	-713
▁ite	-714
▁cur	-715
▁address	-716
▁hand	-717
▁error	-718
race	-719
▁obj	-720
pected	-721
▁given	-722
▁)	-723
gist	-724
▁diff	-725
names	-726
param	-727
its	-728
EN	-729
lag	-730
fied	-731
▁example	-732
node	-733
exc	-734
ener	-735
▁then	-736
only	-737
▁max	-738
Return	-739
prefix	-740
ear	-741
▁was	-742
▁Return	-743
ep	-744
ble	-745
lic	-746
ollow	-747
coding	-748
▁In	-749
qual	-750
▁may	-751
ity	-752
cord	-753
item	-754
annotation	-755
ature	-756
quence	-757
▁values	-758
perty	-759
▁ac	-760
▁enum	-761
thon	-762
ose	-763
action	-764
rence	-765
▁than	-766
▁follow	-767
']	-768
ST	-769
▁level	-770
▁{}	-771
base	-772
lose	-773
▁instance	-774
AL	-775
kip	-776
▁dict	-777
stract	-778
▁Wh	-779
▁com	-780
▁contain	-781
ait	-782
map	-783
▁z	-784
▁cre	-785
▁types	-786
ped	-787
▁err	-788
ative	-789
▁iter	-790
lim	-791
ments	-792
SI	-793
ok	-794
▁last	-795
unk	-796
▁func	-797
▁while	-798
▁indent	-799
by	-800
field	-801
▁allow	-802
▁direct	-803
level	-804
day	-805
form	-806
▁more	-807
▁bytes	-808
▁std	-809
ask	-810
ces	-811
row	-812
▁man	-813
__',	-814
ined	-815
wrap	-816
afe	-817
ash	-818
date	-819
indent	-820
mplemented	-821
ree	-822
ft	-823
si	-824
der	-825
res	-826
▁bu	-827
comp	-828
asses	-829
▁next	-830
▁part	-831
SE	-832
ds	-833
sl	-834
lit	-835
▁node	-836
strings	-837
rc	-838
fore	-839
copy	-840
▁output	-841
▁bre	-842
▁inte	-843
▁there	-844
▁prefix	-845
ake	-846
ous	-847
▁''	-848
▁names	-849
Re	-850
use	-851
▁ap	-852
▁	-853
e	-854
t	-855
s	-856
a	-857
r	-858
n	-859
i	-860
o	-861
l	-862
d	-863
f	-864
c	-865
_	-866
u	-867
h	-868
p	-869
m	-870
.	-871
,	-872
g	-873
)	-874
(	-875
=	-876
b	-877
y	-878
"	-879
:	-880
w	-881
'	-882
#	-883
-	-884
v	-885
k	-886
x	-887
T	-888
E	-889
N	-890
I	-891
A	-892
R	-893
S	-894
0	-895
1	-896
[	-897
]	-898
O	-899
C	-900
F	-901
j	-902
P	-903
*	-904
2	-905
>	-906
`	-907
D	-908
/	-909
L	-910
M	-911
U	-912
q	-913
+	-914
%	-915
z	-916
{	-917
}	-918
W	-919
3	-920
4	-921
V	-922
B	-923
G	-924
<	-925
5	-926
\	-927
’	-928
!	-929
6	-930
H	-931
8	-932
?	-933
;	-934
7	-935
@	-936
|	-937
9	-938
Y	-939
K	-940
J	-941
X	-942
^	-943
&	-944
Z	-945
Q	-946
—	-947
$	-948
~	-949
‘	-950
±	-951
§	-952
æ	-953
ç	-954
ö	-955
À	-956
Á	-957
Â	-958
Ã	-959
Ä	-960
Å	-961
Æ	-962
Ç	-963
È	-964
É	-965
Ê	-966
Ë	-967
Ì	-968
Í	-969
Î	-970
Ï	-971
Ð	-972
Ñ	-973
Ò	-974
Ó	-975
Ô	-976
Õ	-977
Ö	-978
Ø	-979
Ù	-980
Ú	-981
Û	-982
Ü	-983
Ý	-984
Þ	-985
ß	-986
à	-987
á	-988
â	-989
ã	-990
ä	-991
å	-992
è	-993
é	-994
ê	-995
ë	-996
ì	-997
í	-998
î	-999
ï	-1000
ð	-1001
ñ	-1002
ò	-1003
ó	-1004
ô	-1005
õ	-1006
ø	-1007
ù	-1008
ú	-1009
û	-1010
ü	-1011
ý	-1012
þ	-1013
ÿ	-1014
Ł	-1015
–	-1016
“	-1017
”	-1018
≈	-1019
