<pad>	0
<s>	0
</s>	0
<unk>	0
in	-0
se	-1
▁t	-2
re	-3
▁a	-4
on	-5
▁i	-6
or	-7
he	-8
at	-9
st	-10
er	-11
me	-12
le	-13
de	-14
▁=	-15
▁f	-16
▁c	-17
ar	-18
al	-19
sel	-20
self	-21
▁the	-22
▁n	-23
▁o	-24
__	-25
ct	-26
nd	-27
ion	-28
it	-29
▁re	-30
▁b	-31
▁s	-32
▁e	-33
""	-34
▁w	-35
▁#	-36
▁in	-37
ur	-38
--	-39
ce	-40
nt	-41
ing	-42
ot	-43
▁p	-44
▁is	-45
▁de	-46
▁if	-47
):	-48
pe	-49
##	-50
▁m	-51
ame	-52
as	-53
▁self	-54
ue	-55
urn	-56
turn	-57
ou	-58
an	-59
▁_	-60
▁l	-61
▁def	-62
ed	-63
▁'	-64
▁return	-65
▁d	-66
▁to	-67
ra	-68
ge	-69
ro	-70
one	-71
▁th	-72
pt	-73
"""	-74
▁T	-75
▁for	-76
▁and	-77
te	-78
._	-79
ve	-80
is	-81
un	-82
▁(	-83
lo	-84
mp	-85
▁N	-86
▁not	-87
▁st	-88
▁of	-89
ad	-90
▁"""	-91
ul	-92
od	-93
name	-94
ine	-95
ass	-96
▁be	-97
----	-98
ype	-99
()	-100
▁h	-101
▁ex	-102
▁I	-103
####	-104
ction	-105
alue	-106
il	-107
ck	-108
th	-109
ch	-110
ror	-111
gs	-112
fi	-113
lass	-114
li	-115
ter	-116
==	-117
ke	-118
ut	-119
ri	-120
▁v	-121
ss	-122
co	-123
ult	-124
▁None	-125
ex	-126
bj	-127
▁"	-128
rror	-129
Error	-130
ate	-131
▁u	-132
get	-133
ld	-134
▁se	-135
ment	-136
▁A	-137
▁me	-138
ption	-139
ith	-140
ly	-141
ise	-142
▁co	-143
ab	-144
her	-145
um	-146
',	-147
▁ra	-148
▁g	-149
▁ar	-150
▁or	-151
▁an	-152
ls	-153
.__	-154
ation	-155
▁__	-156
▁fi	-157
▁*	-158
di	-159
up	-160
ap	-161
args	-162
no	-163
▁F	-164
▁as	-165
ig	-166
▁with	-167
id	-168
▁con	-169
mat	-170
▁1	-171
rom	-172
ort	-173
ring	-174
▁raise	-175
la	-176
ist	-177
ase	-178
▁+	-179
ect	-180
ath	-181
et	-182
▁that	-183
('	-184
art	-185
▁le	-186
ance	-187
▁name	-188
▁it	-189
bject	-190
▁S	-191
))	-192
en	-193
▁y	-194
########	-195
▁R	-196
▁el	-197
ite	-198
line	-199
ff	-200
ault	-201
▁else	-202
__(	-203
ive	-204
▁-	-205
▁value	-206
and	-207
▁C	-208
>>	-209
▁lo	-210
')	-211
ser	-212
▁di	-213
mple	-214
rue	-215
--------	-216
ver	-217
▁%	-218
all	-219
able	-220
▁al	-221
key	-222
▁he	-223
▁class	-224
▁from	-225
ber	-226
▁line	-227
for	-228
thod	-229
stance	-230
int	-231
class	-232
ay	-233
am	-234
ew	-235
▁0	-236
ry	-237
read	-238
▁by	-239
ata	-240
====	-241
ic	-242
tr	-243
gu	-244
▁exce	-245
ack	-246
▁are	-247
▁==	-248
ci	-249
▁type	-250
est	-251
▁`	-252
▁P	-253
▁The	-254
es	-255
ime	-256
eld	-257
qu	-258
gument	-259
▁[	-260
os	-261
ule	-262
▁this	-263
sed	-264
ther	-265
",	-266
not	-267
▁object	-268
▁on	-269
▁fun	-270
alse	-271
None	-272
ress	-273
▁we	-274
ill	-275
▁r	-276
iz	-277
▁wh	-278
value	-279
▁so	-280
▁W	-281
dd	-282
ator	-283
▁ch	-284
▁k	-285
type	-286
odule	-287
out	-288
ure	-289
//	-290
pr	-291
low	-292
ow	-293
bu	-294
▁file	-295
ext	-296
ub	-297
per	-298
▁at	-299
file	-300
ord	-301
▁other	-302
xt	-303
par	-304
ain	-305
pre	-306
ms	-307
▁par	-308
▁get	-309
instance	-310
▁{	-311
▁Th	-312
..	-313
che	-314
▁O	-315
ger	-316
▁<	-317
ip	-318
fo	-319
text	-320
▁sh	-321
mport	-322
sp	-323
▁do	-324
set	-325
attr	-326
ount	-327
▁try	-328
red	-329
▁isinstance	-330
▁M	-331
sult	-332
to	-333
▁except	-334
ca	-335
ol	-336
▁If	-337
▁argument	-338
▁default	-339
ers	-340
code	-341
ile	-342
string	-343
▁no	-344
▁will	-345
init	-346
▁import	-347
▁en	-348
ht	-349
ize	-350
dent	-351
▁string	-352
py	-353
▁B	-354
▁option	-355
con	-356
),	-357
cls	-358
mber	-359
rou	-360
fix	-361
▁ma	-362
uple	-363
ner	-364
format	-365
▁function	-366
▁can	-367
▁key	-368
▁len	-369
▁E	-370
ind	-371
▁D	-372
▁>>	-373
age	-374
ace	-375
ail	-376
▁whe	-377
def	-378
▁add	-379
▁pre	-380
▁pro	-381
add	-382
appe	-383
ated	-384
▁new	-385
ir	-386
col	-387
ast	-388
str	-389
▁has	-390
tri	-391
ant	-392
▁mo	-393
ould	-394
▁2	-395
nce	-396
▁un	-397
peci	-398
▁>>>	-399
("	-400
00	-401
ave	-402
lif	-403
▁set	-404
▁method	-405
tes	-406
data	-407
▁V	-408
err	-409
▁elif	-410
################	-411
).	-412
ll	-413
▁@	-414
ma	-415
ON	-416
▁result	-417
ust	-418
▁list	-419
put	-420
ks	-421
▁L	-422
")	-423
vel	-424
▁U	-425
default	-426
eturn	-427
▁num	-428
▁Type	-429
alueError	-430
mo	-431
tribu	-432
▁True	-433
que	-434
dict	-435
.0	-436
kw	-437
▁|	-438
▁sy	-439
▁all	-440
path	-441
ary	-442
rst	-443
lob	-444
are	-445
roup	-446
rap	-447
rite	-448
append	-449
ard	-450
obj	-451
▁you	-452
▁cls	-453
lines	-454
pro	-455
act	-456
▁format	-457
ample	-458
ameter	-459
▁False	-460
▁This	-461
fun	-462
▁os	-463
error	-464
ound	-465
▁module	-466
im	-467
len	-468
▁args	-469
ign	-470
fe	-471
oo	-472
▁out	-473
▁cont	-474
▁used	-475
op	-476
----------------	-477
OR	-478
▁use	-479
▁path	-480
method	-481
atch	-482
▁x	-483
cess	-484
▁comp	-485
us	-486
lock	-487
▁ValueError	-488
▁j	-489
arn	-490
▁time	-491
als	-492
▁H	-493
dir	-494
ctions	-495
notation	-496
ak	-497
▁**	-498
lace	-499
ition	-500
▁>	-501
ded	-502
ork	-503
▁TypeError	-504
our	-505
we	-506
ich	-507
qui	-508
▁str	-509
om	-510
ars	-511
sg	-512
sy	-513
ange	-514
rame	-515
▁int	-516
':	-517
repr	-518
▁call	-519
▁end	-520
▁have	-521
========	-522
ty	-523
back	-524
pect	-525
."""	-526
▁IP	-527
heck	-528
cur	-529
num	-530
▁J	-531
option	-532
True	-533
▁speci	-534
▁my	-535
ally	-536
arts	-537
▁test	-538
ses	-539
▁data	-540
▁sup	-541
▁base	-542
mplement	-543
ns	-544
etw	-545
oin	-546
▁ne	-547
rect	-548
▁G	-549
ari	-550
arg	-551
``	-552
ract	-553
▁exc	-554
AR	-555
...	-556
ield	-557
port	-558
ET	-559
▁one	-560
tribute	-561
ER	-562
▁any	-563
▁but	-564
space	-565
▁when	-566
▁number	-567
▁sub	-568
▁3	-569
sert	-570
IN	-571
write	-572
sc	-573
ory	-574
object	-575
mpt	-576
▁give	-577
])	-578
led	-579
▁pass	-580
val	-581
▁field	-582
new	-583
▁Not	-584
module	-585
▁first	-586
vi	-587
RE	-588
mal	-589
▁which	-590
-1	-591
etwork	-592
end	-593
std	-594
▁su	-595
sing	-596
gener	-597
iter	-598
rent	-599
▁log	-600
False	-601
▁lines	-602
▁should	-603
UL	-604
root	-605
[0	-606
▁``	-607
tern	-608
cod	-609
ome	-610
▁up	-611
ssage	-612
▁check	-613
mon	-614
Ex	-615
ink	-616
▁IPv	-617
lp	-618
other	-619
member	-620
▁kw	-621
▁--	-622
▁'__	-623
▁action	-624
ight	-625
▁thou	-626
ta	-627
pos	-628
▁must	-629
▁tuple	-630
▁arg	-631
▁col	-632
oc	-633
▁!	-634
▁cal	-635
dex	-636
ping	-637
▁case	-638
ception	-639
sub	-640
▁!=	-641
ream	-642
▁pos	-643
time	-644
kwargs	-645
▁msg	-646
arning	-647
min	-648
▁po	-649
join	-650
lags	-651
▁yield	-652
():	-653
TI	-654
Type	-655
'.	-656
ne	-657
ste	-658
▁pr	-659
▁thread	-660
▁/	-661
▁And	-662
list	-663
▁For	-664
▁arguments	-665
ME	-666
cl	-667
▁ab	-668
func	-669
▁only	-670
ial	-671
from	-672
▁glob	-673
▁match	-674
[0]	-675
▁exception	-676
▁sys	-677
(_	-678
ild	-679
mpty	-680
place	-681
▁text	-682
▁member	-683
▁context	-684
▁li	-685
▁[]	-686
group	-687
▁getattr	-688
idth	-689
test	-690
▁start	-691
info	-692
check	-693
1,	-694
////	-695
Test	-696
word	-697
▁...	-698
count	-699
msg	-700
pen	-701
lineno	-702
sent	-703
size	-704
ent	-705
▁count	-706
ml	-707
▁+=	-708
scri	-709
▁parameter	-710
▁4	-711
ght	-712
loat	-713
▁ite	-714
▁cur	-715
▁address	-716
▁hand	-717
▁error	-718
race	-719
▁obj	-720
pected	-721
▁given	-722
▁)	-723
gist	-724
▁diff	-725
names	-726
param	-727
its	-728
EN	-729
lag	-730
fied	-731
▁example	-732
node	-733
exc	-734
ener	-735
▁then	-736
only	-737
▁max	-738
Return	-739
prefix	-740
ear	-741
▁was	-742
▁Return	-743
ep	-744
ble	-745
lic	-746
ollow	-747
coding	-748
▁In	-749
qual	-750
▁may	-751
ity	-752
cord	-753
item	-754
annotation	-755
ature	-756
quence	-757
▁values	-758
perty	-759
▁ac	-760
▁enum	-761
thon	-762
ose	-763
action	-764
rence	-765
▁than	-766
▁follow	-767
']	-768
ST	-769
▁level	-770
▁{}	-771
base	-772
lose	-773
▁instance	-774
AL	-775
kip	-776
▁dict	-777
stract	-778
▁Wh	-779
▁com	-780
▁contain	-781
ait	-782
map	-783
▁z	-784
▁cre	-785
▁types	-786
ped	-787
▁err	-788
ative	-789
▁iter	-790
lim	-791
ments	-792
SI	-793
ok	-794
▁last	-795
unk	-796
▁func	-797
▁while	-798
▁indent	-799
by	-800
field	-801
▁allow	-802
▁direct	-803
level	-804
day	-805
form	-806
▁more	-807
▁bytes	-808
▁std	-809
ask	-810
ces	-811
row	-812
▁man	-813
__',	-814
ined	-815
wrap	-816
afe	-817
ash	-818
date	-819
indent	-820
mplemented	-821
ree	-822
ft	-823
si	-824
der	-825
res	-826
▁bu	-827
comp	-828
asses	-829
▁next	-830
▁part	-831
SE	-832
ds	-833
sl	-834
lit	-835
▁node	-836
strings	-837
rc	-838
fore	-839
copy	-840
▁output	-841
▁bre	-842
▁inte	-843
▁there	-844
▁prefix	-845
ake	-846
ous	-847
▁''	-848
▁names	-849
Re	-850
use	-851
▁ap	-852
▁ca	-853
▁gener	-854
ek	-855
ted	-856
▁true	-857
▁print	-858
::	-859
Con	-860
lect	-861
▁exp	-862
items	-863
▁called	-864
property	-865
▁section	-866
▁0:	-867
Di	-868
ix	-869
ref	-870
char	-871
▁frame	-872
▁inter	-873
wn	-874
max	-875
▁dir	-876
sh	-877
lib	-878
nter	-879
flags	-880
▁root	-881
ID	-882
oth	-883
attern	-884
ark	-885
ailure	-886
Implemented	-887
0,	-888
ook	-889
▁Re	-890
▁non	-891
filename	-892
ach	-893
cal	-894
cor	-895
ilt	-896
▁<=	-897
▁sp	-898
▁sour	-899
12	-900
igin	-901
lias	-902
▁char	-903
eneric	-904
ignature	-905
old	-906
ong	-907
curs	-908
▁same	-909
▁NotImplemented	-910
MEO	-911
▁We	-912
▁objects	-913
().	-914
own	-915
prec	-916
ython	-917
▁si	-918
inks	-919
▁help	-920
address	-921
ull	-922
▁here	-923
▁assert	-924
▁current	-925
['	-926
unt	-927
▁go	-928
with	-929
▁copy	-930
▁does	-931
▁ele	-932
ttribute	-933
__,	-934
▁RO	-935
diff	-936
split	-937
▁mode	-938
▁ROMEO	-939
▁range	-940
▁source	-941
▁code	-942
())	-943
air	-944
exit	-945
▁heap	-946
▁wrap	-947
▁group	-948
minator	-949
▁parser	-950
▁K	-951
▁ip	-952
raceback	-953
su	-954
oto	-955
cond	-956
mask	-957
▁some	-958
quired	-959
▁order	-960
▁kwargs	-961
uct	-962
▁Ex	-963
glob	-964
▁message	-965
ndom	-966
stat	-967
▁run	-968
▁into	-969
▁param	-970
move	-971
▁her	-972
▁thy	-973
▁item	-974
▁read	-975
▁vari	-976
▁break	-977
AT	-978
CE	-979
▁De	-980
cache	-981
((	-982
▁they	-983
ersion	-984
wo	-985
▁An	-986
tuple	-987
▁float	-988
abc	-989
ved	-990
▁Se	-991
lean	-992
index	-993
▁over	-994
▁where	-995
▁stream	-996
gh	-997
'):	-998
ler	-999
hand	-1000
state	-1001
▁specified	-1002
omeo	-1003
vers	-1004
▁version	-1005
ec	-1006
ken	-1007
off	-1008
hash	-1009
▁doc	-1010
▁val	-1011
values	-1012
replace	-1013
nc	-1014
rip	-1015
▁dis	-1016
start	-1017
▁love	-1018
params	-1019
▁Romeo	-1020
pop	-1021
script	-1022
▁stand	-1023
lso	-1024
▁te	-1025
syml	-1026
width	-1027
nominator	-1028
▁annotation	-1029
[:	-1030
ero	-1031
ader	-1032
frame	-1033
stant	-1034
▁logger	-1035
In	-1036
▁:	-1037
ots	-1038
▁->	-1039
▁qu	-1040
▁sing	-1041
='	-1042
▁she	-1043
▁empty	-1044
▁hasattr	-1045
uid	-1046
▁It	-1047
valid	-1048
▁contin	-1049
lections	-1050
▁sequence	-1051
da	-1052
ey	-1053
---	-1054
▁St	-1055
▁block	-1056
fy	-1057
pi	-1058
clu	-1059
▁Whe	-1060
ating	-1061
▁like	-1062
▁fields	-1063
▁methods	-1064
▁filename	-1065
▁attribute	-1066
▁*,	-1067
call	-1068
cimal	-1069
▁make	-1070
arnings	-1071
▁keyword	-1072
De	-1073
▁&	-1074
▁[_	-1075
keys	-1076
▁its	-1077
▁two	-1078
tp	-1079
ors	-1080
vari	-1081
▁look	-1082
argument	-1083
subclass	-1084
TION	-1085
ular	-1086
▁thee	-1087
thread	-1088
section	-1089
▁Python	-1090
right	-1091
regist	-1092
ttributeError	-1093
(),	-1094
For	-1095
SON	-1096
ffer	-1097
gger	-1098
▁ext	-1099
erator	-1100
▁child	-1101
precated	-1102
▁integer	-1103
1:	-1104
32	-1105
UID	-1106
bit	-1107
umm	-1108
▁mon	-1109
ormal	-1110
▁lineno	-1111
parts	-1112
raction	-1113
tributes	-1114
▁position	-1115
(*	-1116
.2	-1117
el	-1118
-1]	-1119
▁('	-1120
arent	-1121
▁them	-1122
▁stack	-1123
context	-1124
fd	-1125
src	-1126
var	-1127
▁To	-1128
vert	-1129
▁fin	-1130
close	-1131
match	-1132
stead	-1133
▁skip	-1134
ocTest	-1135
cursive	-1136
▁continue	-1137
85	-1138
ward	-1139
▁also	-1140
ddress	-1141
▁single	-1142
▁support	-1143
ays	-1144
ful	-1145
assed	-1146
▁mean	-1147
▁directory	-1148
gth	-1149
▁cor	-1150
▁his	-1151
bytes	-1152
ready	-1153
▁sort	-1154
offset	-1155
otocol	-1156
▁exist	-1157
▁input	-1158
ati	-1159
next	-1160
Alias	-1161
cause	-1162
▁need	-1163
▁parts	-1164
▁using	-1165
Network	-1166
RI	-1167
ager	-1168
color	-1169
result	-1170
▁charact	-1171
ssi	-1172
cept	-1173
fter	-1174
▁map	-1175
▁state	-1176
com	-1177
cale	-1178
cate	-1179
▁del	-1180
month	-1181
ource	-1182
▁super	-1183
▁before	-1184
ized	-1185
safe	-1186
untime	-1187
▁diffe	-1188
▁instead	-1189
AP	-1190
IO	-1191
SS	-1192
du	-1193
▁5	-1194
▁'_	-1195
▁point	-1196
▁provi	-1197
abstract	-1198
exception	-1199
▁standard	-1200
▁implement	-1201
▁parameters	-1202
zen	-1203
▁>=	-1204
▁Ar	-1205
▁wr	-1206
▁JUL	-1207
▁random	-1208
▁strings	-1209
hi	-1210
._]	-1211
IET	-1212
▁'%	-1213
print	-1214
rozen	-1215
▁UUID	-1216
▁user	-1217
Generic	-1218
▁JULIET	-1219
////////	-1220
**	-1221
],	-1222
▁cl	-1223
parser	-1224
stdout	-1225
▁record	-1226
symlinks	-1227
▁encoding	-1228
================	-1229
sys	-1230
cals	-1231
part	-1232
▁mark	-1233
expected	-1234
▁AttributeError	-1235
ore	-1236
pri	-1237
hook	-1238
wise	-1239
▁bet	-1240
▁ent	-1241
iltin	-1242
▁their	-1243
▁defined	-1244
▁defaults	-1245
ING	-1246
ody	-1247
nder	-1248
▁your	-1249
2,	-1250
="	-1251
St	-1252
df	-1253
enum	-1254
mode	-1255
pack	-1256
▁---	-1257
▁see	-1258
ph	-1259
ies	-1260
the	-1261
▁us	-1262
tail	-1263
▁Key	-1264
chars	-1265
function	-1266
abstractmethod	-1267
Me	-1268
▁Un	-1269
Dict	-1270
▁'''	-1271
▁tar	-1272
▁link	-1273
▁oper	-1274
▁would	-1275
present	-1276
▁passed	-1277
▁Returns	-1278
DE	-1279
vo	-1280
cre	-1281
▁'\	-1282
ffix	-1283
▁per	-1284
▁each	-1285
▁repr	-1286
source	-1287
network	-1288
▁sign	-1289
▁want	-1290
▁month	-1291
ference	-1292
defaults	-1293
pol	-1294
ting	-1295
▁him	-1296
▁What	-1297
Exception	-1298
zip	-1299
annot	-1300
▁found	-1301
".	-1302
FF	-1303
UR	-1304
be	-1305
main	-1306
▁That	-1307
stderr	-1308
"{	-1309
IP	-1310
Par	-1311
doc	-1312
pec	-1313
seq	-1314
▁ad	-1315
like	-1316
ilter	-1317
version	-1318
=_	-1319
ale	-1320
▁LA	-1321
open	-1322
▁find	-1323
etmask	-1324
▁cannot	-1325
denominator	-1326
AN	-1327
▁\	-1328
ince	-1329
make	-1330
otal	-1331
ither	-1332
▁timeout	-1333
▁represent	-1334
▁Con	-1335
▁both	-1336
actory	-1337
pecial	-1338
▁width	-1339
▁returned	-1340
PO	-1341
oi	-1342
ang	-1343
wait	-1344
▁back	-1345
itespace	-1346
▁already	-1347
▁classes	-1348
▁optional	-1349
)):	-1350
gno	-1351
ute	-1352
unks	-1353
▁But	-1354
▁Par	-1355
fields	-1356
parameter	-1357
UN	-1358
igh	-1359
sep	-1360
APUL	-1361
case	-1362
▁stat	-1363
APULET	-1364
ression	-1365
▁CAPULET	-1366
▁Fraction	-1367
ush	-1368
▁1)	-1369
▁now	-1370
▁mult	-1371
actions	-1372
pattern	-1373
▁reference	-1374
AC	-1375
alt	-1376
ding	-1377
▁kno	-1378
▁mat	-1379
▁min	-1380
▁old	-1381
parse	-1382
▁such	-1383
▁zero	-1384
▁these	-1385
▁errors	-1386
▁returns	-1387
numerator	-1388
([	-1389
LE	-1390
TE	-1391
▁See	-1392
▁day	-1393
▁best	-1394
origin	-1395
▁write	-1396
▁DocTest	-1397
▁without	-1398
FI	-1399
mt	-1400
po	-1401
ics	-1402
▁JSON	-1403
ations	-1404
▁global	-1405
▁because	-1406
.5	-1407
'),	-1408
fic	-1409
▁pi	-1410
ution	-1411
▁When	-1412
▁change	-1413
Lo	-1414
ven	-1415
▁'.	-1416
ches	-1417
week	-1418
▁1.0	-1419
ctest	-1420
▁hash	-1421
▁init	-1422
▁lock	-1423
issing	-1424
utable	-1425
▁shall	-1426
▁space	-1427
▁second	-1428
▁process	-1429
▁warnings	-1430
▁namespace	-1431
GenericAlias	-1432
":	-1433
mit	-1434
ries	-1435
▁been	-1436
▁igno	-1437
▁indi	-1438
▁what	-1439
▁index	-1440
▁possi	-1441
scriptor	-1442
ac	-1443
▁6	-1444
▁',	-1445
▁ag	-1446
find	-1447
iled	-1448
pend	-1449
clude	-1450
licit	-1451
slots	-1452
▁Count	-1453
ag	-1454
▁Y	-1455
Var	-1456
__.	-1457
den	-1458
man	-1459
ows	-1460
URSE	-1461
aise	-1462
▁uni	-1463
akref	-1464
dered	-1465
handle	-1466
▁NURSE	-1467
corator	-1468
encoding	-1469
▁variable	-1470
▁attributes	-1471
ax	-1472
sig	-1473
Name	-1474
▁our	-1475
▁ver	-1476
first	-1477
▁come	-1478
▁word	-1479
struct	-1480
Address	-1481
▁expected	-1482
__)	-1483
mod	-1484
ote	-1485
▁1:	-1486
▁da	-1487
▁op	-1488
year	-1489
▁after	-1490
ctionary	-1491
CO	-1492
tb	-1493
{}	-1494
ify	-1495
ten	-1496
▁Lo	-1497
▁ty	-1498
ning	-1499
▁act	-1500
▁too	-1501
▁flag	-1502
▁take	-1503
SError	-1504
▁functions	-1505
)]	-1506
▁8	-1507
cle	-1508
ual	-1509
▁mu	-1510
lete	-1511
▁ass	-1512
▁exec	-1513
▁stderr	-1514
▁callable	-1515
wh	-1516
://	-1517
ging	-1518
order	-1519
queue	-1520
parameters	-1521
Msg	-1522
dis	-1523
exp	-1524
tar	-1525
arch	-1526
gest	-1527
stem	-1528
empty	-1529
ility	-1530
▁open	-1531
Format	-1532
▁regist	-1533
▁ht	-1534
[-1]	-1535
less	-1536
▁wor	-1537
▁dist	-1538
position	-1539
▁required	-1540
19	-1541
lay	-1542
).__	-1543
File	-1544
▁sig	-1545
float	-1546
thing	-1547
▁most	-1548
▁size	-1549
ummary	-1550
▁place	-1551
signature	-1552
ray	-1553
rel	-1554
▁0)	-1555
▁Co	-1556
ates	-1557
limit	-1558
▁good	-1559
▁wait	-1560
▁raised	-1561
polation	-1562
▁KeyError	-1563
▁subclass	-1564
2)	-1565
aw	-1566
}'	-1567
ool	-1568
▁##	-1569
▁let	-1570
decode	-1571
▁cache	-1572
▁items	-1573
qualname	-1574
▁options	-1575
▁replace	-1576
AG	-1577
▁No	-1578
POSI	-1579
lers	-1580
ools	-1581
__.__	-1582
▁kind	-1583
upport	-1584
parator	-1585
▁parent	-1586
▁elements	-1587
abs	-1588
bda	-1589
del	-1590
flag	-1591
last	-1592
link	-1593
tend	-1594
mplex	-1595
TIONAL	-1596
leanup	-1597
stream	-1598
▁again	-1599
▁flags	-1600
▁night	-1601
collections	-1602
▁issubclass	-1603
10	-1604
LY	-1605
of	-1606
▁7	-1607
cii	-1608
run	-1609
uto	-1610
ONLY	-1611
heap	-1612
mand	-1613
▁got	-1614
lease	-1615
▁http	-1616
ternal	-1617
▁stdout	-1618
▁failure	-1619
MP	-1620
Se	-1621
fig	-1622
log	-1623
ren	-1624
▁am	-1625
ffff	-1626
ntax	-1627
sure	-1628
▁unt	-1629
▁just	-1630
gative	-1631
▁There	-1632
▁suffix	-1633
▁members	-1634
▁special	-1635
1)	-1636
4_	-1637
EY	-1638
Un	-1639
000	-1640
Path	-1641
uuid	-1642
▁don	-1643
reate	-1644
▁ever	-1645
encode	-1646
istics	-1647
▁bound	-1648
▁origin	-1649
prefixlen	-1650
▁recursive	-1651
▁dictionary	-1652
BC	-1653
FC	-1654
UP	-1655
VE	-1656
db	-1657
do	-1658
▁.	-1659
orm	-1660
▁He	-1661
▁ke	-1662
▁sl	-1663
---+	-1664
vent	-1665
▁rel	-1666
▁Note	-1667
return	-1668
▁valid	-1669
classes	-1670
▁length	-1671
▁simple	-1672
▁standardMsg	-1673
▁implementation	-1674
bits	-1675
inel	-1676
junk	-1677
vail	-1678
vate	-1679
▁lim	-1680
▁off	-1681
▁attr	-1682
▁know	-1683
ctools	-1684
update	-1685
▁Enter	-1686
▁bases	-1687
▁right	-1688
formation	-1689
▁traceback	-1690
'{	-1691
64	-1692
:]	-1693
EP	-1694
OL	-1695
KEY	-1696
ady	-1697
gin	-1698
▁//	-1699
▁By	-1700
Hand	-1701
arri	-1702
come	-1703
nown	-1704
tain	-1705
void	-1706
ween	-1707
Class	-1708
▁body	-1709
▁were	-1710
▁named	-1711
wrapper	-1712
▁Counter	-1713
▁OSError	-1714
▁newline	-1715
▁threads	-1716
▁otherwise	-1717
`,	-1718
})	-1719
ank	-1720
▁fa	-1721
Base	-1722
▁how	-1723
▁res	-1724
bound	-1725
local	-1726
locals	-1727
Context	-1728
▁sorted	-1729
▁another	-1730
▁created	-1731
▁deprecated	-1732
▁information	-1733
Th	-1734
2.0	-1735
win	-1736
▁1,	-1737
▁hi	-1738
help	-1739
term	-1740
ulet	-1741
▁"__	-1742
▁Cap	-1743
itive	-1744
patch	-1745
tavar	-1746
▁rest	-1747
errors	-1748
indows	-1749
▁files	-1750
▁nargs	-1751
▁Option	-1752
▁enumer	-1753
▁target	-1754
▁Capulet	-1755
▁between	-1756
▁pattern	-1757
34	-1758
ORD	-1759
iet	-1760
mro	-1761
pth	-1762
▁As	-1763
ison	-1764
▁bin	-1765
apped	-1766
ccess	-1767
uliet	-1768
outine	-1769
▁death	-1770
▁normal	-1771
▁params	-1772
register	-1773
▁present	-1774
▁iterable	-1775
ValueError	-1776
▁following	-1777
."	-1778
1]	-1779
CU	-1780
`.	-1781
rt	-1782
('\	-1783
bug	-1784
dst	-1785
nel	-1786
__()	-1787
▁dest	-1788
buffer	-1789
▁limit	-1790
▁Example	-1791
▁provided	-1792
annotations	-1793
bo	-1794
alk	-1795
▁0,	-1796
▁<<	-1797
▁ho	-1798
ways	-1799
ading	-1800
block	-1801
ident	-1802
▁being	-1803
▁under	-1804
allback	-1805
compile	-1806
message	-1807
▁Juliet	-1808
▁handle	-1809
▁select	-1810
▁builtin	-1811
▁Argument	-1812
▁nextchar	-1813
▁characters	-1814
56	-1815
wd	-1816
)))	-1817
ans	-1818
rib	-1819
▁Ty	-1820
▁id	-1821
bose	-1822
sort	-1823
▁did	-1824
▁reg	-1825
quire	-1826
▁false	-1827
getitem	-1828
▁compar	-1829
▁difference	-1830
__'	-1831
fin	-1832
hed	-1833
iss	-1834
lat	-1835
▁0.	-1836
▁Pr	-1837
▁tb	-1838
WORD	-1839
left	-1840
ndar	-1841
▁dst	-1842
▁lam	-1843
▁raw	-1844
======	-1845
▁extra	-1846
▁local	-1847
▁either	-1848
▁counter	-1849
▁possible	-1850
▁construct	-1851
classmethod	-1852
33	-1853
eq	-1854
lt	-1855
ele	-1856
▁-1	-1857
kwds	-1858
losed	-1859
▁pair	-1860
dition	-1861
▁avail	-1862
▁globs	-1863
▁least	-1864
▁descri	-1865
▁remove	-1866
dataclass	-1867
▁decorator	-1868
▁positional	-1869
Ar	-1870
},	-1871
ENV	-1872
FOR	-1873
TIO	-1874
gex	-1875
org	-1876
OLIO	-1877
atio	-1878
llow	-1879
rand	-1880
urse	-1881
▁MER	-1882
▁tri	-1883
ather	-1884
enter	-1885
▁BENV	-1886
▁Enum	-1887
▁color	-1888
▁tests	-1889
KEYWORD	-1890
▁create	-1891
▁matches	-1892
▁BENVOLIO	-1893
"]	-1894
CT	-1895
SP	-1896
Map	-1897
The	-1898
balt	-1899
emon	-1900
▁own	-1901
CUTIO	-1902
globs	-1903
types	-1904
verse	-1905
▁seen	-1906
mapped	-1907
▁queue	-1908
factory	-1909
failure	-1910
timeout	-1911
▁always	-1912
▁chunks	-1913
▁mapping	-1914
▁MERCUTIO	-1915
99	-1916
AS	-1917
^^	-1918
=0,	-1919
AME	-1920
VAR	-1921
seg	-1922
Iter	-1923
face	-1924
hold	-1925
ints	-1926
kind	-1927
▁ali	-1928
▁mod	-1929
ascii	-1930
ernel	-1931
stack	-1932
strip	-1933
▁long	-1934
▁parse	-1935
Message	-1936
netmask	-1937
variate	-1938
▁Tybalt	-1939
▁ignore	-1940
▁Decimal	-1941
▁signature	-1942
cm	-1943
}{	-1944
▁So	-1945
▁io	-1946
RIAR	-1947
dest	-1948
ling	-1949
rest	-1950
▁pop	-1951
▁dead	-1952
ically	-1953
▁FRIAR	-1954
▁multip	-1955
▁formatter	-1956
)'	-1957
IS	-1958
Get	-1959
Pro	-1960
top	-1961
uce	-1962
.0.0	-1963
ride	-1964
temp	-1965
ving	-1966
▁hex	-1967
▁row	-1968
▁spe	-1969
▁yet	-1970
adata	-1971
bases	-1972
inter	-1973
ished	-1974
range	-1975
▁supp	-1976
▁well	-1977
Parser	-1978
active	-1979
header	-1980
▁close	-1981
▁total	-1982
▁until	-1983
warning	-1984
▁frozen	-1985
colorize	-1986
▁globals	-1987
▁Optional	-1988
POSITIONAL	-1989
▁whitespace	-1990
/2	-1991
An	-1992
CI	-1993
__:	-1994
__}	-1995
raw	-1996
ync	-1997
▁On	-1998
ered	-1999
▁inv	-2000
coder	-2001
token	-2002
ually	-2003
▁info	-2004
▁left	-2005
tadata	-2006
weekday	-2007
▁filter	-2008
▁compare	-2009
▁doctest	-2010
▁include	-2011
▁examples	-2012
▁matching	-2013
(?	-2014
0)	-2015
78	-2016
ES	-2017
FA	-2018
ps	-2019
ts	-2020
ali	-2021
cri	-2022
ish	-2023
▁fe	-2024
▁ear	-2025
▁tra	-2026
stdin	-2027
▁bits	-2028
▁about	-2029
▁added	-2030
▁could	-2031
-------+	-2032
registry	-2033
▁convert	-2034
▁distrib	-2035
▁finally	-2036
▁logging	-2037
▁wrapper	-2038
▁abstract	-2039
▁available	-2040
▁character	-2041
Co	-2042
xy	-2043
see	-2044
▁{'	-2045
cher	-2046
vars	-2047
warn	-2048
▁0.0	-2049
▁Mon	-2050
▁say	-2051
▁sir	-2052
▁var	-2053
input	-2054
onent	-2055
ouble	-2056
tails	-2057
▁Stat	-2058
▁bool	-2059
▁exit	-2060
▁keys	-2061
extend	-2062
logger	-2063
output	-2064
reduce	-2065
remove	-2066
▁delim	-2067
▁doesn	-2068
▁paths	-2069
▁still	-2070
allable	-2071
current	-2072
▁generator	-2073
CH	-2074
["	-2075
NCE	-2076
WRE	-2077
ove	-2078
▁""	-2079
▁(?	-2080
▁):	-2081
▁-=	-2082
spon	-2083
▁RFC	-2084
▁way	-2085
▁auto	-2086
▁cons	-2087
▁keep	-2088
WRENCE	-2089
iteral	-2090
resses	-2091
▁every	-2092
ational	-2093
partial	-2094
namespace	-2095
▁LAWRENCE	-2096
▁explicit	-2097
▁sequences	-2098
////////////////	-2099
={	-2100
EL	-2101
TER	-2102
amp	-2103
gen	-2104
ifi	-2105
tag	-2106
▁16	-2107
▁Be	-2108
▁['	-2109
▁ow	-2110
▁vi	-2111
lain	-2112
lict	-2113
▁Use	-2114
▁pri	-2115
oices	-2116
ustom	-2117
▁Nurse	-2118
▁calls	-2119
▁token	-2120
fileobj	-2121
process	-2122
▁lambda	-2123
▁whether	-2124
▁Statistics	-2125
.1	-2126
:`	-2127
].	-2128
au	-2129
UPP	-2130
▁10	-2131
▁Is	-2132
▁Or	-2133
Down	-2134
hing	-2135
().__	-2136
Tuple	-2137
flict	-2138
lying	-2139
ratio	-2140
▁hath	-2141
Action	-2142
pwrite	-2143
▁those	-2144
▁Runtime	-2145
▁initial	-2146
▁results	-2147
3,	-2148
CL	-2149
]:	-2150
pid	-2151
▁My	-2152
ched	-2153
quiv	-2154
rict	-2155
skip	-2156
alias	-2157
chain	-2158
speci	-2159
spect	-2160
▁even	-2161
▁quot	-2162
▁safe	-2163
served	-2164
stanti	-2165
starts	-2166
▁since	-2167
keyword	-2168
▁ensure	-2169
▁Generic	-2170
▁handler	-2171
▁provide	-2172
▁contains	-2173
▁allowance	-2174
</	-2175
=+	-2176
DI	-2177
MA	-2178
▁’	-2179
Fun	-2180
yle	-2181
▁Sh	-2182
▁ey	-2183
Exit	-2184
ansl	-2185
ical	-2186
ings	-2187
mpor	-2188
prog	-2189
sign	-2190
user	-2191
▁app	-2192
▁art	-2193
light	-2194
reset	-2195
▁alph	-2196
▁fair	-2197
▁high	-2198
▁much	-2199
▁pack	-2200
▁prog	-2201
Thread	-2202
▁Raise	-2203
▁appro	-2204
▁final	-2205
▁usage	-2206
▁accept	-2207
▁header	-2208
▁lookup	-2209
▁within	-2210
annotate	-2211
▁network	-2212
▁nothing	-2213
startswith	-2214
▁descriptor	-2215
▁collections	-2216
▁distribution	-2217
ED	-2218
IT	-2219
ha	-2220
ru	-2221
zy	-2222
▁^	-2223
eta	-2224
fds	-2225
▁Go	-2226
▁blo	-2227
allow	-2228
ights	-2229
inner	-2230
tempt	-2231
▁done	-2232
▁full	-2233
mitted	-2234
▁corre	-2235
▁entry	-2236
▁equal	-2237
▁owner	-2238
▁typing	-2239
▁internal	-2240
▁StatisticsError	-2241
(1	-2242
5,	-2243
EX	-2244
He	-2245
Le	-2246
UT	-2247
▁X	-2248
200	-2249
opt	-2250
qrt	-2251
▁2,	-2252
▁rv	-2253
uted	-2254
▁How	-2255
▁low	-2256
▁pat	-2257
▁ter	-2258
cread	-2259
dDict	-2260
nargs	-2261
ument	-2262
▁Flag	-2263
▁fail	-2264
▁memo	-2265
▁tell	-2266
mporary	-2267
▁Import	-2268
▁insert	-2269
▁calling	-2270
▁command	-2271
▁missing	-2272
▁numbers	-2273
generator	-2274
▁multiple	-2275
▁original	-2276
▁different	-2277
▁docstring	-2278
'\	-2279
({	-2280
DY	-2281
fn	-2282
wi	-2283
LIN	-2284
Set	-2285
api	-2286
son	-2287
▁'-	-2288
alent	-2289
chors	-2290
stamp	-2291
▁LADY	-2292
▁stop	-2293
▁writ	-2294
frozen	-2295
static	-2296
▁colum	-2297
Handler	-2298
weakref	-2299
▁report	-2300
▁regular	-2301
▁correspon	-2302
▁enumerate	-2303
▁instances	-2304
▁exceptions	-2305
IL	-2306
UE	-2307
bar	-2308
cdf	-2309
dev	-2310
}")	-2311
▁()	-2312
▁/,	-2313
▁1.	-2314
down	-2315
elem	-2316
ever	-2317
fork	-2318
ions	-2319
load	-2320
norm	-2321
push	-2322
rive	-2323
side	-2324
▁ABC	-2325
▁All	-2326
▁sim	-2327
coded	-2328
vious	-2329
▁Base	-2330
▁Hand	-2331
▁join	-2332
▁once	-2333
String	-2334
epcopy	-2335
follow	-2336
winapi	-2337
▁begin	-2338
▁times	-2339
compress	-2340
▁classdict	-2341
▁condition	-2342
01	-2343
_(	-2344
Not	-2345
▁im	-2346
ason	-2347
cast	-2348
itle	-2349
ouse	-2350
sync	-2351
▁mer	-2352
▁swe	-2353
▁tre	-2354
192.0	-2355
▁Thou	-2356
▁year	-2357
Method	-2358
Record	-2359
oolean	-2360
python	-2361
stants	-2362
termine	-2363
wrapped	-2364
▁custom	-2365
▁syntax	-2366
quivalent	-2367
▁instanti	-2368
▁comparison	-2369
▁RuntimeError	-2370
▁representation	-2371
55	-2372
DO	-2373
FL	-2374
PI	-2375
io	-2376
rv	-2377
}"	-2378
▁]	-2379
Run	-2380
ell	-2381
▁%(	-2382
▁(1	-2383
▁(_	-2384
dian	-2385
lied	-2386
tens	-2387
▁lar	-2388
▁seq	-2389
raise	-2390
▁User	-2391
▁lady	-2392
▁very	-2393
▁work	-2394
adding	-2395
bility	-2396
locale	-2397
▁avoid	-2398
▁means	-2399
example	-2400
initial	-2401
▁inspect	-2402
▁manager	-2403
▁runtime	-2404
▁operator	-2405
returncode	-2406
▁prefixlen	-2407
▁expression	-2408
▁underlying	-2409
RO	-2410
TH	-2411
mu	-2412
ORT	-2413
foo	-2414
ipv	-2415
▁Ch	-2416
▁oc	-2417
▁|=	-2418
0000	-2419
Enum	-2420
isit	-2421
nded	-2422
rary	-2423
tent	-2424
want	-2425
▁Log	-2426
▁cle	-2427
▁opt	-2428
clear	-2429
iling	-2430
quote	-2431
rough	-2432
▁side	-2433
▁tail	-2434
▁uuid	-2435
▁week	-2436
unpack	-2437
▁Other	-2438
▁above	-2439
▁alias	-2440
▁https	-2441
▁slots	-2442
▁better	-2443
▁counts	-2444
▁exists	-2445
▁locals	-2446
▁offset	-2447
▁system	-2448
▁attempt	-2449
▁relative	-2450
▁interface	-2451
▁ImportError	-2452
,)	-2453
NO	-2454
gn	-2455
ume	-2456
RESS	-2457
abet	-2458
cent	-2459
duce	-2460
havi	-2461
inst	-2462
oice	-2463
prev	-2464
riar	-2465
▁tag	-2466
extra	-2467
ggest	-2468
herit	-2469
ified	-2470
known	-2471
usage	-2472
▁File	-2473
▁form	-2474
▁many	-2475
pprint	-2476
▁never	-2477
cleanup	-2478
notated	-2479
▁sample	-2480
▁update	-2481
=======+	-2482
sentinel	-2483
▁extract	-2484
▁errwrite	-2485
▁Exception	-2486
▁formatted	-2487
dt	-2488
AGS	-2489
SET	-2490
ets	-2491
fmt	-2492
▁bl	-2493
▁ge	-2494
ence	-2495
ists	-2496
road	-2497
▁dig	-2498
▁ref	-2499
Equal	-2500
▁appe	-2501
▁made	-2502
▁remo	-2503
▁syml	-2504
ittest	-2505
number	-2506
▁Friar	-2507
192.0.2	-2508
Warning	-2509
builtin	-2510
private	-2511
▁behavi	-2512
▁common	-2513
▁delete	-2514
▁remain	-2515
▁spaces	-2516
protocol	-2517
warnings	-2518
▁Windows	-2519
▁actions	-2520
▁generic	-2521
▁setattr	-2522
▁specify	-2523
recursive	-2524
traceback	-2525
▁containing	-2526
2]	-2527
>'	-2528
Pr	-2529
ef	-2530
('%	-2531
(0,	-2532
CRE	-2533
MAT	-2534
``,	-2535
has	-2536
hex	-2537
ost	-2538
way	-2539
LINE	-2540
Meta	-2541
asic	-2542
ilar	-2543
pare	-2544
▁sep	-2545
alect	-2546
anged	-2547
cient	-2548
idden	-2549
▁Stop	-2550
▁elem	-2551
▁sent	-2552
▁tree	-2553
▁upon	-2554
######	-2555
▁cases	-2556
▁chain	-2557
defined	-2558
▁double	-2559
▁complex	-2560
▁element	-2561
▁partial	-2562
▁through	-2563
▁weakref	-2564
▁functools	-2565
▁equivalent	-2566
nterpolation	-2567
▁denominator	-2568
formatMessage	-2569
2:	-2570
En	-2571
_4	-2572
if	-2573
ELD	-2574
cut	-2575
too	-2576
}')	-2577
▁'<	-2578
▁3,	-2579
▁tr	-2580
List	-2581
ater	-2582
cape	-2583
lazy	-2584
null	-2585
tear	-2586
▁API	-2587
▁Now	-2588
▁You	-2589
▁ast	-2590
▁lon	-2591
Level	-2592
andom	-2593
total	-2594
uring	-2595
▁hast	-2596
assert	-2597
delete	-2598
direct	-2599
Special	-2600
getattr	-2601
modules	-2602
special	-2603
▁actual	-2604
▁points	-2605
normcase	-2606
segments	-2607
▁wrapped	-2608
▁register	-2609
deprecated	-2610
descriptor	-2611
optionflags	-2612
annotationlib	-2613
▁corresponding	-2614
20	-2615
bl	-2616
RST	-2617
ULT	-2618
['_	-2619
pat	-2620
▁2)	-2621
▁fd	-2622
eded	-2623
exec	-2624
sume	-2625
tras	-2626
FIELD	-2627
ately	-2628
depth	-2629
pture	-2630
ulate	-2631
▁care	-2632
▁fast	-2633
▁real	-2634
anager	-2635
arrier	-2636
holder	-2637
▁Class	-2638
dirname	-2639
ulation	-2640
▁failed	-2641
▁struct	-2642
▁Address	-2643
▁checked	-2644
▁reverse	-2645
Formatter	-2646
separator	-2647
▁fallback	-2648
▁negative	-2649
▁Parameter	-2650
▁threading	-2651
▁references	-2652
30	-2653
=1	-2654
Up	-2655
td	-2656
``.	-2657
uff	-2658
utf	-2659
▁At	-2660
▁cm	-2661
Lock	-2662
__",	-2663
cope	-2664
fail	-2665
ific	-2666
lper	-2667
most	-2668
ntle	-2669
pipe	-2670
used	-2671
▁''.	-2672
▁Any	-2673
▁sum	-2674
▁top	-2675
▁zip	-2676
FLAGS	-2677
Raise	-2678
delim	-2679
tague	-2680
uplic	-2681
▁Comp	-2682
▁Init	-2683
▁junk	-2684
▁live	-2685
▁math	-2686
Create	-2687
closed	-2688
filter	-2689
length	-2690
target	-2691
typing	-2692
▁light	-2693
▁might	-2694
▁table	-2695
▁whose	-2696
Mapping	-2697
globals	-2698
options	-2699
▁median	-2700
hashable	-2701
▁boolean	-2702
▁compati	-2703
▁correct	-2704
Iteration	-2705
▁Montague	-2706
▁dataclass	-2707
▁separator	-2708
▁annotations	-2709
▁constructor	-2710
16	-2711
75	-2712
TR	-2713
ZE	-2714
yn	-2715
Exe	-2716
SPA	-2717
[1:	-2718
[1]	-2719
ike	-2720
▁2.	-2721
▁48	-2722
▁Do	-2723
▁fn	-2724
▁ye	-2725
NAME	-2726
ends	-2727
medi	-2728
over	-2729
zero	-2730
▁Set	-2731
trace	-2732
▁Args	-2733
▁Come	-2734
▁Test	-2735
▁arch	-2736
random	-2737
simple	-2738
uration	-2739
▁runner	-2740
▁directly	-2741
▁protocol	-2742
whitespace	-2743
▁container	-2744
cy	-2745
ng	-2746
xc	-2747
"):	-2748
('-	-2749
STR	-2750
bly	-2751
ins	-2752
lex	-2753
▁Me	-2754
▁Po	-2755
▁ns	-2756
imum	-2757
ough	-2758
pair	-2759
play	-2760
▁gre	-2761
▁ipv	-2762
curse	-2763
posix	-2764
regex	-2765
▁save	-2766
parent	-2767
▁Paris	-2768
▁chunk	-2769
▁nodes	-2770
anslate	-2771
convert	-2772
maxsize	-2773
members	-2774
metavar	-2775
▁gentle	-2776
▁reason	-2777
Callable	-2778
iterable	-2779
required	-2780
▁allowed	-2781
▁inherit	-2782
('192.0.2	-2783
arguments	-2784
▁existing	-2785
▁handlers	-2786
▁iterator	-2787
▁numerator	-2788
▁supported	-2789
▁variables	-2790
▁description	-2791
80	-2792
No	-2793
cs	-2794
wr	-2795
CII	-2796
bin	-2797
rol	-2798
▁"%	-2799
▁Di	-2800
▁du	-2801
▁sa	-2802
Func	-2803
Spec	-2804
days	-2805
▁abs	-2806
▁imp	-2807
child	-2808
named	-2809
round	-2810
sigma	-2811
usive	-2812
▁Here	-2813
▁Name	-2814
▁Then	-2815
▁down	-2816
▁main	-2817
▁pick	-2818
except	-2819
groups	-2820
rstrip	-2821
▁Error	-2822
▁Where	-2823
▁consi	-2824
▁needs	-2825
▁short	-2826
▁strip	-2827
#######	-2828
forward	-2829
invalid	-2830
▁access	-2831
▁needed	-2832
▁static	-2833
▁strict	-2834
▁unless	-2835
▁useful	-2836
Argument	-2837
dispatch	-2838
roadcast	-2839
▁anchors	-2840
▁release	-2841
▁indicate	-2842
▁override	-2843
▁property	-2844
splitlines	-2845
▁considered	-2846
FO	-2847
▁q	-2848
').	-2849
ONT	-2850
ily	-2851
mun	-2852
non	-2853
▁3.	-2854
addr	-2855
alph	-2856
mory	-2857
▁Add	-2858
▁bit	-2859
▁put	-2860
FAULT	-2861
equal	-2862
escri	-2863
owner	-2864
prime	-2865
tools	-2866
▁doth	-2867
▁show	-2868
▁sure	-2869
▁uses	-2870
chunks	-2871
dicate	-2872
record	-2873
versed	-2874
▁Union	-2875
▁exact	-2876
▁wrong	-2877
Failure	-2878
cluding	-2879
extract	-2880
manager	-2881
summary	-2882
verbose	-2883
▁Handle	-2884
▁itself	-2885
▁necess	-2886
▁raises	-2887
metadata	-2888
negative	-2889
▁TypeVar	-2890
▁decimal	-2891
▁similar	-2892
formatter	-2893
▁document	-2894
▁followed	-2895
▁formatting	-2896
▁namedtuple	-2897
▁compatibility	-2898
2_	-2899
:\	-2900
=0	-2901
BU	-2902
]'	-2903
av	-2904
oy	-2905
ww	-2906
}:	-2907
.0,	-2908
MAX	-2909
Res	-2910
VER	-2911
_']	-2912
bab	-2913
gor	-2914
ron	-2915
▁(0	-2916
▁2:	-2917
▁es	-2918
Case	-2919
NING	-2920
high	-2921
sqrt	-2922
▁had	-2923
▁pur	-2924
entry	-2925
orrow	-2926
style	-2927
▁With	-2928
Exeunt	-2929
gorith	-2930
ressed	-2931
suffix	-2932
▁ident	-2933
▁quote	-2934
▁shell	-2935
DocTest	-2936
contain	-2937
ization	-2938
▁around	-2939
▁buffer	-2940
▁tuples	-2941
▁unique	-2942
relative	-2943
▁checker	-2944
▁details	-2945
▁metavar	-2946
▁addresses	-2947
▁optionflags	-2948
3_	-2949
4)	-2950
As	-2951
On	-2952
fp	-2953
'))	-2954
ctx	-2955
▁fp	-2956
('__	-2957
['__	-2958
ases	-2959
late	-2960
long	-2961
mall	-2962
show	-2963
spec	-2964
stru	-2965
▁mis	-2966
2001:	-2967
Async	-2968
__'):	-2969
abled	-2970
▁eval	-2971
▁gone	-2972
Decode	-2973
FORMAT	-2974
atcher	-2975
kernel	-2976
▁delta	-2977
▁lists	-2978
▁separ	-2979
▁sigma	-2980
Invalid	-2981
UPPRESS	-2982
missing	-2983
variant	-2984
▁Create	-2985
▁binary	-2986
▁helper	-2987
variance	-2988
▁entries	-2989
▁padding	-2990
▁removed	-2991
▁Sequence	-2992
▁failures	-2993
▁specific	-2994
▁Otherwise	-2995
''	-2996
87	-2997
AD	-2998
Is	-2999
OP	-3000
cd	-3001
gr	-3002
oe	-3003
▁9	-3004
("%	-3005
(1,	-3006
)')	-3007
,))	-3008
.')	-3009
IPE	-3010
ISS	-3011
OSE	-3012
dig	-3013
inv	-3014
ram	-3015
sup	-3016
tab	-3017
tty	-3018
▁"-	-3019
▁@_	-3020
▁sc	-3021
1234	-3022
best	-3023
shut	-3024
▁pad	-3025
▁typ	-3026
Gener	-3027
ffect	-3028
munic	-3029
pread	-3030
roken	-3031
ublic	-3032
▁nest	-3033
cwrite	-3034
hidden	-3035
quires	-3036
report	-3037
▁alpha	-3038
▁onexc	-3039
▁sweet	-3040
Manager	-3041
Matcher	-3042
Summary	-3043
latform	-3044
▁Format	-3045
▁Normal	-3046
▁Raises	-3047
▁column	-3048
▁conver	-3049
▁rather	-3050
▁termin	-3051
▁archive	-3052
▁capture	-3053
▁outcome	-3054
▁running	-3055
functools	-3056
▁callback	-3057
▁conflict	-3058
▁delimiter	-3059
▁necessary	-3060
ContextManager	-3061
ML	-3062
gt	-3063
ki	-3064
▁}	-3065
▁‘	-3066
OTE	-3067
TML	-3068
▁"<	-3069
▁'{	-3070
▁("	-3071
▁db	-3072
5678	-3073
__']	-3074
fies	-3075
lice	-3076
raph	-3077
wiki	-3078
ycle	-3079
▁Mer	-3080
▁PEP	-3081
▁Why	-3082
async	-3083
errno	-3084
forms	-3085
idate	-3086
pairs	-3087
▁Read	-3088
▁beta	-3089
▁copi	-3090
▁days	-3091
▁eyes	-3092
▁head	-3093
▁inst	-3094
▁shut	-3095
▁step	-3096
▁Which	-3097
▁basic	-3098
▁clock	-3099
▁debug	-3100
▁heave	-3101
▁words	-3102
Process	-3103
Section	-3104
upports	-3105
▁Thread	-3106
▁allows	-3107
▁config	-3108
▁daemon	-3109
▁define	-3110
▁extens	-3111
▁locale	-3112
▁memory	-3113
▁proper	-3114
generate	-3115
handlers	-3116
limiters	-3117
sections	-3118
▁invalid	-3119
▁package	-3120
▁success	-3121
▁verbose	-3122
Parameter	-3123
▁interpre	-3124
▁previous	-3125
▁variance	-3126
attributes	-3127
▁executable	-3128
▁classmethod	-3129
(-	-3130
25	-3131
27	-3132
37	-3133
4-	-3134
=(	-3135
▁Q	-3136
::/	-3137
CEP	-3138
WAR	-3139
bre	-3140
ian	-3141
les	-3142
▁Pe	-3143
Help	-3144
__':	-3145
amma	-3146
anks	-3147
body	-3148
cing	-3149
full	-3150
html	-3151
loor	-3152
▁PAR	-3153
▁cut	-3154
▁fri	-3155
▁gra	-3156
▁isn	-3157
imple	-3158
lower	-3159
▁cell	-3160
▁hard	-3161
▁loop	-3162
▁meta	-3163
▁repe	-3164
Descri	-3165
ISSING	-3166
cached	-3167
global	-3168
▁Check	-3169
▁arbit	-3170
▁below	-3171
▁heart	-3172
▁makes	-3173
▁marri	-3174
▁takes	-3175
bstract	-3176
cursion	-3177
doctest	-3178
itional	-3179
release	-3180
rencode	-3181
▁assign	-3182
▁comple	-3183
▁during	-3184
▁inputs	-3185
▁letter	-3186
▁probab	-3187
callback	-3188
deepcopy	-3189
unittest	-3190
struction	-3191
▁appropri	-3192
▁compress	-3193
▁globalns	-3194
▁StopIteration	-3195
▁SequenceMatcher	-3196
">	-3197
6)	-3198
>"	-3199
BL	-3200
bc	-3201
.5,	-3202
__]	-3203
cum	-3204
net	-3205
sen	-3206
▁12	-3207
▁Of	-3208
▁`_	-3209
DIFF	-3210
[0],	-3211
ared	-3212
fill	-3213
ived	-3214
oper	-3215
ummy	-3216
▁100	-3217
▁Get	-3218
▁REP	-3219
▁men	-3220
▁mid	-3221
▁qui	-3222
▁who	-3223
SPACE	-3224
caped	-3225
mtree	-3226
▁Some	-3227
▁date	-3228
▁hour	-3229
▁less	-3230
▁move	-3231
STRING	-3232
termin	-3233
▁clear	-3234
▁occur	-3235
▁posix	-3236
▁theme	-3237
('2001:	-3238
alendar	-3239
choices	-3240
decimal	-3241
▁REPORT	-3242
▁groups	-3243
▁kwonly	-3244
getframe	-3245
▁against	-3246
▁changes	-3247
▁forward	-3248
▁ignored	-3249
▁leading	-3250
▁maxsize	-3251
▁prevent	-3252
▁colorize	-3253
▁supplied	-3254
▁trailing	-3255
excepthook	-3256
iterencode	-3257
▁determine	-3258
▁appropriate	-3259
1(	-3260
3)	-3261
4,	-3262
XX	-3263
_.	-3264
fl	-3265
IPv	-3266
TMP	-3267
cmd	-3268
fer	-3269
nan	-3270
▁"\	-3271
▁':	-3272
▁((	-3273
▁["	-3274
▁tp	-3275
FILE	-3276
Info	-3277
__')	-3278
card	-3279
expr	-3280
head	-3281
igno	-3282
ixed	-3283
orks	-3284
▁Cal	-3285
▁God	-3286
▁env	-3287
▁gid	-3288
asure	-3289
ering	-3290
finit	-3291
isect	-3292
▁Each	-3293
▁Find	-3294
▁orig	-3295
▁tear	-3296
▁vars	-3297
Cannot	-3298
Config	-3299
Runner	-3300
amSpec	-3301
cessed	-3302
daemon	-3303
decess	-3304
finity	-3305
uation	-3306
▁async	-3307
▁chars	-3308
▁comes	-3309
▁gives	-3310
▁sever	-3311
Returns	-3312
crement	-3313
etworks	-3314
ficient	-3315
handler	-3316
started	-3317
symlink	-3318
unknown	-3319
urePath	-3320
▁checks	-3321
▁heaven	-3322
▁immedi	-3323
▁public	-3324
endswith	-3325
filedate	-3326
upported	-3327
▁consume	-3328
▁feature	-3329
▁netmask	-3330
▁waiting	-3331
matically	-3332
precation	-3333
scription	-3334
▁children	-3335
▁creating	-3336
▁creation	-3337
▁positive	-3338
▁provides	-3339
▁requires	-3340
▁LogRecord	-3341
▁itertools	-3342
▁stacklevel	-3343
▁positionals	-3344
▁configuration	-3345
###############	-3346
=======+=======+	-3347
(%	-3348
,—	-3349
04	-3350
1.	-3351
Te	-3352
CEN	-3353
GEN	-3354
Int	-3355
ORY	-3356
Ref	-3357
Sub	-3358
div	-3359
hes	-3360
mer	-3361
sue	-3362
tle	-3363
ves	-3364
▁FI	-3365
▁RE	-3366
▁ob	-3367
Dist	-3368
User	-3369
[0].	-3370
asks	-3371
eric	-3372
host	-3373
inte	-3374
maps	-3375
mark	-3376
miss	-3377
sens	-3378
▁ahi	-3379
▁ban	-3380
▁bhi	-3381
▁mac	-3382
▁mar	-3383
▁pie	-3384
▁won	-3385
below	-3386
▁dear	-3387
▁dele	-3388
▁fdst	-3389
▁mine	-3390
▁rand	-3391
▁simp	-3392
Logger	-3393
dTuple	-3394
▁event	-3395
▁issue	-3396
▁pairs	-3397
▁three	-3398
acquire	-3399
clusive	-3400
▁assume	-3401
▁extras	-3402
▁longer	-3403
Calendar	-3404
▁markers	-3405
TypeError	-3406
coroutine	-3407
positions	-3408
scriptors	-3409
sensitive	-3410
▁algorith	-3411
▁backward	-3412
▁comments	-3413
▁integers	-3414
▁reserved	-3415
▁Traceback	-3416
▁contained	-3417
▁predicate	-3418
▁something	-3419
-----------	-3420
description	-3421
▁differences	-3422
.{	-3423
29	-3424
HI	-3425
yp	-3426
.")	-3427
ROR	-3428
bed	-3429
ire	-3430
seu	-3431
sum	-3432
vid	-3433
▁Ay	-3434
▁II	-3435
▁wi	-3436
cene	-3437
ctet	-3438
dump	-3439
rant	-3440
rief	-3441
slot	-3442
some	-3443
▁AST	-3444
▁Law	-3445
▁alo	-3446
▁bed	-3447
▁buf	-3448
▁cdf	-3449
▁fix	-3450
▁via	-3451
after	-3452
conds	-3453
seudo	-3454
▁Only	-3455
▁excl	-3456
▁free	-3457
▁gzip	-3458
▁hold	-3459
▁home	-3460
▁json	-3461
▁walk	-3462
Result	-3463
blocks	-3464
expand	-3465
normal	-3466
system	-3467
▁Index	-3468
▁const	-3469
▁hence	-3470
▁thing	-3471
unction	-3472
zipFile	-3473
▁Prince	-3474
▁blocks	-3475
▁preser	-3476
andidate	-3477
callable	-3478
failures	-3479
operator	-3480
▁aliases	-3481
▁content	-3482
▁errread	-3483
▁factory	-3484
▁literal	-3485
▁started	-3486
▁weights	-3487
Attribute	-3488
▁Lawrence	-3489
▁Protocol	-3490
▁hashable	-3491
▁messages	-3492
▁pathname	-3493
▁redirect	-3494
▁sentinel	-3495
▁starting	-3496
exceptions	-3497
isinstance	-3498
▁remaining	-3499
▁timestamp	-3500
▁population	-3501
▁subclasses	-3502
▁descriptors	-3503
-------+-------+	-3504
)"	-3505
-8	-3506
.,	-3507
2.	-3508
31	-3509
Su	-3510
8::	-3511
ABC	-3512
Col	-3513
elt	-3514
med	-3515
ncy	-3516
rac	-3517
tis	-3518
▁".	-3519
▁'*	-3520
▁1]	-3521
▁:=	-3522
CENE	-3523
SIZE	-3524
^^^^	-3525
duct	-3526
lack	-3527
lest	-3528
ster	-3529
ueue	-3530
▁cir	-3531
▁mad	-3532
▁net	-3533
▁pdf	-3534
cutio	-3535
ories	-3536
reque	-3537
spath	-3538
theme	-3539
▁Give	-3540
▁Make	-3541
▁They	-3542
▁fall	-3543
▁fill	-3544
▁hear	-3545
Assert	-3546
ignore	-3547
versal	-3548
▁SCENE	-3549
▁errno	-3550
▁indic	-3551
▁small	-3552
▁stdin	-3553
getnode	-3554
utually	-3555
▁Logger	-3556
▁appear	-3557
▁caller	-3558
▁choice	-3559
▁closed	-3560
▁digits	-3561
▁linear	-3562
optional	-3563
pathname	-3564
▁endtime	-3565
▁passing	-3566
▁suggest	-3567
TypedDict	-3568
▁Mercutio	-3569
▁keywords	-3570
▁symlinks	-3571
▁TypedDict	-3572
▁generated	-3573
▁IndexError	-3574
▁operations	-3575
firstweekday	-3576
▁automatically	-3577
*(	-3578
*.	-3579
.'	-3580
2-	-3581
38	-3582
Ch	-3583
GN	-3584
ie	-3585
ALL	-3586
AMP	-3587
ANK	-3588
ORE	-3589
ORO	-3590
gic	-3591
got	-3592
ice	-3593
lam	-3594
mac	-3595
ugh	-3596
▁')	-3597
▁DE	-3598
▁la	-3599
▁pl	-3600
▁{!	-3601
Find	-3602
[0])	-3603
cant	-3604
tabs	-3605
tree	-3606
vant	-3607
well	-3608
▁Int	-3609
▁Pro	-3610
▁big	-3611
▁clo	-3612
▁die	-3613
▁fmt	-3614
▁lie	-3615
▁rep	-3616
▁ste	-3617
CREAT	-3618
arrow	-3619
colno	-3620
debug	-3621
ision	-3622
limbo	-3623
olute	-3624
pends	-3625
terns	-3626
uture	-3627
which	-3628
▁HTML	-3629
▁Lady	-3630
▁away	-3631
▁kwds	-3632
▁life	-3633
▁lord	-3634
▁warn	-3635
▁wilt	-3636
asdict	-3637
cannot	-3638
getter	-3639
lambda	-3640
ounded	-3641
▁Field	-3642
▁Gener	-3643
▁PARIS	-3644
▁Scene	-3645
▁These	-3646
▁blank	-3647
▁cycle	-3648
▁depth	-3649
▁drive	-3650
▁house	-3651
▁ready	-3652
▁scope	-3653
▁speak	-3654
▁title	-3655
▁world	-3656
DEFAULT	-3657
integer	-3658
pecting	-3659
prepare	-3660
success	-3661
▁applic	-3662
▁father	-3663
12345678	-3664
alphabet	-3665
boundary	-3666
fallback	-3667
finished	-3668
ordering	-3669
overload	-3670
randbits	-3671
▁barrier	-3672
▁decoded	-3673
▁omitted	-3674
▁setting	-3675
▁skipped	-3676
broadcast	-3677
decessors	-3678
deredDict	-3679
▁SUPPRESS	-3680
▁actually	-3681
▁checking	-3682
▁metadata	-3683
▁Signature	-3684
▁operation	-3685
▁structure	-3686
▁therefore	-3687
▁NormalDist	-3688
▁separators	-3689
staticmethod	-3690
▁immediately	-3691
▁annotationlib	-3692
▁documentation	-3693
0.	-3694
0:	-3695
6-	-3696
MO	-3697
OT	-3698
_5	-3699
ux	-3700
"),	-3701
ANT	-3702
ASS	-3703
Std	-3704
TED	-3705
any	-3706
cwd	-3707
ery	-3708
ged	-3709
mid	-3710
reg	-3711
typ	-3712
whe	-3713
▁"_	-3714
▁'+	-3715
▁'/	-3716
▁UN	-3717
▁pe	-3718
Copy	-3719
FFFF	-3720
UOTE	-3721
_412	-3722
core	-3723
indi	-3724
lips	-3725
stit	-3726
true	-3727
unct	-3728
vels	-3729
▁Per	-3730
▁Pre	-3731
▁She	-3732
▁src	-3733
▁sto	-3734
▁tom	-3735
Check	-3736
ailed	-3737
aline	-3738
andir	-3739
colon	-3740
elper	-3741
exist	-3742
gures	-3743
ilder	-3744
issue	-3745
table	-3746
▁byte	-3747
▁deep	-3748
▁fear	-3749
▁none	-3750
▁note	-3751
▁send	-3752
▁temp	-3753
create	-3754
insert	-3755
select	-3756
ughter	-3757
▁FIRST	-3758
▁built	-3759
▁cause	-3760
▁happe	-3761
▁multi	-3762
▁resol	-3763
▁speed	-3764
▁stuff	-3765
▁trace	-3766
▁tries	-3767
▁works	-3768
FORMATS	-3769
ansform	-3770
checked	-3771
ificant	-3772
sencode	-3773
tearray	-3774
▁duplic	-3775
▁signal	-3776
Sequence	-3777
basename	-3778
matching	-3779
setstate	-3780
typename	-3781
▁MISSING	-3782
▁display	-3783
▁varargs	-3784
timestamp	-3785
▁ClassVar	-3786
▁builtins	-3787
▁complete	-3788
▁exponent	-3789
▁interest	-3790
▁registry	-3791
▁reversed	-3792
positional	-3793
▁arbitrary	-3794
▁beginning	-3795
▁specifies	-3796
▁temporary	-3797
▁unexpected	-3798
▁dataclasses	-3799
HelpFormatter	-3800
▁representing	-3801
▁Interpolation	-3802
+1	-3803
21	-3804
24	-3805
6,	-3806
AY	-3807
US	-3808
[2	-3809
_)	-3810
sv	-3811
'],	-3812
(1)	-3813
-1,	-3814
128	-3815
=1,	-3816
ACK	-3817
CON	-3818
MAL	-3819
aut	-3820
eed	-3821
iew	-3822
rop	-3823
▁'"	-3824
▁'?	-3825
▁(%	-3826
▁30	-3827
▁</	-3828
▁ST	-3829
Form	-3830
Text	-3831
care	-3832
mean	-3833
mult	-3834
ness	-3835
pose	-3836
▁'**	-3837
▁Let	-3838
▁bpo	-3839
▁war	-3840
#####	-3841
BLANK	-3842
Inter	-3843
caten	-3844
cript	-3845
cular	-3846
force	-3847
yntax	-3848
▁addr	-3849
▁devi	-3850
▁kill	-3851
▁stay	-3852
change	-3853
ialize	-3854
lipsis	-3855
status	-3856
▁alive	-3857
▁annot	-3858
▁based	-3859
▁think	-3860
▁years	-3861
changed	-3862
coprime	-3863
counter	-3864
generic	-3865
mallest	-3866
mission	-3867
▁String	-3868
▁altern	-3869
▁bisect	-3870
▁decode	-3871
▁friend	-3872
▁kernel	-3873
▁master	-3874
▁nested	-3875
▁others	-3876
▁search	-3877
▁status	-3878
Expected	-3879
calendar	-3880
conflict	-3881
keywords	-3882
▁choices	-3883
▁dirname	-3884
▁encoded	-3885
▁produce	-3886
▁startup	-3887
▁unknown	-3888
▁behavior	-3889
▁generate	-3890
▁newlines	-3891
yntaxError	-3892
▁converted	-3893
▁positions	-3894
▁statement	-3895
DecodeError	-3896
SpecialForm	-3897
▁probability	-3898
.)	-3899
.\	-3900
35	-3901
=%	-3902
[-	-3903
rb	-3904
(0)	-3905
=""	-3906
=2)	-3907
Any	-3908
Def	-3909
LIP	-3910
SIS	-3911
UNK	-3912
__`	-3913
ips	-3914
men	-3915
oci	-3916
oks	-3917
▁AS	-3918
▁OP	-3919
▁ph	-3920
.255	-3921
Oper	-3922
SUPP	-3923
View	-3924
[...	-3925
arns	-3926
auto	-3927
done	-3928
inux	-3929
irst	-3930
leep	-3931
maph	-3932
ower	-3933
rial	-3934
uous	-3935
vide	-3936
voke	-3937
ware	-3938
ynam	-3939
yphe	-3940
▁Can	-3941
▁Don	-3942
▁GRE	-3943
▁PAT	-3944
▁Sub	-3945
▁_('	-3946
▁`__	-3947
▁eye	-3948
▁joy	-3949
▁lit	-3950
▁loc	-3951
▁sou	-3952
▁tab	-3953
CTION	-3954
[:-1]	-3955
aving	-3956
crete	-3957
title	-3958
▁('__	-3959
▁----	-3960
▁SAMP	-3961
▁Text	-3962
▁curr	-3963
▁face	-3964
▁spec	-3965
LIPSIS	-3966
escape	-3967
reinit	-3968
rmtree	-3969
second	-3970
▁Place	-3971
▁early	-3972
▁large	-3973
▁ndiff	-3974
▁visit	-3975
archive	-3976
compare	-3977
correct	-3978
details	-3979
lection	-3980
pending	-3981
segment	-3982
▁effect	-3983
▁inside	-3984
▁invcdf	-3985
▁little	-3986
▁places	-3987
▁pseudo	-3988
▁quotes	-3989
▁things	-3990
Protocol	-3991
builtins	-3992
examples	-3993
internal	-3994
newlines	-3995
▁SAMPSON	-3996
▁Special	-3997
▁collect	-3998
▁comment	-3999
▁consist	-4000
▁exactly	-4001
▁localns	-4002
▁parsing	-4003
▁program	-4004
▁variant	-4005
▁warning	-4006
Operation	-4007
Temporary	-4008
constants	-4009
translate	-4010
▁anything	-4011
▁binascii	-4012
▁dispatch	-4013
▁ismethod	-4014
▁tearDown	-4015
▁Annotated	-4016
▁Arguments	-4017
▁filenames	-4018
▁linecache	-4019
▁returncode	-4020
▁directories	-4021
▁indentation	-4022
▁significant	-4023
▁interpolation	-4024
42	-4025
48	-4026
_1	-4027
_:	-4028
mk	-4029
sw	-4030
ws	-4031
▁~	-4032
ERV	-4033
EXT	-4034
REP	-4035
[-1	-4036
]):	-4037
__!	-4038
dit	-4039
inf	-4040
leg	-4041
met	-4042
},'	-4043
▁4,	-4044
▁_,	-4045
▁eq	-4046
▁gu	-4047
SION	-4048
eval	-4049
ider	-4050
into	-4051
iron	-4052
king	-4053
oose	-4054
orth	-4055
pick	-4056
seen	-4057
ters	-4058
ties	-4059
utex	-4060
▁'\\	-4061
▁200	-4062
▁bid	-4063
▁dev	-4064
▁sin	-4065
▁upd	-4066
▁woe	-4067
CLASS	-4068
CLOSE	-4069
Found	-4070
ORTED	-4071
POSIX	-4072
UNSET	-4073
Warns	-4074
break	-4075
codes	-4076
final	-4077
imize	-4078
uting	-4079
▁Call	-4080
▁Look	-4081
▁Path	-4082
▁SERV	-4083
▁calc	-4084
▁desi	-4085
▁didn	-4086
▁four	-4087
▁pray	-4088
Option	-4089
Random	-4090
ainMap	-4091
finite	-4092
tended	-4093
tuples	-4094
▁earth	-4095
▁fails	-4096
▁hexte	-4097
▁looks	-4098
▁magic	-4099
▁octet	-4100
▁store	-4101
▁tears	-4102
▁young	-4103
arewell	-4104
encoder	-4105
indices	-4106
runtime	-4107
tempdir	-4108
▁Called	-4109
▁append	-4110
▁months	-4111
▁unpack	-4112
▁yields	-4113
municate	-4114
sequence	-4115
shutdown	-4116
▁SERVANT	-4117
▁accepts	-4118
▁control	-4119
▁modules	-4120
▁treated	-4121
Annotated	-4122
SUPPORTED	-4123
randbelow	-4124
specified	-4125
▁Callable	-4126
▁annotate	-4127
▁checkers	-4128
▁rational	-4129
▁suppress	-4130
testMethod	-4131
▁algorithm	-4132
▁currently	-4133
▁extension	-4134
▁frozenset	-4135
▁highlight	-4136
▁UserString	-4137
initialspace	-4138
▁interesting	-4139
precationWarning	-4140
*?	-4141
2(	-4142
LI	-4143
SU	-4144
so	-4145
▁Z	-4146
('_	-4147
+1,	-4148
={!	-4149
ART	-4150
BAL	-4151
DOW	-4152
Out	-4153
RFC	-4154
]))	-4155
ape	-4156
buf	-4157
eks	-4158
mul	-4159
nch	-4160
und	-4161
uni	-4162
▁5,	-4163
▁5.	-4164
▁Al	-4165
▁IN	-4166
▁TY	-4167
▁[(	-4168
▁ri	-4169
▁ro	-4170
▁sr	-4171
JUNK	-4172
Wrap	-4173
__))	-4174
desc	-4175
fort	-4176
gral	-4177
gzip	-4178
oked	-4179
sift	-4180
ssed	-4181
tect	-4182
urch	-4183
usic	-4184
▁###	-4185
▁'')	-4186
▁'--	-4187
▁Thy	-4188
▁bra	-4189
▁che	-4190
▁cwd	-4191
▁des	-4192
▁son	-4193
▁why	-4194
)."""	-4195
Count	-4196
ERROR	-4197
Proxy	-4198
deque	-4199
fully	-4200
icast	-4201
nodes	-4202
ousin	-4203
visit	-4204
▁10**	-4205
▁Good	-4206
▁Like	-4207
▁Real	-4208
▁Time	-4209
▁Well	-4210
▁deta	-4211
▁gets	-4212
▁holy	-4213
▁host	-4214
▁late	-4215
▁pipe	-4216
▁stra	-4217
▁turn	-4218
dedent	-4219
lstrip	-4220
rivate	-4221
search	-4222
single	-4223
urrent	-4224
▁ASCII	-4225
▁Popen	-4226
▁Since	-4227
▁decor	-4228
▁dream	-4229
▁enter	-4230
▁leave	-4231
▁skips	-4232
▁split	-4233
▁varkw	-4234
Mutable	-4235
builder	-4236
complex	-4237
devnull	-4238
ificand	-4239
opcodes	-4240
ormally	-4241
weights	-4242
▁cousin	-4243
▁encode	-4244
▁marker	-4245
▁pretty	-4246
contains	-4247
fsencode	-4248
ractions	-4249
validate	-4250
▁acquire	-4251
▁dironly	-4252
▁married	-4253
▁parents	-4254
▁records	-4255
▁respect	-4256
▁theyear	-4257
BLANKLINE	-4258
TestClass	-4259
countered	-4260
exclusive	-4261
highlight	-4262
▁absolute	-4263
▁alphabet	-4264
▁blocking	-4265
▁boundary	-4266
▁daughter	-4267
▁readable	-4268
fieldnames	-4269
unctuation	-4270
▁behaviour	-4271
▁component	-4272
▁differing	-4273
▁indicates	-4274
▁inherited	-4275
▁resulting	-4276
▁conversion	-4277
▁filesystem	-4278
▁enumeration	-4279
▁recursively	-4280
▁startupinfo	-4281
Interpolation	-4282
interpolation	-4283
▁ArgumentError	-4284
▁instantiating	-4285
▁JSONDecodeError	-4286
)}	-4287
17	-4288
3.	-4289
>\	-4290
By	-4291
NE	-4292
OF	-4293
OM	-4294
_7	-4295
_8	-4296
ni	-4297
|\	-4298
'])	-4299
)),	-4300
1._	-4301
CAL	-4302
DED	-4303
HAN	-4304
Str	-4305
_',	-4306
big	-4307
can	-4308
clo	-4309
eds	-4310
imp	-4311
lap	-4312
ond	-4313
oot	-4314
urs	-4315
▁4.	-4316
▁PR	-4317
▁mk	-4318
▁nb	-4319
BALT	-4320
Like	-4321
__")	-4322
ands	-4323
bugs	-4324
ials	-4325
json	-4326
tore	-4327
▁"--	-4328
▁Ass	-4329
▁Pos	-4330
▁Ver	-4331
▁Who	-4332
▁lib	-4333
▁nor	-4334
▁ser	-4335
ETTER	-4336
Group	-4337
NAMED	-4338
Union	-4339
added	-4340
aking	-4341
ament	-4342
arily	-4343
audit	-4344
ctime	-4345
drive	-4346
floor	-4347
ining	-4348
quare	-4349
shlex	-4350
store	-4351
▁Copy	-4352
▁Unix	-4353
▁cale	-4354
▁dump	-4355
▁hier	-4356
▁maps	-4357
▁mask	-4358
▁meth	-4359
▁mist	-4360
▁prom	-4361
▁rece	-4362
▁soon	-4363
Raises	-4364
_4122_	-4365
blanks	-4366
common	-4367
ductor	-4368
exists	-4369
gether	-4370
illain	-4371
▁Empty	-4372
▁array	-4373
▁known	-4374
▁prior	-4375
▁produ	-4376
▁setUp	-4377
▁sound	-4378
▁style	-4379
▁typed	-4380
VERSION	-4381
Wrapper	-4382
matches	-4383
mutable	-4384
newline	-4385
ociated	-4386
phcount	-4387
pressed	-4388
profile	-4389
setattr	-4390
suggest	-4391
theyear	-4392
▁TYBALT	-4393
▁adding	-4394
▁enough	-4395
▁entire	-4396
▁larger	-4397
▁mother	-4398
▁narrow	-4399
▁partic	-4400
▁pieces	-4401
▁reduce	-4402
▁serial	-4403
▁though	-4404
NotFound	-4405
mutually	-4406
relation	-4407
requency	-4408
reserved	-4409
tearDown	-4410
▁changed	-4411
▁compact	-4412
▁compile	-4413
▁invoked	-4414
▁perform	-4415
▁symlink	-4416
▁Rational	-4417
▁basename	-4418
▁deepcopy	-4419
▁hierarch	-4420
▁lineterm	-4421
▁preserve	-4422
▁reductor	-4423
▁separate	-4424
▁themonth	-4425
basestring	-4426
setdefault	-4427
▁ParamSpec	-4428
▁attempted	-4429
▁including	-4430
▁overwrite	-4431
▁delimiters	-4432
▁registered	-4433
▁subprocess	-4434
▁instruction	-4435
NotFoundError	-4436
instancecheck	-4437
AttributeError	-4438
▁BaseException	-4439
'[	-4440
26	-4441
45	-4442
5)	-4443
6.	-4444
>.	-4445
AB	-4446
Bu	-4447
Py	-4448
To	-4449
fs	-4450
ua	-4451
('<	-4452
()]	-4453
100	-4454
4')	-4455
></	-4456
HAS	-4457
ULL	-4458
URE	-4459
USE	-4460
abb	-4461
dec	-4462
don	-4463
env	-4464
fwd	-4465
gid	-4466
kee	-4467
ned	-4468
ood	-4469
ude	-4470
www	-4471
▁'#	-4472
▁(`	-4473
▁))	-4474
▁3:	-4475
▁MU	-4476
▁Up	-4477
▁na	-4478
▁sx	-4479
.0/2	-4480
Args	-4481
CEPT	-4482
Diff	-4483
Expi	-4484
HITE	-4485
Only	-4486
argv	-4487
arry	-4488
dapt	-4489
dden	-4490
inal	-4491
sect	-4492
view	-4493
{}'.	-4494
▁cmd	-4495
▁cum	-4496
▁dat	-4497
▁der	-4498
▁div	-4499
▁mro	-4500
▁seg	-4501
▁sem	-4502
▁sun	-4503
▁sym	-4504
▁usu	-4505
ASCII	-4506
Stack	-4507
const	-4508
dicts	-4509
flush	-4510
isdir	-4511
point	-4512
quent	-4513
super	-4514
▁emit	-4515
▁expr	-4516
▁hate	-4517
▁kins	-4518
▁lies	-4519
▁lips	-4520
▁said	-4521
▁seek	-4522
▁slot	-4523
▁wife	-4524
▁zlib	-4525
ACCEPT	-4526
Finder	-4527
GETTER	-4528
Handle	-4529
Raised	-4530
cesses	-4531
digits	-4532
islink	-4533
parsed	-4534
▁Frame	-4535
▁Point	-4536
▁Tuple	-4537
▁alone	-4538
▁blood	-4539
▁deque	-4540
▁grave	-4541
▁klass	-4542
▁later	-4543
▁lower	-4544
▁slain	-4545
▁slice	-4546
▁watch	-4547
Encoder	-4548
Expired	-4549
Results	-4550
SECTION	-4551
command	-4552
delitem	-4553
maphore	-4554
wardRef	-4555
▁County	-4556
▁become	-4557
▁breath	-4558
▁copied	-4559
▁destin	-4560
▁detect	-4561
▁future	-4562
▁newcls	-4563
▁overri	-4564
▁starts	-4565
Abstract	-4566
cleanups	-4567
getlines	-4568
platform	-4569
readable	-4570
▁cleanup	-4571
▁columns	-4572
▁dialect	-4573
▁escaped	-4574
▁heappop	-4575
▁numeric	-4576
▁uniform	-4577
▁weekday	-4578
▁written	-4579
Generator	-4580
HITESPACE	-4581
checkable	-4582
▁argparse	-4583
▁banished	-4584
▁circular	-4585
▁determin	-4586
▁possibly	-4587
▁selector	-4588
▁smallest	-4589
▁startpos	-4590
▁stripped	-4591
▁supports	-4592
▁together	-4593
Deprecated	-4594
outExpired	-4595
▁bytearray	-4596
▁comparing	-4597
▁optionals	-4598
▁permitted	-4599
▁processed	-4600
getrandbits	-4601
▁NamedTuple	-4602
▁particular	-4603
▁structures	-4604
▁implemented	-4605
▁significand	-4606
TemporaryFile	-4607
subclasscheck	-4608
---------------+	-4609
failureException	-4610
isabstractmethod	-4611
+)	-4612
-9	-4613
36	-4614
7,	-4615
Sh	-4616
We	-4617
_6	-4618
aa	-4619
bs	-4620
nb	-4621
(',	-4622
()`	-4623
-1)	-4624
2):	-4625
AIL	-4626
ARY	-4627
ITY	-4628
Key	-4629
VAL	-4630
aps	-4631
awn	-4632
dia	-4633
drv	-4634
neg	-4635
orn	-4636
spe	-4637
}'.	-4638
▁'[	-4639
▁20	-4640
▁ID	-4641
▁IS	-4642
▁cr	-4643
▁gh	-4644
=1):	-4645
CHAR	-4646
GORY	-4647
INCE	-4648
INFO	-4649
JSON	-4650
PIPE	-4651
RITI	-4652
[0]:	-4653
ball	-4654
circ	-4655
cket	-4656
cols	-4657
erce	-4658
give	-4659
iler	-4660
lims	-4661
ones	-4662
orig	-4663
step	-4664
uard	-4665
ural	-4666
vals	-4667
veni	-4668
walk	-4669
▁-1:	-4670
▁128	-4671
▁16-	-4672
▁Ben	-4673
▁Col	-4674
▁bur	-4675
▁dra	-4676
▁drv	-4677
▁ere	-4678
▁fur	-4679
▁hap	-4680
▁ill	-4681
▁mss	-4682
▁uid	-4683
▁und	-4684
▁wit	-4685
ORMAL	-4686
Store	-4687
Value	-4688
__}.{	-4689
acing	-4690
alive	-4691
antua	-4692
aries	-4693
board	-4694
ively	-4695
klass	-4696
notes	-4697
orten	-4698
pedia	-4699
press	-4700
qsize	-4701
setUp	-4702
stemp	-4703
▁Also	-4704
▁PIPE	-4705
▁aren	-4706
▁fsrc	-4707
▁hide	-4708
▁maid	-4709
▁rank	-4710
▁star	-4711
▁tabs	-4712
▁talk	-4713
▁view	-4714
Module	-4715
andard	-4716
chains	-4717
ending	-4718
failed	-4719
fileno	-4720
notify	-4721
ssible	-4722
strict	-4723
ynamic	-4724
▁1.0))	-4725
▁Peter	-4726
▁Shall	-4727
▁accum	-4728
▁build	-4729
▁clean	-4730
▁digit	-4731
▁gamma	-4732
▁intro	-4733
▁quick	-4734
▁reset	-4735
▁thous	-4736
GETTERS	-4737
RITICAL	-4738
angular	-4739
entries	-4740
include	-4741
optname	-4742
reverse	-4743
sequent	-4744
windows	-4745
▁Mantua	-4746
▁PRINCE	-4747
▁Remove	-4748
▁cached	-4749
▁faster	-4750
▁making	-4751
▁marked	-4752
▁prints	-4753
▁unsafe	-4754
Instance	-4755
circular	-4756
comments	-4757
constant	-4758
distance	-4759
fficient	-4760
getstate	-4761
hostmask	-4762
iterator	-4763
networks	-4764
template	-4765
unpacked	-4766
▁GREGORY	-4767
▁Literal	-4768
▁appears	-4769
▁definit	-4770
▁derived	-4771
▁desired	-4772
▁handles	-4773
▁outside	-4774
▁purpose	-4775
▁restore	-4776
▁seconds	-4777
▁substit	-4778
▁summary	-4779
▁updated	-4780
addresses	-4781
supported	-4782
wikipedia	-4783
▁Function	-4784
▁GzipFile	-4785
▁PurePath	-4786
▁StringIO	-4787
▁constant	-4788
▁detailed	-4789
▁heappush	-4790
▁nonlocal	-4791
▁straight	-4792
▁versions	-4793
compressed	-4794
unhashable	-4795
▁backwards	-4796
▁candidate	-4797
▁hierarchy	-4798
▁recursion	-4799
▁universal	-4800
Description	-4801
showwarning	-4802
▁Initialize	-4803
▁additional	-4804
▁determined	-4805
▁functional	-4806
▁indicating	-4807
▁interfaces	-4808
▁represents	-4809
ProcessError	-4810
SectionError	-4811
predecessors	-4812
▁application	-4813
▁GenericAlias	-4814
▁compresslevel	-4815
▁TimeoutExpired	-4816
"\	-4817
/%	-4818
06	-4819
49	-4820
77	-4821
86	-4822
><	-4823
IC	-4824
IX	-4825
NT	-4826
OS	-4827
YP	-4828
[_	-4829
]]	-4830
az	-4831
iv	-4832
▁?	-4833
Add	-4834
IND	-4835
OSI	-4836
RUN	-4837
Tis	-4838
[:]	-4839
alf	-4840
crc	-4841
gge	-4842
idx	-4843
lio	-4844
lru	-4845
nal	-4846
nos	-4847
ona	-4848
ple	-4849
tex	-4850
tin	-4851
ump	-4852
▁",	-4853
▁15	-4854
▁3)	-4855
▁ai	-4856
▁sw	-4857
)"""	-4858
MENT	-4859
SPEN	-4860
__):	-4861
atis	-4862
auss	-4863
etch	-4864
flow	-4865
frac	-4866
ible	-4867
keep	-4868
kens	-4869
meta	-4870
meth	-4871
real	-4872
save	-4873
secs	-4874
swer	-4875
trun	-4876
vart	-4877
▁3.1	-4878
▁Com	-4879
▁Run	-4880
▁WRI	-4881
▁abc	-4882
▁alt	-4883
▁eas	-4884
▁mur	-4885
▁utf	-4886
▁{},	-4887
('.')	-4888
INDOW	-4889
[...]	-4890
aexit	-4891
amber	-4892
argin	-4893
colum	-4894
found	-4895
ially	-4896
imate	-4897
ising	-4898
izing	-4899
metic	-4900
scope	-4901
texit	-4902
tract	-4903
ummar	-4904
vance	-4905
volio	-4906
▁POSI	-4907
▁asyn	-4908
▁comb	-4909
▁disc	-4910
▁ends	-4911
▁inde	-4912
▁quar	-4913
▁slow	-4914
▁sqrt	-4915
▁till	-4916
▁trip	-4917
▁wake	-4918
▁wast	-4919
▁wild	-4920
▁wind	-4921
▁xbar	-4922
CLOSED	-4923
Direct	-4924
Helper	-4925
Python	-4926
SUSPEN	-4927
called	-4928
carets	-4929
ggered	-4930
onight	-4931
pended	-4932
sample	-4933
unlink	-4934
vidual	-4935
▁Allow	-4936
▁beaut	-4937
▁fname	-4938
▁graph	-4939
▁lives	-4940
▁meant	-4941
▁mtime	-4942
▁peace	-4943
▁plain	-4944
▁regex	-4945
▁round	-4946
▁shows	-4947
CREATED	-4948
Cleanup	-4949
OSError	-4950
RUNNING	-4951
dialect	-4952
imation	-4953
orthand	-4954
package	-4955
pendent	-4956
scandir	-4957
setitem	-4958
▁Method	-4959
▁Verona	-4960
▁accord	-4961
▁answer	-4962
▁atexit	-4963
▁church	-4964
▁escape	-4965
▁floats	-4966
▁packed	-4967
▁pickle	-4968
▁python	-4969
▁unwrap	-4970
Fraction	-4971
Function	-4972
Infinity	-4973
elements	-4974
ithmetic	-4975
prefixes	-4976
specific	-4977
uplicate	-4978
vartuple	-4979
▁Convert	-4980
▁However	-4981
▁Support	-4982
▁defines	-4983
▁deleted	-4984
▁difflib	-4985
▁fileobj	-4986
▁fnmatch	-4987
▁handled	-4988
▁heapify	-4989
▁library	-4990
▁maximum	-4991
▁measure	-4992
▁minimum	-4993
▁newitem	-4994
▁ordered	-4995
▁villain	-4996
▁writing	-4997
Directory	-4998
LevelName	-4999
SUSPENDED	-5000
monthdays	-5001
▁Benvolio	-5002
▁calendar	-5003
▁fromlist	-5004
▁platform	-5005
▁severity	-5006
▁tokenize	-5007
WHITESPACE	-5008
optionflag	-5009
▁gentleman	-5010
▁returning	-5011
▁triggered	-5012
heapreplace	-5013
▁docstrings	-5014
▁properties	-5015
▁statistics	-5016
▁suggestion	-5017
▁TestResults	-5018
▁basicConfig	-5019
▁destination	-5020
%(	-5021
'-	-5022
(4	-5023
*)	-5024
.%	-5025
1/	-5026
3:	-5027
8,	-5028
90	-5029
GS	-5030
OW	-5031
Or	-5032
Pi	-5033
[,	-5034
[1	-5035
aN	-5036
fc	-5037
gz	-5038
xz	-5039
").	-5040
"])	-5041
('/	-5042
+',	-5043
.25	-5044
2))	-5045
BUG	-5046
DAY	-5047
ENT	-5048
LEN	-5049
NOT	-5050
PRI	-5051
STD	-5052
arp	-5053
ava	-5054
crt	-5055
dge	-5056
ier	-5057
iff	-5058
ntl	-5059
rep	-5060
tpl	-5061
tra	-5062
upt	-5063
usb	-5064
why	-5065
}",	-5066
▁'(	-5067
▁19	-5068
▁4:	-5069
▁8,	-5070
▁fl	-5071
▁ss	-5072
▁ur	-5073
▁ve	-5074
3333	-5075
='',	-5076
AGUE	-5077
CIAN	-5078
ETER	-5079
Exec	-5080
Fast	-5081
Give	-5082
MORE	-5083
NULL	-5084
UUID	-5085
Vars	-5086
ache	-5087
ancy	-5088
fast	-5089
ious	-5090
lope	-5091
mong	-5092
mpro	-5093
pass	-5094
post	-5095
rows	-5096
stop	-5097
▁"".	-5098
▁'-'	-5099
▁1/2	-5100
▁Def	-5101
▁MAC	-5102
▁MRO	-5103
▁Mad	-5104
▁NOT	-5105
▁Nay	-5106
▁[0,	-5107
▁dot	-5108
▁est	-5109
▁foo	-5110
▁idx	-5111
▁mix	-5112
▁msv	-5113
▁pid	-5114
▁tor	-5115
.0.0/	-5116
ATION	-5117
Guard	-5118
Queue	-5119
anded	-5120
attrs	-5121
based	-5122
bolic	-5123
egral	-5124
eping	-5125
files	-5126
hexte	-5127
ledis	-5128
merge	-5129
mtime	-5130
quest	-5131
ssion	-5132
tasks	-5133
tries	-5134
typed	-5135
words	-5136
wraps	-5137
xffff	-5138
xform	-5139
▁MONT	-5140
▁MUSI	-5141
▁NAME	-5142
▁Skip	-5143
▁Will	-5144
▁Your	-5145
▁cour	-5146
▁heav	-5147
▁husb	-5148
▁intr	-5149
▁lead	-5150
▁news	-5151
▁plus	-5152
▁poor	-5153
▁post	-5154
▁pure	-5155
▁seed	-5156
▁soul	-5157
▁stre	-5158
▁trun	-5159
▁weak	-5160
▁weep	-5161
------	-5162
REPORT	-5163
Remove	-5164
before	-5165
cluded	-5166
double	-5167
fspath	-5168
infile	-5169
intain	-5170
sigint	-5171
ursday	-5172
verage	-5173
xtract	-5174
▁Being	-5175
▁PETER	-5176
▁Stack	-5177
▁Value	-5178
▁align	-5179
▁caret	-5180
▁codes	-5181
▁faith	-5182
▁fixed	-5183
▁grief	-5184
▁haste	-5185
▁hints	-5186
▁merge	-5187
▁minus	-5188
▁power	-5189
▁prece	-5190
▁refer	-5191
▁retri	-5192
▁satis	-5193
▁suite	-5194
▁synch	-5195
▁upper	-5196
Decimal	-5197
Factory	-5198
charact	-5199
cursect	-5200
related	-5201
routine	-5202
▁Broken	-5203
▁Differ	-5204
▁Simple	-5205
▁approx	-5206
▁broken	-5207
▁contro	-5208
▁fpname	-5209
▁markup	-5210
▁msvcrt	-5211
▁myself	-5212
▁opened	-5213
▁pprint	-5214
▁prefer	-5215
▁simply	-5216
▁stored	-5217
Generate	-5218
Rational	-5219
catenate	-5220
keepends	-5221
original	-5222
sectname	-5223
▁Netmask	-5224
▁compute	-5225
▁creates	-5226
▁heading	-5227
▁husband	-5228
▁newfile	-5229
▁printed	-5230
▁require	-5231
▁tonight	-5232
--------+	-5233
Interface	-5234
ProxyType	-5235
docstring	-5236
frozenset	-5237
including	-5238
optionals	-5239
▁MONTAGUE	-5240
▁MUSICIAN	-5241
▁Supports	-5242
▁Thursday	-5243
▁acquired	-5244
▁addition	-5245
▁childpos	-5246
▁compared	-5247
▁executed	-5248
▁expanded	-5249
▁handling	-5250
▁includes	-5251
▁inserted	-5252
▁interval	-5253
▁textwrap	-5254
▁validate	-5255
▁wrapping	-5256
Unexpected	-5257
ledispatch	-5258
▁according	-5259
▁deviation	-5260
▁fractions	-5261
▁increment	-5262
▁metaclass	-5263
▁quotechar	-5264
▁reporting	-5265
OptionError	-5266
reamHandler	-5267
▁associated	-5268
▁individual	-5269
▁comparisons	-5270
▁instantiate	-5271
▁interpreted	-5272
partialmethod	-5273
▁FrameSummary	-5274
▁presentation	-5275
contextmanager	-5276
▁DocTestRunner	-5277
(0	-5278
05	-5279
39	-5280
=3	-5281
>,	-5282
At	-5283
HA	-5284
_,	-5285
_[	-5286
`)	-5287
cp	-5288
dl	-5289
kl	-5290
my	-5291
{!	-5292
'(?	-5293
()'	-5294
({'	-5295
-12	-5296
DRE	-5297
IZE	-5298
MAR	-5299
UNP	-5300
VEL	-5301
ana	-5302
ats	-5303
chg	-5304
css	-5305
dle	-5306
eve	-5307
ick	-5308
irt	-5309
ole	-5310
sha	-5311
tmp	-5312
une	-5313
▁'$	-5314
▁),	-5315
▁Ah	-5316
▁CO	-5317
▁Tr	-5318
▁cq	-5319
=(3,	-5320
ALTH	-5321
ASAR	-5322
CESS	-5323
COMP	-5324
DREF	-5325
FAIL	-5326
Fail	-5327
HEXT	-5328
Hook	-5329
Pipe	-5330
READ	-5331
Time	-5332
bing	-5333
fold	-5334
free	-5335
gate	-5336
iles	-5337
impl	-5338
izer	-5339
jace	-5340
ross	-5341
▁"{}	-5342
▁'::	-5343
▁-1,	-5344
▁0.5	-5345
▁2.0	-5346
▁Did	-5347
▁Opt	-5348
▁Raw	-5349
▁STR	-5350
▁Ser	-5351
▁XXX	-5352
▁[('	-5353
▁[],	-5354
▁cou	-5355
▁dry	-5356
▁far	-5357
▁fit	-5358
▁hum	-5359
▁lay	-5360
▁odd	-5361
▁pdb	-5362
▁twe	-5363
ACTER	-5364
Close	-5365
Color	-5366
EXCEP	-5367
LEVEL	-5368
armon	-5369
blank	-5370
exact	-5371
ifier	-5372
ities	-5373
iving	-5374
legal	-5375
lstat	-5376
onour	-5377
otent	-5378
paths	-5379
proto	-5380
skips	-5381
slash	-5382
spawn	-5383
times	-5384
trans	-5385
umber	-5386
▁Full	-5387
▁Hold	-5388
▁Shut	-5389
▁Wait	-5390
▁conj	-5391
▁drop	-5392
▁fact	-5393
▁flow	-5394
▁iana	-5395
▁lnum	-5396
▁says	-5397
▁scan	-5398
▁sect	-5399
FORWAR	-5400
Interr	-5401
Output	-5402
TypeIs	-5403
UNPACK	-5404
extras	-5405
jacent	-5406
locked	-5407
marker	-5408
native	-5409
remain	-5410
ronous	-5411
rouped	-5412
ssibly	-5413
yphens	-5414
▁BALTH	-5415
▁Inter	-5416
▁Linux	-5417
▁Madam	-5418
▁RLock	-5419
▁await	-5420
▁bring	-5421
▁colno	-5422
▁cover	-5423
▁dicts	-5424
▁evalu	-5425
▁going	-5426
▁hands	-5427
▁marks	-5428
▁proto	-5429
▁proxy	-5430
▁reach	-5431
▁scale	-5432
▁sinfo	-5433
▁sleep	-5434
▁thine	-5435
▁throw	-5436
▁track	-5437
Decoder	-5438
TMPFILE	-5439
angling	-5440
armonic	-5441
comment	-5442
created	-5443
display	-5444
erscore	-5445
numbers	-5446
ocation	-5447
outcome	-5448
threads	-5449
ulative	-5450
waitpid	-5451
▁detail	-5452
▁events	-5453
▁expect	-5454
▁misses	-5455
▁quoted	-5456
▁recent	-5457
▁semant	-5458
Iterable	-5459
Required	-5460
instream	-5461
selector	-5462
▁ABCMeta	-5463
▁figures	-5464
▁greater	-5465
▁indices	-5466
▁kinsman	-5467
▁longest	-5468
▁looking	-5469
▁matched	-5470
▁modific	-5471
▁onerror	-5472
▁pending	-5473
▁phcount	-5474
▁prepare	-5475
▁smaller	-5476
▁thought	-5477
▁unbound	-5478
▁visitor	-5479
▁warrant	-5480
▁working	-5481
Arguments	-5482
CHARACTER	-5483
Construct	-5484
EXCEPTION	-5485
Interrupt	-5486
decorator	-5487
mswindows	-5488
remaining	-5489
▁Abstract	-5490
▁Keyboard	-5491
▁accepted	-5492
▁assigned	-5493
▁colwidth	-5494
▁combined	-5495
▁computed	-5496
▁datetime	-5497
▁floating	-5498
▁maintain	-5499
▁normally	-5500
▁occurred	-5501
▁repeated	-5502
▁replaced	-5503
▁tomorrow	-5504
FORWARDREF	-5505
delimiters	-5506
formatweek	-5507
namedtuple	-5508
▁BALTHASAR	-5509
▁Therefore	-5510
▁constants	-5511
▁coroutine	-5512
▁decorated	-5513
▁executing	-5514
▁incorrect	-5515
▁intervals	-5516
▁subscript	-5517
doublecolon	-5518
initialized	-5519
optionxform	-5520
▁compressed	-5521
▁definition	-5522
▁fieldnames	-5523
▁kwonlyargs	-5524
▁OrderedDict	-5525
▁compression	-5526
▁correlation	-5527
('192.0.2.0/2	-5528
RecordFactory	-5529
▁StackSummary	-5530
▁ArgumentParser	-5531
(2	-5532
)(	-5533
++	-5534
.—	-5535
0'	-5536
1-	-5537
3]	-5538
76	-5539
AX	-5540
PY	-5541
[8	-5542
[[	-5543
af	-5544
ee	-5545
rm	-5546
tc	-5547
wb	-5548
'''	-5549
','	-5550
("\	-5551
).'	-5552
*)'	-5553
1),	-5554
999	-5555
:])	-5556
ACT	-5557
Com	-5558
DLE	-5559
ECT	-5560
Ent	-5561
KER	-5562
ONE	-5563
PER	-5564
TYP	-5565
__[	-5566
ane	-5567
cmp	-5568
fff	-5569
ide	-5570
ior	-5571
osf	-5572
pdf	-5573
sts	-5574
tod	-5575
uch	-5576
xor	-5577
}".	-5578
▁'1	-5579
▁35	-5580
▁Ac	-5581
▁Ad	-5582
▁Ap	-5583
▁Mo	-5584
▁OK	-5585
▁Sa	-5586
▁gr	-5587
▁nm	-5588
▁pm	-5589
▁wa	-5590
('--	-5591
((((	-5592
()))	-5593
()):	-5594
.25,	-5595
8000	-5596
=0):	-5597
BOSE	-5598
CORO	-5599
COST	-5600
Comp	-5601
Hold	-5602
INIT	-5603
Skip	-5604
TIVE	-5605
This	-5606
_000	-5607
__}'	-5608
abcd	-5609
alth	-5610
bool	-5611
byte	-5612
cell	-5613
chor	-5614
cogn	-5615
emit	-5616
icer	-5617
just	-5618
look	-5619
need	-5620
nets	-5621
once	-5622
ptor	-5623
rank	-5624
scan	-5625
ssue	-5626
ught	-5627
upOn	-5628
utor	-5629
▁1):	-5630
▁2.5	-5631
▁GEN	-5632
▁Her	-5633
▁III	-5634
▁MAX	-5635
▁One	-5636
▁acc	-5637
▁arc	-5638
▁beg	-5639
▁bug	-5640
▁css	-5641
▁den	-5642
▁due	-5643
▁etc	-5644
▁hit	-5645
▁iff	-5646
▁ips	-5647
▁law	-5648
▁mor	-5649
▁sit	-5650
▁tmp	-5651
▁zer	-5652
▁{})	-5653
Frame	-5654
NDIFF	-5655
ORITY	-5656
Place	-5657
QUOTE	-5658
RLock	-5659
[-1])	-5660
ables	-5661
arant	-5662
ellow	-5663
explo	-5664
gamma	-5665
gauss	-5666
given	-5667
ilver	-5668
mprod	-5669
ongue	-5670
sView	-5671
stems	-5672
wrong	-5673
▁'**'	-5674
▁'::'	-5675
▁(1.0	-5676
▁ABCs	-5677
▁AGEN	-5678
▁CORO	-5679
▁DONT	-5680
▁Doth	-5681
▁Help	-5682
▁Weak	-5683
▁adds	-5684
▁bear	-5685
▁came	-5686
▁dost	-5687
▁play	-5688
▁push	-5689
▁race	-5690
▁rele	-5691
▁rule	-5692
▁runs	-5693
▁{}'.	-5694
Encode	-5695
FIELDS	-5696
HANDLE	-5697
MARKER	-5698
Unpack	-5699
anging	-5700
arsing	-5701
choice	-5702
culate	-5703
ground	-5704
ifiers	-5705
months	-5706
pickle	-5707
shutil	-5708
ulated	-5709
▁Color	-5710
▁House	-5711
▁Issue	-5712
▁Marry	-5713
▁annos	-5714
▁delay	-5715
▁doing	-5716
▁dummy	-5717
▁floor	-5718
▁force	-5719
▁forth	-5720
▁happy	-5721
▁music	-5722
▁nicer	-5723
▁noise	-5724
▁quant	-5725
▁treat	-5726
Convert	-5727
Private	-5728
Success	-5729
VERBOSE	-5730
WARNING	-5731
allowed	-5732
asctime	-5733
collect	-5734
environ	-5735
escaped	-5736
subtest	-5737
urandom	-5738
▁expand	-5739
▁forget	-5740
▁frames	-5741
▁getter	-5742
▁happen	-5743
▁hither	-5744
▁interm	-5745
▁isjunk	-5746
▁likely	-5747
▁obtain	-5748
▁poison	-5749
▁proble	-5750
▁ranges	-5751
▁rawval	-5752
▁script	-5753
▁tongue	-5754
▁trying	-5755
.255.255	-5756
FastCopy	-5757
GiveupOn	-5758
PRIORITY	-5759
PathLike	-5760
PurePath	-5761
colgroup	-5762
latforms	-5763
readinto	-5764
spection	-5765
suppress	-5766
ummarize	-5767
▁Context	-5768
▁Current	-5769
▁InitVar	-5770
▁Servant	-5771
▁UNNAMED	-5772
▁account	-5773
▁bufsize	-5774
▁filters	-5775
▁further	-5776
▁guarant	-5777
▁hextets	-5778
▁isclass	-5779
▁meaning	-5780
▁several	-5781
▁sumprod	-5782
▁valname	-5783
---------	-5784
Decorator	-5785
container	-5786
efficient	-5787
osfhandle	-5788
▁Computed	-5789
▁Examples	-5790
▁Farewell	-5791
▁controls	-5792
▁implicit	-5793
▁included	-5794
▁modified	-5795
▁networks	-5796
▁newcount	-5797
▁pointing	-5798
▁qualname	-5799
▁selected	-5800
▁shutdown	-5801
decompress	-5802
executable	-5803
expandtabs	-5804
▁broadcast	-5805
▁buffering	-5806
▁correctly	-5807
▁described	-5808
▁fromlines	-5809
▁immutable	-5810
▁intraline	-5811
▁semantics	-5812
SyntaxError	-5813
positionals	-5814
reportflags	-5815
▁collection	-5816
▁everything	-5817
▁isfunction	-5818
▁normalized	-5819
▁processing	-5820
▁unhashable	-5821
FunctionType	-5822
▁doublequote	-5823
▁encountered	-5824
▁TypeVarTuple	-5825
▁firstweekday	-5826
MutableMapping	-5827
▁DocTestParser	-5828
GiveupOnFastCopy	-5829
!—	-5830
*,	-5831
,'	-5832
0+	-5833
2/	-5834
28	-5835
2[	-5836
47	-5837
=[	-5838
AM	-5839
CP	-5840
OK	-5841
Ts	-5842
cb	-5843
cr	-5844
ib	-5845
nl	-5846
ze	-5847
}\	-5848
}]	-5849
(')	-5850
(2,	-5851
+0)	-5852
.0/	-5853
32_	-5854
512	-5855
="%	-5856
ERO	-5857
Log	-5858
RED	-5859
ROM	-5860
[2]	-5861
``)	-5862
aks	-5863
cat	-5864
ens	-5865
eof	-5866
ghi	-5867
nse	-5868
oes	-5869
uck	-5870
uth	-5871
▁-2	-5872
▁..	-5873
▁00	-5874
▁4)	-5875
▁6.	-5876
▁EL	-5877
▁ES	-5878
▁Le	-5879
▁Te	-5880
▁bo	-5881
▁br	-5882
▁jo	-5883
▁py	-5884
▁sq	-5885
')))	-5886
ARCH	-5887
ARGS	-5888
Code	-5889
HAVE	-5890
Line	-5891
TERN	-5892
[1:]	-5893
[2:]	-5894
[:1]	-5895
__(*	-5896
allo	-5897
alls	-5898
cend	-5899
fsrc	-5900
ired	-5901
ject	-5902
lies	-5903
loop	-5904
note	-5905
quot	-5906
radd	-5907
reen	-5908
ship	-5909
tems	-5910
unix	-5911
▁'%(	-5912
▁'',	-5913
▁'+'	-5914
▁'.'	-5915
▁(),	-5916
▁/):	-5917
▁//=	-5918
▁1).	-5919
▁2**	-5920
▁32-	-5921
▁412	-5922
▁EOF	-5923
▁New	-5924
▁RES	-5925
▁Ros	-5926
▁aff	-5927
▁few	-5928
▁gcd	-5929
▁saw	-5930
▁sla	-5931
▁sur	-5932
FIRST	-5933
INDER	-5934
START	-5935
Suite	-5936
VNULL	-5937
alpha	-5938
array	-5939
aster	-5940
ching	-5941
chmod	-5942
clock	-5943
dtemp	-5944
false	-5945
nsity	-5946
oring	-5947
orter	-5948
proxy	-5949
tents	-5950
uming	-5951
upper	-5952
where	-5953
yield	-5954
▁Both	-5955
▁Have	-5956
▁Need	-5957
▁Over	-5958
▁Repr	-5959
▁Same	-5960
▁Take	-5961
▁able	-5962
▁coll	-5963
▁cost	-5964
▁draw	-5965
▁fine	-5966
▁fold	-5967
▁fsum	-5968
▁lamb	-5969
▁meet	-5970
▁rich	-5971
▁rows	-5972
▁sets	-5973
▁stem	-5974
▁suit	-5975
▁thus	-5976
Header	-5977
WINDOW	-5978
atexit	-5979
bcount	-5980
centry	-5981
column	-5982
contin	-5983
curdir	-5984
formed	-5985
frames	-5986
itical	-5987
levels	-5988
llegal	-5989
merger	-5990
ointer	-5991
reader	-5992
setter	-5993
siftup	-5994
weight	-5995
▁First	-5996
▁Never	-5997
▁Optim	-5998
▁POSIX	-5999
▁QUOTE	-6000
▁Queue	-6001
▁STRID	-6002
▁among	-6003
▁bestj	-6004
▁confi	-6005
▁diffs	-6006
▁extre	-6007
▁fetch	-6008
▁great	-6009
▁heavy	-6010
▁links	-6011
▁reent	-6012
▁shame	-6013
▁terms	-6014
Barrier	-6015
FAILURE	-6016
MAINDER	-6017
abspath	-6018
astuple	-6019
changes	-6020
dirpath	-6021
endtime	-6022
filters	-6023
grouped	-6024
heading	-6025
mapping	-6026
nparams	-6027
restore	-6028
shorten	-6029
▁Assume	-6030
▁Should	-6031
▁asynch	-6032
▁beauty	-6033
▁compli	-6034
▁cutoff	-6035
▁ending	-6036
▁margin	-6037
▁matter	-6038
▁padded	-6039
▁pardon	-6040
▁parsed	-6041
▁render	-6042
COMPRESS	-6043
CRITICAL	-6044
TestCase	-6045
dangling	-6046
exponent	-6047
flaglist	-6048
ismodule	-6049
loopback	-6050
objclass	-6051
patterns	-6052
positive	-6053
possibly	-6054
pushback	-6055
reversed	-6056
standard	-6057
▁Complex	-6058
▁DEFAULT	-6059
▁Network	-6060
▁Process	-6061
▁alogger	-6062
▁comfort	-6063
▁conveni	-6064
▁copying	-6065
▁delattr	-6066
▁dirlist	-6067
▁errpipe	-6068
▁exclude	-6069
▁morning	-6070
▁outputs	-6071
▁posonly	-6072
▁private	-6073
▁quarrel	-6074
▁related	-6075
▁systems	-6076
▁tolines	-6077
▁usually	-6078
attribute	-6079
buffering	-6080
cursively	-6081
monthname	-6082
multicast	-6083
partition	-6084
▁ChainMap	-6085
▁ELLIPSIS	-6086
▁ShutDown	-6087
▁bestsize	-6088
▁casefold	-6089
▁contents	-6090
▁hardware	-6091
▁intended	-6092
▁location	-6093
▁marriage	-6094
▁ordering	-6095
▁reported	-6096
▁symbolic	-6097
▁withyear	-6098
Dictionary	-6099
loggerDict	-6100
nsupported	-6101
terminator	-6102
▁Formatter	-6103
▁colorized	-6104
▁debugging	-6105
▁efficient	-6106
▁unchanged	-6107
OrderedDict	-6108
Placeholder	-6109
▁Permission	-6110
▁arithmetic	-6111
▁contextlib	-6112
▁duplicates	-6113
▁subsequent	-6114
typevartuple	-6115
▁heapreplace	-6116
▁interpreter	-6117
▁placeholder	-6118
▁punctuation	-6119
▁specialized	-6120
▁unsupported	-6121
▁asynchronous	-6122
▁gammavariate	-6123
▁modification	-6124
▁StreamHandler	-6125
▁distributions	-6126
▁introspection	-6127
abstractmethods	-6128
InvalidOperation	-6129
"'	-6130
'}	-6131
(<	-6132
(\	-6133
);	-6134
-0	-6135
-4	-6136
15	-6137
18	-6138
1_	-6139
4:	-6140
5:	-6141
66	-6142
70	-6143
95	-6144
96	-6145
<{	-6146
BR	-6147
NS	-6148
RL	-6149
Tr	-6150
na	-6151
}.	-6152
(**	-6153
(['	-6154
.",	-6155
.64	-6156
/12	-6157
/32	-6158
00)	-6159
85_	-6160
=-1	-6161
=2,	-6162
=3,	-6163
=6,	-6164
>')	-6165
COM	-6166
EEP	-6167
ITS	-6168
IVE	-6169
KIP	-6170
Non	-6171
OFF	-6172
RAP	-6173
REC	-6174
SIG	-6175
Sty	-6176
_')	-6177
ags	-6178
alo	-6179
aly	-6180
bad	-6181
cel	-6182
cos	-6183
fto	-6184
ied	-6185
jor	-6186
nty	-6187
pts	-6188
rag	-6189
rer	-6190
ret	-6191
umb	-6192
})\	-6193
▁(*	-6194
▁0-	-6195
▁17	-6196
▁2*	-6197
▁32	-6198
▁40	-6199
▁AN	-6200
▁CS	-6201
▁Cl	-6202
▁IV	-6203
▁PS	-6204
▁SE	-6205
▁Us	-6206
▁bj	-6207
▁dr	-6208
▁em	-6209
▁lb	-6210
▁rc	-6211
▁{"	-6212
()")	-6213
(...	-6214
([1,	-6215
))):	-6216
****	-6217
ABLE	-6218
COND	-6219
COPY	-6220
Call	-6221
DOUT	-6222
FAST	-6223
Flag	-6224
Init	-6225
JECT	-6226
MOVE	-6227
Node	-6228
Read	-6229
SECT	-6230
abel	-6231
buff	-6232
disk	-6233
imal	-6234
nsel	-6235
ntly	-6236
omic	-6237
poll	-6238
same	-6239
seek	-6240
tags	-6241
uses	-6242
when	-6243
wind	-6244
xies	-6245
▁'"'	-6246
▁','	-6247
▁'_'	-6248
▁'{}	-6249
▁(?:	-6250
▁16)	-6251
▁ACT	-6252
▁Out	-6253
▁Res	-6254
▁WAR	-6255
▁ado	-6256
▁age	-6257
▁bad	-6258
▁boy	-6259
▁lex	-6260
▁met	-6261
▁pto	-6262
▁ris	-6263
▁sad	-6264
▁six	-6265
▁wed	-6266
(')')	-6267
('-',	-6268
=-1):	-6269
Block	-6270
Bytes	-6271
Cache	-6272
DEBUG	-6273
GNORE	-6274
Popen	-6275
Regex	-6276
Style	-6277
VALUE	-6278
ashes	-6279
cated	-6280
chunk	-6281
diffe	-6282
dumps	-6283
guard	-6284
hints	-6285
inary	-6286
mutex	-6287
omial	-6288
onest	-6289
quick	-6290
rmdir	-6291
secut	-6292
stdev	-6293
using	-6294
▁0.0:	-6295
▁1.0)	-6296
▁From	-6297
▁Hath	-6298
▁Java	-6299
▁Open	-6300
▁Safe	-6301
▁Such	-6302
▁Than	-6303
▁Used	-6304
▁band	-6305
▁bare	-6306
▁crun	-6307
▁dark	-6308
▁disk	-6309
▁ears	-6310
▁foot	-6311
▁fork	-6312
▁gids	-6313
▁half	-6314
▁ints	-6315
▁kiss	-6316
▁mind	-6317
▁near	-6318
▁ones	-6319
▁pale	-6320
▁redu	-6321
▁sear	-6322
▁sile	-6323
▁sole	-6324
▁stir	-6325
Holder	-6326
NORMAL	-6327
Object	-6328
RAPPER	-6329
Simple	-6330
altsep	-6331
bugger	-6332
conver	-6333
counts	-6334
dapter	-6335
dunder	-6336
extens	-6337
ftover	-6338
fwdref	-6339
ixPath	-6340
lobber	-6341
perate	-6342
quotes	-6343
rocess	-6344
rolled	-6345
sorted	-6346
spaces	-6347
tolist	-6348
transl	-6349
ulates	-6350
unsafe	-6351
unwrap	-6352
viding	-6353
vision	-6354
▁WRITE	-6355
▁besti	-6356
▁black	-6357
▁bride	-6358
▁catch	-6359
▁disco	-6360
▁heapq	-6361
▁hours	-6362
▁inner	-6363
▁madam	-6364
▁maybe	-6365
▁mixed	-6366
▁mutex	-6367
▁often	-6368
▁quiet	-6369
▁ratio	-6370
▁setup	-6371
▁shalt	-6372
▁thank	-6373
▁trick	-6374
▁vault	-6375
▁weeks	-6376
▁whole	-6377
ARCHIVE	-6378
Enabled	-6379
Unknown	-6380
checker	-6381
ilities	-6382
leading	-6383
parsers	-6384
portion	-6385
recurse	-6386
ulating	-6387
▁Pretty	-6388
▁SECOND	-6389
▁anchor	-6390
▁anyway	-6391
▁begins	-6392
▁delims	-6393
▁endpos	-6394
▁especi	-6395
▁flower	-6396
▁having	-6397
▁honour	-6398
▁logged	-6399
▁occurs	-6400
▁shutil	-6401
▁sorrow	-6402
▁toward	-6403
▁twenty	-6404
▁unused	-6405
▁writer	-6406
.0.0.0.0	-6407
ELLIPSIS	-6408
GzipFile	-6409
attrname	-6410
bestsize	-6411
errwrite	-6412
explicit	-6413
fsdecode	-6414
getvalue	-6415
interpre	-6416
linejunk	-6417
ptorType	-6418
secutive	-6419
skipkeys	-6420
supports	-6421
truncate	-6422
unctions	-6423
▁Default	-6424
▁Handler	-6425
▁assumed	-6426
▁counsel	-6427
▁formats	-6428
▁happens	-6429
▁himself	-6430
▁homecls	-6431
▁lookups	-6432
▁quoting	-6433
▁reading	-6434
▁request	-6435
▁rounded	-6436
▁routine	-6437
▁subargs	-6438
Expecting	-6439
ParamSpec	-6440
Traceback	-6441
TypeGuard	-6442
candidate	-6443
fallbacks	-6444
generated	-6445
linecache	-6446
openflags	-6447
rocessing	-6448
▁Integral	-6449
▁OPTIONAL	-6450
▁Rosaline	-6451
▁charjunk	-6452
▁consider	-6453
▁cruncher	-6454
▁extended	-6455
▁fromfile	-6456
▁imported	-6457
▁indented	-6458
▁ismodule	-6459
▁partials	-6460
▁patterns	-6461
▁printing	-6462
▁priority	-6463
▁produced	-6464
▁properly	-6465
▁received	-6466
▁released	-6467
▁relevant	-6468
▁sections	-6469
▁skipkeys	-6470
▁unittest	-6471
▁whenever	-6472
▁wildcard	-6473
EnabledFor	-6474
Exceptions	-6475
NamedTuple	-6476
assertTrue	-6477
background	-6478
identifier	-6479
munication	-6480
unexpected	-6481
▁Copyright	-6482
▁REMAINDER	-6483
▁alternate	-6484
▁blocksize	-6485
▁covariant	-6486
▁desperate	-6487
▁extracted	-6488
▁maxlevels	-6489
▁posixpath	-6490
▁reachable	-6491
▁reentrant	-6492
▁successor	-6493
▁translate	-6494
arsingError	-6495
communicate	-6496
loggerClass	-6497
unspecified	-6498
ynamicClass	-6499
▁ForwardRef	-6500
▁components	-6501
▁conditions	-6502
▁covariance	-6503
▁cumulative	-6504
▁especially	-6505
▁explicitly	-6506
▁extraglobs	-6507
▁generating	-6508
▁guaranteed	-6509
▁implements	-6510
▁intermixed	-6511
▁regression	-6512
▁superclass	-6513
▁terminated	-6514
============	-6515
ConfigParser	-6516
▁JSONEncoder	-6517
▁SyntaxError	-6518
▁coefficient	-6519
▁communicate	-6520
▁consecutive	-6521
▁defaultdict	-6522
▁doublecolon	-6523
▁initialized	-6524
▁replacement	-6525
AttributeList	-6526
oundArguments	-6527
▁compileflags	-6528
▁construction	-6529
▁staticmethod	-6530
ArgumentParser	-6531
DescriptorType	-6532
testMethodName	-6533
▁PermissionError	-6534
'*	-6535
*'	-6536
-3	-6537
0"	-6538
6:	-6539
89	-6540
Ap	-6541
IZ	-6542
It	-6543
NA	-6544
WN	-6545
\\	-6546
_0	-6547
dr	-6548
nv	-6549
''.	-6550
("<	-6551
-1:	-6552
0')	-6553
380	-6554
=1)	-6555
===	-6556
APE	-6557
BUF	-6558
DEF	-6559
DET	-6560
DOC	-6561
ECI	-6562
END	-6563
GTH	-6564
MAC	-6565
PAT	-6566
Pdb	-6567
SER	-6568
VED	-6569
bcc	-6570
cio	-6571
dlr	-6572
gcd	-6573
gnv	-6574
ift	-6575
ird	-6576
jkl	-6577
lno	-6578
lsp	-6579
nds	-6580
nop	-6581
oke	-6582
oof	-6583
pag	-6584
tml	-6585
vie	-6586
was	-6587
})'	-6588
▁"{	-6589
▁&=	-6590
▁(2	-6591
▁*=	-6592
▁18	-6593
▁60	-6594
▁ce	-6595
▁nt	-6596
-16-	-6597
1000	-6598
="")	-6599
=-1,	-6600
CAPE	-6601
CODE	-6602
IZED	-6603
ONES	-6604
TIME	-6605
Wait	-6606
Weak	-6607
With	-6608
].__	-6609
__),	-6610
abbb	-6611
ants	-6612
asis	-6613
cobj	-6614
cost	-6615
dead	-6616
dist	-6617
ello	-6618
ency	-6619
fget	-6620
hStd	-6621
have	-6622
hext	-6623
href	-6624
ians	-6625
ised	-6626
mcls	-6627
must	-6628
nbsp	-6629
near	-6630
oman	-6631
renc	-6632
roud	-6633
seed	-6634
site	-6635
this	-6636
very	-6637
writ	-6638
yard	-6639
{}{}	-6640
▁"<%	-6641
▁'*'	-6642
▁'?'	-6643
▁('_	-6644
▁1),	-6645
▁1})	-6646
▁31,	-6647
▁48-	-6648
▁Ann	-6649
▁Exp	-6650
▁Map	-6651
▁May	-6652
▁Nor	-6653
▁Str	-6654
▁[1,	-6655
▁ann	-6656
▁bla	-6657
▁fle	-6658
▁gar	-6659
▁grp	-6660
▁gue	-6661
▁ide	-6662
▁lno	-6663
▁mut	-6664
▁nan	-6665
▁ope	-6666
▁ret	-6667
▁sio	-6668
▁smo	-6669
▁sts	-6670
▁tup	-6671
-----	-6672
Dummy	-6673
ERVED	-6674
First	-6675
Flags	-6676
Items	-6677
SPAWN	-6678
Types	-6679
Write	-6680
arden	-6681
arest	-6682
atype	-6683
clean	-6684
ctets	-6685
dates	-6686
etype	-6687
green	-6688
iline	-6689
loads	-6690
ounds	-6691
owned	-6692
ragma	-6693
sible	-6694
stats	-6695
strap	-6696
varkw	-6697
ystem	-6698
▁""",	-6699
▁','.	-6700
▁0.75	-6701
▁Cell	-6702
▁Iter	-6703
▁Line	-6704
▁More	-6705
▁Pass	-6706
▁Pure	-6707
▁READ	-6708
▁Stri	-6709
▁abcs	-6710
▁ansi	-6711
▁clou	-6712
▁dare	-6713
▁dirs	-6714
▁fool	-6715
▁frac	-6716
▁hStd	-6717
▁hexa	-6718
▁null	-6719
▁past	-6720
▁seem	-6721
▁seps	-6722
▁srch	-6723
▁trim	-6724
▁wall	-6725
▁ways	-6726
100.64	-6727
LENGTH	-6728
NATIVE	-6729
Parent	-6730
THREAD	-6731
[0][0]	-6732
aenter	-6733
assign	-6734
byfile	-6735
config	-6736
curity	-6737
endian	-6738
enumer	-6739
kwonly	-6740
lacing	-6741
packed	-6742
valued	-6743
verted	-6744
writer	-6745
▁Child	-6746
▁Start	-6747
▁UUIDs	-6748
▁Usage	-6749
▁While	-6750
▁adobe	-6751
▁apply	-6752
▁atags	-6753
▁attrs	-6754
▁brief	-6755
▁btags	-6756
▁fight	-6757
▁impro	-6758
▁istep	-6759
▁keeps	-6760
▁logic	-6761
▁manip	-6762
▁marry	-6763
▁mixin	-6764
▁modes	-6765
▁moved	-6766
▁noble	-6767
▁quite	-6768
▁rough	-6769
▁sense	-6770
▁shape	-6771
▁swear	-6772
▁torch	-6773
▁waste	-6774
▁wraps	-6775
▁youth	-6776
-------	-6777
.0.0/10	-6778
COMMENT	-6779
Counter	-6780
Default	-6781
Globber	-6782
INITVAR	-6783
TestRun	-6784
Windows	-6785
compati	-6786
difflib	-6787
feature	-6788
figures	-6789
isclass	-6790
isspace	-6791
ityFunc	-6792
lexists	-6793
numeric	-6794
padding	-6795
signals	-6796
skipped	-6797
tmlDiff	-6798
tolines	-6799
▁Config	-6800
▁Either	-6801
▁amount	-6802
▁banish	-6803
▁copier	-6804
▁endian	-6805
▁fellow	-6806
▁ground	-6807
▁intent	-6808
▁invoke	-6809
▁middle	-6810
▁modify	-6811
▁murder	-6812
▁notify	-6813
▁potent	-6814
▁really	-6815
▁retrie	-6816
▁square	-6817
▁tables	-6818
▁tokens	-6819
▁triple	-6820
▁writes	-6821
ChainMap	-6822
ClassVar	-6823
Division	-6824
SUPPRESS	-6825
StringIO	-6826
^^^^^^^^	-6827
asyncgen	-6828
charjunk	-6829
contents	-6830
continue	-6831
daemonic	-6832
dedented	-6833
fastcopy	-6834
fromkeys	-6835
pipesize	-6836
sentence	-6837
settrace	-6838
terminal	-6839
testFunc	-6840
trailing	-6841
▁Compare	-6842
▁Extract	-6843
▁STRIDES	-6844
▁Whether	-6845
▁arcname	-6846
▁closing	-6847
▁console	-6848
▁density	-6849
▁diction	-6850
▁extreme	-6851
▁however	-6852
▁keeping	-6853
▁leaving	-6854
▁loggers	-6855
▁mutable	-6856
▁overlap	-6857
▁pathext	-6858
▁percent	-6859
▁problem	-6860
▁raising	-6861
▁recurse	-6862
▁resolve	-6863
▁segment	-6864
▁someone	-6865
▁testing	-6866
▁testmod	-6867
▁unicode	-6868
▁various	-6869
▁waitpid	-6870
▁wrapcol	-6871
DOCSTRING	-6872
ExitStack	-6873
Frequency	-6874
callbacks	-6875
condition	-6876
fillvalue	-6877
maketrans	-6878
▁--------	-6879
▁Possible	-6880
▁RESERVED	-6881
▁ReprEnum	-6882
▁SafeUUID	-6883
▁TestCase	-6884
▁UserList	-6885
▁attempts	-6886
▁bytecode	-6887
▁captured	-6888
▁compiled	-6889
▁concrete	-6890
▁converts	-6891
▁copytree	-6892
▁datatype	-6893
▁detected	-6894
▁disabled	-6895
▁distance	-6896
▁equality	-6897
▁fraction	-6898
▁infinite	-6899
▁leftover	-6900
▁linejunk	-6901
▁mistress	-6902
▁monument	-6903
▁prefixed	-6904
▁produces	-6905
▁remember	-6906
▁srcentry	-6907
▁writable	-6908
('192.0.2.	-6909
---------+	-6910
extraglobs	-6911
issubclass	-6912
itemgetter	-6913
modulename	-6914
▁Determine	-6915
▁Functions	-6916
▁Generator	-6917
▁assertNot	-6918
▁assertion	-6919
▁collected	-6920
▁exclusive	-6921
▁expressed	-6922
▁getsource	-6923
▁important	-6924
▁intercept	-6925
▁invariant	-6926
▁narrowing	-6927
▁platforms	-6928
▁producing	-6929
▁protocols	-6930
▁replacing	-6931
▁terminate	-6932
▁thousands	-6933
▁typically	-6934
('192.0.2.1	-6935
BaseNetwork	-6936
dataclasses	-6937
firstlineno	-6938
interpreter	-6939
suggestions	-6940
▁assignment	-6941
▁consistent	-6942
▁extensions	-6943
▁generators	-6944
▁kwdefaults	-6945
▁memoryview	-6946
▁overridden	-6947
▁previously	-6948
▁resolution	-6949
▁selections	-6950
▁specifying	-6951
▁suppressed	-6952
▁tofiledate	-6953
▁underscore	-6954
▁unfinished	-6955
EqualityFunc	-6956
statusoutput	-6957
▁Placeholder	-6958
▁alternative	-6959
▁hexadecimal	-6960
100.64.0.0/10	-6961
npredecessors	-6962
▁dictionaries	-6963
▁fromfiledate	-6964
▁substitution	-6965
▁successfully	-6966
▁DocTestFinder	-6967
▁approximation	-6968
▁implementations	-6969
(3	-6970
14	-6971
4.	-6972
8(	-6973
9,	-6974
92	-6975
:%	-6976
:{	-6977
=!	-6978
=2	-6979
>=	-6980
BE	-6981
BY	-6982
EE	-6983
IG	-6984
Mo	-6985
UM	-6986
[%	-6987
[^	-6988
](	-6989
bz	-6990
hy	-6991
sr	-6992
!).	-6993
">%	-6994
'[\	-6995
'\\	-6996
('.	-6997
(2)	-6998
)(?	-6999
+1)	-7000
8')	-7001
:',	-7002
ASE	-7003
BER	-7004
BIN	-7005
DAT	-7006
INT	-7007
MIN	-7008
New	-7009
OPT	-7010
POL	-7011
Pos	-7012
Raw	-7013
UNT	-7014
__"	-7015
acy	-7016
app	-7017
azy	-7018
lan	-7019
lls	-7020
lon	-7021
mag	-7022
oll	-7023
ons	-7024
sem	-7025
tom	-7026
uri	-7027
zst	-7028
▁"(	-7029
▁'0	-7030
▁([	-7031
▁2]	-7032
▁<-	-7033
▁ER	-7034
▁Ke	-7035
▁Ne	-7036
▁OR	-7037
▁Sp	-7038
▁TH	-7039
▁XX	-7040
▁aw	-7041
▁cb	-7042
▁ct	-7043
▁eg	-7044
▁fc	-7045
▁km	-7046
▁kn	-7047
▁ld	-7048
▁ut	-7049
▁ws	-7050
(''.	-7051
()._	-7052
="",	-7053
="0"	-7054
=3):	-7055
AGEN	-7056
ATCH	-7057
ATTR	-7058
DIRE	-7059
Fork	-7060
Just	-7061
Main	-7062
Mult	-7063
NODE	-7064
STOP	-7065
TMPL	-7066
TRUE	-7067
UARY	-7068
VENT	-7069
__":	-7070
__,)	-7071
aith	-7072
atal	-7073
bind	-7074
cies	-7075
gory	-7076
hood	-7077
iset	-7078
itch	-7079
izes	-7080
kill	-7081
lear	-7082
ooks	-7083
opad	-7084
ords	-7085
osen	-7086
osom	-7087
owed	-7088
reet	-7089
sely	-7090
seps	-7091
seqs	-7092
shot	-7093
star	-7094
such	-7095
ully	-7096
utes	-7097
work	-7098
▁'<%	-7099
▁(``	-7100
▁-1)	-7101
▁2))	-7102
▁2.2	-7103
▁2.7	-7104
▁76)	-7105
▁Bad	-7106
▁CON	-7107
▁CSV	-7108
▁NaN	-7109
▁Non	-7110
▁Put	-7111
▁Spe	-7112
▁Sup	-7113
▁Tim	-7114
▁Try	-7115
▁Was	-7116
▁Yet	-7117
▁arm	-7118
▁ask	-7119
▁bus	-7120
▁cos	-7121
▁csv	-7122
▁dec	-7123
▁ene	-7124
▁fou	-7125
▁gnv	-7126
▁hig	-7127
▁hur	-7128
▁lru	-7129
▁neg	-7130
▁pil	-7131
▁pwd	-7132
▁ren	-7133
▁sea	-7134
▁sxx	-7135
▁tot	-7136
▁tru	-7137
▁una	-7138
▁yes	-7139
(',',	-7140
-0000	-7141
-1234	-7142
0000:	-7143
CDIFF	-7144
Const	-7145
Entry	-7146
INTER	-7147
Print	-7148
SPECI	-7149
UDIFF	-7150
[-1].	-7151
ached	-7152
antic	-7153
arded	-7154
begin	-7155
bestj	-7156
bjunk	-7157
cking	-7158
digit	-7159
excel	-7160
fancy	-7161
funcs	-7162
iness	-7163
lcome	-7164
lsafe	-7165
mspec	-7166
objid	-7167
popen	-7168
poses	-7169
produ	-7170
rfind	-7171
rigin	-7172
sence	-7173
sider	-7174
subst	-7175
ushes	-7176
usion	-7177
xFFFF	-7178
xattr	-7179
yphen	-7180
▁'"':	-7181
▁1.0:	-7182
▁128-	-7183
▁2.5,	-7184
▁48))	-7185
▁Dict	-7186
▁FAIL	-7187
▁NOTE	-7188
▁Once	-7189
▁Stay	-7190
▁``__	-7191
▁alen	-7192
▁bite	-7193
▁book	-7194
▁conv	-7195
▁deal	-7196
▁deci	-7197
▁desp	-7198
▁died	-7199
▁feel	-7200
▁fire	-7201
▁garb	-7202
▁grow	-7203
▁held	-7204
▁hook	-7205
▁kept	-7206
▁onto	-7207
▁page	-7208
▁pare	-7209
▁prec	-7210
▁pump	-7211
▁qual	-7212
▁reli	-7213
▁shri	-7214
▁soft	-7215
▁task	-7216
▁tend	-7217
▁virt	-7218
▁wish	-7219
▁woes	-7220
▁{}".	-7221
()."""	-7222
(...):	-7223
ABCDEF	-7224
DETAIL	-7225
DIRECT	-7226
Reader	-7227
Script	-7228
Stream	-7229
abcdef	-7230
agraph	-7231
closer	-7232
coders	-7233
divmod	-7234
ensure	-7235
finder	-7236
getnew	-7237
import	-7238
latten	-7239
lookup	-7240
ocFile	-7241
passed	-7242
reason	-7243
rename	-7244
rength	-7245
signal	-7246
spired	-7247
syntax	-7248
tainer	-7249
▁After	-7250
▁Ascii	-7251
▁Async	-7252
▁Avoid	-7253
▁Basic	-7254
▁Debug	-7255
▁Delay	-7256
▁Given	-7257
▁Hence	-7258
▁START	-7259
▁WATCH	-7260
▁besee	-7261
▁bones	-7262
▁bosom	-7263
▁comma	-7264
▁confe	-7265
▁depen	-7266
▁earli	-7267
▁excel	-7268
▁fcntl	-7269
▁feast	-7270
▁flush	-7271
▁fully	-7272
▁holds	-7273
▁kwarg	-7274
▁merry	-7275
▁ndays	-7276
▁objid	-7277
▁piece	-7278
▁roots	-7279
▁rules	-7280
▁serve	-7281
▁share	-7282
▁sight	-7283
▁stdev	-7284
▁stype	-7285
▁subcl	-7286
▁sword	-7287
▁taken	-7288
▁users	-7289
Printer	-7290
anchors	-7291
disable	-7292
endings	-7293
errpipe	-7294
exclude	-7295
gisters	-7296
handles	-7297
hyphens	-7298
irEntry	-7299
limited	-7300
listdir	-7301
llipsis	-7302
matcher	-7303
mkstemp	-7304
pointer	-7305
running	-7306
singles	-7307
tabsize	-7308
unnamed	-7309
varargs	-7310
▁Accept	-7311
▁Action	-7312
▁ESCAPE	-7313
▁Garden	-7314
▁Helper	-7315
▁Module	-7316
▁Number	-7317
▁Random	-7318
▁Street	-7319
▁Unpack	-7320
▁active	-7321
▁carets	-7322
▁choose	-7323
▁clouds	-7324
▁collap	-7325
▁dedent	-7326
▁dotted	-7327
▁extend	-7328
▁finite	-7329
▁hextet	-7330
▁indeed	-7331
▁lament	-7332
▁levels	-7333
▁lowest	-7334
▁manage	-7335
▁merger	-7336
▁placed	-7337
▁regexp	-7338
▁repeat	-7339
▁resume	-7340
▁retain	-7341
▁rmtree	-7342
▁shared	-7343
▁silver	-7344
▁usable	-7345
HookArgs	-7346
INTERPOL	-7347
Iterator	-7348
argcount	-7349
cognized	-7350
debugger	-7351
existing	-7352
fromfile	-7353
interpol	-7354
inverted	-7355
partials	-7356
presplit	-7357
readlink	-7358
siftdown	-7359
uspended	-7360
▁Because	-7361
▁DEVNULL	-7362
▁Manager	-7363
▁Mapping	-7364
▁NewType	-7365
▁PATTERN	-7366
▁advance	-7367
▁ancient	-7368
▁applied	-7369
▁chamber	-7370
▁configu	-7371
▁coprime	-7372
▁datefmt	-7373
▁descend	-7374
▁dstname	-7375
▁existed	-7376
▁follows	-7377
▁friends	-7378
▁general	-7379
▁metacls	-7380
▁mkdtemp	-7381
▁mkstemp	-7382
▁ndigits	-7383
▁nesting	-7384
▁preexec	-7385
▁quickly	-7386
▁remains	-7387
▁scandir	-7388
▁subnets	-7389
▁tempdir	-7390
012345678	-7391
Constants	-7392
FileError	-7393
Implement	-7394
Transform	-7395
character	-7396
diskusage	-7397
formatted	-7398
fromlines	-7399
getLogger	-7400
normalize	-7401
popenargs	-7402
summarize	-7403
wordchars	-7404
▁Capulets	-7405
▁EnumType	-7406
▁Internal	-7407
▁ReadOnly	-7408
▁Required	-7409
▁UserDict	-7410
▁accessed	-7411
▁adjacent	-7412
▁allowing	-7413
▁altchars	-7414
▁approach	-7415
▁assertIs	-7416
▁daemonic	-7417
▁farewell	-7418
▁globally	-7419
▁identify	-7420
▁overflow	-7421
▁pickling	-7422
▁presence	-7423
▁probably	-7424
▁progress	-7425
▁purposes	-7426
▁rendered	-7427
▁searched	-7428
▁segments	-7429
▁silently	-7430
▁strength	-7431
▁subtract	-7432
▁terminal	-7433
▁typename	-7434
0123456789	-7435
ADirectory	-7436
compatible	-7437
getnewargs	-7438
▁Condition	-7439
▁NAMESPACE	-7440
▁bandwidth	-7441
▁calculate	-7442
▁customize	-7443
▁depending	-7444
▁duplicate	-7445
▁execution	-7446
▁iteration	-7447
▁overrides	-7448
▁paragraph	-7449
▁processes	-7450
▁providing	-7451
▁quotation	-7452
▁semaphore	-7453
▁subparser	-7454
BaseAddress	-7455
Concatenate	-7456
ConstAction	-7457
placeholder	-7458
punctuation	-7459
translation	-7460
▁Attributes	-7461
▁churchyard	-7462
▁describing	-7463
▁foldspaces	-7464
▁overriding	-7465
▁returnitem	-7466
▁subclassed	-7467
ceptHookArgs	-7468
isEnabledFor	-7469
processError	-7470
raiseFailure	-7471
▁NotRequired	-7472
▁Unsupported	-7473
▁consistency	-7474
▁constructed	-7475
▁differently	-7476
▁expressions	-7477
▁incorrectly	-7478
▁performance	-7479
▁subclassing	-7480
INTERPOLATION	-7481
▁getLevelName	-7482
▁instantiated	-7483
▁predecessors	-7484
AnnotatedAlias	-7485
singledispatch	-7486
▁partialmethod	-7487
ADirectoryError	-7488
expectedFailure	-7489
▁BoundArguments	-7490
▁DocTestFailure	-7491
▁NoSectionError	-7492
▁initialization	-7493
▁versionchanged	-7494
logRecordFactory	-7495
'+	-7496
'^	-7497
)!	-7498
07	-7499
11	-7500
46	-7501
50	-7502
52	-7503
6_	-7504
:#	-7505
;.	-7506
>%	-7507
>)	-7508
?"	-7509
?)	-7510
AO	-7511
CS	-7512
EC	-7513
FE	-7514
MS	-7515
Of	-7516
RC	-7517
RD	-7518
SH	-7519
SZ	-7520
UO	-7521
[*	-7522
[]	-7523
_%	-7524
ai	-7525
lf	-7526
ug	-7527
xd	-7528
};	-7529
"".	-7530
"'{	-7531
","	-7532
"<{	-7533
("'	-7534
('1	-7535
(3)	-7536
(?!	-7537
(["	-7538
)).	-7539
)],	-7540
**2	-7541
+4)	-7542
0),	-7543
1))	-7544
127	-7545
373	-7546
=('	-7547
?',	-7548
AST	-7549
ATE	-7550
Cre	-7551
DEP	-7552
DUL	-7553
LES	-7554
LIM	-7555
MUL	-7556
Mon	-7557
NEW	-7558
OUT	-7559
PRO	-7560
REV	-7561
Ret	-7562
STY	-7563
__?	-7564
ade	-7565
anc	-7566
ert	-7567
gue	-7568
lds	-7569
lew	-7570
loy	-7571
omb	-7572
pie	-7573
rah	-7574
rew	-7575
rix	-7576
roy	-7577
she	-7578
ulo	-7579
zer	-7580
}]'	-7581
▁']	-7582
▁1-	-7583
▁6,	-7584
▁6:	-7585
▁7)	-7586
▁7,	-7587
▁8-	-7588
▁80	-7589
▁86	-7590
▁BL	-7591
▁Bu	-7592
▁En	-7593
▁Py	-7594
▁er	-7595
▁gl	-7596
▁lp	-7597
▁wd	-7598
▁yi	-7599
('</	-7600
('{!	-7601
()),	-7602
()).	-7603
(2.0	-7604
...'	-7605
4'),	-7606
8'),	-7607
BUFF	-7608
COGN	-7609
ENOT	-7610
FACT	-7611
HASH	-7612
HTML	-7613
Kind	-7614
Logs	-7615
Repr	-7616
Same	-7617
Stop	-7618
TYPE	-7619
UNRE	-7620
UOUS	-7621
[1],	-7622
``).	-7623
abcs	-7624
ably	-7625
aded	-7626
blue	-7627
boot	-7628
dims	-7629
docs	-7630
ests	-7631
haps	-7632
iana	-7633
iful	-7634
illi	-7635
imat	-7636
ises	-7637
lant	-7638
libc	-7639
mail	-7640
math	-7641
memo	-7642
more	-7643
ndOf	-7644
ners	-7645
othe	-7646
ouch	-7647
peat	-7648
send	-7649
shad	-7650
sist	-7651
tric	-7652
uate	-7653
weet	-7654
xbar	-7655
▁'#'	-7656
▁'/'	-7657
▁('\	-7658
▁10,	-7659
▁CSS	-7660
▁His	-7661
▁Our	-7662
▁SIG	-7663
▁Too	-7664
▁[])	-7665
▁``-	-7666
▁air	-7667
▁cel	-7668
▁cry	-7669
▁dou	-7670
▁elt	-7671
▁gir	-7672
▁gro	-7673
▁hot	-7674
▁ign	-7675
▁ist	-7676
▁leg	-7677
▁ord	-7678
▁pen	-7679
▁pow	-7680
▁ran	-7681
▁thr	-7682
▁yon	-7683
::-1]	-7684
=''):	-7685
Child	-7686
EVENT	-7687
Field	-7688
Hello	-7689
MODUL	-7690
MULTI	-7691
Model	-7692
[0]))	-7693
align	-7694
amine	-7695
aring	-7696
arson	-7697
artic	-7698
asing	-7699
ckets	-7700
comme	-7701
ingle	-7702
istic	-7703
linux	-7704
lling	-7705
mploy	-7706
ndiff	-7707
nsure	-7708
optim	-7709
otion	-7710
setup	-7711
slope	-7712
tests	-7713
thous	-7714
xture	-7715
▁'.'.	-7716
▁('',	-7717
▁+---	-7718
▁...)	-7719
▁<---	-7720
▁Fast	-7721
▁KEEP	-7722
▁List	-7723
▁Lord	-7724
▁Mult	-7725
▁PATH	-7726
▁Page	-7727
▁Thus	-7728
▁Till	-7729
▁Turn	-7730
▁Upon	-7731
▁Vari	-7732
▁ZERO	-7733
▁Zero	-7734
▁['']	-7735
▁agen	-7736
▁burn	-7737
▁cate	-7738
▁cent	-7739
▁cold	-7740
▁dire	-7741
▁duck	-7742
▁expo	-7743
▁fabs	-7744
▁fing	-7745
▁five	-7746
▁flds	-7747
▁fort	-7748
▁goes	-7749
▁hits	-7750
▁idea	-7751
▁leaf	-7752
▁nets	-7753
▁nice	-7754
▁nine	-7755
▁pati	-7756
▁pool	-7757
▁prot	-7758
▁risk	-7759
▁sick	-7760
▁tomb	-7761
▁unix	-7762
▁vile	-7763
▁wret	-7764
▁ybar	-7765
▁{'__	-7766
/124')	-7767
Append	-7768
BUFFER	-7769
Buffer	-7770
Exists	-7771
PyHASH	-7772
Resort	-7773
STYLES	-7774
Select	-7775
TextIO	-7776
argest	-7777
caches	-7778
center	-7779
ferred	-7780
getcwd	-7781
hextet	-7782
imated	-7783
imilar	-7784
izable	-7785
legate	-7786
loader	-7787
master	-7788
median	-7789
minist	-7790
mplate	-7791
ntuple	-7792
posite	-7793
repeat	-7794
should	-7795
signed	-7796
sunder	-7797
wFlags	-7798
▁Alack	-7799
▁Beaut	-7800
▁Close	-7801
▁ERROR	-7802
▁Final	-7803
▁Match	-7804
▁Movie	-7805
▁along	-7806
▁analy	-7807
▁awake	-7808
▁canst	-7809
▁chmod	-7810
▁corse	-7811
▁defer	-7812
▁ended	-7813
▁etype	-7814
▁exits	-7815
▁flesh	-7816
▁invol	-7817
▁knows	-7818
▁lambd	-7819
▁ltext	-7820
▁saved	-7821
▁sched	-7822
▁slash	-7823
▁stars	-7824
▁tasks	-7825
▁thumb	-7826
▁worth	-7827
▁zeros	-7828
.0.0.0/	-7829
8::1000	-7830
=======	-7831
Checker	-7832
Complex	-7833
Current	-7834
FACTORY	-7835
Literal	-7836
MISSING	-7837
biguous	-7838
capture	-7839
closure	-7840
decolor	-7841
discard	-7842
explode	-7843
formats	-7844
heapify	-7845
heappop	-7846
hextets	-7847
licated	-7848
literal	-7849
longest	-7850
ometric	-7851
parties	-7852
pathlib	-7853
rencing	-7854
reshold	-7855
session	-7856
slashes	-7857
tarball	-7858
testmod	-7859
unbound	-7860
unified	-7861
waiters	-7862
zipfile	-7863
▁Binary	-7864
▁Frozen	-7865
▁Update	-7866
▁altsep	-7867
▁arbitr	-7868
▁behold	-7869
▁blanks	-7870
▁bloody	-7871
▁caught	-7872
▁chance	-7873
▁chosen	-7874
▁coerce	-7875
▁coming	-7876
▁cycles	-7877
▁dagger	-7878
▁divmod	-7879
▁dunder	-7880
▁easier	-7881
▁export	-7882
▁honest	-7883
▁hyphen	-7884
▁infile	-7885
▁inline	-7886
▁intern	-7887
▁linked	-7888
▁listed	-7889
▁lovers	-7890
▁loving	-7891
▁mapped	-7892
▁notice	-7893
▁opname	-7894
▁reader	-7895
▁respon	-7896
▁stores	-7897
▁strong	-7898
▁sudden	-7899
▁supply	-7900
▁taking	-7901
▁tender	-7902
▁tofile	-7903
▁tolist	-7904
▁waiter	-7905
▁window	-7906
▁woeful	-7907
COGNIZED	-7908
Constant	-7909
Ellipsis	-7910
Handlers	-7911
Internal	-7912
Supports	-7913
allocate	-7914
copyfile	-7915
ellipsis	-7916
ffffffff	-7917
floordiv	-7918
isfinite	-7919
pedantic	-7920
readline	-7921
shadowed	-7922
waitable	-7923
▁Classes	-7924
▁Keyword	-7925
▁Methods	-7926
▁Private	-7927
▁WARNING	-7928
▁average	-7929
▁becomes	-7930
▁beseech	-7931
▁caching	-7932
▁chained	-7933
▁charset	-7934
▁depends	-7935
▁discard	-7936
▁enforce	-7937
▁environ	-7938
▁fearful	-7939
▁garbage	-7940
▁largest	-7941
▁nearest	-7942
▁operand	-7943
▁parsers	-7944
▁popular	-7945
▁reasons	-7946
▁recomme	-7947
▁reduces	-7948
▁streams	-7949
▁theweek	-7950
▁thyself	-7951
Container	-7952
FrameInfo	-7953
MULTILINE	-7954
PipeError	-7955
Semaphore	-7956
TIONFLAGS	-7957
argvalues	-7958
bootstrap	-7959
delimiter	-7960
directory	-7961
expecting	-7962
itertools	-7963
metaclass	-7964
ndOfBlock	-7965
shorthand	-7966
thousands	-7967
transform	-7968
universal	-7969
▁Consider	-7970
▁Delegate	-7971
▁Generate	-7972
▁HtmlDiff	-7973
▁Infinity	-7974
▁administ	-7975
▁breaking	-7976
▁category	-7977
▁compiler	-7978
▁concaten	-7979
▁copystat	-7980
▁counting	-7981
▁critical	-7982
▁ellipsis	-7983
▁finalize	-7984
▁finished	-7985
▁fromdata	-7986
▁fullname	-7987
▁harmonic	-7988
▁interpol	-7989
▁managers	-7990
▁maxsplit	-7991
▁obtained	-7992
▁opposite	-7993
▁overwrit	-7994
▁prefixes	-7995
▁sectdict	-7996
▁security	-7997
▁suffixes	-7998
▁suitable	-7999
▁tempfile	-8000
▁thousand	-8001
▁unlocked	-8002
▁yourself	-8003
55.255.255	-8004
ForwardRef	-8005
MethodType	-8006
TestResult	-8007
extensions	-8008
formatyear	-8009
invocation	-8010
monthdates	-8011
population	-8012
regression	-8013
setprofile	-8014
subactions	-8015
subprocess	-8016
suggestion	-8017
unfinished	-8018
▁Currently	-8019
▁Duplicate	-8020
▁	-8021
e	-8022
t	-8023
s	-8024
a	-8025
r	-8026
n	-8027
i	-8028
o	-8029
l	-8030
d	-8031
f	-8032
c	-8033
_	-8034
u	-8035
h	-8036
p	-8037
m	-8038
.	-8039
,	-8040
g	-8041
)	-8042
(	-8043
=	-8044
b	-8045
y	-8046
"	-8047
:	-8048
w	-8049
'	-8050
#	-8051
-	-8052
v	-8053
k	-8054
x	-8055
T	-8056
E	-8057
N	-8058
I	-8059
A	-8060
R	-8061
S	-8062
0	-8063
1	-8064
[	-8065
]	-8066
O	-8067
C	-8068
F	-8069
j	-8070
P	-8071
*	-8072
2	-8073
>	-8074
`	-8075
D	-8076
/	-8077
L	-8078
M	-8079
U	-8080
q	-8081
+	-8082
%	-8083
z	-8084
{	-8085
}	-8086
W	-8087
3	-8088
4	-8089
V	-8090
B	-8091
G	-8092
<	-8093
5	-8094
\	-8095
’	-8096
!	-8097
6	-8098
H	-8099
8	-8100
?	-8101
;	-8102
7	-8103
@	-8104
|	-8105
9	-8106
Y	-8107
K	-8108
J	-8109
X	-8110
^	-8111
&	-8112
Z	-8113
Q	-8114
—	-8115
$	-8116
~	-8117
‘	-8118
±	-8119
§	-8120
æ	-8121
ç	-8122
ö	-8123
À	-8124
Á	-8125
Â	-8126
Ã	-8127
Ä	-8128
Å	-8129
Æ	-8130
Ç	-8131
È	-8132
É	-8133
Ê	-8134
Ë	-8135
Ì	-8136
Í	-8137
Î	-8138
Ï	-8139
Ð	-8140
Ñ	-8141
Ò	-8142
Ó	-8143
Ô	-8144
Õ	-8145
Ö	-8146
Ø	-8147
Ù	-8148
Ú	-8149
Û	-8150
Ü	-8151
Ý	-8152
Þ	-8153
ß	-8154
à	-8155
á	-8156
â	-8157
ã	-8158
ä	-8159
å	-8160
è	-8161
é	-8162
ê	-8163
ë	-8164
ì	-8165
í	-8166
î	-8167
ï	-8168
ð	-8169
ñ	-8170
ò	-8171
ó	-8172
ô	-8173
õ	-8174
ø	-8175
ù	-8176
ú	-8177
û	-8178
ü	-8179
ý	-8180
þ	-8181
ÿ	-8182
Ł	-8183
–	-8184
“	-8185
”	-8186
≈	-8187
