<pad>	0
<s>	0
</s>	0
<unk>	0
▁t	-0
he	-1
▁a	-2
in	-3
▁the	-4
re	-5
▁s	-6
▁o	-7
▁w	-8
er	-9
nd	-10
at	-11
on	-12
is	-13
en	-14
▁b	-15
or	-16
it	-17
▁f	-18
ou	-19
▁c	-20
ed	-21
▁m	-22
es	-23
▁h	-24
▁of	-25
ar	-26
▁d	-27
▁p	-28
an	-29
▁to	-30
ing	-31
▁and	-32
▁in	-33
al	-34
as	-35
le	-36
▁th	-37
▁n	-38
el	-39
om	-40
▁l	-41
ic	-42
ion	-43
st	-44
▁I	-45
ot	-46
ut	-47
▁he	-48
▁g	-49
et	-50
▁re	-51
il	-52
ad	-53
im	-54
▁T	-55
▁e	-56
ent	-57
▁be	-58
ow	-59
ce	-60
ur	-61
ve	-62
ly	-63
id	-64
se	-65
--	-66
ct	-67
am	-68
▁is	-69
▁y	-70
▁wh	-71
▁for	-72
ay	-73
ig	-74
▁A	-75
▁that	-76
ir	-77
▁"	-78
if	-79
▁u	-80
▁on	-81
ver	-82
ol	-83
▁it	-84
od	-85
ch	-86
ith	-87
▁=	-88
▁S	-89
▁was	-90
pe	-91
▁as	-92
▁r	-93
▁st	-94
▁with	-95
▁you	-96
ul	-97
▁C	-98
ld	-99
▁_	-100
▁not	-101
▁M	-102
▁The	-103
ter	-104
▁his	-105
▁de	-106
▁al	-107
elf	-108
ro	-109
her	-110
▁ha	-111
ra	-112
ht	-113
▁an	-114
▁we	-115
▁H	-116
ke	-117
▁B	-118
ri	-119
▁at	-120
ation	-121
ill	-122
rom	-123
um	-124
ain	-125
▁P	-126
▁N	-127
ore	-128
▁W	-129
▁1	-130
▁(	-131
un	-132
▁sh	-133
ck	-134
ess	-135
▁se	-136
ge	-137
▁v	-138
ab	-139
and	-140
qu	-141
▁or	-142
ould	-143
▁con	-144
▁by	-145
ight	-146
th	-147
▁F	-148
us	-149
▁from	-150
▁if	-151
res	-152
ich	-153
▁had	-154
▁me	-155
▁su	-156
red	-157
ist	-158
all	-159
one	-160
▁ex	-161
est	-162
▁L	-163
urn	-164
ate	-165
ame	-166
ap	-167
ort	-168
▁#	-169
ers	-170
▁which	-171
▁have	-172
▁her	-173
ard	-174
▁D	-175
os	-176
▁com	-177
op	-178
ant	-179
▁him	-180
em	-181
▁ne	-182
▁k	-183
▁all	-184
ue	-185
▁“	-186
▁'	-187
▁this	-188
._	-189
ell	-190
▁so	-191
▁are	-192
▁G	-193
nt	-194
▁R	-195
▁but	-196
self	-197
ust	-198
▁E	-199
art	-200
▁my	-201
pp	-202
ind	-203
lo	-204
oug	-205
ty	-206
▁O	-207
▁ch	-208
▁le	-209
▁whe	-210
iv	-211
▁sa	-212
ous	-213
▁self	-214
our	-215
ast	-216
▁lo	-217
▁ret	-218
out	-219
----	-220
▁int	-221
pt	-222
▁up	-223
▁ar	-224
▁do	-225
▁[	-226
):	-227
ass	-228
▁were	-229
la	-230
▁they	-231
▁im	-232
▁return	-233
ome	-234
▁def	-235
▁who	-236
ive	-237
▁one	-238
ex	-239
ong	-240
▁man	-241
ord	-242
ment	-243
ok	-244
ound	-245
▁she	-246
ie	-247
ction	-248
able	-249
ak	-250
ine	-251
ies	-252
ure	-253
▁their	-254
▁no	-255
▁out	-256
ity	-257
▁them	-258
pl	-259
ult	-260
▁go	-261
▁pro	-262
ff	-263
ance	-264
▁0	-265
ag	-266
ens	-267
ry	-268
..	-269
very	-270
▁will	-271
ther	-272
▁ab	-273
▁2	-274
ac	-275
int	-276
iz	-277
per	-278
""	-279
de	-280
>>	-281
▁j	-282
▁J	-283
),	-284
▁-	-285
▁Th	-286
▁He	-287
▁kn	-288
▁there	-289
reat	-290
ost	-291
own	-292
ough	-293
▁imp	-294
▁been	-295
ect	-296
ip	-297
▁would	-298
ide	-299
ran	-300
ice	-301
",	-302
▁us	-303
▁un	-304
ake	-305
▁can	-306
ime	-307
',	-308
ib	-309
ack	-310
ond	-311
cc	-312
▁when	-313
ath	-314
▁has	-315
itt	-316
are	-317
▁said	-318
▁*	-319
age	-320
ile	-321
ep	-322
ence	-323
▁pr	-324
▁None	-325
hed	-326
arg	-327
▁other	-328
==	-329
av	-330
00	-331
ree	-332
ish	-333
▁qu	-334
▁sp	-335
."	-336
ose	-337
▁wor	-338
▁more	-339
``	-340
ise	-341
au	-342
▁fe	-343
▁your	-344
end	-345
orm	-346
▁ad	-347
ple	-348
▁It	-349
▁cl	-350
ars	-351
▁en	-352
▁ag	-353
ike	-354
ally	-355
▁any	-356
put	-357
ount	-358
ire	-359
▁And	-360
ary	-361
ions	-362
ert	-363
ite	-364
ign	-365
ode	-366
ci	-367
▁into	-368
▁In	-369
▁some	-370
▁am	-371
▁"""	-372
ph	-373
ress	-374
▁V	-375
▁tw	-376
▁fa	-377
▁res	-378
▁than	-379
ax	-380
cl	-381
ru	-382
ated	-383
type	-384
()	-385
▁bo	-386
ings	-387
▁cont	-388
old	-389
▁el	-390
▁dis	-391
▁per	-392
▁what	-393
ely	-394
▁Y	-395
ne	-396
ays	-397
▁3	-398
ict	-399
▁gr	-400
▁+	-401
▁ev	-402
fore	-403
ll	-404
▁pl	-405
ere	-406
ach	-407
▁time	-408
ade	-409
ng	-410
low	-411
ud	-412
▁:	-413
ber	-414
sh	-415
▁import	-416
we	-417
ful	-418
alue	-419
▁br	-420
▁pre	-421
▁sc	-422
other	-423
▁our	-424
.”	-425
fter	-426
▁its	-427
▁But	-428
▁only	-429
wn	-430
▁could	-431
▁should	-432
▁po	-433
▁over	-434
▁great	-435
,"	-436
ian	-437
▁tr	-438
▁ob	-439
eth	-440
ER	-441
get	-442
ub	-443
ied	-444
▁then	-445
ray	-446
▁part	-447
ors	-448
▁know	-449
ase	-450
▁K	-451
nder	-452
▁now	-453
ild	-454
ick	-455
▁may	-456
▁very	-457
ink	-458
rib	-459
con	-460
▁St	-461
irst	-462
▁off	-463
▁hand	-464
▁see	-465
▁must	-466
▁spe	-467
▁Ch	-468
▁)	-469
▁upon	-470
pr	-471
▁Wh	-472
ward	-473
ata	-474
▁|	-475
ought	-476
ang	-477
▁ro	-478
ious	-479
ved	-480
▁like	-481
ory	-482
▁>>	-483
▁about	-484
ces	-485
▁des	-486
ittle	-487
▁>>>	-488
],	-489
▁two	-490
▁again	-491
ition	-492
ife	-493
ather	-494
▁did	-495
att	-496
▁Mr	-497
##	-498
uch	-499
ize	-500
▁att	-501
ark	-502
ial	-503
▁str	-504
ft	-505
ym	-506
▁thr	-507
ood	-508
▁rem	-509
▁little	-510
▁ra	-511
▁after	-512
ror	-513
com	-514
ject	-515
▁->	-516
▁pe	-517
ape	-518
▁x	-519
▁first	-520
form	-521
led	-522
ove	-523
odu	-524
▁such	-525
__	-526
))	-527
,”	-528
▁these	-529
ced	-530
ations	-531
che	-532
▁bet	-533
▁before	-534
les	-535
▁made	-536
▁where	-537
▁how	-538
▁look	-539
--------	-540
ix	-541
▁good	-542
▁ye	-543
py	-544
so	-545
ener	-546
fa	-547
▁under	-548
og	-549
rue	-550
ext	-551
iff	-552
iss	-553
▁{	-554
oss	-555
▁ke	-556
▁long	-557
▁else	-558
ness	-559
orch	-560
oth	-561
▁call	-562
▁U	-563
ia	-564
▁4	-565
val	-566
ents	-567
▁comp	-568
▁col	-569
args	-570
te	-571
▁This	-572
IN	-573
▁comm	-574
▁get	-575
hen	-576
▁new	-577
▁down	-578
▁ind	-579
▁every	-580
▁mat	-581
▁much	-582
▁pass	-583
ning	-584
0,	-585
▁`	-586
lace	-587
▁old	-588
ave	-589
▁acc	-590
▁sm	-591
name	-592
str	-593
▁co	-594
▁sub	-595
ype	-596
ical	-597
1,	-598
▁``	-599
ensor	-600
▁wr	-601
▁well	-602
▁set	-603
man	-604
▁most	-605
gr	-606
▁app	-607
ady	-608
▁work	-609
).	-610
▁here	-611
▁If	-612
▁men	-613
ons	-614
ods	-615
▁cons	-616
alse	-617
ON	-618
pect	-619
▁say	-620
▁num	-621
vers	-622
▁own	-623
ew	-624
▁bec	-625
_,	-626
▁aw	-627
aram	-628
cept	-629
to	-630
unction	-631
igh	-632
ren	-633
mer	-634
▁same	-635
The	-636
ily	-637
▁even	-638
▁back	-639
▁ent	-640
▁never	-641
cess	-642
ont	-643
ered	-644
▁dist	-645
ps	-646
not	-647
▁shall	-648
rans	-649
▁pres	-650
ys	-651
▁day	-652
ob	-653
▁rep	-654
▁make	-655
land	-656
▁exp	-657
▁those	-658
ribut	-659
ug	-660
▁think	-661
▁through	-662
▁way	-663
▁come	-664
act	-665
ves	-666
ates	-667
▁let	-668
ouse	-669
====	-670
▁op	-671
2,	-672
ss	-673
Er	-674
oc	-675
▁ser	-676
ater	-677
▁too	-678
▁bel	-679
▁name	-680
Error	-681
ans	-682
▁==	-683
ause	-684
▁being	-685
ible	-686
raph	-687
▁tra	-688
row	-689
▁ap	-690
▁supp	-691
▁might	-692
▁seem	-693
AN	-694
.,	-695
ving	-696
der	-697
▁inst	-698
HE	-699
set	-700
ried	-701
ms	-702
less	-703
ble	-704
the	-705
▁life	-706
▁many	-707
▁ass	-708
▁18	-709
hing	-710
▁found	-711
▁end	-712
▁fol	-713
▁last	-714
AR	-715
▁ey	-716
pend	-717
▁She	-718
ace	-719
▁just	-720
▁himself	-721
▁..	-722
▁i	-723
sc	-724
up	-725
("	-726
ool	-727
▁came	-728
▁Se	-729
ull	-730
ale	-731
ues	-732
▁word	-733
▁Ar	-734
▁You	-735
gs	-736
▁count	-737
ked	-738
atch	-739
▁list	-740
▁beg	-741
▁We	-742
ual	-743
▁thought	-744
ret	-745
▁em	-746
▁diff	-747
▁head	-748
▁5	-749
▁giv	-750
ins	-751
▁reg	-752
▁right	-753
▁fl	-754
vel	-755
ince	-756
▁ear	-757
▁without	-758
aug	-759
▁For	-760
ari	-761
aw	-762
▁@	-763
ined	-764
air	-765
ern	-766
")	-767
eld	-768
ven	-769
▁There	-770
ier	-771
ices	-772
ower	-773
▁They	-774
▁raise	-775
?"	-776
EN	-777
▁0.	-778
ks	-779
▁torch	-780
▁class	-781
▁each	-782
▁6	-783
▁while	-784
ures	-785
AT	-786
ople	-787
▁len	-788
lect	-789
▁war	-790
ames	-791
ail	-792
its	-793
▁take	-794
▁still	-795
▁val	-796
▁sec	-797
ner	-798
▁An	-799
pro	-800
▁rec	-801
▁As	-802
▁gener	-803
▁rel	-804
ished	-805
▁add	-806
riend	-807
▁use	-808
ters	-809
▁follow	-810
OR	-811
▁gl	-812
▁place	-813
aking	-814
ments	-815
als	-816
ted	-817
▁ext	-818
▁char	-819
oint	-820
▁form	-821
cy	-822
▁car	-823
ption	-824
ature	-825
▁min	-826
ertain	-827
ened	-828
▁To	-829
_.	-830
ense	-831
und	-832
▁np	-833
eg	-834
imes	-835
▁turn	-836
▁act	-837
▁cor	-838
ield	-839
▁away	-840
▁ac	-841
ever	-842
▁value	-843
▁inter	-844
▁also	-845
?”	-846
vice	-847
read	-848
ope	-849
▁Q	-850
uth	-851
ither	-852
ular	-853
ared	-854
▁True	-855
▁che	-856
AL	-857
▁conf	-858
▁friend	-859
▁people	-860
▁cour	-861
▁yet	-862
▁wom	-863
▁far	-864
ES	-865
tain	-866
▁sym	-867
ator	-868
▁ref	-869
inst	-870
els	-871
▁child	-872
▁bu	-873
▁want	-874
])	-875
//	-876
oy	-877
▁appe	-878
▁find	-879
aut	-880
ween	-881
":	-882
lock	-883
pos	-884
▁result	-885
▁put	-886
ently	-887
▁At	-888
ody	-889
ns	-890
▁three	-891
▁cur	-892
loat	-893
▁som	-894
####	-895
ract	-896
▁tell	-897
0.	-898
▁left	-899
ited	-900
▁del	-901
▁inf	-902
None	-903
ling	-904
▁poss	-905
▁Eng	-906
▁That	-907
▁pers	-908
vent	-909
▁went	-910
▁years	-911
▁point	-912
hat	-913
ote	-914
▁eyes	-915
▁house	-916
▁another	-917
▁heart	-918
add	-919
eter	-920
▁Al	-921
here	-922
▁don	-923
▁between	-924
ways	-925
rit	-926
▁young	-927
▁bl	-928
co	-929
ting	-930
▁When	-931
▁once	-932
ange	-933
▁What	-934
▁sur	-935
ctor	-936
▁read	-937
▁THE	-938
**	-939
▁ever	-940
▁though	-941
▁used	-942
fault	-943
4,	-944
▁dec	-945
ines	-946
▁te	-947
▁night	-948
▁gra	-949
▁gu	-950
▁world	-951
ec	-952
gg	-953
▁love	-954
[0	-955
ative	-956
▁8	-957
den	-958
ired	-959
▁nothing	-960
▁mar	-961
ubl	-962
alf	-963
ef	-964
nce	-965
▁sl	-966
par	-967
odule	-968
▁give	-969
ands	-970
▁ple	-971
dtype	-972
ows	-973
▁does	-974
▁against	-975
array	-976
!"	-977
▁kind	-978
TER	-979
▁ter	-980
▁sw	-981
▁Com	-982
instance	-983
▁cap	-984
shape	-985
inal	-986
▁fr	-987
▁happ	-988
ethod	-989
▁art	-990
ised	-991
xt	-992
▁given	-993
▁light	-994
▁both	-995
iew	-996
▁unt	-997
▁occ	-998
hes	-999
▁False	-1000
▁function	-1001
▁need	-1002
▁always	-1003
▁(_	-1004
ples	-1005
most	-1006
unc	-1007
▁His	-1008
iter	-1009
thing	-1010
▁rest	-1011
aps	-1012
▁So	-1013
ants	-1014
IT	-1015
▁called	-1016
ross	-1017
▁stre	-1018
num	-1019
size	-1020
▁object	-1021
▁pur	-1022
▁‘	-1023
▁No	-1024
▁X	-1025
▁because	-1026
alk	-1027
▁few	-1028
':	-1029
["	-1030
▁father	-1031
▁exc	-1032
▁trans	-1033
ched	-1034
atter	-1035
ized	-1036
ities	-1037
▁mind	-1038
ific	-1039
▁got	-1040
▁face	-1041
▁tak	-1042
rew	-1043
6,	-1044
ged	-1045
▁ins	-1046
▁near	-1047
▁eff	-1048
ating	-1049
ask	-1050
▁isinstance	-1051
▁God	-1052
▁side	-1053
▁mod	-1054
ser	-1055
ister	-1056
ank	-1057
oot	-1058
▁const	-1059
▁%	-1060
oup	-1061
▁dire	-1062
ts	-1063
▁Then	-1064
min	-1065
aster	-1066
▁type	-1067
▁mom	-1068
▁arg	-1069
ived	-1070
▁__	-1071
▁small	-1072
orn	-1073
▁present	-1074
ude	-1075
▁sk	-1076
▁things	-1077
▁cond	-1078
1]	-1079
ton	-1080
▁mon	-1081
inf	-1082
▁dra	-1083
ook	-1084
oub	-1085
ches	-1086
▁certain	-1087
▁whole	-1088
▁number	-1089
arn	-1090
path	-1091
▁sim	-1092
uple	-1093
uring	-1094
ason	-1095
▁data	-1096
▁On	-1097
▁done	-1098
---	-1099
mb	-1100
med	-1101
▁17	-1102
▁7	-1103
col	-1104
▁<	-1105
▁Ex	-1106
▁saw	-1107
('	-1108
tt	-1109
▁Pr	-1110
▁ed	-1111
▁...	-1112
▁aff	-1113
sel	-1114
!”	-1115
▁ax	-1116
▁wind	-1117
32	-1118
of	-1119
▁took	-1120
▁nor	-1121
ET	-1122
▁De	-1123
▁order	-1124
default	-1125
iness	-1126
:`	-1127
▁[_	-1128
▁mor	-1129
▁Jo	-1130
dim	-1131
3,	-1132
▁bre	-1133
8,	-1134
▁cle	-1135
amp	-1136
be	-1137
▁thing	-1138
▁hands	-1139
▁differe	-1140
ides	-1141
pre	-1142
▁belie	-1143
aid	-1144
▁seen	-1145
▁contin	-1146
▁mo	-1147
ten	-1148
▁sent	-1149
lement	-1150
arge	-1151
▁state	-1152
▁except	-1153
▁keep	-1154
any	-1155
▁best	-1156
"]	-1157
12	-1158
▁input	-1159
10	-1160
▁country	-1161
▁start	-1162
rist	-1163
▁better	-1164
app	-1165
eturn	-1166
▁half	-1167
▁fam	-1168
by	-1169
▁less	-1170
fe	-1171
▁high	-1172
init	-1173
ash	-1174
index	-1175
▁fell	-1176
▁spec	-1177
ute	-1178
▁inc	-1179
▁array	-1180
ained	-1181
uff	-1182
unt	-1183
64	-1184
▁loc	-1185
elt	-1186
over	-1187
▁care	-1188
▁among	-1189
wargs	-1190
▁Sh	-1191
ering	-1192
selves	-1193
1.	-1194
▁Ind	-1195
ery	-1196
▁water	-1197
▁moment	-1198
▁whom	-1199
▁hum	-1200
ault	-1201
iver	-1202
data	-1203
yn	-1204
▁fact	-1205
▁Un	-1206
▁line	-1207
▁pos	-1208
wards	-1209
__(	-1210
IC	-1211
ains	-1212
me	-1213
ets	-1214
5,	-1215
class	-1216
▁soon	-1217
for	-1218
ething	-1219
▁ans	-1220
IS	-1221
True	-1222
value	-1223
ution	-1224
ient	-1225
▁z	-1226
▁fore	-1227
▁dtype	-1228
ages	-1229
▁case	-1230
▁room	-1231
▁having	-1232
▁feel	-1233
mon	-1234
▁vis	-1235
▁home	-1236
ctions	-1237
▁going	-1238
▁play	-1239
ead	-1240
▁met	-1241
▁oper	-1242
"""	-1243
osed	-1244
▁dr	-1245
ided	-1246
ric	-1247
▁hard	-1248
▁suff	-1249
▁sat	-1250
▁heard	-1251
▁thou	-1252
▁sing	-1253
▁cent	-1254
ils	-1255
▁bro	-1256
ident	-1257
▁cr	-1258
▁est	-1259
ilt	-1260
az	-1261
erest	-1262
▁hel	-1263
▁try	-1264
irl	-1265
▁sil	-1266
▁told	-1267
▁red	-1268
▁equ	-1269
oice	-1270
ives	-1271
16	-1272
ention	-1273
outh	-1274
amb	-1275
([	-1276
▁full	-1277
▁requ	-1278
▁mean	-1279
range	-1280
node	-1281
▁power	-1282
ured	-1283
▁beh	-1284
lish	-1285
▁real	-1286
▁Be	-1287
▁show	-1288
oper	-1289
AP	-1290
▁publ	-1291
▁cannot	-1292
ample	-1293
▁hour	-1294
ock	-1295
len	-1296
▁dim	-1297
▁run	-1298
ately	-1299
opy	-1300
▁open	-1301
▁With	-1302
ased	-1303
▁stand	-1304
▁1,	-1305
▁door	-1306
ably	-1307
use	-1308
▁enough	-1309
param	-1310
ene	-1311
ma	-1312
▁words	-1313
▁ph	-1314
ird	-1315
[0]	-1316
....	-1317
▁course	-1318
gether	-1319
▁tre	-1320
reg	-1321
LE	-1322
▁sign	-1323
meric	-1324
uk	-1325
')	-1326
ison	-1327
Type	-1328
▁19	-1329
19	-1330
ork	-1331
attr	-1332
men	-1333
ait	-1334
RE	-1335
▁asked	-1336
="	-1337
▁almost	-1338
que	-1339
▁something	-1340
ptional	-1341
augh	-1342
▁since	-1343
▁days	-1344
▁seemed	-1345
▁woman	-1346
▁pri	-1347
port	-1348
St	-1349
ury	-1350
▁sum	-1351
gth	-1352
ann	-1353
▁bool	-1354
▁charact	-1355
arch	-1356
ief	-1357
▁looked	-1358
▁Lord	-1359
▁four	-1360
▁hor	-1361
loc	-1362
ole	-1363
▁express	-1364
▁beaut	-1365
ety	-1366
▁death	-1367
▁interest	-1368
atic	-1369
▁large	-1370
▁produ	-1371
▁land	-1372
▁Americ	-1373
bol	-1374
np	-1375
You	-1376
append	-1377
ring	-1378
inter	-1379
▁--------	-1380
atur	-1381
ats	-1382
▁lay	-1383
▁however	-1384
haps	-1385
amples	-1386
▁true	-1387
▁12	-1388
ually	-1389
oul	-1390
▁prov	-1391
pes	-1392
▁mother	-1393
▁whose	-1394
▁adv	-1395
▁Not	-1396
ility	-1397
▁inv	-1398
oun	-1399
▁Christ	-1400
▁Mrs	-1401
▁inde	-1402
iled	-1403
▁knew	-1404
ley	-1405
▁How	-1406
▁taken	-1407
▁Re	-1408
rix	-1409
iles	-1410
▁dict	-1411
▁tem	-1412
ument	-1413
▁fall	-1414
▁default	-1415
ified	-1416
▁next	-1417
▁disc	-1418
my	-1419
cial	-1420
ips	-1421
▁thy	-1422
met	-1423
▁until	-1424
▁rece	-1425
ccess	-1426
▁es	-1427
oud	-1428
ler	-1429
ances	-1430
▁quite	-1431
▁lab	-1432
uss	-1433
In	-1434
▁My	-1435
cont	-1436
used	-1437
ger	-1438
▁16	-1439
▁elif	-1440
key	-1441
aring	-1442
▁round	-1443
▁hon	-1444
ider	-1445
▁girl	-1446
odes	-1447
▁pol	-1448
irc	-1449
▁pla	-1450
like	-1451
Ar	-1452
ceed	-1453
urch	-1454
day	-1455
▁person	-1456
▁shape	-1457
▁9	-1458
▁CH	-1459
▁All	-1460
comp	-1461
perty	-1462
ref	-1463
▁sure	-1464
lack	-1465
▁bus	-1466
▁brought	-1467
oly	-1468
orted	-1469
▁heav	-1470
ians	-1471
▁.	-1472
▁Return	-1473
.__	-1474
vert	-1475
akes	-1476
▁By	-1477
▁Joh	-1478
▁quest	-1479
input	-1480
ration	-1481
▁year	-1482
rent	-1483
▁ign	-1484
sub	-1485
EL	-1486
ource	-1487
II	-1488
▁second	-1489
▁Pro	-1490
▁others	-1491
▁er	-1492
▁New	-1493
▁gave	-1494
15	-1495
ready	-1496
▁fre	-1497
▁Con	-1498
▁node	-1499
ION	-1500
▁thus	-1501
▁par	-1502
▁swe	-1503
▁law	-1504
ped	-1505
▁subject	-1506
▁gent	-1507
ream	-1508
▁ste	-1509
▁comple	-1510
ik	-1511
▁above	-1512
io	-1513
ruct	-1514
stand	-1515
▁prom	-1516
ached	-1517
▁&	-1518
▁different	-1519
False	-1520
line	-1521
▁Is	-1522
arent	-1523
▁desc	-1524
pped	-1525
▁Sir	-1526
▁passed	-1527
ey	-1528
ued	-1529
▁doub	-1530
ung	-1531
▁myself	-1532
▁emp	-1533
▁along	-1534
oke	-1535
▁Sp	-1536
▁orig	-1537
▁**	-1538
17	-1539
version	-1540
▁rather	-1541
ots	-1542
oney	-1543
▁Of	-1544
with	-1545
fully	-1546
▁opp	-1547
pper	-1548
▁themselves	-1549
ored	-1550
▁fin	-1551
▁See	-1552
▁key	-1553
eters	-1554
▁within	-1555
▁speak	-1556
▁necess	-1557
▁book	-1558
une	-1559
▁feet	-1560
ards	-1561
oll	-1562
18	-1563
▁till	-1564
▁together	-1565
[_	-1566
▁air	-1567
ify	-1568
back	-1569
▁known	-1570
OD	-1571
US	-1572
pected	-1573
▁hold	-1574
▁ill	-1575
undred	-1576
uck	-1577
info	-1578
▁Sc	-1579
lose	-1580
.]	-1581
torch	-1582
▁abs	-1583
▁allow	-1584
▁son	-1585
mp	-1586
▁OF	-1587
AM	-1588
ists	-1589
▁white	-1590
ee	-1591
ops	-1592
▁either	-1593
no	-1594
idx	-1595
▁English	-1596
▁already	-1597
05	-1598
▁Value	-1599
ING	-1600
IL	-1601
▁div	-1602
02	-1603
ics	-1604
rench	-1605
rand	-1606
ges	-1607
▁poor	-1608
ended	-1609
▁values	-1610
▁super	-1611
ah	-1612
▁times	-1613
▁tuple	-1614
▁means	-1615
03	-1616
quence	-1617
13	-1618
part	-1619
Ex	-1620
▁dear	-1621
▁ide	-1622
AS	-1623
graph	-1624
▁began	-1625
func	-1626
point	-1627
▁sol	-1628
▁sun	-1629
ributes	-1630
ism	-1631
▁hundred	-1632
max	-1633
▁morning	-1634
▁>	-1635
▁matter	-1636
▁wife	-1637
,--	-1638
▁1.	-1639
▁least	-1640
▁voice	-1641
14	-1642
▁fire	-1643
▁ele	-1644
▁output	-1645
▁direct	-1646
ius	-1647
ision	-1648
wise	-1649
▁appro	-1650
It	-1651
▁step	-1652
ounds	-1653
▁view	-1654
ott	-1655
▁often	-1656
▁spir	-1657
▁check	-1658
▁reason	-1659
▁turned	-1660
fort	-1661
.'	-1662
▁param	-1663
resent	-1664
list	-1665
▁mem	-1666
▁mer	-1667
▁15	-1668
▁dark	-1669
inc	-1670
▁pleas	-1671
▁during	-1672
iam	-1673
▁character	-1674
▁float	-1675
▁hear	-1676
uc	-1677
▁expl	-1678
▁circ	-1679
itions	-1680
▁sympy	-1681
▁body	-1682
kwargs	-1683
aint	-1684
▁incl	-1685
dict	-1686
▁effect	-1687
ero	-1688
▁thee	-1689
▁Now	-1690
▁king	-1691
▁sle	-1692
▁\	-1693
item	-1694
▁town	-1695
▁children	-1696
▁path	-1697
▁says	-1698
▁strong	-1699
▁wond	-1700
▁adm	-1701
▁Miss	-1702
########	-1703
▁sch	-1704
▁dev	-1705
▁ValueError	-1706
pec	-1707
▁tensor	-1708
▁ir	-1709
▁Br	-1710
▁short	-1711
wh	-1712
fig	-1713
opt	-1714
▁det	-1715
ias	-1716
2.	-1717
▁John	-1718
▁et	-1719
bu	-1720
rance	-1721
▁---	-1722
▁common	-1723
▁obser	-1724
▁tri	-1725
sp	-1726
▁One	-1727
▁King	-1728
::	-1729
plied	-1730
ience	-1731
▁sir	-1732
▁six	-1733
tensor	-1734
▁success	-1735
resh	-1736
yst	-1737
▁lead	-1738
▁vari	-1739
▁general	-1740
000	-1741
state	-1742
▁gentle	-1743
illed	-1744
enty	-1745
▁axis	-1746
▁fur	-1747
▁anything	-1748
▁mark	-1749
head	-1750
▁prob	-1751
veral	-1752
▁money	-1753
▁French	-1754
▁believe	-1755
▁Her	-1756
_]	-1757
laim	-1758
▁help	-1759
ache	-1760
▁ve	-1761
▁Mar	-1762
▁ut	-1763
▁public	-1764
▁itself	-1765
Tensor	-1766
▁!	-1767
tern	-1768
▁/	-1769
mat	-1770
▁felt	-1771
rank	-1772
ship	-1773
▁Z	-1774
wer	-1775
▁table	-1776
pose	-1777
▁Or	-1778
ustom	-1779
itted	-1780
▁Par	-1781
▁Ph	-1782
▁AN	-1783
uthor	-1784
▁boy	-1785
========	-1786
▁prof	-1787
▁Do	-1788
▁'\	-1789
----------------	-1790
07	-1791
ift	-1792
OL	-1793
float	-1794
amed	-1795
ension	-1796
▁stood	-1797
▁ty	-1798
▁soul	-1799
iful	-1800
▁whether	-1801
]:	-1802
▁conc	-1803
▁appear	-1804
ny	-1805
ior	-1806
`.	-1807
▁possible	-1808
▁doubt	-1809
▁therefore	-1810
▁method	-1811
▁England	-1812
▁Ed	-1813
ining	-1814
OU	-1815
▁Ad	-1816
arr	-1817
▁dead	-1818
▁bra	-1819
▁deep	-1820
▁returned	-1821
mod	-1822
AC	-1823
ane	-1824
▁thous	-1825
25	-1826
▁max	-1827
▁perhaps	-1828
ule	-1829
▁!=	-1830
▁eas	-1831
▁consider	-1832
▁question	-1833
▁blo	-1834
▁alone	-1835
▁size	-1836
new	-1837
▁hope	-1838
▁Col	-1839
ressed	-1840
right	-1841
▁sud	-1842
▁av	-1843
▁Le	-1844
▁index	-1845
▁Returns	-1846
▁leave	-1847
04	-1848
ember	-1849
1)	-1850
▁sudden	-1851
▁mis	-1852
▁ground	-1853
▁dest	-1854
.)	-1855
ek	-1856
▁meet	-1857
ality	-1858
inary	-1859
▁several	-1860
cing	-1861
▁sn	-1862
▁gone	-1863
aj	-1864
.--	-1865
He	-1866
▁0,	-1867
▁talk	-1868
▁partic	-1869
▁hist	-1870
OT	-1871
ush	-1872
sym	-1873
▁dro	-1874
ribute	-1875
empt	-1876
call	-1877
▁earth	-1878
cul	-1879
▁gre	-1880
bo	-1881
▁Ger	-1882
iving	-1883
off	-1884
rs	-1885
▁fort	-1886
ization	-1887
▁sort	-1888
ystem	-1889
ouble	-1890
erence	-1891
▁weight	-1892
vern	-1893
side	-1894
▁following	-1895
da	-1896
overed	-1897
ries	-1898
▁brother	-1899
iet	-1900
const	-1901
▁bring	-1902
▁pat	-1903
iment	-1904
No	-1905
▁ask	-1906
▁fair	-1907
▁represent	-1908
▁cut	-1909
▁mid	-1910
▁offic	-1911
ken	-1912
▁ten	-1913
▁Will	-1914
Att	-1915
aten	-1916
▁length	-1917
names	-1918
▁fig	-1919
▁stop	-1920
▁mus	-1921
▁contr	-1922
▁bar	-1923
▁pret	-1924
▁natur	-1925
check	-1926
tree	-1927
▁Nor	-1928
▁lib	-1929
▁nature	-1930
▁respect	-1931
▁stud	-1932
▁bed	-1933
▁why	-1934
output	-1935
gy	-1936
What	-1937
bed	-1938
▁assert	-1939
fect	-1940
9,	-1941
arget	-1942
▁women	-1943
▁Per	-1944
rel	-1945
▁cried	-1946
▁flow	-1947
▁city	-1948
ases	-1949
▁pap	-1950
▁indeed	-1951
ager	-1952
▁port	-1953
map	-1954
etimes	-1955
na	-1956
plic	-1957
▁around	-1958
▁behind	-1959
module	-1960
ables	-1961
trans	-1962
And	-1963
▁wish	-1964
▁Oh	-1965
result	-1966
way	-1967
▁sea	-1968
aughter	-1969
▁friends	-1970
ising	-1971
su	-1972
alth	-1973
▁black	-1974
▁file	-1975
▁held	-1976
▁enc	-1977
▁und	-1978
let	-1979
▁command	-1980
▁----	-1981
IG	-1982
▁low	-1983
▁break	-1984
▁account	-1985
▁seems	-1986
▁stra	-1987
▁clear	-1988
hy	-1989
▁fear	-1990
place	-1991
▁args	-1992
▁cal	-1993
▁herself	-1994
ency	-1995
ED	-1996
ivers	-1997
▁human	-1998
▁lost	-1999
▁build	-2000
cur	-2001
fl	-2002
▁become	-2003
▁[]	-2004
▁exist	-2005
alt	-2006
▁These	-2007
▁sit	-2008
▁replied	-2009
adata	-2010
ires	-2011
▁ver	-2012
▁understand	-2013
OM	-2014
▁begin	-2015
▁past	-2016
airs	-2017
from	-2018
▁free	-2019
▁field	-2020
▁letter	-2021
7,	-2022
▁range	-2023
▁lim	-2024
▁fav	-2025
ones	-2026
ught	-2027
that	-2028
▁mount	-2029
ively	-2030
▁writ	-2031
▁exper	-2032
▁author	-2033
body	-2034
oura	-2035
▁close	-2036
where	-2037
▁wood	-2038
thon	-2039
lass	-2040
lib	-2041
▁sold	-2042
▁var	-2043
▁position	-2044
."""	-2045
ording	-2046
▁print	-2047
well	-2048
▁bes	-2049
▁graph	-2050
rc	-2051
▁became	-2052
ested	-2053
▁possess	-2054
▁main	-2055
math	-2056
▁spirit	-2057
▁eng	-2058
code	-2059
uous	-2060
iously	-2061
band	-2062
olog	-2063
▁vol	-2064
45	-2065
▁five	-2066
medi	-2067
property	-2068
aves	-2069
ernel	-2070
▁Char	-2071
▁dem	-2072
▁2,	-2073
▁later	-2074
▁bit	-2075
▁cre	-2076
iling	-2077
ript	-2078
▁py	-2079
ying	-2080
▁ord	-2081
▁cast	-2082
exp	-2083
axis	-2084
▁diffic	-2085
Th	-2086
▁manner	-2087
▁bur	-2088
▁family	-2089
ination	-2090
▁Why	-2091
29	-2092
plit	-2093
▁move	-2094
▁truth	-2095
▁Let	-2096
▁business	-2097
asion	-2098
AD	-2099
orrow	-2100
3.	-2101
load	-2102
▁wait	-2103
atures	-2104
▁coming	-2105
race	-2106
▁pain	-2107
▁Any	-2108
09	-2109
▁wall	-2110
idence	-2111
▁mult	-2112
bit	-2113
▁gold	-2114
llust	-2115
▁tree	-2116
▁mag	-2117
date	-2118
word	-2119
▁thousand	-2120
▁har	-2121
▁making	-2122
▁hus	-2123
▁arri	-2124
▁ca	-2125
▁really	-2126
▁draw	-2127
method	-2128
Yes	-2129
But	-2130
▁foot	-2131
file	-2132
▁Cap	-2133
▁group	-2134
▁single	-2135
▁mere	-2136
bs	-2137
log	-2138
▁opt	-2139
ze	-2140
itive	-2141
▁govern	-2142
angu	-2143
▁early	-2144
ENT	-2145
yle	-2146
cious	-2147
76	-2148
kn	-2149
▁lady	-2150
▁force	-2151
ises	-2152
▁grow	-2153
06	-2154
Op	-2155
▁inform	-2156
▁forward	-2157
▁month	-2158
▁arm	-2159
cast	-2160
▁jax	-2161
iod	-2162
▁beautiful	-2163
▁able	-2164
▁names	-2165
▁jud	-2166
▁live	-2167
▁remark	-2168
▁German	-2169
▁bad	-2170
(_	-2171
dom	-2172
▁ignore	-2173
rid	-2174
function	-2175
._]	-2176
▁twenty	-2177
jo	-2178
ney	-2179
▁pay	-2180
▁kept	-2181
types	-2182
▁quick	-2183
ounded	-2184
otion	-2185
ixed	-2186
ron	-2187
cle	-2188
attle	-2189
ational	-2190
▁log	-2191
▁worth	-2192
ov	-2193
▁creat	-2194
▁Call	-2195
vol	-2196
▁American	-2197
▁After	-2198
though	-2199
▁From	-2200
aining	-2201
eff	-2202
irt	-2203
▁enem	-2204
▁wonder	-2205
Oh	-2206
▁road	-2207
▁non	-2208
itude	-2209
iar	-2210
▁looking	-2211
4.	-2212
▁ang	-2213
28	-2214
▁master	-2215
▁necessary	-2216
cient	-2217
▁perfect	-2218
tes	-2219
rem	-2220
▁stru	-2221
device	-2222
▁fine	-2223
CH	-2224
ster	-2225
▁regard	-2226
but	-2227
ume	-2228
▁stri	-2229
IR	-2230
▁Well	-2231
▁pie	-2232
▁Param	-2233
idth	-2234
▁school	-2235
2)	-2236
aving	-2237
itten	-2238
──	-2239
▁25	-2240
▁chang	-2241
iers	-2242
},	-2243
11	-2244
ST	-2245
lay	-2246
fn	-2247
eger	-2248
▁cause	-2249
ev	-2250
▁pract	-2251
umb	-2252
lu	-2253
▁cross	-2254
((	-2255
▁sight	-2256
FF	-2257
hs	-2258
▁comes	-2259
start	-2260
ission	-2261
rect	-2262
▁grad	-2263
08	-2264
▁perform	-2265
▁towards	-2266
▁followed	-2267
▁arms	-2268
▁process	-2269
▁Here	-2270
▁CHAP	-2271
Value	-2272
▁horse	-2273
▁ready	-2274
():	-2275
▁across	-2276
▁deg	-2277
pute	-2278
▁pict	-2279
▁treat	-2280
▁particular	-2281
▁perm	-2282
▁front	-2283
▁won	-2284
▁lord	-2285
▁sometimes	-2286
,'	-2287
▁accom	-2288
fer	-2289
▁pop	-2290
▁age	-2291
▁visit	-2292
son	-2293
``.	-2294
▁received	-2295
▁copy	-2296
por	-2297
▁learn	-2298
values	-2299
▁Ge	-2300
uments	-2301
lection	-2302
▁serv	-2303
▁blood	-2304
▁test	-2305
▁window	-2306
rame	-2307
ules	-2308
▁squ	-2309
▁answer	-2310
UL	-2311
▁mist	-2312
itting	-2313
▁hur	-2314
▁story	-2315
01	-2316
▁ran	-2317
▁priv	-2318
Illust	-2319
raw	-2320
75	-2321
uce	-2322
▁anim	-2323
jax	-2324
▁system	-2325
.’	-2326
▁pray	-2327
▁evening	-2328
▁Dr	-2329
hand	-2330
eneral	-2331
▁CHAPTER	-2332
▁dri	-2333
pond	-2334
▁support	-2335
▁+=	-2336
ondon	-2337
▁eye	-2338
▁Mad	-2339
Illustration	-2340
▁cold	-2341
▁prev	-2342
▁sweet	-2343
uture	-2344
▁forth	-2345
▁Qu	-2346
aught	-2347
af	-2348
▁deter	-2349
2]	-2350
_)	-2351
weight	-2352
▁dang	-2353
ighb	-2354
▁incre	-2355
antly	-2356
▁tou	-2357
▁using	-2358
▁Don	-2359
▁imag	-2360
▁France	-2361
cend	-2362
▁further	-2363
▁fif	-2364
▁optional	-2365
▁husband	-2366
▁ce	-2367
▁change	-2368
▁longer	-2369
46	-2370
ID	-2371
ically	-2372
ences	-2373
'),	-2374
▁esc	-2375
▁carry	-2376
Con	-2377
aces	-2378
▁color	-2379
order	-2380
▁satis	-2381
▁prec	-2382
ambda	-2383
▁vill	-2384
▁instead	-2385
▁----------	-2386
())	-2387
▁text	-2388
▁secret	-2389
▁carried	-2390
aste	-2391
ral	-2392
params	-2393
ledge	-2394
▁sett	-2395
inct	-2396
▁mine	-2397
road	-2398
▁slow	-2399
▁vi	-2400
usion	-2401
▁sleep	-2402
wered	-2403
▁occasion	-2404
loy	-2405
▁13	-2406
expr	-2407
valid	-2408
▁entire	-2409
group	-2410
[:	-2411
▁Brit	-2412
ormal	-2413
ping	-2414
dered	-2415
▁wild	-2416
▁sense	-2417
▁tend	-2418
▁forg	-2419
▁chief	-2420
▁soft	-2421
oman	-2422
format	-2423
▁module	-2424
spec	-2425
▁greater	-2426
▁peace	-2427
▁proper	-2428
grad	-2429
lab	-2430
▁send	-2431
▁relig	-2432
▁eight	-2433
text	-2434
ETTER	-2435
▁idea	-2436
▁ann	-2437
ening	-2438
▁added	-2439
://	-2440
▁Yes	-2441
UR	-2442
lected	-2443
▁code	-2444
▁attempt	-2445
block	-2446
▁2.	-2447
▁original	-2448
▁lad	-2449
gan	-2450
▁top	-2451
▁current	-2452
known	-2453
▁instance	-2454
▁ship	-2455
▁answered	-2456
apt	-2457
esh	-2458
gor	-2459
parse	-2460
▁accept	-2461
▁faith	-2462
▁sound	-2463
acke	-2464
▁May	-2465
////	-2466
▁London	-2467
▁acqu	-2468
ected	-2469
▁bound	-2470
▁pen	-2471
ipp	-2472
ital	-2473
▁watch	-2474
▁daughter	-2475
▁everything	-2476
ception	-2477
Array	-2478
▁Parameters	-2479
▁sus	-2480
▁fellow	-2481
ours	-2482
▁big	-2483
oid	-2484
▁post	-2485
▁lines	-2486
ony	-2487
▁glo	-2488
▁LETTER	-2489
▁church	-2490
▁quar	-2491
▁natural	-2492
33	-2493
▁late	-2494
▁example	-2495
▁device	-2496
umn	-2497
▁den	-2498
▁string	-2499
what	-2500
arding	-2501
uation	-2502
▁neg	-2503
▁fight	-2504
rite	-2505
▁fast	-2506
urg	-2507
▁dut	-2508
▁didn	-2509
▁mur	-2510
▁("	-2511
pace	-2512
▁dom	-2513
fra	-2514
▁AND	-2515
uct	-2516
▁period	-2517
We	-2518
▁nearly	-2519
▁Car	-2520
▁fil	-2521
bar	-2522
config	-2523
99	-2524
▁14	-2525
▁quiet	-2526
riage	-2527
yond	-2528
dle	-2529
▁0:	-2530
▁med	-2531
aged	-2532
ming	-2533
SE	-2534
uke	-2535
rad	-2536
▁('	-2537
oken	-2538
indices	-2539
▁appl	-2540
pri	-2541
operation	-2542
▁obtain	-2543
▁none	-2544
▁purpose	-2545
▁version	-2546
▁Man	-2547
▁according	-2548
~~	-2549
Well	-2550
doc	-2551
unk	-2552
▁results	-2553
ackend	-2554
yl	-2555
▁makes	-2556
night	-2557
▁taking	-2558
ivid	-2559
▁sac	-2560
▁sugg	-2561
▁hig	-2562
oes	-2563
▁wit	-2564
▁langu	-2565
▁matrix	-2566
0)	-2567
▁probably	-2568
bers	-2569
ham	-2570
ogn	-2571
▁prot	-2572
▁distance	-2573
▁aut	-2574
istic	-2575
▁Can	-2576
dir	-2577
room	-2578
▁happy	-2579
▁ought	-2580
▁history	-2581
acy	-2582
utes	-2583
esc	-2584
ariable	-2585
▁reached	-2586
▁IN	-2587
context	-2588
▁block	-2589
face	-2590
ha	-2591
urs	-2592
▁flo	-2593
▁remember	-2594
▁Eur	-2595
▁Some	-2596
ina	-2597
work	-2598
▁conv	-2599
cially	-2600
']	-2601
Function	-2602
apping	-2603
38	-2604
▁ii	-2605
▁strange	-2606
▁glad	-2607
▁immedi	-2608
▁danger	-2609
▁stay	-2610
▁extra	-2611
fact	-2612
▁save	-2613
OP	-2614
(*	-2615
nn	-2616
count	-2617
erv	-2618
▁suddenly	-2619
▁belong	-2620
▁}	-2621
asure	-2622
▁q	-2623
Im	-2624
.[	-2625
▁walk	-2626
time	-2627
▁):	-2628
▁id	-2629
▁below	-2630
ression	-2631
▁action	-2632
▁match	-2633
▁surpr	-2634
rt	-2635
▁dream	-2636
▁parts	-2637
▁miles	-2638
▁rock	-2639
▁expression	-2640
▁custom	-2641
ram	-2642
▁comb	-2643
▁written	-2644
▁former	-2645
tx	-2646
▁Co	-2647
▁emb	-2648
▁company	-2649
orge	-2650
dis	-2651
▁lower	-2652
▁source	-2653
▁base	-2654
▁hair	-2655
icient	-2656
▁El	-2657
▁da	-2658
▁Count	-2659
▁pick	-2660
▁river	-2661
▁neighb	-2662
LO	-2663
To	-2664
alked	-2665
▁Church	-2666
▁jo	-2667
▁fla	-2668
▁1)	-2669
▁delight	-2670
=-	-2671
▁living	-2672
▁appeared	-2673
mem	-2674
▁Ab	-2675
ills	-2676
▁influ	-2677
view	-2678
ruction	-2679
▁plain	-2680
oe	-2681
▁led	-2682
▁cry	-2683
▁Where	-2684
▁latter	-2685
▁rich	-2686
ival	-2687
ators	-2688
▁hours	-2689
▁describ	-2690
oups	-2691
▁plan	-2692
▁frequ	-2693
lex	-2694
▁York	-2695
ests	-2696
ales	-2697
utils	-2698
verse	-2699
▁conse	-2700
That	-2701
▁breat	-2702
▁yield	-2703
▁continued	-2704
▁beyond	-2705
Int	-2706
mented	-2707
▁write	-2708
▁*,	-2709
='	-2710
sk	-2711
Ch	-2712
▁employ	-2713
▁intr	-2714
rop	-2715
▁equal	-2716
ille	-2717
overn	-2718
dist	-2719
wo	-2720
▁scar	-2721
ciety	-2722
Ind	-2723
▁circum	-2724
alar	-2725
▁toward	-2726
po	-2727
(),	-2728
ulation	-2729
umber	-2730
▁separ	-2731
sum	-2732
▁expected	-2733
▁burn	-2734
35	-2735
▁Pl	-2736
ging	-2737
].	-2738
▁©	-2739
oved	-2740
light	-2741
▁Py	-2742
▁mention	-2743
▁proceed	-2744
hel	-2745
incip	-2746
mask	-2747
▁placed	-2748
semb	-2749
▁service	-2750
▁Bar	-2751
▁crow	-2752
hood	-2753
▁{}	-2754
▁transform	-2755
▁pretty	-2756
string	-2757
▁suppose	-2758
▁hot	-2759
note	-2760
▁memory	-2761
ned	-2762
▁repe	-2763
▁note	-2764
▁died	-2765
arning	-2766
▁3,	-2767
▁attention	-2768
UT	-2769
▁sens	-2770
]]	-2771
ynam	-2772
ools	-2773
▁yourself	-2774
▁’	-2775
▁polit	-2776
▁deal	-2777
▁10	-2778
▁party	-2779
▁Am	-2780
▁Phil	-2781
▁grand	-2782
Attr	-2783
inner	-2784
built	-2785
fix	-2786
▁lik	-2787
▁important	-2788
aval	-2789
▁mess	-2790
26	-2791
[1]	-2792
▁Cl	-2793
cond	-2794
▁points	-2795
ndarray	-2796
attributes	-2797
imate	-2798
▁expect	-2799
ilar	-2800
`,	-2801
icense	-2802
rest	-2803
▁opin	-2804
▁rid	-2805
▁streng	-2806
▁hop	-2807
irm	-2808
rack	-2809
▁condition	-2810
▁poet	-2811
▁Europe	-2812
▁bear	-2813
▁distribut	-2814
▁pal	-2815
▁mil	-2816
anced	-2817
▁doing	-2818
24	-2819
▁mad	-2820
▁exact	-2821
▁symbol	-2822
▁leg	-2823
velop	-2824
▁Paris	-2825
anc	-2826
▁larg	-2827
elled	-2828
▁]	-2829
var	-2830
▁laug	-2831
respond	-2832
▁stream	-2833
▁sla	-2834
ails	-2835
▁ago	-2836
▁prison	-2837
▁court	-2838
field	-2839
igned	-2840
▁rose	-2841
▁paper	-2842
▁spoke	-2843
rap	-2844
"),	-2845
▁stage	-2846
▁gen	-2847
▁enemy	-2848
tag	-2849
▁wrong	-2850
▁cou	-2851
▁Examples	-2852
cre	-2853
▁bird	-2854
ique	-2855
laimed	-2856
▁resol	-2857
▁attack	-2858
Optional	-2859
▁saying	-2860
▁1:	-2861
▁argument	-2862
ection	-2863
olly	-2864
ids	-2865
▁fun	-2866
print	-2867
▁certainly	-2868
pon	-2869
▁Who	-2870
dd	-2871
▁feeling	-2872
▁knowledge	-2873
▁joy	-2874
▁clos	-2875
osp	-2876
core	-2877
mode	-2878
▁laid	-2879
▁States	-2880
ium	-2881
▁init	-2882
ply	-2883
27	-2884
you	-2885
pu	-2886
▁Prince	-2887
ech	-2888
▁neither	-2889
▁princip	-2890
▁trust	-2891
▁mut	-2892
▁LP	-2893
▁Govern	-2894
enc	-2895
▁Im	-2896
▁ST	-2897
EC	-2898
**2	-2899
▁Rob	-2900
ertion	-2901
▁cost	-2902
fil	-2903
ords	-2904
▁trees	-2905
▁army	-2906
ALL	-2907
step	-2908
▁commun	-2909
▁obl	-2910
▁Lady	-2911
▁although	-2912
ites	-2913
aching	-2914
['	-2915
owed	-2916
▁weak	-2917
ump	-2918
▁doc	-2919
plex	-2920
ously	-2921
▁mass	-2922
▁depend	-2923
36	-2924
Sh	-2925
▁mode	-2926
▁liter	-2927
do	-2928
obj	-2929
▁goes	-2930
▁imm	-2931
▁Tensor	-2932
gar	-2933
▁desp	-2934
▁wat	-2935
▁beauty	-2936
roy	-2937
plot	-2938
eless	-2939
▁Comp	-2940
▁Pe	-2941
▁Captain	-2942
▁recogn	-2943
▁Gree	-2944
tered	-2945
ession	-2946
▁event	-2947
lyph	-2948
▁parent	-2949
joy	-2950
ription	-2951
pecially	-2952
▁gard	-2953
aled	-2954
ml	-2955
._)	-2956
vere	-2957
▁mouth	-2958
-1	-2959
▁exec	-2960
iqu	-2961
▁Ser	-2962
ean	-2963
▁determ	-2964
▁correspond	-2965
▁la	-2966
▁future	-2967
▁allowed	-2968
ograph	-2969
▁opened	-2970
▁William	-2971
▁wa	-2972
hold	-2973
sl	-2974
▁level	-2975
▁youth	-2976
src	-2977
gment	-2978
lem	-2979
▁Array	-2980
▁dep	-2981
▁boys	-2982
position	-2983
▁entered	-2984
▁raised	-2985
ox	-2986
nodes	-2987
``,	-2988
register	-2989
▁generally	-2990
ancy	-2991
▁error	-2992
gu	-2993
ivil	-2994
▁Que	-2995
▁Yet	-2996
▁compan	-2997
▁slight	-2998
irty	-2999
▁prep	-3000
▁$	-3001
▁broad	-3002
);	-3003
ding	-3004
pha	-3005
▁ben	-3006
▁difficult	-3007
▁lie	-3008
inite	-3009
▁Mary	-3010
ament	-3011
20	-3012
▁remain	-3013
arrow	-3014
prec	-3015
▁estab	-3016
▁wanted	-3017
ories	-3018
▁element	-3019
▁yes	-3020
eds	-3021
izes	-3022
▁deb	-3023
▁Che	-3024
8.	-3025
▁Ass	-3026
▁bott	-3027
teen	-3028
▁die	-3029
ores	-3030
df	-3031
cs	-3032
Un	-3033
cience	-3034
nter	-3035
sol	-3036
ici	-3037
▁bright	-3038
}"	-3039
▁arch	-3040
▁Christian	-3041
rupt	-3042
▁quant	-3043
Com	-3044
▁century	-3045
▁heaven	-3046
▁di	-3047
ingly	-3048
...	-3049
▁hath	-3050
▁required	-3051
▁pleasure	-3052
lin	-3053
▁organ	-3054
itle	-3055
gen	-3056
▁gentleman	-3057
▁edge	-3058
oo	-3059
▁--	-3060
▁news	-3061
▁language	-3062
aff	-3063
cher	-3064
def	-3065
ensions	-3066
▁MP	-3067
orts	-3068
▁special	-3069
▁continue	-3070
▁battle	-3071
RA	-3072
oted	-3073
icate	-3074
bal	-3075
7.	-3076
▁Ital	-3077
▁depart	-3078
aven	-3079
▁tried	-3080
▁circumst	-3081
▁nodes	-3082
▁George	-3083
▁America	-3084
AND	-3085
▁Ne	-3086
uded	-3087
▁Hen	-3088
comm	-3089
umns	-3090
ushed	-3091
iant	-3092
EM	-3093
▁ful	-3094
▁enjoy	-3095
ien	-3096
ividual	-3097
▁simple	-3098
▁attributes	-3099
kind	-3100
wor	-3101
now	-3102
▁scale	-3103
▁dat	-3104
cent	-3105
test	-3106
raint	-3107
▁meant	-3108
RI	-3109
▁various	-3110
▁government	-3111
RO	-3112
▁beginning	-3113
sq	-3114
▁inqu	-3115
aped	-3116
▁dress	-3117
▁island	-3118
▁music	-3119
hern	-3120
▁wis	-3121
▁conce	-3122
▁guard	-3123
▁built	-3124
▁scene	-3125
▁persons	-3126
copy	-3127
▁sister	-3128
▁oppos	-3129
▁Thus	-3130
▁third	-3131
zz	-3132
▁miss	-3133
▁shad	-3134
,’	-3135
atever	-3136
ossible	-3137
3]	-3138
▁General	-3139
ta	-3140
dat	-3141
non	-3142
▁htt	-3143
erate	-3144
▁crowd	-3145
▁context	-3146
alle	-3147
▁works	-3148
▁desire	-3149
erial	-3150
▁kwargs	-3151
UN	-3152
org	-3153
▁der	-3154
▁wid	-3155
transform	-3156
▁ancient	-3157
▁Gu	-3158
idered	-3159
▁viol	-3160
soci	-3161
br	-3162
offset	-3163
ouses	-3164
▁information	-3165
▁vict	-3166
[1	-3167
▁especially	-3168
imum	-3169
▁II	-3170
95	-3171
pi	-3172
▁knows	-3173
▁numer	-3174
zen	-3175
cket	-3176
▁minutes	-3177
▁drink	-3178
▁hast	-3179
▁enter	-3180
nal	-3181
ATION	-3182
builtins	-3183
esty	-3184
.;	-3185
rees	-3186
▁jour	-3187
################	-3188
▁fill	-3189
▁local	-3190
posed	-3191
▁hardly	-3192
▁mask	-3193
▁green	-3194
▁strength	-3195
uns	-3196
ald	-3197
rief	-3198
▁decla	-3199
▁load	-3200
othing	-3201
▁direction	-3202
85	-3203
▁occur	-3204
▁books	-3205
▁stran	-3206
▁noble	-3207
▁places	-3208
▁pow	-3209
eness	-3210
gress	-3211
▁cases	-3212
▁Was	-3213
pol	-3214
})	-3215
rible	-3216
▁chance	-3217
rary	-3218
ching	-3219
▁develop	-3220
eb	-3221
come	-3222
een	-3223
▁rank	-3224
▁Comm	-3225
▁prop	-3226
level	-3227
▁concl	-3228
▁demand	-3229
▁height	-3230
▁jnp	-3231
ux	-3232
oured	-3233
▁individual	-3234
▁gives	-3235
▁War	-3236
▁opinion	-3237
▁Russ	-3238
▁lived	-3239
▁-------	-3240
ATIN	-3241
width	-3242
itary	-3243
▁Frank	-3244
▁heavy	-3245
▁trouble	-3246
ourage	-3247
▁chap	-3248
ii	-3249
▁capt	-3250
itable	-3251
tic	-3252
ITH	-3253
reed	-3254
▁anx	-3255
If	-3256
▁rule	-3257
▁months	-3258
ford	-3259
▁figure	-3260
▁Inc	-3261
▁obj	-3262
isted	-3263
TH	-3264
▁letters	-3265
aul	-3266
▁week	-3267
▁remained	-3268
▁),	-3269
base	-3270
▁warm	-3271
65	-3272
write	-3273
▁stat	-3274
left	-3275
CK	-3276
——	-3277
▁happened	-3278
▁fit	-3279
▁rap	-3280
▁wrote	-3281
▁MR	-3282
▁whis	-3283
ibly	-3284
pack	-3285
▁valid	-3286
join	-3287
▁style	-3288
scale	-3289
▁cru	-3290
IV	-3291
▁Type	-3292
▁broken	-3293
emb	-3294
▁standing	-3295
▁comfort	-3296
▁State	-3297
meta	-3298
▁provided	-3299
▁glass	-3300
IM	-3301
▁blue	-3302
▁takes	-3303
▁duty	-3304
▁British	-3305
▁sal	-3306
▁prevent	-3307
axes	-3308
play	-3309
erve	-3310
▁tro	-3311
andom	-3312
ibility	-3313
Why	-3314
37	-3315
▁Thom	-3316
yal	-3317
▁host	-3318
▁famil	-3319
▁tot	-3320
isc	-3321
patch	-3322
tr	-3323
▁compl	-3324
dims	-3325
icks	-3326
▁hat	-3327
▁immediately	-3328
▁Gr	-3329
symbol	-3330
▁lips	-3331
orses	-3332
eal	-3333
▁appearance	-3334
cil	-3335
▁row	-3336
▁fresh	-3337
▁Cor	-3338
▁Har	-3339
▁iter	-3340
▁Nap	-3341
▁considered	-3342
aries	-3343
uses	-3344
9.	-3345
▁influence	-3346
▁suc	-3347
▁occup	-3348
▁origin	-3349
▁afterwards	-3350
▁coun	-3351
▁impro	-3352
▁similar	-3353
▁bas	-3354
▁target	-3355
▁3.	-3356
▁camp	-3357
▁degree	-3358
▁succeed	-3359
rors	-3360
▁ctx	-3361
▁introdu	-3362
▁sin	-3363
ingu	-3364
▁stone	-3365
ification	-3366
ability	-3367
▁pun	-3368
layout	-3369
hab	-3370
De	-3371
▁thick	-3372
ication	-3373
GE	-3374
▁du	-3375
▁filled	-3376
▁advant	-3377
▁ru	-3378
▁Great	-3379
▁please	-3380
▁easy	-3381
▁fool	-3382
athe	-3383
▁loss	-3384
▁north	-3385
ipy	-3386
▁furn	-3387
Index	-3388
plemented	-3389
34	-3390
▁blow	-3391
▁fing	-3392
▁Your	-3393
Al	-3394
arse	-3395
▁LATIN	-3396
erc	-3397
▁captain	-3398
▁West	-3399
enth	-3400
uffer	-3401
▁fle	-3402
itution	-3403
▁etc	-3404
▁indices	-3405
▁presence	-3406
▁content	-3407
table	-3408
under	-3409
66	-3410
anish	-3411
▁civil	-3412
_1	-3413
▁Em	-3414
items	-3415
▁becom	-3416
▁impossible	-3417
"{	-3418
tis	-3419
ette	-3420
zero	-3421
▁Mon	-3422
lying	-3423
split	-3424
▁property	-3425
samples	-3426
▁arguments	-3427
▁song	-3428
erved	-3429
▁liber	-3430
▁space	-3431
▁pack	-3432
▁spring	-3433
ndim	-3434
There	-3435
amma	-3436
fraid	-3437
ensors	-3438
attern	-3439
▁disco	-3440
▁absol	-3441
▁hang	-3442
My	-3443
▁fail	-3444
color	-3445
▁Ag	-3446
king	-3447
▁box	-3448
▁empty	-3449
reen	-3450
process	-3451
▁writing	-3452
▁virt	-3453
ashion	-3454
--"	-3455
pic	-3456
nan	-3457
▁bene	-3458
▁married	-3459
▁fat	-3460
▁Lou	-3461
▁gall	-3462
▁xp	-3463
▁Tom	-3464
▁La	-3465
▁private	-3466
▁elements	-3467
▁bless	-3468
▁species	-3469
cache	-3470
0000	-3471
eval	-3472
▁merely	-3473
ortun	-3474
▁hid	-3475
▁otherwise	-3476
▁Queen	-3477
▁due	-3478
▁born	-3479
▁afraid	-3480
▁loved	-3481
▁leaves	-3482
Cont	-3483
▁fra	-3484
▁oblig	-3485
▁assum	-3486
=-=-	-3487
▁piece	-3488
▁straight	-3489
▁smile	-3490
iced	-3491
▁prin	-3492
▁iss	-3493
▁silence	-3494
oding	-3495
▁fixed	-3496
▁moved	-3497
mas	-3498
uction	-3499
▁office	-3500
▁colle	-3501
▁closed	-3502
tuple	-3503
▁grace	-3504
▁Duke	-3505
▁Jack	-3506
eks	-3507
▁Rich	-3508
▁summer	-3509
▁upper	-3510
▁easily	-3511
can	-3512
oon	-3513
▁convers	-3514
ANT	-3515
▁pra	-3516
IA	-3517
▁giving	-3518
itch	-3519
▁memb	-3520
▁mill	-3521
().	-3522
▁Pres	-3523
▁Also	-3524
▁SM	-3525
length	-3526
▁changed	-3527
▁food	-3528
itation	-3529
▁greatest	-3530
▁mot	-3531
▁seeing	-3532
▁wide	-3533
pop	-3534
▁prim	-3535
▁getting	-3536
CE	-3537
ajor	-3538
▁ast	-3539
ellow	-3540
▁Args	-3541
▁named	-3542
atrix	-3543
▁thoughts	-3544
source	-3545
mark	-3546
iction	-3547
▁arrived	-3548
eros	-3549
▁North	-3550
cls	-3551
▁modern	-3552
▁Fl	-3553
▁Sch	-3554
▁village	-3555
▁god	-3556
▁steps	-3557
▁outside	-3558
_).	-3559
▁paid	-3560
irect	-3561
oked	-3562
▁horses	-3563
▁struct	-3564
▁Ah	-3565
▁kiss	-3566
22	-3567
emp	-3568
▁south	-3569
tra	-3570
▁conduct	-3571
egr	-3572
just	-3573
▁arr	-3574
96	-3575
▁slowly	-3576
▁bran	-3577
untime	-3578
▁cult	-3579
▁forget	-3580
▁rapid	-3581
88	-3582
▁Our	-3583
▁House	-3584
▁returns	-3585
▁conn	-3586
▁│	-3587
cely	-3588
▁0),	-3589
ethods	-3590
▁quickly	-3591
▁Bo	-3592
▁dog	-3593
▁fac	-3594
▁somewhat	-3595
▁phys	-3596
▁Peter	-3597
▁forms	-3598
Py	-3599
▁plant	-3600
othes	-3601
acher	-3602
bl	-3603
lend	-3604
▁safe	-3605
▁descend	-3606
▁drew	-3607
▁pure	-3608
▁Every	-3609
poly	-3610
ulty	-3611
▁config	-3612
▁entirely	-3613
▁os	-3614
▁expr	-3615
▁Dav	-3616
error	-3617
▁objects	-3618
▁South	-3619
▁Good	-3620
▁struck	-3621
▁complete	-3622
oking	-3623
ishing	-3624
ement	-3625
ners	-3626
She	-3627
▁Ant	-3628
update	-3629
▁forgot	-3630
▁middle	-3631
▁formed	-3632
▁race	-3633
▁foreign	-3634
▁cat	-3635
rec	-3636
▁society	-3637
hip	-3638
Like	-3639
idge	-3640
▁Val	-3641
▁4,	-3642
fast	-3643
▁excl	-3644
0]	-3645
▁cloud	-3646
mber	-3647
nces	-3648
▁magn	-3649
======	-3650
▁<=	-3651
▁pred	-3652
▁implement	-3653
[-	-3654
itor	-3655
▁bank	-3656
▁terms	-3657
▁press	-3658
uced	-3659
elling	-3660
▁24	-3661
▁hero	-3662
▁drawn	-3663
▁produced	-3664
▁supported	-3665
CT	-3666
ems	-3667
▁Fran	-3668
▁covered	-3669
00\	-3670
▁thinking	-3671
▁hy	-3672
inputs	-3673
▁street	-3674
▁Come	-3675
▁ones	-3676
▁20	-3677
iest	-3678
▁types	-3679
▁chair	-3680
▁flat	-3681
stract	-3682
▁dread	-3683
▁https	-3684
▁events	-3685
▁sad	-3686
gorith	-3687
▁crit	-3688
▁tears	-3689
▁observed	-3690
▁appears	-3691
▁Roman	-3692
▁earl	-3693
target	-3694
▁honour	-3695
metadata	-3696
Se	-3697
OS	-3698
ync	-3699
arp	-3700
▁amount	-3701
▁associ	-3702
▁garden	-3703
aken	-3704
▁lives	-3705
▁cand	-3706
keys	-3707
▁Cal	-3708
▁exclaimed	-3709
▁dram	-3710
rapper	-3711
▁correct	-3712
▁satisf	-3713
operands	-3714
▁fro	-3715
▁Rome	-3716
▁control	-3717
▁search	-3718
▁Henry	-3719
▁girls	-3720
atives	-3721
▁fru	-3722
▁picture	-3723
▁running	-3724
vation	-3725
osop	-3726
▁boat	-3727
▁usual	-3728
ye	-3729
lim	-3730
▁Sw	-3731
▁Sm	-3732
▁hol	-3733
▁false	-3734
,)	-3735
▁excell	-3736
▁members	-3737
NE	-3738
▁ball	-3739
▁seven	-3740
▁Rep	-3741
▁"_	-3742
▁Charles	-3743
▁simply	-3744
label	-3745
▁looks	-3746
▁Their	-3747
▁whatever	-3748
▁inn	-3749
▁cover	-3750
arser	-3751
stack	-3752
▁vess	-3753
wd	-3754
Pro	-3755
orough	-3756
ootnote	-3757
▁numpy	-3758
▁Such	-3759
▁material	-3760
How	-3761
ho	-3762
Res	-3763
▁cho	-3764
cut	-3765
house	-3766
LA	-3767
pan	-3768
▁Note	-3769
▁While	-3770
▁,	-3771
▁design	-3772
▁License	-3773
▁Cour	-3774
▁model	-3775
▁DE	-3776
▁utter	-3777
mit	-3778
▁Aug	-3779
▁gaz	-3780
▁comput	-3781
98	-3782
▁avoid	-3783
rate	-3784
▁exam	-3785
▁stopped	-3786
97	-3787
▁Just	-3788
▁CAP	-3789
irth	-3790
▁enum	-3791
▁evil	-3792
Set	-3793
▁started	-3794
▁lambda	-3795
enn	-3796
▁Const	-3797
vely	-3798
▁inputs	-3799
▁United	-3800
equ	-3801
9]	-3802
ifted	-3803
ARD	-3804
numpy	-3805
▁specified	-3806
onel	-3807
▁trade	-3808
▁waiting	-3809
▁spot	-3810
▁addition	-3811
▁func	-3812
▁caught	-3813
ipe	-3814
empl	-3815
▁ident	-3816
gram	-3817
only	-3818
▁Tr	-3819
rows	-3820
fre	-3821
▁charge	-3822
▁unto	-3823
▁finally	-3824
▁frame	-3825
▁winter	-3826
dot	-3827
arily	-3828
options	-3829
44	-3830
▁regular	-3831
▁Thomas	-3832
▁unless	-3833
▁offset	-3834
▁soldiers	-3835
▁experience	-3836
Not	-3837
▁speech	-3838
box	-3839
▁learned	-3840
▁Su	-3841
hest	-3842
▁TO	-3843
▁eager	-3844
▁hun	-3845
▁term	-3846
ending	-3847
▁Father	-3848
▁study	-3849
▁pot	-3850
norm	-3851
ERS	-3852
▁floor	-3853
Module	-3854
▁building	-3855
ander	-3856
ename	-3857
▁maid	-3858
▁kernel	-3859
▁sick	-3860
▁shout	-3861
▁mach	-3862
▁thirty	-3863
▁estim	-3864
AME	-3865
ishop	-3866
▁supposed	-3867
arl	-3868
▁phil	-3869
pass	-3870
omial	-3871
)]	-3872
▁warn	-3873
▁trib	-3874
go	-3875
▁escape	-3876
▁strugg	-3877
▁Key	-3878
ipped	-3879
▁walls	-3880
▁passion	-3881
Frame	-3882
ublic	-3883
▁higher	-3884
▁cit	-3885
▁iron	-3886
▁walked	-3887
rence	-3888
kernel	-3889
▁reach	-3890
▁beside	-3891
Implemented	-3892
▁parameter	-3893
(-	-3894
rier	-3895
▁destroy	-3896
▁Old	-3897
▁record	-3898
ointed	-3899
arm	-3900
appe	-3901
▁tru	-3902
gments	-3903
▁artic	-3904
▁pecul	-3905
▁subst	-3906
osing	-3907
▁circumstances	-3908
oleon	-3909
▁admir	-3910
▁cra	-3911
UM	-3912
vals	-3913
▁shown	-3914
▁Even	-3915
ctx	-3916
,—	-3917
▁sitting	-3918
▁passing	-3919
▁board	-3920
▁leaving	-3921
Any	-3922
▁ring	-3923
"],	-3924
▁educ	-3925
cons	-3926
▁laugh	-3927
▁conditions	-3928
DE	-3929
mm	-3930
▁illust	-3931
▁Mor	-3932
▁firm	-3933
▁killed	-3934
▁stock	-3935
▁peculiar	-3936
▁snow	-3937
▁Min	-3938
bose	-3939
This	-3940
abled	-3941
▁crown	-3942
PE	-3943
icy	-3944
gn	-3945
▁revol	-3946
▁directly	-3947
▁proport	-3948
▁26	-3949
▁fifty	-3950
▁opportun	-3951
▁inhab	-3952
........	-3953
▁breath	-3954
features	-3955
noon	-3956
▁trad	-3957
▁notice	-3958
bool	-3959
\\	-3960
xy	-3961
▁env	-3962
▁train	-3963
▁apparent	-3964
hib	-3965
▁showed	-3966
▁=======	-3967
elve	-3968
▁wel	-3969
▁flowers	-3970
mult	-3971
▁San	-3972
▁health	-3973
ential	-3974
▁shore	-3975
▁aud	-3976
▁determined	-3977
Return	-3978
▁needed	-3979
Sc	-3980
▁features	-3981
orage	-3982
sign	-3983
▁likely	-3984
▁laughed	-3985
▁forest	-3986
▁tender	-3987
lines	-3988
▁sufficient	-3989
▁wine	-3990
▁series	-3991
▁difference	-3992
▁11	-3993
▁logg	-3994
▁neare	-3995
how	-3996
▁XX	-3997
▁28	-3998
apes	-3999
▁interesting	-4000
▁li	-4001
▁tag	-4002
▁fortune	-4003
▁Ju	-4004
▁Indian	-4005
▁],	-4006
▁speaking	-4007
eta	-4008
▁Robert	-4009
▁Napoleon	-4010
▁marriage	-4011
izer	-4012
▁hung	-4013
▁kill	-4014
▁sail	-4015
▁shut	-4016
▁details	-4017
▁32,	-4018
▁functions	-4019
▁WITH	-4020
55	-4021
▁32	-4022
▁pros	-4023
▁tone	-4024
mul	-4025
Node	-4026
AB	-4027
adding	-4028
▁distinct	-4029
▁random	-4030
▁underst	-4031
▁discuss	-4032
peror	-4033
▁rise	-4034
uge	-4035
real	-4036
ground	-4037
ilities	-4038
▁numbers	-4039
▁fashion	-4040
▁create	-4041
▁chann	-4042
vari	-4043
▁throw	-4044
▁ban	-4045
▁houses	-4046
▁dinner	-4047
▁concern	-4048
▁root	-4049
▁bottom	-4050
ordin	-4051
▁ordered	-4052
▁wise	-4053
▁Default	-4054
▁reve	-4055
▁CON	-4056
▁passage	-4057
▁reading	-4058
▁surr	-4059
KE	-4060
▁NotImplemented	-4061
element	-4062
▁receive	-4063
ims	-4064
▁SMALL	-4065
▁square	-4066
▁poly	-4067
▁vain	-4068
▁mel	-4069
▁favour	-4070
ellig	-4071
morrow	-4072
▁sche	-4073
▁officers	-4074
▁discovered	-4075
00,	-4076
cho	-4077
▁neck	-4078
▁advantage	-4079
isters	-4080
IFF	-4081
▁hall	-4082
78	-4083
hens	-4084
▁orders	-4085
▁title	-4086
▁distingu	-4087
amber	-4088
They	-4089
▁mas	-4090
▁grew	-4091
host	-4092
▁trace	-4093
Variable	-4094
▁spread	-4095
frame	-4096
▁eat	-4097
▁Whe	-4098
▁mountain	-4099
▁bow	-4100
94	-4101
reet	-4102
▁Company	-4103
(0,	-4104
▁tim	-4105
▁hill	-4106
clock	-4107
▁honor	-4108
bb	-4109
ww	-4110
▁avail	-4111
▁claim	-4112
▁TH	-4113
▁silent	-4114
▁bread	-4115
▁normal	-4116
gers	-4117
▁rend	-4118
▁religious	-4119
▁speed	-4120
▁address	-4121
IP	-4122
HT	-4123
complex	-4124
▁instant	-4125
ded	-4126
fit	-4127
fun	-4128
▁James	-4129
▁trying	-4130
▁removed	-4131
▁MAR	-4132
▁repeated	-4133
IST	-4134
▁troops	-4135
▁motion	-4136
was	-4137
▁fright	-4138
_{	-4139
▁ess	-4140
▁tong	-4141
▁corner	-4142
▁ndarray	-4143
▁Int	-4144
▁progress	-4145
▁saf	-4146
asc	-4147
▁Cont	-4148
▁Only	-4149
▁classes	-4150
▁>=	-4151
▁narrow	-4152
▁constant	-4153
Do	-4154
▁pair	-4155
▁dimension	-4156
▁isn	-4157
▁surface	-4158
iding	-4159
rie	-4160
▁sky	-4161
eed	-4162
edge	-4163
▁mort	-4164
▁broke	-4165
▁meaning	-4166
▁terrible	-4167
fx	-4168
iform	-4169
▁heads	-4170
▁(1,	-4171
▁ens	-4172
▁appre	-4173
burg	-4174
▁afternoon	-4175
▁sor	-4176
"):	-4177
ees	-4178
hlo	-4179
pir	-4180
random	-4181
umph	-4182
▁minute	-4183
▁containing	-4184
▁zero	-4185
▁beneath	-4186
▁gro	-4187
▁touch	-4188
74	-4189
▁star	-4190
)}	-4191
rat	-4192
▁format	-4193
▁moon	-4194
▁August	-4195
ae	-4196
▁imper	-4197
▁Bl	-4198
▁message	-4199
▁clean	-4200
▁complex	-4201
▁report	-4202
▁offered	-4203
andas	-4204
pret	-4205
▁movement	-4206
ensive	-4207
▁doesn	-4208
▁guess	-4209
▁storm	-4210
List	-4211
▁grave	-4212
▁perfectly	-4213
▁initial	-4214
▁considerable	-4215
oses	-4216
▁III	-4217
▁conver	-4218
lt	-4219
▁Thou	-4220
▁journey	-4221
OW	-4222
.")	-4223
▁Which	-4224
={	-4225
▁lies	-4226
▁wouldn	-4227
▁scarcely	-4228
▁favor	-4229
▁grant	-4230
Is	-4231
rol	-4232
jit	-4233
added	-4234
▁temper	-4235
▁cop	-4236
▁dry	-4237
using	-4238
▁usually	-4239
)),	-4240
Base	-4241
▁conversation	-4242
▁column	-4243
▁include	-4244
dy	-4245
▁info	-4246
▁cab	-4247
▁First	-4248
nest	-4249
▁columns	-4250
▁suggest	-4251
iny	-4252
retched	-4253
▁difficulty	-4254
▁sides	-4255
▁capital	-4256
▁ip	-4257
▁shot	-4258
▁mentioned	-4259
AA	-4260
▁Him	-4261
mut	-4262
▁Tur	-4263
object	-4264
groups	-4265
Data	-4266
▁pet	-4267
▁label	-4268
▁final	-4269
inity	-4270
▁font	-4271
▁rare	-4272
▁exactly	-4273
▁buff	-4274
▁measure	-4275
▁sake	-4276
▁wealth	-4277
ios	-4278
results	-4279
UD	-4280
▁doctor	-4281
▁officer	-4282
▁apart	-4283
▁native	-4284
▁personal	-4285
▁Go	-4286
▁west	-4287
▁Two	-4288
bre	-4289
▁ur	-4290
erson	-4291
▁share	-4292
▁description	-4293
batch	-4294
▁social	-4295
verage	-4296
▁Louis	-4297
▁indic	-4298
▁silver	-4299
ancing	-4300
▁prepared	-4301
▁assist	-4302
▁decided	-4303
▁coast	-4304
▁sword	-4305
atten	-4306
ODS	-4307
▁16,	-4308
▁plot	-4309
6.	-4310
▁David	-4311
▁turning	-4312
▁decl	-4313
▁declared	-4314
asing	-4315
agon	-4316
ology	-4317
////////	-4318
make	-4319
_2	-4320
▁dam	-4321
icked	-4322
aling	-4323
mesh	-4324
▁ant	-4325
has	-4326
orig	-4327
▁PR	-4328
▁royal	-4329
▁political	-4330
:--	-4331
uda	-4332
▁splend	-4333
▁produce	-4334
▁Hol	-4335
iance	-4336
▁conqu	-4337
▁operation	-4338
▁proble	-4339
▁Act	-4340
▁ignor	-4341
▁contains	-4342
▁philosop	-4343
ITAL	-4344
▁exception	-4345
aded	-4346
matrix	-4347
▁blind	-4348
▁threat	-4349
▁methods	-4350
▁MRS	-4351
▁prove	-4352
see	-4353
▁marry	-4354
▁ourselves	-4355
▁Po	-4356
vars	-4357
▁maintain	-4358
▁bold	-4359
▁situation	-4360
miss	-4361
▁relation	-4362
▁existence	-4363
▁store	-4364
elle	-4365
oms	-4366
▁suppl	-4367
Trans	-4368
ental	-4369
▁working	-4370
▁offer	-4371
▁leading	-4372
ially	-4373
▁vast	-4374
────	-4375
▁lot	-4376
etime	-4377
▁authority	-4378
after	-4379
▁proud	-4380
▁Cr	-4381
atory	-4382
ajesty	-4383
▁wished	-4384
iber	-4385
▁sorrow	-4386
quant	-4387
▁integer	-4388
▁CallFunction	-4389
▁Sym	-4390
eq	-4391
▁doct	-4392
)))	-4393
▁bod	-4394
lease	-4395
ufact	-4396
▁More	-4397
▁price	-4398
ocation	-4399
▁meeting	-4400
▁eval	-4401
TY	-4402
▁Me	-4403
ishment	-4404
RAN	-4405
▁pleasant	-4406
abs	-4407
▁cred	-4408
Or	-4409
ESS	-4410
static	-4411
▁contain	-4412
)):	-4413
impl	-4414
irg	-4415
'.	-4416
▁JO	-4417
ertionError	-4418
allel	-4419
▁feature	-4420
▁described	-4421
▁SC	-4422
root	-4423
antic	-4424
ells	-4425
uted	-4426
uten	-4427
▁pul	-4428
▁seat	-4429
▁vent	-4430
▁Callable	-4431
▁CAPITAL	-4432
eline	-4433
▁freed	-4434
▁prefer	-4435
ILL	-4436
bert	-4437
▁calcul	-4438
▁popular	-4439
▁ways	-4440
▁stir	-4441
▁importance	-4442
neg	-4443
▁independ	-4444
ilder	-4445
▁Greek	-4446
▁AssertionError	-4447
({	-4448
30	-4449
▁spite	-4450
▁Aust	-4451
▁date	-4452
vey	-4453
▁rate	-4454
▁accompl	-4455
▁understood	-4456
▁justice	-4457
unch	-4458
▁Reg	-4459
▁cls	-4460
▁========	-4461
▁witness	-4462
▁talking	-4463
▁needs	-4464
▁nation	-4465
'\	-4466
▁Data	-4467
▁rain	-4468
▁idx	-4469
▁sacr	-4470
▁bitter	-4471
================	-4472
ailed	-4473
▁Ro	-4474
▁ordinary	-4475
vention	-4476
▁Wor	-4477
▁optim	-4478
omin	-4479
ributed	-4480
local	-4481
▁ladies	-4482
▁characters	-4483
▁honest	-4484
▁operands	-4485
van	-4486
ois	-4487
▁reply	-4488
▁thank	-4489
▁fier	-4490
▁thin	-4491
▁attend	-4492
post	-4493
Enter	-4494
▁pieces	-4495
▁rememb	-4496
▁doll	-4497
▁ears	-4498
▁serious	-4499
▁rob	-4500
replace	-4501
▁128,	-4502
▁AL	-4503
▁agree	-4504
ingle	-4505
▁servant	-4506
▁religion	-4507
▁wonderful	-4508
cer	-4509
▁extrem	-4510
expected	-4511
ardon	-4512
▁"'	-4513
backend	-4514
sharding	-4515
▁obtained	-4516
trace	-4517
III	-4518
▁188	-4519
▁sample	-4520
shard	-4521
▁compar	-4522
leg	-4523
aked	-4524
▁rad	-4525
▁season	-4526
▁transl	-4527
▁inj	-4528
▁stands	-4529
▁pictures	-4530
anes	-4531
▁["	-4532
▁twelve	-4533
)(	-4534
77	-4535
▁double	-4536
idently	-4537
fortun	-4538
▁drawing	-4539
▁Sequence	-4540
ett	-4541
▁Indians	-4542
▁bul	-4543
Graph	-4544
▁fully	-4545
she	-4546
▁Government	-4547
EG	-4548
!--	-4549
rated	-4550
▁user	-4551
▁inhabit	-4552
▁refer	-4553
▁Ir	-4554
▁sand	-4555
▁forty	-4556
▁64,	-4557
▁opposite	-4558
▁Court	-4559
▁image	-4560
▁ris	-4561
▁heat	-4562
▁lock	-4563
▁spect	-4564
amm	-4565
nes	-4566
ares	-4567
▁ende	-4568
▁attribute	-4569
aches	-4570
▁spent	-4571
▁distant	-4572
▁Pen	-4573
▁handle	-4574
▁worse	-4575
▁remains	-4576
▁sav	-4577
▁evidence	-4578
learn	-4579
▁breast	-4580
▁stack	-4581
▁Madame	-4582
▁happiness	-4583
▁taste	-4584
▁powers	-4585
▁distribution	-4586
asons	-4587
▁trav	-4588
iments	-4589
Footnote	-4590
▁believed	-4591
mean	-4592
▁saved	-4593
,[	-4594
▁axes	-4595
gorithm	-4596
sg	-4597
▁game	-4598
parent	-4599
which	-4600
▁Jan	-4601
▁Trans	-4602
▁quarter	-4603
▁actually	-4604
▁surprise	-4605
▁gentlemen	-4606
ODO	-4607
▁promise	-4608
▁gods	-4609
▁habit	-4610
rapped	-4611
▁arrange	-4612
Then	-4613
▁matters	-4614
▁writer	-4615
style	-4616
▁courage	-4617
lower	-4618
▁limit	-4619
erences	-4620
▁univers	-4621
.—	-4622
rict	-4623
orious	-4624
compile	-4625
▁raw	-4626
uding	-4627
▁opportunity	-4628
VE	-4629
sqrt	-4630
rant	-4631
▁hom	-4632
3)	-4633
▁follows	-4634
▁elect	-4635
▁agreed	-4636
▁desired	-4637
▁couldn	-4638
▁proportion	-4639
essor	-4640
~~~~	-4641
ounced	-4642
▁calls	-4643
▁subjects	-4644
▁['	-4645
▁complet	-4646
Pr	-4647
▁Had	-4648
roadcast	-4649
▁win	-4650
pered	-4651
▁total	-4652
▁fields	-4653
▁parameters	-4654
▁Te	-4655
▁ow	-4656
ani	-4657
izing	-4658
48	-4659
fla	-4660
Attribute	-4661
pers	-4662
▁intended	-4663
▁lose	-4664
▁larger	-4665
".	-4666
▁dare	-4667
INE	-4668
▁inside	-4669
▁animals	-4670
▁pale	-4671
(1,	-4672
▁theat	-4673
▁useful	-4674
▁variable	-4675
create	-4676
onents	-4677
(1	-4678
ources	-4679
▁animal	-4680
5.	-4681
?'	-4682
▁calm	-4683
▁published	-4684
sparse	-4685
ynamic	-4686
urb	-4687
cles	-4688
▁Mo	-4689
diff	-4690
▁TypeError	-4691
sm	-4692
ai	-4693
gypt	-4694
lambda	-4695
▁March	-4696
▁thread	-4697
39	-4698
▁Cong	-4699
Tis	-4700
▁dig	-4701
spe	-4702
▁0)	-4703
▁Name	-4704
▁exerc	-4705
▁caused	-4706
pred	-4707
wind	-4708
▁proved	-4709
AY	-4710
▁Ber	-4711
▁applied	-4712
▁sharp	-4713
▁amb	-4714
▁TODO	-4715
▁presented	-4716
▁BO	-4717
attered	-4718
▁Ol	-4719
▁rail	-4720
().__	-4721
Inf	-4722
ulated	-4723
▁birds	-4724
▁lying	-4725
▁intellig	-4726
▁reference	-4727
▁fault	-4728
▁famous	-4729
▁besides	-4730
▁curious	-4731
rep	-4732
=1	-4733
nx	-4734
lished	-4735
▁collect	-4736
▁loud	-4737
edy	-4738
▁depth	-4739
worth	-4740
▁familiar	-4741
AX	-4742
▁27	-4743
▁drop	-4744
▁Spanish	-4745
▁Fred	-4746
vo	-4747
▁judge	-4748
▁finished	-4749
classes	-4750
▁serve	-4751
▁failed	-4752
buffer	-4753
=[	-4754
law	-4755
▁mp	-4756
▁display	-4757
aker	-4758
▁Are	-4759
▁indust	-4760
▁worthy	-4761
match	-4762
etch	-4763
erable	-4764
▁seek	-4765
msg	-4766
lict	-4767
▁fate	-4768
▁advance	-4769
▁pleased	-4770
IGHT	-4771
▁disappe	-4772
iple	-4773
run	-4774
acity	-4775
▁possession	-4776
▁fem	-4777
▁pa	-4778
udes	-4779
▁fruit	-4780
▁calling	-4781
▁Ref	-4782
▁cler	-4783
▁cruel	-4784
=_	-4785
bug	-4786
enes	-4787
▁desert	-4788
▁High	-4789
▁laws	-4790
▁Richard	-4791
▁facts	-4792
▁darkness	-4793
▁require	-4794
Re	-4795
xp	-4796
▁Som	-4797
All	-4798
full	-4799
repr	-4800
▁travel	-4801
▁om	-4802
▁gate	-4803
▁excellent	-4804
▁Port	-4805
Now	-4806
▁30	-4807
▁strict	-4808
▁suffer	-4809
▁ho	-4810
ented	-4811
▁Paul	-4812
▁sorry	-4813
▁cow	-4814
▁thorough	-4815
▁-1	-4816
▁clothes	-4817
68	-4818
▁Bel	-4819
flat	-4820
▁decor	-4821
▁streets	-4822
▁benef	-4823
NAME	-4824
berg	-4825
iot	-4826
▁@_	-4827
bits	-4828
ifice	-4829
▁seed	-4830
▁sympath	-4831
chen	-4832
▁forced	-4833
div	-4834
▁cheer	-4835
▁portion	-4836
ecause	-4837
wood	-4838
▁Egypt	-4839
▁perce	-4840
▁Other	-4841
▁split	-4842
▁employed	-4843
aclass	-4844
factor	-4845
current	-4846
▁Prof	-4847
▁math	-4848
vis	-4849
}")	-4850
▁spoken	-4851
bytes	-4852
▁dimensions	-4853
▁tall	-4854
03\	-4855
▁aid	-4856
▁noise	-4857
▁van	-4858
ivity	-4859
▁Number	-4860
▁fallen	-4861
7]	-4862
▁Have	-4863
IE	-4864
▁App	-4865
freq	-4866
lers	-4867
quis	-4868
IONS	-4869
▁pity	-4870
▁Notes	-4871
▁prepar	-4872
▁actual	-4873
etwork	-4874
▁Oct	-4875
arsh	-4876
ulate	-4877
istent	-4878
▁engaged	-4879
▁previous	-4880
▁carefully	-4881
▁Pal	-4882
ignment	-4883
return	-4884
Name	-4885
▁gun	-4886
▁ep	-4887
ica	-4888
▁band	-4889
▁coeff	-4890
▁thrown	-4891
▁sequence	-4892
▁burst	-4893
▁roof	-4894
▁wear	-4895
▁citiz	-4896
▁liberty	-4897
▁played	-4898
▁station	-4899
▁task	-4900
quently	-4901
Ad	-4902
▁Att	-4903
▁moral	-4904
▁enumerate	-4905
▁bare	-4906
▁dece	-4907
▁However	-4908
▁Lat	-4909
▁4.	-4910
▁entertain	-4911
▁catch	-4912
▁grass	-4913
▁track	-4914
As	-4915
▁fancy	-4916
▁manufact	-4917
oring	-4918
▁troub	-4919
▁defined	-4920
▁mountains	-4921
uctor	-4922
▁Inst	-4923
▁Af	-4924
▁En	-4925
iler	-4926
▁Pol	-4927
▁bab	-4928
atform	-4929
▁becomes	-4930
▁created	-4931
▁22	-4932
▁0.5	-4933
▁triumph	-4934
▁standard	-4935
▁diction	-4936
▁Series	-4937
▁product	-4938
▁frequently	-4939
illy	-4940
▁June	-4941
BS	-4942
yr	-4943
▁unknown	-4944
astic	-4945
▁proc	-4946
ashed	-4947
ky	-4948
ifier	-4949
▁Never	-4950
▁undert	-4951
PER	-4952
event	-4953
prefix	-4954
▁birth	-4955
▁inner	-4956
Context	-4957
istry	-4958
▁Ye	-4959
zeros	-4960
▁Heaven	-4961
▁principal	-4962
▁rout	-4963
▁render	-4964
▁zip	-4965
▁happen	-4966
▁structure	-4967
▁tongue	-4968
▁factor	-4969
▁Red	-4970
▁ships	-4971
omy	-4972
▁compute	-4973
utions	-4974
supp	-4975
▁Jer	-4976
ects	-4977
▁Jew	-4978
▁Wal	-4979
▁Perhaps	-4980
▁soldier	-4981
4]	-4982
lemn	-4983
▁resp	-4984
nomial	-4985
▁Python	-4986
▁confess	-4987
▁east	-4988
iden	-4989
oned	-4990
▁marked	-4991
▁Emperor	-4992
estern	-4993
TR	-4994
eper	-4995
▁Part	-4996
▁July	-4997
▁ideas	-4998
▁width	-4999
▁affairs	-5000
▁endeav	-5001
Bu	-5002
Point	-5003
ector	-5004
▁military	-5005
anation	-5006
▁hearts	-5007
▁rising	-5008
▁corresponding	-5009
An	-5010
cor	-5011
▁effort	-5012
▁grown	-5013
rip	-5014
▁Pat	-5015
▁mighty	-5016
mo	-5017
▁tea	-5018
osen	-5019
▁clim	-5020
▁alpha	-5021
▁convert	-5022
▁remove	-5023
▁Hel	-5024
▁highest	-5025
env	-5026
Result	-5027
▁advent	-5028
▁23	-5029
ague	-5030
ural	-5031
([[	-5032
▁innoc	-5033
▁opening	-5034
▁lean	-5035
▁page	-5036
▁dwell	-5037
▁threw	-5038
▁Op	-5039
▁states	-5040
_;	-5041
memory	-5042
points	-5043
▁based	-5044
▁Before	-5045
Met	-5046
▁Street	-5047
▁Er	-5048
gend	-5049
iece	-5050
▁lack	-5051
▁gather	-5052
▁obliged	-5053
ols	-5054
▁extent	-5055
▁greatly	-5056
▁questions	-5057
ENE	-5058
▁Add	-5059
▁Did	-5060
arged	-5061
▁Each	-5062
racted	-5063
▁rol	-5064
▁arrays	-5065
▁sevent	-5066
uated	-5067
▁token	-5068
▁earnest	-5069
chan	-5070
▁soil	-5071
2*	-5072
▁shr	-5073
▁sought	-5074
▁regions	-5075
ieve	-5076
▁batch	-5077
▁multi	-5078
▁proof	-5079
▁weeks	-5080
MENT	-5081
nection	-5082
▁histor	-5083
▁established	-5084
▁35	-5085
▁5,	-5086
▁Ign	-5087
ais	-5088
▁Ang	-5089
▁”	-5090
chant	-5091
IF	-5092
leep	-5093
prim	-5094
▁shadow	-5095
[0],	-5096
▁options	-5097
▁yours	-5098
▁solemn	-5099
▁Sund	-5100
▁pounds	-5101
State	-5102
utely	-5103
▁layout	-5104
▁bal	-5105
▁fond	-5106
▁Bra	-5107
▁Tra	-5108
▁thro	-5109
ieur	-5110
ints	-5111
▁shows	-5112
▁naturally	-5113
empty	-5114
together	-5115
uary	-5116
.=	-5117
▁preced	-5118
▁affection	-5119
ooks	-5120
will	-5121
▁mir	-5122
constant	-5123
▁pointed	-5124
▁aston	-5125
▁windows	-5126
▁[0,	-5127
▁dign	-5128
▁remarkable	-5129
▁hes	-5130
▁holding	-5131
first	-5132
iring	-5133
▁Law	-5134
phe	-5135
omen	-5136
▁nine	-5137
▁backend	-5138
▁forgotten	-5139
▁(1	-5140
writ	-5141
ls	-5142
▁exped	-5143
aset	-5144
▁Pope	-5145
▁hasattr	-5146
ula	-5147
▁aside	-5148
▁freedom	-5149
▁2),	-5150
anged	-5151
▁contrary	-5152
ba	-5153
▁dropped	-5154
▁suspic	-5155
▁major	-5156
usted	-5157
▁Alex	-5158
tering	-5159
▁weather	-5160
▁shook	-5161
▁sd	-5162
▁Men	-5163
certain	-5164
rule	-5165
pping	-5166
▁occupied	-5167
▁fish	-5168
▁Island	-5169
▁metadata	-5170
▁Hon	-5171
▁Univers	-5172
▁Pers	-5173
▁pride	-5174
requ	-5175
last	-5176
▁map	-5177
produ	-5178
▁particularly	-5179
fs	-5180
▁glory	-5181
▁meas	-5182
acc	-5183
ULT	-5184
[:,	-5185
▁Scot	-5186
▁conscious	-5187
▁sacred	-5188
Le	-5189
ridge	-5190
orthern	-5191
ciples	-5192
▁shame	-5193
▁plants	-5194
Ah	-5195
▁brave	-5196
▁assemb	-5197
IO	-5198
▁String	-5199
▁Sam	-5200
▁growing	-5201
▁Fort	-5202
ville	-5203
▁29	-5204
inks	-5205
▁[1]	-5206
athered	-5207
▁suggested	-5208
▁rough	-5209
pril	-5210
olf	-5211
chief	-5212
▁watched	-5213
this	-5214
isher	-5215
▁labor	-5216
▁Jud	-5217
▁Prin	-5218
▁equally	-5219
gener	-5220
bad	-5221
Hand	-5222
▁sparse	-5223
▁Ly	-5224
▁alive	-5225
▁vector	-5226
▁available	-5227
▁Ff	-5228
▁reb	-5229
▁ener	-5230
▁prince	-5231
agg	-5232
onsieur	-5233
▁glance	-5234
▁gar	-5235
option	-5236
▁infer	-5237
▁IV	-5238
▁golden	-5239
▁inhabitants	-5240
Don	-5241
▁served	-5242
▁promised	-5243
▁confidence	-5244
hus	-5245
iting	-5246
▁Spain	-5247
▁pit	-5248
▁grat	-5249
▁positive	-5250
▁succeeded	-5251
23	-5252
▁Lu	-5253
may	-5254
▁Mac	-5255
▁sys	-5256
▁purch	-5257
▁region	-5258
▁uses	-5259
ORD	-5260
pet	-5261
▁qual	-5262
▁stable	-5263
cis	-5264
▁settled	-5265
▁establish	-5266
For	-5267
[-1]	-5268
▁shoulder	-5269
▁active	-5270
aved	-5271
▁vig	-5272
normal	-5273
▁pocket	-5274
▁Afric	-5275
top	-5276
linear	-5277
▁bridge	-5278
▁labels	-5279
▁AP	-5280
idenote	-5281
▁numerous	-5282
▁clo	-5283
▁cool	-5284
▁smiled	-5285
bid	-5286
inent	-5287
▁exceed	-5288
▁practice	-5289
▁yellow	-5290
▁anxious	-5291
cuda	-5292
liam	-5293
Sidenote	-5294
IND	-5295
▁Ven	-5296
▁groups	-5297
▁connected	-5298
ara	-5299
cell	-5300
▁apply	-5301
▁faces	-5302
▁superior	-5303
▁Out	-5304
▁expand	-5305
▁getattr	-5306
!'	-5307
orne	-5308
▁beat	-5309
▁gain	-5310
ptions	-5311
ooth	-5312
ulous	-5313
▁throughout	-5314
ogue	-5315
▁que	-5316
chann	-5317
▁listen	-5318
▁params	-5319
▁Cla	-5320
alled	-5321
▁refused	-5322
▁colour	-5323
▁fingers	-5324
▁hither	-5325
▁fly	-5326
▁msg	-5327
▁completely	-5328
oh	-5329
apped	-5330
uries	-5331
aper	-5332
On	-5333
Integer	-5334
▁entrance	-5335
▁scipy	-5336
ends	-5337
reduce	-5338
▁wounded	-5339
So	-5340
ELL	-5341
debug	-5342
▁Cast	-5343
▁disg	-5344
▁item	-5345
▁100	-5346
▁Mont	-5347
▁cele	-5348
▁explained	-5349
▁expressed	-5350
chs	-5351
▁{'	-5352
▁lands	-5353
▁Colonel	-5354
▁farm	-5355
▁keys	-5356
▁reven	-5357
▁evidently	-5358
isions	-5359
urd	-5360
▁accompan	-5361
▁rev	-5362
oles	-5363
ellect	-5364
▁join	-5365
ternal	-5366
(#	-5367
▁papers	-5368
python	-5369
▁bodies	-5370
AG	-5371
EP	-5372
▁keeping	-5373
▁brief	-5374
▁shoulders	-5375
▁hence	-5376
▁member	-5377
▁OR	-5378
uls	-5379
▁conj	-5380
▁salt	-5381
▁brown	-5382
▁woods	-5383
ora	-5384
▁discover	-5385
rose	-5386
ousin	-5387
▁186	-5388
▁Div	-5389
fill	-5390
▁requires	-5391
▁hills	-5392
▁Many	-5393
▁dust	-5394
convert	-5395
▁secure	-5396
▁increased	-5397
▁hide	-5398
▁reader	-5399
▁swift	-5400
▁weights	-5401
▁represented	-5402
▁national	-5403
gged	-5404
lax	-5405
Sym	-5406
open	-5407
▁bore	-5408
akespe	-5409
▁labour	-5410
oph	-5411
fold	-5412
▁East	-5413
▁forces	-5414
1:	-5415
▁rot	-5416
▁tail	-5417
▁Its	-5418
▁teeth	-5419
api	-5420
▁Acc	-5421
▁directed	-5422
49	-5423
▁feelings	-5424
ategor	-5425
▁regarded	-5426
▁buy	-5427
▁reck	-5428
EST	-5429
▁Jose	-5430
▁instr	-5431
▁angry	-5432
▁Roy	-5433
ico	-5434
ATH	-5435
▁Sim	-5436
▁supply	-5437
SS	-5438
ixt	-5439
eping	-5440
▁scalar	-5441
▁Jes	-5442
▁erect	-5443
▁temple	-5444
uate	-5445
▁creature	-5446
▁treated	-5447
▁fold	-5448
▁luck	-5449
▁stranger	-5450
▁Cur	-5451
▁flag	-5452
▁April	-5453
▁daily	-5454
liament	-5455
▁Though	-5456
▁knowing	-5457
▁setting	-5458
OUR	-5459
faction	-5460
▁engine	-5461
▁quantity	-5462
mes	-5463
▁suit	-5464
-3	-5465
▁Ver	-5466
bound	-5467
▁resist	-5468
▁worked	-5469
desc	-5470
▁occurred	-5471
acle	-5472
annot	-5473
▁1]	-5474
flow	-5475
▁Italy	-5476
▁rights	-5477
▁increase	-5478
child	-5479
▁archit	-5480
▁nice	-5481
▁//	-5482
▁Set	-5483
orous	-5484
uration	-5485
elta	-5486
poses	-5487
▁compos	-5488
▁Bes	-5489
gm	-5490
▁carriage	-5491
ND	-5492
reme	-5493
▁189	-5494
jaxpr	-5495
▁finding	-5496
glo	-5497
istory	-5498
▁brill	-5499
▁respons	-5500
▁Mart	-5501
▁Since	-5502
ria	-5503
ties	-5504
▁Produ	-5505
▁Sunday	-5506
outhern	-5507
▁earlier	-5508
▁altogether	-5509
▁Keyword	-5510
▁judgment	-5511
sy	-5512
ushing	-5513
2:	-5514
▁moving	-5515
▁pandas	-5516
▁amongst	-5517
font	-5518
▁src	-5519
while	-5520
▁Virg	-5521
▁coat	-5522
▁steam	-5523
▁district	-5524
ride	-5525
▁companion	-5526
▁Index	-5527
▁Edward	-5528
encies	-5529
▁Mer	-5530
▁Look	-5531
▁shel	-5532
▁separate	-5533
▁twice	-5534
▁education	-5535
▁anal	-5536
inet	-5537
slice	-5538
win	-5539
rang	-5540
▁wants	-5541
▁appointed	-5542
shire	-5543
▁cell	-5544
▁During	-5545
▁chosen	-5546
▁invest	-5547
▁beast	-5548
▁devil	-5549
estim	-5550
:_	-5551
▁unh	-5552
▁delay	-5553
▁spirits	-5554
▁ain	-5555
▁afford	-5556
▁algorithm	-5557
VER	-5558
▁Sept	-5559
flatten	-5560
▁advanced	-5561
conc	-5562
▁rub	-5563
▁Like	-5564
2_	-5565
ART	-5566
▁Master	-5567
hem	-5568
term	-5569
▁necessity	-5570
imal	-5571
▁Cons	-5572
▁India	-5573
▁satisfied	-5574
▁hate	-5575
3*	-5576
▁coll	-5577
▁Brown	-5578
▁select	-5579
▁4),	-5580
▁obey	-5581
▁vert	-5582
▁AR	-5583
▁colon	-5584
▁cultiv	-5585
6]	-5586
▁tor	-5587
▁accepted	-5588
▁servants	-5589
▁construct	-5590
orter	-5591
▁changes	-5592
then	-5593
▁choice	-5594
▁intellect	-5595
ams	-5596
▁nx	-5597
down	-5598
eries	-5599
▁science	-5600
UB	-5601
fall	-5602
ilst	-5603
▁singular	-5604
fft	-5605
▁Thr	-5606
abc	-5607
▁consequence	-5608
▁Rem	-5609
▁Another	-5610
iation	-5611
▁faint	-5612
▁2:	-5613
Spec	-5614
▁manif	-5615
0:	-5616
_:	-5617
raints	-5618
▁invol	-5619
▁signal	-5620
▁neighbour	-5621
?’	-5622
Form	-5623
▁official	-5624
▁operations	-5625
79	-5626
▁;	-5627
▁Gl	-5628
alpha	-5629
▁connection	-5630
find	-5631
▁Majesty	-5632
build	-5633
▁185	-5634
▁surely	-5635
▁uniform	-5636
▁dictionary	-5637
▁core	-5638
▁possibly	-5639
zy	-5640
five	-5641
estic	-5642
▁volume	-5643
CHE	-5644
▁priest	-5645
▁powerful	-5646
▁apparently	-5647
char	-5648
warn	-5649
▁welcome	-5650
▁Eliz	-5651
0*	-5652
▁waters	-5653
INT	-5654
▁Dis	-5655
imental	-5656
▁willing	-5657
▁murder	-5658
sem	-5659
▁%(	-5660
metric	-5661
▁figures	-5662
ds	-5663
more	-5664
▁Whether	-5665
umes	-5666
▁Med	-5667
▁Sub	-5668
▁holy	-5669
▁enemies	-5670
IZ	-5671
uster	-5672
▁fart	-5673
tri	-5674
▁2)	-5675
▁cere	-5676
umed	-5677
▁request	-5678
free	-5679
▁entry	-5680
▁pp	-5681
uler	-5682
▁vers	-5683
▁remembered	-5684
utch	-5685
▁partial	-5686
▁(0,	-5687
▁Art	-5688
▁rows	-5689
pat	-5690
ealous	-5691
▁Smith	-5692
▁novel	-5693
▁Ignored	-5694
▁training	-5695
▁Ham	-5696
▁annot	-5697
iron	-5698
▁Jap	-5699
▁literature	-5700
12,	-5701
▁centre	-5702
▁worship	-5703
▁bill	-5704
▁brain	-5705
▁hidden	-5706
outputs	-5707
▁market	-5708
akespeare	-5709
▁Ara	-5710
▁cro	-5711
▁nod	-5712
forward	-5713
▁Mother	-5714
▁Governor	-5715
▁ash	-5716
▁taught	-5717
▁cup	-5718
enced	-5719
sizes	-5720
▁Arch	-5721
:`~	-5722
broadcast	-5723
▁hearing	-5724
▁splendid	-5725
Exit	-5726
▁arran	-5727
▁corn	-5728
ACK	-5729
pus	-5730
▁severe	-5731
▁virtue	-5732
▁quietly	-5733
▁df	-5734
▁drive	-5735
▁carrying	-5736
▁Ben	-5737
▁truly	-5738
ordinary	-5739
enter	-5740
▁hosp	-5741
▁update	-5742
▁distributed	-5743
▁RO	-5744
▁knock	-5745
▁enthus	-5746
▁Black	-5747
▁stars	-5748
▁spr	-5749
dates	-5750
theless	-5751
▁seized	-5752
▁legs	-5753
▁Matrix	-5754
▁printed	-5755
rain	-5756
][	-5757
ifying	-5758
itated	-5759
kes	-5760
▁8,	-5761
ampl	-5762
▁project	-5763
ynamo	-5764
▁remarked	-5765
▁=========	-5766
ama	-5767
▁Ra	-5768
▁BR	-5769
terday	-5770
▁exhib	-5771
▁smaller	-5772
▁coff	-5773
▁spend	-5774
Let	-5775
Metadata	-5776
IX	-5777
/_	-5778
Get	-5779
▁sons	-5780
▁wasn	-5781
space	-5782
▁surprised	-5783
success	-5784
▁noticed	-5785
▁population	-5786
draw	-5787
arded	-5788
▁harm	-5789
ourse	-5790
▁Those	-5791
84	-5792
▁nob	-5793
atus	-5794
ober	-5795
▁Spe	-5796
▁Again	-5797
di	-5798
rey	-5799
inalg	-5800
▁tremb	-5801
lements	-5802
▁Nature	-5803
▁telling	-5804
tmp	-5805
▁Prov	-5806
▁variables	-5807
uel	-5808
By	-5809
ades	-5810
▁vessel	-5811
▁possessed	-5812
▁tal	-5813
▁warning	-5814
uthors	-5815
▁commer	-5816
▁prayer	-5817
Const	-5818
token	-5819
▁closely	-5820
▁murm	-5821
▁genius	-5822
▁Sen	-5823
▁audience	-5824
▁dangerous	-5825
▁[0.	-5826
▁joined	-5827
▁gathered	-5828
▁IS	-5829
▁symbols	-5830
▁wand	-5831
▁cache	-5832
▁divine	-5833
','	-5834
appy	-5835
stats	-5836
▁bearing	-5837
▁improve	-5838
▁instinct	-5839
▁fortun	-5840
▁fifteen	-5841
▁touched	-5842
Of	-5843
▁Coun	-5844
▁warnings	-5845
erning	-5846
▁plays	-5847
▁Italian	-5848
Gr	-5849
▁President	-5850
inv	-5851
icious	-5852
▁clearly	-5853
▁distinguished	-5854
unct	-5855
▁DataFrame	-5856
▁Des	-5857
▁queen	-5858
htt	-5859
allow	-5860
▁bent	-5861
change	-5862
▁struggle	-5863
▁dollars	-5864
▁dressed	-5865
lesh	-5866
▁purs	-5867
▁access	-5868
▁pardon	-5869
iety	-5870
▁norm	-5871
▁problem	-5872
▁Take	-5873
▁relations	-5874
tol	-5875
util	-5876
▁bell	-5877
▁'#	-5878
refly	-5879
rices	-5880
)/	-5881
number	-5882
▁palace	-5883
▁uncle	-5884
▁pyrefly	-5885
5]	-5886
iable	-5887
▁Upon	-5888
▁deck	-5889
▁specific	-5890
▁Love	-5891
▁mistress	-5892
bin	-5893
exer	-5894
aming	-5895
▁-----	-5896
▁tired	-5897
ilation	-5898
putation	-5899
mt	-5900
roll	-5901
▁principle	-5902
QU	-5903
stream	-5904
▁glyph	-5905
Ob	-5906
▁pill	-5907
▁Still	-5908
main	-5909
▁hurt	-5910
▁aband	-5911
8]	-5912
olic	-5913
▁bytes	-5914
▁waited	-5915
▁minister	-5916
osc	-5917
▁Long	-5918
compat	-5919
dimension	-5920
▁demanded	-5921
1_	-5922
▁rapidly	-5923
▁operator	-5924
[0].	-5925
true	-5926
▁learning	-5927
▁Res	-5928
▁Doctor	-5929
...,	-5930
▁Inter	-5931
▁Germany	-5932
▁eg	-5933
▁Joseph	-5934
▁suffered	-5935
sim	-5936
▁operand	-5937
▁admitted	-5938
ainted	-5939
ivalent	-5940
▁ge	-5941
itute	-5942
▁errors	-5943
▁approach	-5944
▁performance	-5945
itement	-5946
plotlib	-5947
aN	-5948
▁SCENE	-5949
▁trial	-5950
▁kingdom	-5951
▁Vol	-5952
▁driven	-5953
avals	-5954
▁destroyed	-5955
▁Lo	-5956
One	-5957
uts	-5958
▁global	-5959
▁reduce	-5960
▁putting	-5961
Be	-5962
▁Hor	-5963
ittee	-5964
porary	-5965
▁imagine	-5966
▁interrupt	-5967
▁River	-5968
anch	-5969
rian	-5970
script	-5971
▁domain	-5972
dispatch	-5973
▁Ma	-5974
▁rules	-5975
▁reasons	-5976
▁Fe	-5977
olean	-5978
▁talked	-5979
▁explain	-5980
▁Bet	-5981
▁celebr	-5982
▁lovely	-5983
dec	-5984
▁Congress	-5985
▁persu	-5986
▁document	-5987
▁FOR	-5988
▁Bill	-5989
dev	-5990
▁Emp	-5991
▁haven	-5992
user	-5993
erent	-5994
reshold	-5995
▁nations	-5996
▁extraordinary	-5997
▁aim	-5998
▁shoot	-5999
▁sentence	-6000
▁watching	-6001
▁pu	-6002
▁score	-6003
Per	-6004
deg	-6005
eps	-6006
▁edges	-6007
▁5.	-6008
▁Use	-6009
▁doors	-6010
ca	-6011
▁lat	-6012
21	-6013
▁vel	-6014
emplate	-6015
ribution	-6016
ights	-6017
ounding	-6018
raction	-6019
▁playing	-6020
idget	-6021
▁Life	-6022
▁Ac	-6023
Path	-6024
case	-6025
▁development	-6026
▁integr	-6027
lor	-6028
sin	-6029
mony	-6030
▁Mag	-6031
▁sugar	-6032
▁butter	-6033
▁Shakespeare	-6034
ola	-6035
▁midst	-6036
▁divided	-6037
checkpoint	-6038
Ref	-6039
▁dance	-6040
▁conven	-6041
32>	-6042
▁Christmas	-6043
ACE	-6044
subject	-6045
abeth	-6046
▁Pet	-6047
▁wed	-6048
quent	-6049
▁21	-6050
onent	-6051
action	-6052
▁prefix	-6053
▁recomm	-6054
▁Grand	-6055
optim	-6056
▁myst	-6057
▁collections	-6058
icit	-6059
▁excited	-6060
▁existing	-6061
▁~	-6062
asarray	-6063
▁tensors	-6064
▁unfortun	-6065
close	-6066
▁absolute	-6067
▁mesh	-6068
▁nearer	-6069
▁praise	-6070
aptor	-6071
▁Check	-6072
▁flour	-6073
▁worst	-6074
▁hurried	-6075
▁slave	-6076
▁assured	-6077
▁handsome	-6078
reshape	-6079
▁verbose	-6080
▁Jul	-6081
apply	-6082
mar	-6083
▁City	-6084
▁grief	-6085
▁machine	-6086
▁excitement	-6087
47	-6088
HN	-6089
▁uns	-6090
asant	-6091
}{	-6092
▁dise	-6093
▁circle	-6094
▁theory	-6095
▁retreat	-6096
▁Among	-6097
▁resemb	-6098
▁mission	-6099
▁performed	-6100
ishes	-6101
▁pull	-6102
▁policy	-6103
▁section	-6104
▁laughing	-6105
▁tempt	-6106
▁knees	-6107
▁solution	-6108
▁remaining	-6109
afe	-6110
eller	-6111
▁successful	-6112
▁ice	-6113
compute	-6114
▁myster	-6115
▁average	-6116
irs	-6117
ograd	-6118
common	-6119
▁branches	-6120
stride	-6121
▁tells	-6122
▁pursu	-6123
▁stern	-6124
▁bid	-6125
▁behav	-6126
▁acquaint	-6127
▁dying	-6128
▁skill	-6129
iograph	-6130
▁counter	-6131
=(	-6132
▁Mc	-6133
grid	-6134
board	-6135
▁crew	-6136
▁etern	-6137
▁impression	-6138
▁Nothing	-6139
86	-6140
▁slice	-6141
jac	-6142
▁Chap	-6143
▁sympathy	-6144
▁introduced	-6145
▁satisfaction	-6146
▁Thy	-6147
--_	-6148
▁Jac	-6149
erves	-6150
▁Professor	-6151
)*	-6152
Col	-6153
▁choose	-6154
▁disapp	-6155
▁highly	-6156
itespace	-6157
bra	-6158
next	-6159
▁doth	-6160
▁runs	-6161
▁Enter	-6162
▁begun	-6163
▁prophe	-6164
▁effects	-6165
▁rhs	-6166
cknow	-6167
▁smoke	-6168
▁scenes	-6169
▁absence	-6170
▁library	-6171
▁walking	-6172
▁skin	-6173
▁accur	-6174
▁fighting	-6175
Tree	-6176
▁stro	-6177
▁breakfast	-6178
cos	-6179
▁LE	-6180
▁multiple	-6181
▁returning	-6182
▁Ire	-6183
0,000	-6184
▁gets	-6185
▁observ	-6186
itz	-6187
onder	-6188
32,	-6189
bon	-6190
▁Jim	-6191
aret	-6192
wrap	-6193
▁guns	-6194
▁typing	-6195
▁explanation	-6196
▁linear	-6197
▁relief	-6198
▁parents	-6199
Union	-6200
▁arrival	-6201
▁falling	-6202
▁Runtime	-6203
war	-6204
strict	-6205
▁couns	-6206
▁efforts	-6207
▁appropri	-6208
▁whispered	-6209
▁credit	-6210
▁sorted	-6211
▁Rev	-6212
▁lax	-6213
▁burning	-6214
▁gradually	-6215
▁statement	-6216
aign	-6217
▁gas	-6218
▁orn	-6219
▁farther	-6220
▁files	-6221
▁Copy	-6222
Che	-6223
▁san	-6224
tains	-6225
▁Hall	-6226
rot	-6227
who	-6228
▁36	-6229
score	-6230
IES	-6231
▁callable	-6232
eral	-6233
labels	-6234
▁Point	-6235
▁October	-6236
err	-6237
hington	-6238
▁chamber	-6239
En	-6240
▁ing	-6241
▁rocks	-6242
▁vo	-6243
▁milk	-6244
▁obst	-6245
▁goods	-6246
▁privile	-6247
Var	-6248
▁lod	-6249
▁architect	-6250
▁interpret	-6251
▁obv	-6252
▁schol	-6253
Come	-6254
cean	-6255
▁oil	-6256
▁Far	-6257
essage	-6258
▁minds	-6259
TA	-6260
▁busy	-6261
utenant	-6262
▁acknow	-6263
▁moments	-6264
――	-6265
aging	-6266
▁valley	-6267
▁prisoner	-6268
▁leaf	-6269
▁sheep	-6270
▁despair	-6271
▁signific	-6272
Dict	-6273
▁Cath	-6274
hor	-6275
net	-6276
racker	-6277
▁Ca	-6278
▁187	-6279
▁rom	-6280
▁outer	-6281
ez	-6282
usal	-6283
astern	-6284
▁toler	-6285
▁turns	-6286
▁prompt	-6287
RY	-6288
va	-6289
ocr	-6290
Call	-6291
ading	-6292
▁samples	-6293
▁countries	-6294
▁accompanied	-6295
▁smooth	-6296
Qu	-6297
'):	-6298
outs	-6299
tle	-6300
▁amaz	-6301
▁channel	-6302
▁replace	-6303
Param	-6304
▁aware	-6305
ological	-6306
▁Princess	-6307
▁profession	-6308
▁reign	-6309
▁-0.	-6310
▁interval	-6311
▁implementation	-6312
▁Du	-6313
▁sy	-6314
▁notes	-6315
seq	-6316
▁Marg	-6317
handle	-6318
▁strike	-6319
▁crossed	-6320
▁instances	-6321
^{	-6322
ifts	-6323
▁tok	-6324
▁Under	-6325
▁shell	-6326
▁Francis	-6327
Mr	-6328
PU	-6329
iciently	-6330
▁faithful	-6331
std	-6332
▁ruin	-6333
▁affair	-6334
▁execution	-6335
IAN	-6336
Sub	-6337
▁lifted	-6338
obs	-6339
ctools	-6340
looking	-6341
▁nn	-6342
▁issue	-6343
bury	-6344
factory	-6345
▁regret	-6346
▁resolved	-6347
▁conscience	-6348
auto	-6349
▁ded	-6350
▁magnific	-6351
▁absolutely	-6352
When	-6353
▁march	-6354
(?	-6355
lie	-6356
amps	-6357
▁alt	-6358
▁Irish	-6359
01\	-6360
▁Ear	-6361
stone	-6362
END	-6363
adel	-6364
▁err	-6365
ivered	-6366
▁buried	-6367
▁careful	-6368
▁Elizabeth	-6369
▁composed	-6370
▁interested	-6371
'))	-6372
▁hopes	-6373
vas	-6374
▁reduced	-6375
nson	-6376
expand	-6377
▁Gener	-6378
▁assumed	-6379
▁precision	-6380
ker	-6381
▁Sy	-6382
otes	-6383
anks	-6384
▁exha	-6385
▁flower	-6386
▁seated	-6387
▁ends	-6388
▁wicked	-6389
▁accident	-6390
▁collection	-6391
▁pd	-6392
▁NOT	-6393
▁ere	-6394
▁visited	-6395
asy	-6396
▁Ap	-6397
▁Bur	-6398
▁gras	-6399
▁appreci	-6400
▁Pri	-6401
▁asleep	-6402
▁pin	-6403
▁admin	-6404
▁sig	-6405
model	-6406
▁Dor	-6407
▁mal	-6408
▁visible	-6409
▁intention	-6410
▁principles	-6411
itate	-6412
▁weap	-6413
▁kinds	-6414
▁wholly	-6415
▁contained	-6416
REG	-6417
▁shock	-6418
▁inches	-6419
▁yesterday	-6420
▁fairly	-6421
▁unique	-6422
▁consist	-6423
▁missing	-6424
▁Dece	-6425
▁quality	-6426
▁showing	-6427
Info	-6428
sole	-6429
usive	-6430
▁advice	-6431
▁consideration	-6432
▁Del	-6433
export	-6434
▁proceeded	-6435
▁38	-6436
steps	-6437
sample	-6438
▁odd	-6439
▁200	-6440
▁Sal	-6441
▁nose	-6442
inking	-6443
inese	-6444
▁roots	-6445
▁stones	-6446
umm	-6447
arted	-6448
▁White	-6449
▁unable	-6450
abel	-6451
erer	-6452
▁hyp	-6453
oston	-6454
▁yards	-6455
▁concerned	-6456
▁kit	-6457
▁degrees	-6458
iguous	-6459
ADY	-6460
omet	-6461
▁Den	-6462
▁stick	-6463
ago	-6464
▁option	-6465
Good	-6466
modules	-6467
▁artist	-6468
▁growth	-6469
/2	-6470
▁Off	-6471
▁tale	-6472
ovember	-6473
▁partly	-6474
words	-6475
▁Pier	-6476
▁proposed	-6477
▁Washington	-6478
▁une	-6479
Class	-6480
▁mile	-6481
▁sigh	-6482
▁flesh	-6483
ourable	-6484
▁charming	-6485
▁Both	-6486
▁manage	-6487
▁Besides	-6488
▁victory	-6489
}.	-6490
▁Ty	-6491
▁ma	-6492
▁presently	-6493
▁adop	-6494
▁shop	-6495
▁purposes	-6496
xes	-6497
▁ble	-6498
▁admit	-6499
▁invent	-6500
▁extended	-6501
IGN	-6502
▁ease	-6503
▁mistake	-6504
▁pattern	-6505
▁division	-6506
xf	-6507
angle	-6508
▁pan	-6509
Lexer	-6510
opes	-6511
urches	-6512
fr	-6513
▁sacrifice	-6514
Builder	-6515
▁cousin	-6516
▁terror	-6517
▁arranged	-6518
▁backward	-6519
Arg	-6520
ads	-6521
▁fer	-6522
▁souls	-6523
xi	-6524
uit	-6525
atively	-6526
▁concerning	-6527
▁pir	-6528
▁Indeed	-6529
05\	-6530
uable	-6531
operand	-6532
▁clouds	-6533
standing	-6534
▁capable	-6535
BER	-6536
aud	-6537
▁Russian	-6538
▁suffering	-6539
Wh	-6540
▁citizens	-6541
▁rendered	-6542
▁flight	-6543
volution	-6544
Where	-6545
there	-6546
0-	-6547
▁critic	-6548
▁fix	-6549
▁skip	-6550
▁dozen	-6551
LES	-6552
▁_,	-6553
▁arrest	-6554
▁September	-6555
aks	-6556
▁Ext	-6557
riton	-6558
▁huge	-6559
▁crime	-6560
four	-6561
▁desper	-6562
Key	-6563
igen	-6564
ensity	-6565
▁repro	-6566
otection	-6567
▁BY	-6568
▁XV	-6569
▁dish	-6570
▁Union	-6571
▁demon	-6572
▁everywhere	-6573
linalg	-6574
▁deeply	-6575
▁Rom	-6576
▁filter	-6577
omb	-6578
▁mercy	-6579
FT	-6580
▁Fin	-6581
▁companions	-6582
ras	-6583
▁Dick	-6584
▁cloth	-6585
OND	-6586
▁Jean	-6587
▁strings	-6588
ware	-6589
▁variety	-6590
▁dogs	-6591
ipping	-6592
▁additional	-6593
▁(2,	-6594
▁Feb	-6595
▁gle	-6596
▁sem	-6597
▁encl	-6598
validate	-6599
▁Dec	-6600
▁wore	-6601
Matrix	-6602
Who	-6603
[0])	-6604
▁Mid	-6605
▁pars	-6606
▁Would	-6607
▁Ke	-6608
oder	-6609
ATE	-6610
▁crim	-6611
▁gray	-6612
▁selected	-6613
aced	-6614
sche	-6615
▁recent	-6616
▁included	-6617
▁lin	-6618
▁Latin	-6619
▁altern	-6620
▁typ	-6621
▁reward	-6622
93	-6623
▁Ireland	-6624
▁attached	-6625
▁tax	-6626
▁feast	-6627
▁castle	-6628
▁List	-6629
▁condem	-6630
ana	-6631
▁reduction	-6632
▁fn	-6633
LOCK	-6634
html	-6635
vi	-6636
▁interests	-6637
▁£	-6638
THE	-6639
car	-6640
▁Cat	-6641
two	-6642
idate	-6643
▁Once	-6644
▁Saint	-6645
▁guide	-6646
igation	-6647
▁behold	-6648
ructions	-6649
-0	-6650
clude	-6651
▁wisdom	-6652
▁smiling	-6653
-2	-6654
loop	-6655
▁physical	-6656
Mrs	-6657
lap	-6658
▁Ell	-6659
pattern	-6660
▁whilst	-6661
ada	-6662
long	-6663
▁listened	-6664
▁ven	-6665
▁thunder	-6666
▁extremely	-6667
▁including	-6668
▁Dist	-6669
▁thoroughly	-6670
▁Mark	-6671
▁December	-6672
▁RuntimeError	-6673
▁representation	-6674
▁diam	-6675
scalar	-6676
▁remind	-6677
▁extreme	-6678
▁bringing	-6679
▁equivalent	-6680
ros	-6681
arts	-6682
▁finger	-6683
▁padding	-6684
▁polynomial	-6685
▁keen	-6686
teenth	-6687
▁couple	-6688
▁singing	-6689
▁versionadded	-6690
arest	-6691
▁jealous	-6692
antry	-6693
eenth	-6694
▁dull	-6695
window	-6696
▁January	-6697
▁inher	-6698
▁Virgin	-6699
▁Mil	-6700
▁drove	-6701
▁ended	-6702
▁kindly	-6703
oded	-6704
▁impat	-6705
▁counten	-6706
TE	-6707
isl	-6708
▁feed	-6709
▁blank	-6710
▁Britain	-6711
SD	-6712
▁belief	-6713
▁parallel	-6714
cd	-6715
ilty	-6716
▁Sec	-6717
▁Mex	-6718
eties	-6719
ician	-6720
▁cities	-6721
▁fellows	-6722
▁SH	-6723
▁duties	-6724
▁escaped	-6725
▁mapping	-6726
▁relative	-6727
▁contempt	-6728
▁location	-6729
gpu	-6730
Read	-6731
▁pour	-6732
▁Little	-6733
backward	-6734
▁brilliant	-6735
▁gay	-6736
▁rooms	-6737
precated	-6738
▁independent	-6739
ICE	-6740
scipy	-6741
ourn	-6742
handler	-6743
▁(2	-6744
▁6,	-6745
lause	-6746
▁dense	-6747
▁defend	-6748
▁teacher	-6749
uint	-6750
▁[1,	-6751
▁hurry	-6752
▁sq	-6753
book	-6754
▁bounds	-6755
=0,	-6756
▁Society	-6757
▁Optional	-6758
ifle	-6759
▁dawn	-6760
▁female	-6761
ibus	-6762
onds	-6763
▁spl	-6764
▁Russia	-6765
▁Chinese	-6766
▁constantly	-6767
▁rang	-6768
father	-6769
import	-6770
vector	-6771
▁imagination	-6772
0,0,	-6773
▁grid	-6774
▁glow	-6775
des	-6776
rer	-6777
rine	-6778
▁Mass	-6779
▁wings	-6780
▁gently	-6781
▁platform	-6782
▁178	-6783
▁bay	-6784
▁Nay	-6785
▁JOHN	-6786
▁roll	-6787
iteral	-6788
thread	-6789
▁logger	-6790
omatic	-6791
▁(18	-6792
enses	-6793
atched	-6794
▁police	-6795
▁broadcast	-6796
▁102	-6797
Sequence	-6798
don	-6799
▁horiz	-6800
▁loose	-6801
▁sovere	-6802
Ins	-6803
▁Arg	-6804
▁Mal	-6805
▁Mount	-6806
▁November	-6807
▁Rh	-6808
With	-6809
atis	-6810
▁cos	-6811
inging	-6812
remove	-6813
▁sklearn	-6814
File	-6815
▁tele	-6816
67	-6817
▁Us	-6818
▁Monsieur	-6819
"])	-6820
kin	-6821
they	-6822
▁phr	-6823
▁pil	-6824
▁fare	-6825
▁poetry	-6826
OK	-6827
Dec	-6828
cel	-6829
▁liked	-6830
▁older	-6831
▁teach	-6832
▁pressed	-6833
*.	-6834
sect	-6835
agger	-6836
agonal	-6837
unic	-6838
▁Iter	-6839
extend	-6840
▁greet	-6841
PH	-6842
li	-6843
ounce	-6844
▁Jesus	-6845
lands	-6846
istics	-6847
▁Johnson	-6848
▁Step	-6849
▁ceased	-6850
▁exists	-6851
ference	-6852
▁Bishop	-6853
▁devoted	-6854
50	-6855
oused	-6856
▁indiff	-6857
osa	-6858
attrs	-6859
▁fought	-6860
▁Tim	-6861
▁tur	-6862
retch	-6863
ateg	-6864
▁CBS	-6865
▁``'	-6866
▁buildings	-6867
▁thousands	-6868
eno	-6869
▁voy	-6870
equal	-6871
▁Royal	-6872
[1:	-6873
ients	-6874
▁rear	-6875
▁maybe	-6876
▁stated	-6877
▁Boston	-6878
SON	-6879
▁ach	-6880
▁amid	-6881
▁Dep	-6882
▁Gent	-6883
▁meat	-6884
▁acted	-6885
▁safety	-6886
▁thanks	-6887
▁literary	-6888
ags	-6889
▁1.0	-6890
At	-6891
zip	-6892
▁falls	-6893
▁towns	-6894
▁branch	-6895
▁dignity	-6896
▁buffer	-6897
icable	-6898
▁indign	-6899
▁bias	-6900
▁stim	-6901
custom	-6902
▁lover	-6903
▁stuff	-6904
▁discovery	-6905
eldom	-6906
▁fest	-6907
▁causes	-6908
MA	-6909
asm	-6910
flags	-6911
▁energy	-6912
▁friendly	-6913
▁ascend	-6914
▁surrounded	-6915
▁Ter	-6916
▁supper	-6917
Location	-6918
cal	-6919
▁cy	-6920
▁CHAR	-6921
▁lake	-6922
63	-6923
gl	-6924
▁spo	-6925
▁Cent	-6926
▁negative	-6927
atural	-6928
bfloat	-6929
▁Having	-6930
▁gained	-6931
▁mechan	-6932
▁theatre	-6933
▁simpl	-6934
▁properly	-6935
▁mm	-6936
▁loves	-6937
foot	-6938
▁Aunt	-6939
▁newsp	-6940
igs	-6941
▁contract	-6942
▁RE	-6943
▁encoding	-6944
▁tomb	-6945
lector	-6946
▁article	-6947
▁stories	-6948
▁evident	-6949
▁tu	-6950
▁curs	-6951
▁sees	-6952
▁bought	-6953
▁practical	-6954
cols	-6955
▁enorm	-6956
▁thrust	-6957
cap	-6958
▁".	-6959
ifies	-6960
4)	-6961
▁stride	-6962
▁Rel	-6963
quences	-6964
▁sell	-6965
▁compet	-6966
▁prisoners	-6967
▁VI	-6968
struct	-6969
▁fleet	-6970
lowering	-6971
▁sufficiently	-6972
92	-6973
sw	-6974
OPER	-6975
▁pron	-6976
▁register	-6977
▁Copyright	-6978
▁Cle	-6979
▁Three	-6980
▁plans	-6981
▁informed	-6982
**2*	-6983
▁worn	-6984
cm	-6985
▁184	-6986
▁Hill	-6987
▁thinks	-6988
=-=-=-=-	-6989
▁friendship	-6990
rend	-6991
urity	-6992
▁LADY	-6993
▁stead	-6994
▁scient	-6995
▁painted	-6996
▁everybody	-6997
▁Tem	-6998
laced	-6999
▁defe	-7000
▁traged	-7001
▁vision	-7002
▁whence	-7003
▁consent	-7004
▁vessels	-7005
87	-7006
ialect	-7007
▁views	-7008
conscious	-7009
▁decision	-7010
bel	-7011
store	-7012
▁batt	-7013
▁kitchen	-7014
▁area	-7015
▁recognized	-7016
alias	-7017
▁nerv	-7018
▁abund	-7019
▁Ann	-7020
▁eggs	-7021
direct	-7022
76;	-7023
?--	-7024
▁Poly	-7025
▁cattle	-7026
▁curios	-7027
▁34	-7028
▁SP	-7029
reek	-7030
▁aunt	-7031
lev	-7032
▁chest	-7033
negative	-7034
▁immense	-7035
Expr	-7036
ante	-7037
born	-7038
▁representing	-7039
lhs	-7040
▁sole	-7041
▁wishes	-7042
aux	-7043
rous	-7044
▁provin	-7045
▁delicate	-7046
▁immediate	-7047
▁preserved	-7048
bind	-7049
▁acts	-7050
▁adopted	-7051
LY	-7052
ptr	-7053
ulti	-7054
▁Earl	-7055
▁ranks	-7056
▁University	-7057
rim	-7058
orth	-7059
wrapper	-7060
cest	-7061
▁betray	-7062
See	-7063
▁joint	-7064
▁nobody	-7065
▁precious	-7066
dp	-7067
▁poem	-7068
!’	-7069
ICH	-7070
▁(3	-7071
▁Tw	-7072
▁voices	-7073
Size	-7074
▁ride	-7075
▁CAR	-7076
Check	-7077
▁impl	-7078
▁holds	-7079
▁impress	-7080
▁protection	-7081
edges	-7082
ointment	-7083
▁Fa	-7084
ponse	-7085
▁await	-7086
ih	-7087
]],	-7088
Inter	-7089
resents	-7090
▁seldom	-7091
▁innocent	-7092
www	-7093
ieved	-7094
▁throne	-7095
▁extract	-7096
▁directory	-7097
▁sets	-7098
▁aspect	-7099
ena	-7100
▁AB	-7101
▁Shall	-7102
▁solid	-7103
kins	-7104
mapping	-7105
pow	-7106
▁Joe	-7107
▁trem	-7108
▁administ	-7109
wait	-7110
▁anch	-7111
▁subse	-7112
ustomed	-7113
▁abroad	-7114
▁static	-7115
▁pup	-7116
▁Spir	-7117
▁foolish	-7118
orph	-7119
reck	-7120
▁fund	-7121
▁ahead	-7122
ylvan	-7123
▁thine	-7124
Mem	-7125
vec	-7126
▁unit	-7127
▁"__	-7128
▁leb	-7129
▁attr	-7130
▁inquir	-7131
▁plenty	-7132
omic	-7133
▁anger	-7134
symbols	-7135
▁valuable	-7136
▁Therefore	-7137
▁centuries	-7138
▁—	-7139
Sir	-7140
]])	-7141
save	-7142
▁Ste	-7143
▁epo	-7144
▁pulled	-7145
▁pause	-7146
▁Council	-7147
▁neighbor	-7148
qa	-7149
****	-7150
▁Gra	-7151
▁Max	-7152
chess	-7153
▁bind	-7154
dtypes	-7155
▁Philip	-7156
ruary	-7157
▁Most	-7158
▁ages	-7159
▁understanding	-7160
▁humble	-7161
▁slightly	-7162
ris	-7163
ums	-7164
▁Bay	-7165
▁fled	-7166
active	-7167
changed	-7168
▁spiritual	-7169
▁probability	-7170
anese	-7171
▁liqu	-7172
▁loop	-7173
▁weary	-7174
▁tribes	-7175
▁emotion	-7176
FA	-7177
▁Ned	-7178
power	-7179
ocol	-7180
pool	-7181
ctors	-7182
▁signs	-7183
▁enable	-7184
▁related	-7185
▁glorious	-7186
▁laughter	-7187
▁insert	-7188
+--------	-7189
▁addressed	-7190
▁selection	-7191
dest	-7192
▁lux	-7193
▁coordin	-7194
dataclass	-7195
00*	-7196
▁Ob	-7197
times	-7198
▁Base	-7199
finite	-7200
▁commission	-7201
▁Bas	-7202
https	-7203
▁subs	-7204
▁guilty	-7205
▁brothers	-7206
▁families	-7207
▁{"	-7208
▁Time	-7209
▁compat	-7210
▁poison	-7211
31	-7212
rng	-7213
▁fourth	-7214
▁provide	-7215
▁disappeared	-7216
▁QU	-7217
▁fo	-7218
▁striking	-7219
▁[1	-7220
▁cook	-7221
Handler	-7222
Tracker	-7223
▁dreadful	-7224
unks	-7225
▁awful	-7226
▁determin	-7227
▁Sus	-7228
▁contrast	-7229
fname	-7230
inced	-7231
▁surv	-7232
columns	-7233
▁expense	-7234
▁accomplished	-7235
look	-7236
▁Text	-7237
ersion	-7238
54	-7239
_(	-7240
▁Wood	-7241
force	-7242
▁protect	-7243
bias	-7244
▁tow	-7245
eem	-7246
lets	-7247
▁center	-7248
▁generation	-7249
MENTS	-7250
▁summ	-7251
▁younger	-7252
▁approached	-7253
rog	-7254
▁begins	-7255
FIFF	-7256
osure	-7257
▁sooner	-7258
May	-7259
▁6.	-7260
▁Land	-7261
▁Oper	-7262
▁rode	-7263
▁ops	-7264
▁accum	-7265
▁haste	-7266
missing	-7267
▁parties	-7268
▁wretched	-7269
Line	-7270
▁Dem	-7271
▁hoped	-7272
jud	-7273
when	-7274
▁Read	-7275
▁compared	-7276
▁countenance	-7277
(\	-7278
▁rage	-7279
▁compelled	-7280
isp	-7281
orus	-7282
classmethod	-7283
cus	-7284
ONT	-7285
▁“‘	-7286
inction	-7287
sey	-7288
=1,	-7289
qual	-7290
▁Bon	-7291
▁Sil	-7292
▁waves	-7293
▁supplied	-7294
Mar	-7295
▁fan	-7296
▁passes	-7297
reate	-7298
▁Republic	-7299
glyph	-7300
▁Park	-7301
▁wound	-7302
▁bos	-7303
▁alias	-7304
▁arose	-7305
iate	-7306
▁asking	-7307
▁Bu	-7308
▁_(	-7309
▁exercise	-7310
fp	-7311
▁Bob	-7312
▁Fig	-7313
▁Mich	-7314
▁Dutch	-7315
vm	-7316
ORT	-7317
hook	-7318
▁hotel	-7319
▁reality	-7320
▁conclusion	-7321
(1)	-7322
▁nur	-7323
lessly	-7324
▁wrapped	-7325
ugg	-7326
▁attended	-7327
From	-7328
▁emer	-7329
filter	-7330
iveness	-7331
▁speaks	-7332
filename	-7333
functions	-7334
▁attitude	-7335
▁domin	-7336
▁European	-7337
▁governor	-7338
▁prospect	-7339
Look	-7340
▁incident	-7341
▁destruction	-7342
▁1),	-7343
▁Field	-7344
▁mental	-7345
▁"\	-7346
▁FR	-7347
▁baby	-7348
▁mixed	-7349
▁chiefly	-7350
▁hit	-7351
coeff	-7352
stairs	-7353
INGS	-7354
▁Mem	-7355
▁vic	-7356
iture	-7357
▁Through	-7358
▁manager	-7359
▁CO	-7360
ategy	-7361
▁card	-7362
▁bones	-7363
SEG	-7364
▁PH	-7365
▁clever	-7366
▁churches	-7367
Reg	-7368
▁hint	-7369
Transform	-7370
._,	-7371
View	-7372
Group	-7373
▁granted	-7374
▁becoming	-7375
pher	-7376
▁caut	-7377
channels	-7378
▁transport	-7379
▁Get	-7380
▁0],	-7381
▁wet	-7382
▁Supp	-7383
▁islands	-7384
▁mankind	-7385
▁manners	-7386
AV	-7387
▁Tell	-7388
assert	-7389
▁union	-7390
▁defence	-7391
▁maximum	-7392
tensors	-7393
qn	-7394
____	-7395
shapes	-7396
partial	-7397
▁converted	-7398
MAN	-7399
uer	-7400
render	-7401
▁benefit	-7402
▁iv	-7403
manager	-7404
▁council	-7405
▁Variable	-7406
jor	-7407
mosp	-7408
upid	-7409
▁Day	-7410
▁hell	-7411
▁perpet	-7412
▁portra	-7413
▁attract	-7414
▁completed	-7415
global	-7416
▁horror	-7417
fake	-7418
▁amuse	-7419
▁reform	-7420
▁logging	-7421
REE	-7422
[...,	-7423
owned	-7424
▁Young	-7425
▁scheme	-7426
▁termin	-7427
▁pipe	-7428
aine	-7429
▁mock	-7430
icated	-7431
▁furnished	-7432
▁assistance	-7433
bas	-7434
▁Squ	-7435
▁probable	-7436
components	-7437
.-	-7438
Out	-7439
▁plt	-7440
integer	-7441
acon	-7442
▁floating	-7443
Here	-7444
▁violent	-7445
▁expedition	-7446
▁AT	-7447
90	-7448
▁Ev	-7449
▁lest	-7450
▁Freder	-7451
▁instantly	-7452
▁Parliament	-7453
ato	-7454
▁finds	-7455
mutation	-7456
▁·	-7457
▁45	-7458
▁jew	-7459
▁sixty	-7460
▁career	-7461
▁sprang	-7462
yles	-7463
▁million	-7464
▁shouted	-7465
▁transfer	-7466
adelph	-7467
▁disch	-7468
oration	-7469
▁enabled	-7470
▁prosper	-7471
pad	-7472
▁obed	-7473
▁February	-7474
▁channels	-7475
staticmethod	-7476
▁NE	-7477
▁ensure	-7478
▁tables	-7479
ael	-7480
quet	-7481
▁excuse	-7482
.",	-7483
▁chapter	-7484
▁production	-7485
▁unexpected	-7486
BLE	-7487
gamma	-7488
▁inquired	-7489
▁manifest	-7490
PR	-7491
▁Pass	-7492
▁gift	-7493
Symbol	-7494
▁fever	-7495
▁limits	-7496
▁edition	-7497
▁COM	-7498
▁ideal	-7499
▁northern	-7500
din	-7501
vet	-7502
enger	-7503
ithub	-7504
▁anyone	-7505
▁Ha	-7506
▁basis	-7507
▁rushed	-7508
▁domestic	-7509
▁dramatic	-7510
▁ON	-7511
▁accord	-7512
▁excess	-7513
fty	-7514
Aside	-7515
arian	-7516
▁Scott	-7517
▁debug	-7518
▁permitted	-7519
ipt	-7520
ribed	-7521
▁atmosp	-7522
▁softly	-7523
▁References	-7524
▁checkpoint	-7525
tim	-7526
▁ric	-7527
▁fame	-7528
urance	-7529
▁articles	-7530
▁starting	-7531
thur	-7532
pless	-7533
▁sounds	-7534
dense	-7535
inger	-7536
verbose	-7537
▁lights	-7538
Exception	-7539
▁National	-7540
(2	-7541
"--	-7542
aints	-7543
▁rejo	-7544
Config	-7545
plicit	-7546
▁profound	-7547
▁DU	-7548
▁Over	-7549
▁bend	-7550
▁leader	-7551
▁slaves	-7552
▁strongly	-7553
__.	-7554
▁unf	-7555
▁forbid	-7556
perm	-7557
▁stiff	-7558
weights	-7559
▁rat	-7560
▁kings	-7561
initial	-7562
▁compre	-7563
▁formerly	-7564
▁universal	-7565
)``	-7566
▁Holy	-7567
acious	-7568
▁NaN	-7569
section	-7570
▁observe	-7571
▁admiration	-7572
leaf	-7573
stop	-7574
▁MAN	-7575
▁unus	-7576
▁positions	-7577
▁wal	-7578
Cl	-7579
16',	-7580
▁Lie	-7581
▁Son	-7582
▁renew	-7583
▁wheel	-7584
▁stablehlo	-7585
▁associated	-7586
ML	-7587
iated	-7588
▁Pierre	-7589
▁convey	-7590
adelphia	-7591
▁central	-7592
▁consult	-7593
▁founded	-7594
▁developed	-7595
▁acquaintance	-7596
''	-7597
)\	-7598
show	-7599
▁bride	-7600
ella	-7601
▁Mur	-7602
▁cot	-7603
solve	-7604
agraph	-7605
▁picked	-7606
▁Example	-7607
▁frightened	-7608
▁failure	-7609
▁Although	-7610
acles	-7611
▁blessed	-7612
▁miserable	-7613
uing	-7614
▁Gre	-7615
▁examples	-7616
▁quarters	-7617
4*	-7618
▁hal	-7619
▁recol	-7620
▁tokens	-7621
▁interrupted	-7622
del	-7623
▁obsc	-7624
fulness	-7625
▁construction	-7626
▁Bab	-7627
▁hole	-7628
▁separated	-7629
▁temp	-7630
▁forgive	-7631
▁internal	-7632
▁Fair	-7633
nsylvan	-7634
▁committed	-7635
oop	-7636
otal	-7637
sort	-7638
orial	-7639
▁fatal	-7640
▁acting	-7641
▁profit	-7642
▁movements	-7643
-8	-7644
▁engage	-7645
▁Brother	-7646
▁celebrated	-7647
YR	-7648
▁OPER	-7649
▁indul	-7650
▁paths	-7651
▁instrument	-7652
cext	-7653
eunt	-7654
▁nav	-7655
illes	-7656
▁resc	-7657
ounter	-7658
▁drama	-7659
inductor	-7660
tw	-7661
break	-7662
▁cabin	-7663
▁ocean	-7664
▁approx	-7665
SEGMENTS	-7666
▁kindness	-7667
▁confusion	-7668
NG	-7669
▁Wil	-7670
▁lhs	-7671
▁lit	-7672
▁parser	-7673
▁departure	-7674
▁constitution	-7675
▁rig	-7676
▁scorn	-7677
▁Japanese	-7678
resses	-7679
▁curiosity	-7680
CI	-7681
adem	-7682
github	-7683
▁waste	-7684
hend	-7685
▁crack	-7686
▁CL	-7687
▁177	-7688
trees	-7689
▁noqa	-7690
▁patri	-7691
▁observation	-7692
armed	-7693
▁phot	-7694
defined	-7695
▁fierce	-7696
▁industry	-7697
LD	-7698
none	-7699
▁schools	-7700
▁essential	-7701
▁nearest	-7702
▁breaking	-7703
jnp	-7704
▁whenever	-7705
ASS	-7706
▁blame	-7707
▁desir	-7708
▁Africa	-7709
▁loving	-7710
▁widget	-7711
umin	-7712
acing	-7713
Warning	-7714
reduction	-7715
▁referred	-7716
!_	-7717
Oper	-7718
▁absurd	-7719
sec	-7720
rud	-7721
some	-7722
▁Num	-7723
▁bree	-7724
▁dims	-7725
▁aten	-7726
▁wooden	-7727
=0.	-7728
usc	-7729
domain	-7730
▁Water	-7731
gue	-7732
ICAL	-7733
ummy	-7734
▁Flore	-7735
Element	-7736
▁lately	-7737
▁throat	-7738
▁BE	-7739
▁oh	-7740
▁shade	-7741
▁brings	-7742
Ab	-7743
azz	-7744
dess	-7745
eous	-7746
ston	-7747
strip	-7748
▁chain	-7749
▁supre	-7750
rations	-7751
Insertion	-7752
▁contents	-7753
ka	-7754
asions	-7755
▁Pennsylvan	-7756
Go	-7757
kw	-7758
▁econ	-7759
▁Major	-7760
▁increasing	-7761
▁intelligence	-7762
illa	-7763
▁Dev	-7764
allas	-7765
ships	-7766
idents	-7767
unctuation	-7768
▁conflict	-7769
det	-7770
▁spare	-7771
▁tight	-7772
▁helped	-7773
ulations	-7774
▁treasure	-7775
▁accustomed	-7776
hash	-7777
vest	-7778
▁Mut	-7779
wik	-7780
▁0.0	-7781
▁rng	-7782
Table	-7783
▁refuse	-7784
OUT	-7785
▁grey	-7786
▁derived	-7787
▁listening	-7788
CC	-7789
TON	-7790
cpu	-7791
keep	-7792
▁job	-7793
▁male	-7794
▁plate	-7795
▁Without	-7796
▁unhappy	-7797
▁somewhere	-7798
gon	-7799
upp	-7800
▁Ay	-7801
▁Harry	-7802
▁actor	-7803
▁armed	-7804
▁mood	-7805
▁hollow	-7806
▁JAX	-7807
▁Arab	-7808
▁oath	-7809
dynamic	-7810
▁issued	-7811
ste	-7812
▁jum	-7813
pline	-7814
▁assume	-7815
▁outputs	-7816
▁majority	-7817
▁difficulties	-7818
56	-7819
ulus	-7820
▁Hal	-7821
▁lif	-7822
rection	-7823
▁estimator	-7824
▁banks	-7825
▁ArrayLike	-7826
Add	-7827
▁SIR	-7828
inition	-7829
▁community	-7830
InsertionPoint	-7831
▁Pre	-7832
unning	-7833
▁thence	-7834
▁stepped	-7835
▁whisper	-7836
▁Philadelphia	-7837
▁enterpr	-7838
▁generous	-7839
▁'_	-7840
▁hind	-7841
▁insp	-7842
▁boats	-7843
▁patient	-7844
▁unfortunate	-7845
▁AD	-7846
▁mud	-7847
▁tent	-7848
▁freely	-7849
▁Alexander	-7850
▁magnificent	-7851
Did	-7852
▁Cos	-7853
exper	-7854
▁inspect	-7855
bing	-7856
sympy	-7857
▁ridic	-7858
aration	-7859
▁anybody	-7860
namespace	-7861
curs	-7862
image	-7863
▁tort	-7864
▁territ	-7865
successors	-7866
▁attempted	-7867
▁approaching	-7868
▁Ros	-7869
extra	-7870
his	-7871
▁Inf	-7872
▁eps	-7873
▁risk	-7874
▁writers	-7875
▁enormous	-7876
squ	-7877
starts	-7878
▁Very	-7879
▁Constant	-7880
▁preserve	-7881
89	-7882
RES	-7883
▁lust	-7884
REGIONS	-7885
mann	-7886
othe	-7887
▁ignorant	-7888
ICK	-7889
▁50	-7890
▁...,	-7891
▁pier	-7892
▁flying	-7893
olk	-7894
xis	-7895
rained	-7896
▁ghost	-7897
▁pages	-7898
▁elsewhere	-7899
amer	-7900
named	-7901
▁cott	-7902
▁ancest	-7903
▁opposition	-7904
▁Van	-7905
▁wing	-7906
ashing	-7907
▁charm	-7908
▁appeal	-7909
abstract	-7910
zed	-7911
frac	-7912
numer	-7913
▁wave	-7914
▁merry	-7915
▁household	-7916
iped	-7917
<2	-7918
'``	-7919
Can	-7920
bro	-7921
imp	-7922
lic	-7923
▁Green	-7924
▁Andrew	-7925
▁minimum	-7926
▁frequent	-7927
SP	-7928
▁Dan	-7929
▁Prot	-7930
▁dimin	-7931
AttrBuilder	-7932
▁mysterious	-7933
}'	-7934
32)	-7935
hedral	-7936
search	-7937
▁habits	-7938
▁lighted	-7939
▁inclined	-7940
"\	-7941
▁WH	-7942
held	-7943
▁256,	-7944
▁collected	-7945
▁arrangement	-7946
vs	-7947
▁Bro	-7948
▁elder	-7949
▁largest	-7950
▁Pruss	-7951
▁angle	-7952
▁borne	-7953
▁dtypes	-7954
inth	-7955
▁Tre	-7956
▁pound	-7957
▁header	-7958
▁deliver	-7959
▁OPERATION	-7960
omed	-7961
▁Sol	-7962
ensed	-7963
▁Book	-7964
padding	-7965
▁recall	-7966
▁commanded	-7967
▁treatment	-7968
▁Pan	-7969
argument	-7970
▁sex	-7971
pring	-7972
▁colors	-7973
▁demonstr	-7974
iven	-7975
▁rent	-7976
▁People	-7977
▁forehead	-7978
transforms	-7979
▁delighted	-7980
▁doubtless	-7981
Pl	-7982
57	-7983
-1]	-7984
Rule	-7985
▁eleg	-7986
▁estate	-7987
▁enjoyed	-7988
▁Sometimes	-7989
▁belonging	-7990
azy	-7991
▁Met	-7992
▁Sav	-7993
▁club	-7994
helper	-7995
▁belongs	-7996
▁previously	-7997
▁HE	-7998
astype	-7999
▁services	-8000
▁convinced	-8001
▁qualities	-8002
▁SE	-8003
onic	-8004
▁World	-8005
▁occasionally	-8006
////////////////	-8007
ws	-8008
▁warri	-8009
lections	-8010
▁utterly	-8011
▁revolution	-8012
128	-8013
▁cart	-8014
message	-8015
▁anxiety	-8016
▁announced	-8017
▁characteristic	-8018
Your	-8019
▁cord	-8020
▁sadd	-8021
▁sorts	-8022
▁trick	-8023
itional	-8024
(0)	-8025
iour	-8026
rical	-8027
arange	-8028
single	-8029
▁repeat	-8030
▁7,	-8031
▁bla	-8032
▁propos	-8033
▁hem	-8034
▁steel	-8035
▁legend	-8036
▁guests	-8037
▁belonged	-8038
Mode	-8039
▁Second	-8040
▁writes	-8041
▁erected	-8042
▁Fer	-8043
▁fran	-8044
▁Scotland	-8045
eng	-8046
ino	-8047
▁XXX	-8048
▁Madam	-8049
▁Spirit	-8050
▁barbar	-8051
[[	-8052
upy	-8053
▁delivered	-8054
▁Pennsylvania	-8055
yer	-8056
▁program	-8057
▁rib	-8058
master	-8059
▁dreams	-8060
▁descended	-8061
▁convention	-8062
aping	-8063
▁brid	-8064
▁managed	-8065
▁sovereign	-8066
▁acquainted	-8067
▁Must	-8068
5*	-8069
abor	-8070
▁Rec	-8071
apers	-8072
▁debt	-8073
▁flags	-8074
▁tower	-8075
▁explicit	-8076
▁infinite	-8077
▁intellectual	-8078
poration	-8079
▁trembling	-8080
▁pushed	-8081
▁savage	-8082
OG	-8083
ysis	-8084
▁Gold	-8085
▁Hand	-8086
▁About	-8087
▁affect	-8088
▁western	-8089
▁affected	-8090
)',	-8091
[2]	-8092
unique	-8093
content	-8094
▁suffix	-8095
▁exposed	-8096
▁likewise	-8097
▁comparison	-8098
AST	-8099
▁10,	-8100
select	-8101
▁mystery	-8102
▁millions	-8103
▁adventure	-8104
5)	-8105
urely	-8106
▁Spani	-8107
▁stairs	-8108
▁Lake	-8109
ancholy	-8110
ona	-8111
▁37	-8112
▁Because	-8113
estimator	-8114
Id	-8115
Lay	-8116
Rec	-8117
▁limited	-8118
▁natives	-8119
▁atmosphere	-8120
▁expressions	-8121
MAT	-8122
awn	-8123
▁rush	-8124
▁tear	-8125
ighter	-8126
▁rolled	-8127
▁computed	-8128
▁reputation	-8129
▁comfortable	-8130
▁lon	-8131
▁knife	-8132
▁punishment	-8133
80	-8134
▁ham	-8135
ugh	-8136
▁Di	-8137
Vector	-8138
holder	-8139
versed	-8140
_.)	-8141
▁Sk	-8142
▁Uncle	-8143
▁compass	-8144
▁plainly	-8145
▁resolution	-8146
▁ped	-8147
▁strain	-8148
▁utmost	-8149
fid	-8150
och	-8151
loss	-8152
ocal	-8153
▁Give	-8154
▁Leon	-8155
▁quad	-8156
comple	-8157
ienced	-8158
▁owner	-8159
▁detail	-8160
▁specim	-8161
▁distress	-8162
▁southern	-8163
▁determine	-8164
▁scattered	-8165
................	-8166
▁[2	-8167
high	-8168
▁Jacob	-8169
▁grate	-8170
▁items	-8171
▁symbolic	-8172
Code	-8173
bour	-8174
▁meal	-8175
▁sust	-8176
lege	-8177
▁(0.	-8178
▁gri	-8179
distributed	-8180
▁Ward	-8181
▁insult	-8182
aft	-8183
▁Death	-8184
▁antic	-8185
▁borrow	-8186
▁feared	-8187
urbed	-8188
▁boast	-8189
▁History	-8190
▁disturb	-8191
▁MU	-8192
▁bosom	-8193
▁minor	-8194
▁disease	-8195
▁ignorance	-8196
▁annotations	-8197
ECT	-8198
eur	-8199
▁31	-8200
tyle	-8201
▁campaign	-8202
40	-8203
▁verse	-8204
▁intent	-8205
▁nodded	-8206
▁prepare	-8207
▁scientific	-8208
UST	-8209
abb	-8210
▁Four	-8211
▁happens	-8212
▁noted	-8213
▁keyword	-8214
▁regiment	-8215
▁delightful	-8216
:—	-8217
skip	-8218
▁cries	-8219
▁presents	-8220
▁TY	-8221
▁via	-8222
▁veget	-8223
▁shapes	-8224
anked	-8225
▁voyage	-8226
▁partition	-8227
42	-8228
43	-8229
▁Up	-8230
arer	-8231
rete	-8232
▁rul	-8233
ignore	-8234
▁spark	-8235
ertainly	-8236
overload	-8237
}}	-8238
▁60	-8239
▁Row	-8240
▁reject	-8241
subs	-8242
upon	-8243
▁sqrt	-8244
▁Graph	-8245
▁swept	-8246
plicate	-8247
parameters	-8248
conn	-8249
▁Path	-8250
▁rust	-8251
▁clock	-8252
▁metric	-8253
▁mistaken	-8254
▁manufacture	-8255
▁ard	-8256
▁represents	-8257
▁fid	-8258
anned	-8259
▁instructions	-8260
ront	-8261
▁grav	-8262
arling	-8263
▁coach	-8264
Adaptor	-8265
▁Catholic	-8266
IRST	-8267
▁gaze	-8268
▁consid	-8269
▁quarrel	-8270
Man	-8271
izz	-8272
▁hook	-8273
String	-8274
storage	-8275
▁paused	-8276
itutions	-8277
▁hanging	-8278
▁tragedy	-8279
▁organization	-8280
achus	-8281
▁emph	-8282
▁shared	-8283
▁threshold	-8284
cat	-8285
▁2.0	-8286
▁prize	-8287
ORE	-8288
▁LA	-8289
iasm	-8290
▁Mod	-8291
▁Bible	-8292
▁gates	-8293
▁profess	-8294
▁==========	-8295
dep	-8296
iast	-8297
callback	-8298
▁interior	-8299
▁functools	-8300
ieu	-8301
▁202	-8302
▁slept	-8303
▁suspicion	-8304
▁absor	-8305
▁marks	-8306
▁patience	-8307
▁province	-8308
Returns	-8309
icients	-8310
▁Function	-8311
▁restored	-8312
▁intervals	-8313
withstanding	-8314
Are	-8315
dig	-8316
▁propri	-8317
▁dataset	-8318
▁inverse	-8319
.*	-8320
69	-8321
bow	-8322
▁-1,	-8323
▁Lin	-8324
utation	-8325
▁discussion	-8326
▁appropriate	-8327
eze	-8328
ulf	-8329
▁melancholy	-8330
SH	-8331
▁diver	-8332
▁Should	-8333
▁mortal	-8334
▁application	-8335
▁'\\	-8336
▁ecc	-8337
▁vac	-8338
▁ours	-8339
pended	-8340
▁Common	-8341
▁Right	-8342
▁Castle	-8343
▁Martin	-8344
▁measures	-8345
▁signature	-8346
events	-8347
header	-8348
▁flame	-8349
tok	-8350
▁cig	-8351
Count	-8352
▁eagerly	-8353
▁007	-8354
▁Fil	-8355
lope	-8356
▁nest	-8357
ua	-8358
]):	-8359
▁Mel	-8360
▁tribe	-8361
UP	-8362
▁Quix	-8363
▁bath	-8364
gather	-8365
Will	-8366
▁pad	-8367
ender	-8368
▁narr	-8369
fields	-8370
▁async	-8371
▁Def	-8372
UG	-8373
Text	-8374
polys	-8375
▁shalt	-8376
▁mounted	-8377
▁secured	-8378
▁assigned	-8379
▁fee	-8380
▁Secret	-8381
OpAdaptor	-8382
▁captured	-8383
▁Crown	-8384
▁parse	-8385
▁validate	-8386
▁consequently	-8387
`:	-8388
▁bask	-8389
height	-8390
usions	-8391
aughters	-8392
▁preferred	-8393
Object	-8394
▁Child	-8395
▁misery	-8396
▁filename	-8397
▁net	-8398
itled	-8399
▁recently	-8400
64,	-8401
▁Barry	-8402
▁mu	-8403
▁Camb	-8404
Format	-8405
SC	-8406
buff	-8407
puted	-8408
udden	-8409
▁tick	-8410
▁comment	-8411
▁nervous	-8412
▁observations	-8413
unted	-8414
▁alarm	-8415
▁roads	-8416
chester	-8417
▁wrapper	-8418
_),	-8419
▁Hence	-8420
▁alter	-8421
▁Oliver	-8422
▁invited	-8423
alm	-8424
bes	-8425
▁steep	-8426
▁coffee	-8427
mir	-8428
ixture	-8429
▁counsel	-8430
▁dancing	-8431
▁ornament	-8432
ISS	-8433
OTH	-8434
rhs	-8435
▁1-	-8436
▁Ep	-8437
TYPE	-8438
▁FIFF	-8439
general	-8440
▁behavior	-8441
aph	-8442
▁Mus	-8443
▁answ	-8444
▁ren	-8445
▁storage	-8446
▁troubles	-8447
▁weakness	-8448
▁enthusiasm	-8449
cks	-8450
▁006	-8451
▁Make	-8452
▁Arthur	-8453
▁external	-8454
agged	-8455
▁frank	-8456
▁existed	-8457
▁descript	-8458
amped	-8459
▁Sant	-8460
blocks	-8461
▁loyal	-8462
▁instruct	-8463
Dis	-8464
▁008	-8465
guard	-8466
▁Army	-8467
▁bull	-8468
ington	-8469
▁actions	-8470
▁crowded	-8471
▁useless	-8472
▁suitable	-8473
alty	-8474
▁005	-8475
▁eternal	-8476
sur	-8477
▁scr	-8478
▁bears	-8479
olation	-8480
▁Comment	-8481
▁generated	-8482
icles	-8483
▁Wind	-8484
;"	-8485
pa	-8486
omer	-8487
▁lun	-8488
▁alike	-8489
▁college	-8490
▁combined	-8491
▁commander	-8492
▁primitive	-8493
[2	-8494
▁silk	-8495
▁county	-8496
▁knight	-8497
▁individuals	-8498
TO	-8499
▁shru	-8500
▁winds	-8501
special	-8502
▁strang	-8503
pdf	-8504
▁cher	-8505
▁nights	-8506
operator	-8507
▁depends	-8508
▁unconscious	-8509
58	-8510
▁bark	-8511
▁owing	-8512
▁monarch	-8513
▁reflect	-8514
▁sisters	-8515
greg	-8516
BLOCK	-8517
▁gracious	-8518
▁experiment	-8519
rm	-8520
▁API	-8521
▁Mat	-8522
Glyph	-8523
▁deed	-8524
▁uttered	-8525
▁electric	-8526
functional	-8527
cca	-8528
▁gest	-8529
hers	-8530
▁perman	-8531
▁philosophy	-8532
73	-8533
ulpt	-8534
▁WAR	-8535
▁genu	-8536
▁practically	-8537
72	-8538
▁apt	-8539
▁kissed	-8540
~~~~~~~~	-8541
▁Quixote	-8542
▁descent	-8543
▁Vict	-8544
▁concluded	-8545
▁2*	-8546
itors	-8547
▁swear	-8548
▁shining	-8549
▁deprecated	-8550
Off	-8551
rum	-8552
▁dared	-8553
▁intim	-8554
▁paint	-8555
▁remote	-8556
contains	-8557
yes	-8558
▁remo	-8559
plicity	-8560
inations	-8561
▁sharding	-8562
▁tx	-8563
conv	-8564
▁Lib	-8565
▁Luc	-8566
final	-8567
▁arbit	-8568
▁exchange	-8569
▁reported	-8570
=0	-8571
OLD	-8572
▁179	-8573
▁link	-8574
▁burned	-8575
seen	-8576
column	-8577
▁lofty	-8578
▁Symbol	-8579
▁leaders	-8580
▁stretched	-8581
▁bew	-8582
▁Line	-8583
degree	-8584
iently	-8585
▁abstract	-8586
multi	-8587
rig	-8588
triton	-8589
▁occasions	-8590
uv	-8591
▁7.	-8592
eding	-8593
▁widow	-8594
▁stronger	-8595
62	-8596
argin	-8597
specs	-8598
▁ashamed	-8599
▁40	-8600
▁flock	-8601
arrison	-8602
variance	-8603
▁background	-8604
▁Punctuation	-8605
"))	-8606
arte	-8607
▁attacked	-8608
▁ACT	-8609
▁China	-8610
▁glanced	-8611
▁interview	-8612
za	-8613
200	-8614
cian	-8615
eling	-8616
scape	-8617
▁Poor	-8618
▁flew	-8619
▁drunk	-8620
▁Holland	-8621
▁creatures	-8622
▁Leg	-8623
files	-8624
▁folk	-8625
▁Chief	-8626
▁esteem	-8627
▁fitted	-8628
▁desperate	-8629
ench	-8630
▁Card	-8631
illing	-8632
▁shield	-8633
▁anticip	-8634
▁remarks	-8635
▁humanity	-8636
▁((	-8637
mond	-8638
▁cum	-8639
▁tub	-8640
title	-8641
▁deny	-8642
ini	-8643
unn	-8644
▁tang	-8645
future	-8646
▁brand	-8647
▁screen	-8648
▁According	-8649
composition	-8650
ga	-8651
kv	-8652
▁ga	-8653
▁Kent	-8654
▁meta	-8655
▁violence	-8656
▁directions	-8657
proxy	-8658
▁conception	-8659
▁'%	-8660
▁Albert	-8661
.).	-8662
gex	-8663
▁rope	-8664
▁tied	-8665
sequence	-8666
▁BL	-8667
▁grim	-8668
▁deriv	-8669
▁detect	-8670
▁handed	-8671
▁invalid	-8672
▁entering	-8673
▁Americans	-8674
▁TR	-8675
upper	-8676
▁venture	-8677
▁originally	-8678
▁distinction	-8679
AK	-8680
iods	-8681
rich	-8682
ulse	-8683
▁Say	-8684
▁Walter	-8685
owing	-8686
▁pist	-8687
▁songs	-8688
▁trail	-8689
hum	-8690
▁Mean	-8691
▁whist	-8692
'],	-8693
Fla	-8694
yard	-8695
▁(4,	-8696
=0)	-8697
▁12,	-8698
▁204	-8699
maybe	-8700
▁brow	-8701
initely	-8702
▁seeking	-8703
▁hitherto	-8704
▁combination	-8705
La	-8706
▁(-	-8707
gging	-8708
▁Gard	-8709
queeze	-8710
▁restore	-8711
▁afterward	-8712
▁frequency	-8713
Ph	-8714
▁[-	-8715
▁Bla	-8716
istered	-8717
▁capacity	-8718
gence	-8719
▁alle	-8720
▁Germans	-8721
▁fed	-8722
isely	-8723
▁lect	-8724
▁prior	-8725
▁Empire	-8726
▁Temple	-8727
▁border	-8728
▁uncertain	-8729
buf	-8730
▁diss	-8731
▁lamp	-8732
▁merch	-8733
fection	-8734
▁marble	-8735
▁united	-8736
▁grounds	-8737
▁suspect	-8738
URE	-8739
amely	-8740
▁duke	-8741
jection	-8742
▁ignored	-8743
abilities	-8744
▁acknowled	-8745
ader	-8746
▁crying	-8747
▁charged	-8748
▁foundation	-8749
▁GE	-8750
ckets	-8751
▁Dave	-8752
▁torn	-8753
▁yard	-8754
▁permute	-8755
▁modified	-8756
76.	-8757
▁Ox	-8758
Font	-8759
suff	-8760
wick	-8761
▁bag	-8762
MP	-8763
__()	-8764
▁rav	-8765
▁assure	-8766
▁beaten	-8767
▁signed	-8768
▁necessarily	-8769
IUS	-8770
▁actors	-8771
CO	-8772
LL	-8773
_0	-8774
rd	-8775
Parser	-8776
▁fired	-8777
transpose	-8778
▁inferior	-8779
;--	-8780
link	-8781
▁sen	-8782
oubted	-8783
▁reasonable	-8784
udd	-8785
▁PA	-8786
▁shake	-8787
▁urged	-8788
ections	-8789
▁safely	-8790
▁callback	-8791
=["	-8792
▁xx	-8793
([1,	-8794
otic	-8795
▁scal	-8796
▁eleven	-8797
▁matplotlib	-8798
▁summon	-8799
▁readily	-8800
supported	-8801
tile	-8802
ester	-8803
▁aloud	-8804
▁sizes	-8805
late	-8806
▁penet	-8807
▁binary	-8808
▁disposed	-8809
▁“_	-8810
▁hadn	-8811
▁flash	-8812
▁obvious	-8813
ups	-8814
▁hers	-8815
strides	-8816
▁steady	-8817
plication	-8818
YS	-8819
meth	-8820
▁beloved	-8821
▁Biograph	-8822
60	-8823
db	-8824
dele	-8825
▁parish	-8826
template	-8827
▁PE	-8828
▁Nat	-8829
▁Tro	-8830
▁Pray	-8831
▁loaded	-8832
ategories	-8833
▁merchant	-8834
▁midnight	-8835
▁response	-8836
▁exhausted	-8837
▁Boy	-8838
▁Anne	-8839
▁Class	-8840
▁doctrine	-8841
▁Town	-8842
▁bench	-8843
▁School	-8844
▁colony	-8845
symbolic	-8846
signature	-8847
▁perceived	-8848
sys	-8849
▁64	-8850
uity	-8851
bounds	-8852
▁craft	-8853
ribe	-8854
▁pig	-8855
▁wrath	-8856
oiselle	-8857
▁describe	-8858
ltk	-8859
icted	-8860
▁Camp	-8861
▁Turk	-8862
▁seas	-8863
▁cheeks	-8864
▁supports	-8865
▁authorities	-8866
▁Hy	-8867
▁dot	-8868
▁medic	-8869
▁shadows	-8870
▁entitled	-8871
▁suggestion	-8872
▁translation	-8873
▁ult	-8874
▁provinces	-8875
▁seriously	-8876
Gu	-8877
▁ft	-8878
west	-8879
▁rect	-8880
▁Sancho	-8881
pick	-8882
▁PAR	-8883
errors	-8884
▁cheap	-8885
encoding	-8886
▁records	-8887
Def	-8888
▁LU	-8889
▁slain	-8890
▁Productions	-8891
dra	-8892
▁disp	-8893
schema	-8894
▁wives	-8895
▁abandoned	-8896
)`	-8897
▁33	-8898
▁Cape	-8899
▁Mist	-8900
▁Carol	-8901
▁wedding	-8902
▁daughters	-8903
▁Ach	-8904
product	-8905
▁exquis	-8906
▁prejud	-8907
▁murmured	-8908
▁resistance	-8909
icken	-8910
▁Were	-8911
▁circumstance	-8912
iana	-8913
▁sore	-8914
▁eating	-8915
▁studied	-8916
Dtype	-8917
entry	-8918
▁gazed	-8919
▁phrase	-8920
▁largely	-8921
▁masters	-8922
▁acquired	-8923
▁agreeable	-8924
▁3)	-8925
users	-8926
▁rival	-8927
▁Friend	-8928
▁hungry	-8929
location	-8930
▁prayers	-8931
▁definite	-8932
▁Whitespace	-8933
/4	-8934
arius	-8935
▁lonely	-8936
▁capture	-8937
▁politics	-8938
▁puts	-8939
▁cheek	-8940
▁straw	-8941
▁constit	-8942
▁forever	-8943
▁maintained	-8944
▁settlement	-8945
XT	-8946
rael	-8947
▁cas	-8948
egers	-8949
▁Turn	-8950
▁magic	-8951
▁pytree	-8952
OOD	-8953
▁Has	-8954
sorted	-8955
▁keeps	-8956
▁contem	-8957
page	-8958
rates	-8959
variable	-8960
▁creation	-8961
+',	-8962
alls	-8963
▁Sea	-8964
▁depos	-8965
▁treas	-8966
uddenly	-8967
▁bygroups	-8968
chn	-8969
las	-8970
▁sed	-8971
CHECK	-8972
▁Corn	-8973
▁beta	-8974
▁coal	-8975
▁firmly	-8976
▁retired	-8977
>`	-8978
▁haue	-8979
etworkX	-8980
▁contact	-8981
▁revenge	-8982
ij	-8983
▁Form	-8984
mother	-8985
mag	-8986
ura	-8987
icro	-8988
▁Sand	-8989
▁impr	-8990
buffers	-8991
▁earliest	-8992
▁estimate	-8993
beta	-8994
▁vary	-8995
▁rises	-8996
▁maiden	-8997
▁horrible	-8998
▁replaced	-8999
TensorType	-9000
▁mart	-9001
▁merit	-9002
ordered	-9003
▁adding	-9004
▁contri	-9005
▁sincere	-9006
▁experienced	-9007
▁FRAN	-9008
▁Jones	-9009
▁query	-9010
▁immort	-9011
▁sculpt	-9012
OpResult	-9013
▁sleeping	-9014
▁mix	-9015
▁disposition	-9016
Cor	-9017
▁priests	-9018
▁consists	-9019
RAW	-9020
Str	-9021
ida	-9022
irk	-9023
▁von	-9024
▁Till	-9025
▁rude	-9026
▁tide	-9027
▁solve	-9028
▁empire	-9029
▁landed	-9030
▁sentiment	-9031
Val	-9032
bor	-9033
quar	-9034
▁Put	-9035
icing	-9036
▁PRIN	-9037
▁leads	-9038
bax	-9039
Image	-9040
▁idle	-9041
▁autumn	-9042
▁procession	-9043
sig	-9044
comb	-9045
▁angel	-9046
▁protest	-9047
▁0]	-9048
▁burden	-9049
▁satisfy	-9050
1-	-9051
▁lou	-9052
record	-9053
▁madam	-9054
▁Author	-9055
▁colored	-9056
▁generate	-9057
▁permission	-9058
82	-9059
▁Kr	-9060
▁Bert	-9061
▁VIII	-9062
▁Ordered	-9063
▁goodness	-9064
▁wondered	-9065
ULL	-9066
icle	-9067
ithe	-9068
▁Sar	-9069
scatter	-9070
▁Exception	-9071
▁bin	-9072
subgraph	-9073
▁handler	-9074
▁drinking	-9075
▁od	-9076
ashes	-9077
▁Gentle	-9078
▁reverse	-9079
attribute	-9080
[0-	-9081
leness	-9082
ulating	-9083
▁scarce	-9084
▁stored	-9085
▁extension	-9086
▁pip	-9087
▁somebody	-9088
▁sale	-9089
▁seconds	-9090
▁commerce	-9091
▁Sum	-9092
geant	-9093
shine	-9094
▁neat	-9095
orable	-9096
▁devices	-9097
▁shelter	-9098
▁confined	-9099
▁varieties	-9100
▁historical	-9101
half	-9102
▁-1.	-9103
▁iii	-9104
▁Jove	-9105
▁aven	-9106
▁sang	-9107
▁feather	-9108
mont	-9109
iforn	-9110
▁absent	-9111
▁executed	-9112
oral	-9113
▁dil	-9114
▁rum	-9115
▁patron	-9116
▁stupid	-9117
▁encoura	-9118
83	-9119
;':	-9120
itan	-9121
skin	-9122
icial	-9123
▁Fore	-9124
▁wool	-9125
▁caval	-9126
▁limbs	-9127
mediate	-9128
▁preceding	-9129
▁(3,	-9130
▁Hell	-9131
▁lift	-9132
▁puzz	-9133
arrass	-9134
▁College	-9135
▁sources	-9136
▁realized	-9137
bet	-9138
▁Caes	-9139
▁peril	-9140
Lib	-9141
egral	-9142
piration	-9143
▁helpless	-9144
▁continually	-9145
pify	-9146
▁SIGN	-9147
▁flung	-9148
▁Defaults	-9149
▁commenced	-9150
▁009	-9151
▁Conf	-9152
▁inev	-9153
▁finish	-9154
▁sending	-9155
__,	-9156
▁Est	-9157
▁fury	-9158
▁trip	-9159
plicated	-9160
▁nevertheless	-9161
elly	-9162
▁unw	-9163
▁reckon	-9164
▁calculated	-9165
nut	-9166
arrays	-9167
▁beings	-9168
▁hastily	-9169
▁communication	-9170
ENCE	-9171
▁Page	-9172
▁prud	-9173
▁poets	-9174
▁permit	-9175
▁troubled	-9176
▁recovered	-9177
▁properties	-9178
▁provisions	-9179
tags	-9180
zing	-9181
allen	-9182
▁fake	-9183
▁abrupt	-9184
▁scream	-9185
▁raising	-9186
_3	-9187
▁fires	-9188
▁folks	-9189
▁sport	-9190
▁Countess	-9191
▁automatic	-9192
▁accordingly	-9193
rial	-9194
▁syn	-9195
▁bloss	-9196
▁pairs	-9197
▁heavens	-9198
arant	-9199
▁ingen	-9200
▁export	-9201
▁streams	-9202
bye	-9203
water	-9204
▁Mess	-9205
▁hunting	-9206
partition	-9207
▁concealed	-9208
pg	-9209
}",	-9210
▁vul	-9211
alion	-9212
rious	-9213
dynamo	-9214
▁coefficients	-9215
70	-9216
ITY	-9217
000,	-9218
ipro	-9219
▁vice	-9220
▁Night	-9221
▁exclude	-9222
▁activity	-9223
pare	-9224
Exeunt	-9225
▁guest	-9226
racy	-9227
take	-9228
▁gifts	-9229
▁naked	-9230
'[	-9231
eh	-9232
▁Gar	-9233
offsets	-9234
▁faster	-9235
▁riding	-9236
▁lap	-9237
▁slipped	-9238
▁examined	-9239
▁indicated	-9240
▁pi	-9241
▁ta	-9242
prob	-9243
▁terr	-9244
semble	-9245
▁civilization	-9246
▁establishment	-9247
59	-9248
▁́	-9249
▁Pict	-9250
▁Stand	-9251
precision	-9252
▁elo	-9253
▁oft	-9254
hearted	-9255
Ext	-9256
_--	-9257
▁8.	-9258
urst	-9259
+----	-9260
control	-9261
url	-9262
Dist	-9263
ushes	-9264
▁vote	-9265
numbers	-9266
▁legisl	-9267
SK	-9268
-01	-9269
anny	-9270
unit	-9271
▁Tex	-9272
iences	-9273
▁altar	-9274
▁fears	-9275
Log	-9276
▁Mill	-9277
▁decay	-9278
▁investig	-9279
ankedTensorType	-9280
▁Made	-9281
▁overw	-9282
override	-9283
RankedTensorType	-9284
PO	-9285
▁39	-9286
▁ps	-9287
▁Ruth	-9288
▁subm	-9289
▁decide	-9290
▁continuous	-9291
▁AM	-9292
▁1],	-9293
▁heed	-9294
▁noon	-9295
▁cliff	-9296
▁endure	-9297
▁Chapter	-9298
▁recover	-9299
NA	-9300
}\	-9301
▁[[	-9302
Have	-9303
Float	-9304
▁Rose	-9305
▁folly	-9306
▁legal	-9307
▁shoes	-9308
General	-9309
Expected	-9310
▁thereby	-9311
▁commonly	-9312
▁imagined	-9313
▁teaching	-9314
PT	-9315
shift	-9316
essions	-9317
▁stared	-9318
▁stayed	-9319
▁Literal	-9320
▁ascertain	-9321
▁requested	-9322
ao	-9323
▁({	-9324
raise	-9325
▁sits	-9326
▁entries	-9327
▁unusual	-9328
▁employment	-9329
▁rud	-9330
▁gover	-9331
▁poured	-9332
ili	-9333
▁ff	-9334
sets	-9335
riter	-9336
onical	-9337
▁scope	-9338
amation	-9339
▁conceal	-9340
▁respond	-9341
▁territory	-9342
stable	-9343
▁adjust	-9344
▁blocks	-9345
▁customs	-9346
reference	-9347
▁insisted	-9348
▁matrices	-9349
md	-9350
07\	-9351
arly	-9352
pany	-9353
▁fert	-9354
ructor	-9355
▁bottle	-9356
▁Florence	-9357
100	-9358
_1,	-9359
▁bits	-9360
▁mead	-9361
▁begged	-9362
▁Californ	-9363
▁VariableTracker	-9364
GR	-9365
engers	-9366
▁FIRST	-9367
collect	-9368
ONE	-9369
mne	-9370
▁enl	-9371
FAULT	-9372
isation	-9373
▁VII	-9374
▁cave	-9375
▁deeds	-9376
▁disgu	-9377
▁grows	-9378
▁waist	-9379
▁anywhere	-9380
▁departed	-9381
ORY	-9382
▁},	-9383
▁lesson	-9384
▁Margaret	-9385
Ed	-9386
PL	-9387
ILE	-9388
OME	-9389
▁""	-9390
▁'{	-9391
inery	-9392
thren	-9393
▁Hard	-9394
▁shortly	-9395
ifications	-9396
*(	-9397
▁nut	-9398
▁thir	-9399
▁agent	-9400
warning	-9401
bf	-9402
exit	-9403
▁Fel	-9404
▁Sun	-9405
▁fount	-9406
▁Greece	-9407
▁farmer	-9408
▁declare	-9409
▁desires	-9410
▁whereas	-9411
cdf	-9412
rust	-9413
▁Arm	-9414
Buffer	-9415
insert	-9416
▁Mexico	-9417
prod	-9418
umps	-9419
scope	-9420
▁Dear	-9421
▁Jane	-9422
▁Test	-9423
before	-9424
▁retire	-9425
▁devotion	-9426
geon	-9427
▁Down	-9428
▁execut	-9429
ARY	-9430
Inst	-9431
olas	-9432
▁inch	-9433
▁shed	-9434
umbled	-9435
▁settle	-9436
children	-9437
▁receiving	-9438
▁(19	-9439
▁ori	-9440
▁boil	-9441
▁plun	-9442
▁masses	-9443
▁painful	-9444
startswith	-9445
▁materials	-9446
▁Revolution	-9447
▁successors	-9448
10.	-9449
Zero	-9450
phys	-9451
clear	-9452
▁toss	-9453
▁homes	-9454
▁admire	-9455
▁somehow	-9456
▁Virginia	-9457
▁disgrace	-9458
osh	-9459
estion	-9460
▁pursued	-9461
▁purchase	-9462
▁encourage	-9463
God	-9464
exec	-9465
▁hash	-9466
natural	-9467
=1)	-9468
▁rv	-9469
Input	-9470
onday	-9471
▁pover	-9472
▁arrive	-9473
▁dynamic	-9474
▁computation	-9475
▁tum	-9476
▁merc	-9477
geance	-9478
▁annoy	-9479
NO	-9480
▁'.	-9481
▁assign	-9482
positive	-9483
▁attempts	-9484
▁threatened	-9485
ORK	-9486
exact	-9487
round	-9488
▁queer	-9489
▁comedy	-9490
▁demands	-9491
▁sensible	-9492
16,	-9493
=2)	-9494
▁HER	-9495
▁ming	-9496
▁Multi	-9497
▁antiqu	-9498
▁cotton	-9499
▁humour	-9500
▁compare	-9501
▁prevented	-9502
lest	-9503
prom	-9504
▁prod	-9505
▁Knight	-9506
▁combat	-9507
▁consum	-9508
▁modules	-9509
▁colonies	-9510
▁(17	-9511
▁wol	-9512
berry	-9513
▁Norm	-9514
▁Stud	-9515
figure	-9516
▁coward	-9517
▁entreat	-9518
▁throwing	-9519
DA	-9520
▁Haw	-9521
▁foe	-9522
▁awake	-9523
▁wreck	-9524
▁Frederick	-9525
andal	-9526
lance	-9527
mount	-9528
▁Cross	-9529
▁guards	-9530
▁serial	-9531
▁Duchess	-9532
▁slightest	-9533
IVE	-9534
Over	-9535
▁Know	-9536
▁clas	-9537
▁Paste	-9538
▁deserted	-9539
▁situated	-9540
ki	-9541
▁Net	-9542
▁chim	-9543
ulture	-9544
▁quoted	-9545
▁senses	-9546
▁conquer	-9547
▁poverty	-9548
UE	-9549
iah	-9550
▁landl	-9551
▁evaluate	-9552
1*	-9553
[1],	-9554
▁swim	-9555
Python	-9556
▁County	-9557
▁Greeks	-9558
▁hatred	-9559
▁masked	-9560
▁genuine	-9561
(2,	-9562
ENSE	-9563
unty	-9564
▁Next	-9565
onsense	-9566
parameter	-9567
▁tendency	-9568
▁touching	-9569
▁villages	-9570
▁committee	-9571
▁examination	-9572
ISH	-9573
▁network	-9574
▁package	-9575
▁accounts	-9576
▁ambition	-9577
▁accompany	-9578
pent	-9579
oting	-9580
woman	-9581
depend	-9582
▁activ	-9583
achment	-9584
regular	-9585
▁Please	-9586
inate	-9587
▁seventy	-9588
▁association	-9589
▁*=	-9590
▁End	-9591
▁PRO	-9592
Gener	-9593
fixed	-9594
▁Lanc	-9595
▁reports	-9596
New	-9597
Very	-9598
vous	-9599
▁Rog	-9600
▁[2]	-9601
▁elev	-9602
▁fasc	-9603
▁reflection	-9604
_.]	-9605
▁wrap	-9606
▁races	-9607
▁interf	-9608
▁rivers	-9609
emoiselle	-9610
▁possibility	-9611
▁allows	-9612
▁francs	-9613
▁python	-9614
▁pointing	-9615
▁pressure	-9616
52	-9617
going	-9618
contin	-9619
▁mould	-9620
▁revel	-9621
▁cutting	-9622
ela	-9623
▁fain	-9624
▁Image	-9625
▁pains	-9626
▁thirst	-9627
▁authors	-9628
▁boolean	-9629
▁wanting	-9630
▁embarrass	-9631
▁neighbors	-9632
";	-9633
WH	-9634
oria	-9635
illery	-9636
▁designed	-9637
▁consciousness	-9638
▁bon	-9639
▁dir	-9640
ollow	-9641
▁Adam	-9642
▁chunk	-9643
▁ruined	-9644
▁contribut	-9645
▁Node	-9646
▁recorded	-9647
▁gla	-9648
▁arts	-9649
▁mast	-9650
▁Power	-9651
▁usage	-9652
▁Finally	-9653
▁conviction	-9654
▁perfection	-9655
▁(16	-9656
▁9,	-9657
burgh	-9658
▁shar	-9659
worthy	-9660
▁refuge	-9661
▁tradition	-9662
agues	-9663
ontal	-9664
▁echo	-9665
▁eigen	-9666
▁flatter	-9667
▁opposed	-9668
▁Neg	-9669
asted	-9670
rying	-9671
▁Nich	-9672
▁tiny	-9673
ictions	-9674
▁rarely	-9675
▁culture	-9676
▁revealed	-9677
OUN	-9678
cov	-9679
▁aug	-9680
▁unc	-9681
plate	-9682
▁heap	-9683
setter	-9684
▁Charm	-9685
▁reserved	-9686
▁introduction	-9687
▁ju	-9688
▁Str	-9689
▁Michael	-9690
▁farewell	-9691
▁temporary	-9692
BY	-9693
.),	-9694
▁Qq	-9695
▁Chic	-9696
▁bowed	-9697
▁reaching	-9698
53	-9699
▁1/	-9700
▁KING	-9701
▁tags	-9702
include	-9703
ruption	-9704
▁gloomy	-9705
▁propag	-9706
ategorical	-9707
▁conducted	-9708
▁gratitude	-9709
hi	-9710
ques	-9711
▁Bart	-9712
▁occupy	-9713
▁Pasteur	-9714
▁thither	-9715
▁Moreover	-9716
▁astonishment	-9717
Map	-9718
▁hym	-9719
▁freq	-9720
called	-9721
▁Could	-9722
▁exert	-9723
▁sheet	-9724
▁suspected	-9725
▁Cy	-9726
▁Place	-9727
▁fetch	-9728
▁blessing	-9729
ée	-9730
atre	-9731
even	-9732
aments	-9733
▁agric	-9734
▁gloom	-9735
▁retain	-9736
▁warrant	-9737
▁princess	-9738
▁substance	-9739
▁wake	-9740
leaves	-9741
pytree	-9742
▁lists	-9743
▁intense	-9744
▁shepher	-9745
▁slavery	-9746
▁perceive	-9747
drop	-9748
irmed	-9749
▁treaty	-9750
▁interpol	-9751
(2)	-9752
adic	-9753
▁lev	-9754
akers	-9755
binary	-9756
▁annual	-9757
▁chapel	-9758
oubtedly	-9759
▁goddess	-9760
▁lear	-9761
▁Armen	-9762
▁stout	-9763
▁environ	-9764
contiguous	-9765
tz	-9766
▁BOX	-9767
OUBLE	-9768
anges	-9769
▁Work	-9770
▁sank	-9771
isible	-9772
▁Monte	-9773
Options	-9774
eration	-9775
fortune	-9776
▁ability	-9777
▁heavily	-9778
▁displayed	-9779
▁instruction	-9780
igg	-9781
lik	-9782
▁Sat	-9783
▁Six	-9784
▁Athen	-9785
▁visitor	-9786
▁Iterable	-9787
▁Han	-9788
▁jaw	-9789
coming	-9790
▁prose	-9791
▁sailed	-9792
▁assembled	-9793
DF	-9794
▁cock	-9795
Device	-9796
▁badly	-9797
▁negro	-9798
▁depths	-9799
▁neighbourhood	-9800
uf	-9801
Joh	-9802
_].	-9803
▁Dar	-9804
▁vague	-9805
▁indicate	-9806
▁responsible	-9807
▁-=	-9808
burn	-9809
▁deeper	-9810
▁Otherwise	-9811
App	-9812
gal	-9813
onnx	-9814
▁183	-9815
▁yer	-9816
▁notion	-9817
▁constructed	-9818
▁differences	-9819
▁GR	-9820
obser	-9821
▁cloak	-9822
▁embra	-9823
▁claims	-9824
▁eastern	-9825
▁hundreds	-9826
▁succession	-9827
2(	-9828
exc	-9829
**3*	-9830
safe	-9831
sent	-9832
paths	-9833
ensure	-9834
▁wages	-9835
▁eighteen	-9836
▁regarding	-9837
}:	-9838
blo	-9839
▁Hast	-9840
▁Matt	-9841
keeper	-9842
widget	-9843
getitem	-9844
▁copies	-9845
kerchief	-9846
▁election	-9847
▁enterprise	-9848
▁Fre	-9849
inson	-9850
limit	-9851
▁Oxford	-9852
▁peasant	-9853
▁muttered	-9854
▁distinctly	-9855
CL	-9856
rav	-9857
▁nic	-9858
sched	-9859
closed	-9860
▁beard	-9861
indexer	-9862
▁Letter	-9863
▁ceremon	-9864
LOW	-9865
fro	-9866
▁\\	-9867
ocracy	-9868
▁cease	-9869
▁Austral	-9870
▁driving	-9871
▁constraints	-9872
Lo	-9873
year	-9874
rants	-9875
inence	-9876
▁parad	-9877
▁ceremony	-9878
▁changing	-9879
▁wondering	-9880
experimental	-9881
fc	-9882
gly	-9883
seed	-9884
▁deem	-9885
▁clerk	-9886
▁definition	-9887
▁SEC	-9888
verted	-9889
aturday	-9890
▁cleared	-9891
▁contempl	-9892
numel	-9893
▁Coll	-9894
▁beheld	-9895
2.0	-9896
▁(4	-9897
oped	-9898
stra	-9899
▁owe	-9900
▁512,	-9901
▁knee	-9902
feature	-9903
▁lightly	-9904
▁Ze	-9905
allowed	-9906
▁cottage	-9907
▁crossing	-9908
▁withdraw	-9909
▁considering	-9910
(0	-9911
fd	-9912
IEL	-9913
▁LO	-9914
▁stol	-9915
▁Judge	-9916
▁rested	-9917
▁tempor	-9918
Ne	-9919
▁depri	-9920
▁favourite	-9921
▁adap	-9922
▁chose	-9923
▁stores	-9924
▁Authors	-9925
▁railroad	-9926
▁Cambridge	-9927
|'	-9928
▁flood	-9929
▁Compute	-9930
▁cheerful	-9931
▁portrait	-9932
▁implemented	-9933
IZE	-9934
cia	-9935
▁Pow	-9936
▁Post	-9937
▁bade	-9938
▁staff	-9939
▁Suddenly	-9940
▁visitors	-9941
nv	-9942
apsed	-9943
colors	-9944
itudes	-9945
pytest	-9946
▁disci	-9947
▁musical	-9948
Po	-9949
prot	-9950
▁vine	-9951
ailing	-9952
▁grasp	-9953
▁Edison	-9954
▁Israel	-9955
▁rolling	-9956
▁supreme	-9957
▁California	-9958
202	-9959
isk	-9960
prev	-9961
▁charg	-9962
▁techn	-9963
▁readers	-9964
▁approxim	-9965
constraints	-9966
wing	-9967
▁Jour	-9968
▁shard	-9969
construct	-9970
▁dwelling	-9971
▁administration	-9972
UDA	-9973
▁fx	-9974
▁10.	-9975
▁Bern	-9976
▁lend	-9977
▁pant	-9978
▁incon	-9979
configs	-9980
▁furnish	-9981
▁printing	-9982
▁remainder	-9983
han	-9984
mouth	-9985
▁Mort	-9986
▁PART	-9987
Source	-9988
backed	-9989
umbling	-9990
▁impulse	-9991
▁student	-9992
▁applicable	-9993
sv	-9994
olph	-9995
▁cir	-9996
▁tol	-9997
▁princes	-9998
▁wrought	-9999
1;	-10000
imag	-10001
oping	-10002
union	-10003
▁Unless	-10004
▁curtain	-10005
▁problems	-10006
▁sunshine	-10007
▁Spaniards	-10008
docs	-10009
itating	-10010
▁darling	-10011
▁convenient	-10012
Aut	-10013
384,	-10014
original	-10015
▁railway	-10016
occ	-10017
sch	-10018
▁Sur	-10019
▁woe	-10020
▁Whit	-10021
▁arise	-10022
GER	-10023
beg	-10024
096,	-10025
aton	-10026
▁0.,	-10027
▁Bot	-10028
chunk	-10029
▁leis	-10030
▁jaxpr	-10031
artment	-10032
▁concent	-10033
▁opinions	-10034
▁strictly	-10035
▁subgraph	-10036
▁TYPE	-10037
▁mild	-10038
ICENSE	-10039
▁tones	-10040
atterns	-10041
▁scatter	-10042
▁shaking	-10043
▁intimate	-10044
oda	-10045
stat	-10046
▁mob	-10047
three	-10048
▁dismiss	-10049
▁extensive	-10050
▁residence	-10051
▁strangers	-10052
mu	-10053
▁Rock	-10054
double	-10055
▁poems	-10056
angular	-10057
▁temples	-10058
▁lightning	-10059
Char	-10060
hard	-10061
orum	-10062
otte	-10063
▁Aut	-10064
aparte	-10065
argets	-10066
▁delta	-10067
▁closer	-10068
gorithms	-10069
▁planted	-10070
▁overcome	-10071
▁precisely	-10072
▁¶	-10073
ARE	-10074
hol	-10075
osity	-10076
▁feels	-10077
▁sailor	-10078
▁Stephen	-10079
compatible	-10080
His	-10081
igger	-10082
▁Lucy	-10083
▁push	-10084
▁wash	-10085
encode	-10086
henomen	-10087
CHECKING	-10088
▁implied	-10089
▁resting	-10090
})"	-10091
mind	-10092
▁Arn	-10093
▁rab	-10094
alloc	-10095
leton	-10096
▁Gran	-10097
▁Raises	-10098
▁finest	-10099
IB	-10100
|\	-10101
▁9.	-10102
▁Jews	-10103
osition	-10104
▁commands	-10105
▁Committee	-10106
▁architecture	-10107
▁stair	-10108
regions	-10109
▁marched	-10110
▁matches	-10111
▁realize	-10112
▁privilege	-10113
▁Tay	-10114
▁seq	-10115
ategory	-10116
▁graceful	-10117
▁``(	-10118
▁Alas	-10119
iciency	-10120
▁courts	-10121
▁sphere	-10122
▁vulgar	-10123
▁iteration	-10124
▁institution	-10125
,_	-10126
▁COL	-10127
▁DRAW	-10128
▁Find	-10129
▁boots	-10130
▁layer	-10131
▁Western	-10132
▁periods	-10133
▁wearing	-10134
▁grateful	-10135
▁[4	-10136
▁Stan	-10137
▁insc	-10138
▁pace	-10139
▁Caesar	-10140
▁identity	-10141
DIT	-10142
olis	-10143
acter	-10144
▁Sher	-10145
▁vault	-10146
positions	-10147
▁```	-10148
▁guilt	-10149
▁factory	-10150
▁dispatch	-10151
▁hopeless	-10152
▁gathering	-10153
zer	-10154
▁af	-10155
▁Lee	-10156
▁Mas	-10157
▁Soon	-10158
aneous	-10159
reement	-10160
▁candle	-10161
▁neglect	-10162
▁retained	-10163
▁Lieutenant	-10164
**3	-10165
Bar	-10166
▁NEW	-10167
▁Liber	-10168
▁vivid	-10169
▁guarant	-10170
▁Nevertheless	-10171
▁institutions	-10172
AAAA	-10173
▁dst	-10174
▁nephe	-10175
▁ruins	-10176
▁divide	-10177
▁paying	-10178
▁purple	-10179
▁yonder	-10180
_10	-10181
Miss	-10182
bell	-10183
ilton	-10184
bishop	-10185
▁lament	-10186
▁cunning	-10187
▁dragged	-10188
▁sounded	-10189
▁weapons	-10190
▁brethren	-10191
▁Gal	-10192
▁Les	-10193
▁prime	-10194
17,	-10195
Fig	-10196
outer	-10197
example	-10198
ceptions	-10199
▁horizon	-10200
dimensions	-10201
bbing	-10202
▁adds	-10203
▁gens	-10204
▁tran	-10205
serial	-10206
wrapped	-10207
▁Venice	-10208
▁hospit	-10209
────────	-10210
▁advantages	-10211
Max	-10212
urt	-10213
▁Grace	-10214
▁fearful	-10215
▁careless	-10216
▁consisted	-10217
▁exceedingly	-10218
Dim	-10219
ese	-10220
iano	-10221
rels	-10222
appro	-10223
▁Meanwhile	-10224
▁effective	-10225
▁reflected	-10226
ISE	-10227
isms	-10228
▁Fle	-10229
▁Lay	-10230
▁Nob	-10231
▁mpf	-10232
▁...]	-10233
▁Than	-10234
▁arrow	-10235
▁slope	-10236
▁Romans	-10237
▁forming	-10238
▁improvement	-10239
Mod	-10240
igm	-10241
rage	-10242
▁Vis	-10243
▁Carl	-10244
▁deliber	-10245
▁Wel	-10246
eight	-10247
▁bone	-10248
▁peas	-10249
▁slip	-10250
▁Billy	-10251
▁cream	-10252
▁incor	-10253
▁compile	-10254
ArrayAttr	-10255
▁vengeance	-10256
▁epoch	-10257
▁rifle	-10258
▁victim	-10259
▁commercial	-10260
ado	-10261
azar	-10262
ican	-10263
lder	-10264
▁mant	-10265
isting	-10266
▁shift	-10267
▁Assemb	-10268
▁append	-10269
▁attain	-10270
▁widely	-10271
subclass	-10272
▁achieve	-10273
▁resumed	-10274
▁imprison	-10275
'(	-10276
ght	-10277
▁48	-10278
Tuple	-10279
ernels	-10280
attened	-10281
enabled	-10282
▁mutual	-10283
quarters	-10284
▁studies	-10285
▁fourteen	-10286
King	-10287
vell	-10288
oster	-10289
▁null	-10290
Layout	-10291
▁seeds	-10292
▁spake	-10293
▁packed	-10294
▁fortunate	-10295
▁furniture	-10296
good	-10297
okes	-10298
pres	-10299
access	-10300
▁corpor	-10301
▁lovers	-10302
autograd	-10303
▁barrier	-10304
▁restrict	-10305
▁exquisite	-10306
alo	-10307
▁si	-10308
▁Unt	-10309
▁jest	-10310
▁trif	-10311
▁matching	-10312
▁Corporation	-10313
▁notwithstanding	-10314
IRE	-10315
hetic	-10316
▁Bank	-10317
second	-10318
▁route	-10319
▁denied	-10320
▁compiled	-10321
▁phenomen	-10322
validation	-10323
erity	-10324
▁GEOR	-10325
▁pleasing	-10326
2",	-10327
ABLE	-10328
agle	-10329
Tools	-10330
▁prem	-10331
Number	-10332
course	-10333
▁hated	-10334
▁modest	-10335
▁inspired	-10336
▁condemned	-10337
▁Englishman	-10338
▁indifferent	-10339
__)	-10340
six	-10341
▁fp	-10342
▁gm	-10343
prop	-10344
▁sway	-10345
▁giant	-10346
▁batter	-10347
▁induced	-10348
▁inquiry	-10349
▁FL	-10350
▁lion	-10351
▁champ	-10352
▁seats	-10353
ampling	-10354
▁hospital	-10355
▁wherever	-10356
▁endeavour	-10357
▁[],	-10358
▁elabor	-10359
Par	-10360
▁Pap	-10361
acific	-10362
▁commod	-10363
utenberg	-10364
▁gradient	-10365
lat	-10366
ouch	-10367
vant	-10368
▁Goth	-10369
▁shud	-10370
Series	-10371
oscope	-10372
suffix	-10373
tokens	-10374
▁blows	-10375
▁locked	-10376
▁stroke	-10377
▁testim	-10378
▁steadily	-10379
▁arbitrary	-10380
▁lamb	-10381
▁precip	-10382
▁throng	-10383
▁Northern	-10384
ima	-10385
meg	-10386
▁Dra	-10387
▁Brand	-10388
▁define	-10389
▁prohib	-10390
▁overwhel	-10391
▁respects	-10392
▁vanished	-10393
]))	-10394
▁cam	-10395
angel	-10396
▁byte	-10397
▁Portug	-10398
▁convent	-10399
▁corrupt	-10400
▁improved	-10401
thy	-10402
▁3:	-10403
Flags	-10404
▁Buck	-10405
ificial	-10406
▁beating	-10407
▁medicine	-10408
▁distinguish	-10409
flo	-10410
ila	-10411
iton	-10412
lain	-10413
▁wire	-10414
▁nurse	-10415
▁Within	-10416
▁intend	-10417
▁runtime	-10418
▁volumes	-10419
▁intelligent	-10420
13\	-10421
amily	-10422
edelta	-10423
▁Earth	-10424
▁Athens	-10425
▁feeble	-10426
ui	-10427
ucky	-10428
▁bishop	-10429
▁balance	-10430
▁checked	-10431
▁supplies	-10432
▁companies	-10433
▁disturbed	-10434
▁recognize	-10435
▁management	-10436
▁arrangements	-10437
+0	-10438
⁄2	-10439
OUS	-10440
▁DR	-10441
▁buf	-10442
▁Does	-10443
▁insect	-10444
entially	-10445
interval	-10446
▁silently	-10447
ITE	-10448
▁vag	-10449
▁vex	-10450
ospel	-10451
icians	-10452
riages	-10453
▁moist	-10454
▁shone	-10455
▁smart	-10456
uscript	-10457
▁Illust	-10458
▁Justice	-10459
▁pursuit	-10460
ROW	-10461
inn	-10462
▁kne	-10463
forth	-10464
▁wars	-10465
▁Stock	-10466
▁Susan	-10467
▁punct	-10468
devices	-10469
▁occurs	-10470
▁weapon	-10471
atherine	-10472
▁transformation	-10473
ès	-10474
▁Æ	-10475
._--	-10476
▁fet	-10477
▁wra	-10478
▁optax	-10479
condition	-10480
▁covering	-10481
▁everyone	-10482
chron	-10483
▁awak	-10484
▁scru	-10485
▁zeros	-10486
▁enters	-10487
▁leaned	-10488
▁artistic	-10489
▁apprehens	-10490
1",	-10491
IER	-10492
▁mul	-10493
never	-10494
piece	-10495
ulars	-10496
▁auto	-10497
▁rays	-10498
▁clust	-10499
▁medium	-10500
▁shouldn	-10501
▁DRAWINGS	-10502
▁integers	-10503
▁MA	-10504
Just	-10505
▁mostly	-10506
strategy	-10507
▁reprodu	-10508
▁",	-10509
▁EX	-10510
▁Dom	-10511
▁pink	-10512
▁adorn	-10513
▁tremend	-10514
▁preparing	-10515
▁rh	-10516
weet	-10517
————	-10518
atted	-10519
▁Bell	-10520
▁hire	-10521
▁cared	-10522
▁colours	-10523
▁painting	-10524
▁Christians	-10525
▁HOR	-10526
▁Pur	-10527
▁vide	-10528
▁beach	-10529
complete	-10530
▁updates	-10531
▁handkerchief	-10532
▁GU	-10533
▁aux	-10534
▁desk	-10535
▁dost	-10536
▁park	-10537
▁wont	-10538
system	-10539
▁dining	-10540
▁deserve	-10541
▁secretary	-10542
8_	-10543
ogg	-10544
▁Pitt	-10545
▁trim	-10546
Reader	-10547
▁Middle	-10548
▁release	-10549
▁strides	-10550
▁passages	-10551
▁subsequent	-10552
▁prey	-10553
▁acres	-10554
▁groan	-10555
▁shaft	-10556
▁advert	-10557
▁editor	-10558
▁powder	-10559
▁saving	-10560
▁doubtful	-10561
▁involved	-10562
aver	-10563
jobs	-10564
nums	-10565
essel	-10566
heads	-10567
▁grie	-10568
series	-10569
▁sanct	-10570
▁theme	-10571
datetime	-10572
▁reserve	-10573
▁session	-10574
▁dup	-10575
▁sne	-10576
▁tar	-10577
▁harsh	-10578
▁gazing	-10579
▁circular	-10580
▁attracted	-10581
300	-10582
bey	-10583
fwd	-10584
eman	-10585
pled	-10586
▁bud	-10587
▁cub	-10588
▁ske	-10589
Torch	-10590
▁irrit	-10591
▁ninet	-10592
▁patch	-10593
ertools	-10594
▁basket	-10595
▁saddle	-10596
▁challen	-10597
▁software	-10598
▁prominent	-10599
FOR	-10600
whe	-10601
▁UN	-10602
alph	-10603
train	-10604
▁lords	-10605
▁armies	-10606
▁formal	-10607
▁Polly	-10608
▁drops	-10609
▁fathers	-10610
exception	-10611
▁candidate	-10612
▁transformed	-10613
Fe	-10614
▁Dun	-10615
▁mne	-10616
▁crop	-10617
▁cure	-10618
▁connect	-10619
▁recommend	-10620
poon	-10621
▁Last	-10622
▁anchor	-10623
▁flames	-10624
▁lawyer	-10625
▁workers	-10626
▁subclass	-10627
1>	-10628
cp	-10629
zo	-10630
pson	-10631
▁ade	-10632
Block	-10633
▁fifth	-10634
▁silly	-10635
▁deadly	-10636
▁magist	-10637
async	-10638
▁Wall	-10639
▁walks	-10640
ocratic	-10641
▁misfortune	-10642
Ent	-10643
Test	-10644
▁stom	-10645
▁Admir	-10646
▁Woman	-10647
▁disag	-10648
▁logic	-10649
▁marvel	-10650
▁traced	-10651
▁someone	-10652
▁astonished	-10653
------------	-10654
)"	-10655
dia	-10656
mid	-10657
ENTS	-10658
quer	-10659
ordinate	-10660
′′	-10661
zes	-10662
▁na	-10663
clip	-10664
▁180	-10665
▁Log	-10666
picks	-10667
▁Script	-10668
▁losing	-10669
bi	-10670
▁44	-10671
soft	-10672
▁Sla	-10673
cross	-10674
▁grin	-10675
▁students	-10676
▁vs	-10677
etts	-10678
▁cents	-10679
▁extend	-10680
▁offering	-10681
▁Attribute	-10682
▁composition	-10683
=2,	-10684
resol	-10685
▁barg	-10686
decode	-10687
▁timid	-10688
▁starts	-10689
▁leaning	-10690
▁sixteen	-10691
▁criticism	-10692
▁photograph	-10693
én	-10694
Only	-10695
▁Mah	-10696
arson	-10697
▁pool	-10698
typing	-10699
▁perse	-10700
▁button	-10701
▁defeat	-10702
▁smallest	-10703
▁Ivan	-10704
▁metal	-10705
▁laying	-10706
▁Southern	-10707
_14	-10708
acco	-10709
star	-10710
rules	-10711
▁chari	-10712
▁attent	-10713
▁Chicago	-10714
directory	-10715
▁Saturday	-10716
▁merchants	-10717
▁obedience	-10718
▁constraint	-10719
▁travelling	-10720
ME	-10721
1.0	-10722
MOD	-10723
_12	-10724
igue	-10725
proj	-10726
shot	-10727
▁Asia	-10728
▁Jeff	-10729
▁nltk	-10730
itious	-10731
▁Being	-10732
▁grain	-10733
▁inherit	-10734
shardings	-10735
▁admirable	-10736
aum	-10737
▁Ele	-10738
▁Fra	-10739
▁Swed	-10740
▁http	-10741
▁tour	-10742
▁burnt	-10743
▁weigh	-10744
Constant	-10745
▁harmony	-10746
▁permanent	-10747
▁resources	-10748
▁[(	-10749
▁lic	-10750
▁bond	-10751
▁foul	-10752
▁eighty	-10753
▁Unknown	-10754
▁superst	-10755
▁Division	-10756
▁moderate	-10757
▁currently	-10758
▁newspaper	-10759
IntegerType	-10760
_15	-10761
▁Amb	-10762
idual	-10763
▁pine	-10764
▁divers	-10765
▁embrace	-10766
▁thyself	-10767
▁imperial	-10768
asse	-10769
agers	-10770
putes	-10771
▁Head	-10772
Writer	-10773
▁Input	-10774
▁corps	-10775
▁Columb	-10776
▁hiding	-10777
▁lowest	-10778
▁varied	-10779
▁funeral	-10780
▁landing	-10781
▁medical	-10782
▁coordinates	-10783
CON	-10784
lig	-10785
▁65	-10786
▁Baron	-10787
▁Create	-10788
▁Mademoiselle	-10789
▁consequences	-10790
▁significance	-10791
▁Ho	-10792
hist	-10793
▁std	-10794
opher	-10795
spect	-10796
▁critical	-10797
▁OrderedSet	-10798
,),	-10799
▁6_	-10800
amin	-10801
▁Eve	-10802
▁Cond	-10803
▁sched	-10804
▁chorus	-10805
▁payment	-10806
▁pronounced	-10807
CA	-10808
ala	-10809
▁VER	-10810
▁ling	-10811
▁veil	-10812
▁eaten	-10813
▁missed	-10814
▁perplex	-10815
Sp	-10816
coat	-10817
mlir	-10818
▁Sel	-10819
▁org	-10820
uther	-10821
▁arist	-10822
▁Import	-10823
▁Instead	-10824
▁relieved	-10825
▁recommended	-10826
ball	-10827
brew	-10828
▁mate	-10829
▁strip	-10830
▁coarse	-10831
▁statue	-10832
▁virtues	-10833
▁arrested	-10834
▁grandfather	-10835
uid	-10836
▁′′	-10837
▁1))	-10838
▁2],	-10839
▁util	-10840
headed	-10841
▁daring	-10842
▁summit	-10843
▁doctest	-10844
▁multitude	-10845
▁normalize	-10846
▁picturesque	-10847
(**	-10848
)(\	-10849
ENS	-10850
fin	-10851
othy	-10852
Order	-10853
iline	-10854
total	-10855
▁dissol	-10856
▁sighed	-10857
▁publication	-10858
null	-10859
runtime	-10860
▁African	-10861
▁Secretary	-10862
▁dataclass	-10863
▁limitations	-10864
3:	-10865
]*	-10866
SKIP	-10867
▁mand	-10868
▁sins	-10869
▁vest	-10870
▁Scene	-10871
getattr	-10872
▁mischief	-10873
▁wandering	-10874
▁simplicity	-10875
ETH	-10876
▁._	-10877
▁Rad	-10878
assad	-10879
▁Troy	-10880
▁repent	-10881
▁Edition	-10882
▁machinery	-10883
▁objection	-10884
upt	-10885
ère	-10886
erred	-10887
▁Gall	-10888
▁rebell	-10889
▁amusing	-10890
▁climate	-10891
▁contrad	-10892
▁gardens	-10893
▁attained	-10894
▁treacher	-10895
▁neighborhood	-10896
12.	-10897
Kind	-10898
▁myth	-10899
▁apost	-10900
▁drank	-10901
▁lively	-10902
▁components	-10903
▁environment	-10904
▁independence	-10905
-4	-10906
idd	-10907
pton	-10908
▁176	-10909
▁ate	-10910
▁liv	-10911
▁Mars	-10912
▁succ	-10913
▁newly	-10914
▁unlike	-10915
▁fastened	-10916
aly	-10917
cst	-10918
xml	-10919
▁urg	-10920
▁Play	-10921
▁curse	-10922
effects	-10923
issions	-10924
▁security	-10925
3;	-10926
ptim	-10927
Artag	-10928
▁anon	-10929
▁Monday	-10930
▁images	-10931
▁jumped	-10932
Artagnan	-10933
▁closing	-10934
▁accuracy	-10935
▁destined	-10936
LEY	-10937
spl	-10938
▁egg	-10939
otted	-10940
effect	-10941
▁abandon	-10942
▁gesture	-10943
▁vectors	-10944
umberland	-10945
▁confused	-10946
▁criminal	-10947
▁iterable	-10948
▁moreover	-10949
▁president	-10950
▁eq	-10951
LAND	-10952
▁Rest	-10953
Output	-10954
icular	-10955
▁canvas	-10956
▁encount	-10957
▁assembly	-10958
▁produces	-10959
▁amusement	-10960
Te	-10961
tha	-10962
▁repr	-10963
atenate	-10964
▁breeze	-10965
▁eccles	-10966
▁incred	-10967
11\	-10968
ses	-10969
▁Pa	-10970
▁ox	-10971
iege	-10972
▁SER	-10973
▁les	-10974
becca	-10975
itial	-10976
ellers	-10977
▁verses	-10978
▁dressing	-10979
rout	-10980
▁asc	-10981
▁Mild	-10982
▁surf	-10983
necess	-10984
▁1976.	-10985
▁picks	-10986
▁cannon	-10987
▁gallant	-10988
▁liberal	-10989
▁sailors	-10990
ibilities	-10991
▁writings	-10992
36,	-10993
192,	-10994
▁Bed	-10995
▁lan	-10996
▁Alice	-10997
▁murde	-10998
▁segment	-10999
▁sharply	-11000
▁deceived	-11001
▁manuscript	-11002
bly	-11003
sett	-11004
simpl	-11005
houses	-11006
▁delic	-11007
▁DOUBLE	-11008
▁beasts	-11009
▁assault	-11010
▁contest	-11011
John	-11012
anim	-11013
▁Ley	-11014
crete	-11015
ellor	-11016
▁DUKE	-11017
erving	-11018
▁pilgr	-11019
▁stoop	-11020
▁factors	-11021
▁resulting	-11022
▁ridiculous	-11023
▁undoubtedly	-11024
bus	-11025
OUND	-11026
▁behalf	-11027
▁encountered	-11028
Eng	-11029
▁Bre	-11030
▁Bul	-11031
igration	-11032
▁Protest	-11033
▁trained	-11034
▁boundary	-11035
▁handling	-11036
▁includes	-11037
▁confident	-11038
▁occupation	-11039
bat	-11040
eyed	-11041
▁182	-11042
▁Fox	-11043
▁SCH	-11044
rades	-11045
works	-11046
▁brig	-11047
▁site	-11048
otions	-11049
▁ratio	-11050
▁namely	-11051
▁resign	-11052
▁adapted	-11053
anh	-11054
isy	-11055
anger	-11056
▁1024,	-11057
▁saint	-11058
▁easier	-11059
▁parted	-11060
▁leather	-11061
▁majesty	-11062
▁respectable	-11063
‐‐	-11064
▁Id	-11065
gate	-11066
▁nan	-11067
▁Plan	-11068
▁Spec	-11069
▁aval	-11070
Offset	-11071
parser	-11072
▁Angel	-11073
▁Nether	-11074
▁disappointed	-11075
ita	-11076
▁rele	-11077
ighted	-11078
▁frost	-11079
▁opera	-11080
▁quart	-11081
▁artists	-11082
▁passions	-11083
dr	-11084
ILD	-11085
▁ZZ	-11086
768,	-11087
[1])	-11088
buck	-11089
byte	-11090
▁tit	-11091
▁bund	-11092
▁sink	-11093
▁sofa	-11094
▁toil	-11095
center	-11096
▁Imper	-11097
▁Jerry	-11098
▁NumPy	-11099
anguage	-11100
▁copper	-11101
▁nephew	-11102
▁gallery	-11103
▁satisfactory	-11104
STR	-11105
sha	-11106
grat	-11107
▁NOTE	-11108
▁arith	-11109
▁Neither	-11110
▁handled	-11111
▁Commission	-11112
▁adj	-11113
▁bug	-11114
separ	-11115
▁Gray	-11116
▁clay	-11117
▁ndim	-11118
▁anyway	-11119
▁Elector	-11120
6)	-11121
aur	-11122
omp	-11123
▁47	-11124
▁[3	-11125
hint	-11126
▁Sax	-11127
oment	-11128
▁gown	-11129
ilogue	-11130
▁spell	-11131
channel	-11132
▁Canada	-11133
▁disable	-11134
▁wherein	-11135
seud	-11136
▁Dat	-11137
indent	-11138
▁fisher	-11139
▁selfish	-11140
▁favorite	-11141
▁meantime	-11142
—“	-11143
gens	-11144
ippi	-11145
▁tab	-11146
▁Lords	-11147
▁boxes	-11148
▁mourn	-11149
command	-11150
▁Rebecca	-11151
▁slender	-11152
▁Assembly	-11153
▁Mutoscope	-11154
pen	-11155
▁tp	-11156
▁fri	-11157
▁exit	-11158
▁hunt	-11159
▁mour	-11160
▁motor	-11161
▁courtes	-11162
▁organized	-11163
▁responsibility	-11164
->	-11165
▁QQ	-11166
▁ml	-11167
▁000	-11168
▁Sign	-11169
▁trump	-11170
▁Capell	-11171
▁motive	-11172
▁shores	-11173
▁Chamber	-11174
▁ministers	-11175
▁comprehend	-11176
aniel	-11177
false	-11178
▁bust	-11179
▁Mildred	-11180
▁elected	-11181
▁ER	-11182
kward	-11183
Stream	-11184
▁0.000	-11185
▁funny	-11186
▁whale	-11187
▁romance	-11188
▁springs	-11189
▁commence	-11190
▁daylight	-11191
)",	-11192
▁hi	-11193
olet	-11194
▁tid	-11195
▁tact	-11196
▁smell	-11197
▁cluster	-11198
▁outward	-11199
▁swiftly	-11200
ORS	-11201
lies	-11202
antics	-11203
▁appet	-11204
strings	-11205
▁emphas	-11206
▁citizen	-11207
▁startled	-11208
▁namespace	-11209
▁cultivated	-11210
▁Ga	-11211
▁Full	-11212
▁PRINCE	-11213
▁enchant	-11214
▁knocked	-11215
)).	-11216
]]:	-11217
▁42	-11218
Iter	-11219
have	-11220
▁bol	-11221
icode	-11222
▁brass	-11223
▁owners	-11224
▁claimed	-11225
▁muscles	-11226
▁stomach	-11227
]),	-11228
▁risen	-11229
▁frozen	-11230
▁dearest	-11231
▁IX	-11232
enum	-11233
▁XIV	-11234
▁sep	-11235
funcs	-11236
▁ugly	-11237
▁Guard	-11238
▁Orange	-11239
▁Samuel	-11240
assignment	-11241
▁enjoyment	-11242
▁persuaded	-11243
▁Christianity	-11244
Mix	-11245
▁Expl	-11246
▁Light	-11247
▁Shape	-11248
▁pirates	-11249
▁apartment	-11250
▁discussed	-11251
▁proceedings	-11252
cum	-11253
rers	-11254
span	-11255
unte	-11256
▁BAR	-11257
▁Mul	-11258
▁Tit	-11259
▁unm	-11260
▁horn	-11261
▁pond	-11262
▁prol	-11263
consts	-11264
support	-11265
▁subtle	-11266
▁examine	-11267
▁mingled	-11268
▁vigorous	-11269
▁lieutenant	-11270
▁determination	-11271
▁Stra	-11272
ipedia	-11273
urious	-11274
▁indent	-11275
▁prosperity	-11276
ya	-11277
ACT	-11278
▁Nav	-11279
▁wax	-11280
▁Lion	-11281
▁dial	-11282
▁trag	-11283
should	-11284
▁altered	-11285
▁stopping	-11286
▁processes	-11287
▁preparation	-11288
▁128	-11289
▁ALL	-11290
▁ANY	-11291
Event	-11292
ilian	-11293
third	-11294
▁coin	-11295
▁wilt	-11296
▁zeal	-11297
▁incons	-11298
▁cavalry	-11299
▁accommod	-11300
▁reception	-11301
▁tremendous	-11302
"].	-11303
▁`.	-11304
▁Cam	-11305
▁lazy	-11306
pytorch	-11307
▁bloody	-11308
▁offence	-11309
▁delicious	-11310
ubb	-11311
depth	-11312
▁latest	-11313
matrices	-11314
gh	-11315
ione	-11316
▁sho	-11317
▁craw	-11318
▁pile	-11319
▁slee	-11320
▁bloom	-11321
package	-11322
▁ID	-11323
▁11,	-11324
▁Ill	-11325
▁Prob	-11326
unknown	-11327
▁NetworkX	-11328
▁frontier	-11329
▁overwrite	-11330
▁proceeding	-11331
▁OS	-11332
▁PO	-11333
▁hed	-11334
▁lav	-11335
query	-11336
useum	-11337
▁thereof	-11338
▁pygments	-11339
▁confession	-11340
▁recognised	-11341
▁dy	-11342
▁roar	-11343
ariate	-11344
▁negot	-11345
▁overt	-11346
▁mirror	-11347
▁Several	-11348
▁generator	-11349
▁conversion	-11350
▁indignation	-11351
!—	-11352
Rep	-11353
ntax	-11354
repe	-11355
press	-11356
▁weep	-11357
▁Women	-11358
▁gamma	-11359
▁seize	-11360
▁nerves	-11361
▁stretch	-11362
▁propriet	-11363
gt	-11364
▁Der	-11365
▁Tri	-11366
▁nay	-11367
theta	-11368
▁bills	-11369
▁flies	-11370
▁survey	-11371
▁doorway	-11372
▁exceptions	-11373
GS	-11374
-18	-11375
pin	-11376
Conv	-11377
bals	-11378
utus	-11379
your	-11380
ifact	-11381
lings	-11382
recur	-11383
▁opens	-11384
▁roses	-11385
parallel	-11386
attention	-11387
▁overflow	-11388
91	-11389
hte	-11390
Poly	-11391
vate	-11392
▁Gib	-11393
ecess	-11394
▁32),	-11395
▁bush	-11396
efined	-11397
▁units	-11398
▁combine	-11399
▁resolve	-11400
▁villain	-11401
▁invention	-11402
Am	-11403
▁æ	-11404
ota	-11405
▁55	-11406
▁AC	-11407
ylon	-11408
Dense	-11409
ambers	-11410
▁reproach	-11411
▁hesitated	-11412
▁registered	-11413
▁alternative	-11414
vag	-11415
▁Home	-11416
▁Self	-11417
▁Module	-11418
▁Persis	-11419
▁differ	-11420
▁Central	-11421
▁immortal	-11422
▁impressed	-11423
fg	-11424
Est	-11425
INA	-11426
UTE	-11427
dst	-11428
▁MAC	-11429
ribly	-11430
white	-11431
filled	-11432
▁today	-11433
inverse	-11434
▁fitting	-11435
▁Egyptian	-11436
▁underlying	-11437
41	-11438
dt	-11439
▁[5	-11440
▁Hun	-11441
dated	-11442
plica	-11443
▁curve	-11444
▁review	-11445
▁stirred	-11446
VectorType	-11447
▁neglected	-11448
tf	-11449
otape	-11450
▁joke	-11451
apture	-11452
▁Tuple	-11453
▁heels	-11454
▁Massachus	-11455
▁videotape	-11456
▁discipline	-11457
COM	-11458
▁Low	-11459
▁Tob	-11460
▁shri	-11461
reason	-11462
usalem	-11463
▁Wales	-11464
19,	-11465
▁CYR	-11466
▁Hum	-11467
laces	-11468
▁Word	-11469
▁peop	-11470
▁Relig	-11471
▁incap	-11472
▁intern	-11473
▁awkward	-11474
▁hostile	-11475
▁offices	-11476
▁staring	-11477
▁clothing	-11478
▁conquest	-11479
▁physician	-11480
▁department	-11481
vp	-11482
boy	-11483
iac	-11484
▁Alb	-11485
inder	-11486
ratio	-11487
▁Zola	-11488
ications	-11489
▁Version	-11490
▁messenger	-11491
▁sentiments	-11492
▁strengthen	-11493
▁respectively	-11494
cand	-11495
hent	-11496
mons	-11497
▁Fur	-11498
▁Rue	-11499
▁alas	-11500
▁jack	-11501
Kernel	-11502
uously	-11503
layouts	-11504
▁traces	-11505
requires	-11506
▁Certainly	-11507
▁collective	-11508
asty	-11509
oard	-11510
▁Conn	-11511
soever	-11512
▁trunk	-11513
▁fruits	-11514
▁plains	-11515
▁KeyError	-11516
▁Nicholas	-11517
▁desirable	-11518
▁comparatively	-11519
/(	-11520
iii	-11521
bery	-11522
circ	-11523
ilde	-11524
orse	-11525
▁JAN	-11526
anted	-11527
▁glit	-11528
▁Anton	-11529
▁Order	-11530
▁monot	-11531
▁renewed	-11532
▁Operator	-11533
▁instruments	-11534
Ty	-11535
}]	-11536
}_	-11537
yman	-11538
nested	-11539
▁Super	-11540
permute	-11541
▁charms	-11542
▁injury	-11543
▁offsets	-11544
▁jealousy	-11545
▁Massachusetts	-11546
,*	-11547
EX	-11548
▁fs	-11549
ravel	-11550
▁Star	-11551
▁Wolf	-11552
▁bells	-11553
▁orbax	-11554
▁heroes	-11555
▁margin	-11556
▁nested	-11557
ivariate	-11558
platform	-11559
▁lessons	-11560
▁constants	-11561
▁reverence	-11562
)_	-11563
=2	-11564
PS	-11565
xx	-11566
IAL	-11567
Min	-11568
sing	-11569
▁Atl	-11570
▁Gods	-11571
▁Kings	-11572
▁Marsh	-11573
▁hints	-11574
▁corpus	-11575
▁repose	-11576
Sharding	-11577
▁Department	-11578
00.	-11579
0001	-11580
agan	-11581
onies	-11582
world	-11583
▁beds	-11584
intend	-11585
▁ridge	-11586
▁spear	-11587
▁stret	-11588
ulative	-11589
▁weeping	-11590
▁hypothes	-11591
▁particip	-11592
▁romantic	-11593
'{	-11594
").	-11595
try	-11596
▁quit	-11597
Script	-11598
iverse	-11599
▁fortunes	-11600
▁restless	-11601
▁agreement	-11602
▁sensation	-11603
▁Christopher	-11604
▁documentation	-11605
-\	-11606
uish	-11607
oland	-11608
▁agony	-11609
cluster	-11610
illings	-11611
▁pupils	-11612
▁tuples	-11613
▁wounds	-11614
▁diagonal	-11615
▁solitary	-11616
▁disappear	-11617
▁pleasures	-11618
Box	-11619
▁eh	-11620
▁14,	-11621
▁15,	-11622
olate	-11623
▁Mosc	-11624
▁breaks	-11625
▁compens	-11626
dimensional	-11627
Ant	-11628
_13	-11629
had	-11630
!...	-11631
ilus	-11632
eches	-11633
▁Batt	-11634
▁butt	-11635
▁Faith	-11636
▁crept	-11637
▁vener	-11638
▁newspapers	-11639
-01,	-11640
bott	-11641
coln	-11642
pair	-11643
▁chem	-11644
▁Krish	-11645
▁sever	-11646
▁chairs	-11647
▁pursue	-11648
▁pretend	-11649
AU	-11650
▁dw	-11651
▁ib	-11652
maid	-11653
▁'__	-11654
▁13,	-11655
▁pole	-11656
reader	-11657
▁upward	-11658
distance	-11659
▁exagger	-11660
▁Cardinal	-11661
▁Pictures	-11662
▁summoned	-11663
▁surrounding	-11664
fare	-11665
▁Half	-11666
▁phase	-11667
▁washed	-11668
irection	-11669
▁bedroom	-11670
▁conspir	-11671
▁surprising	-11672
ICT	-11673
Oct	-11674
▁cul	-11675
▁asks	-11676
▁duck	-11677
▁vols	-11678
▁ashes	-11679
▁faire	-11680
reading	-11681
▁numeric	-11682
▁specify	-11683
▁Transform	-11684
+0.	-11685
▁Rod	-11686
▁dipl	-11687
▁mlir	-11688
▁Peace	-11689
▁tyran	-11690
▁equation	-11691
▁surround	-11692
▁invitation	-11693
deep	-11694
▁dre	-11695
▁holid	-11696
▁hyper	-11697
generate	-11698
DataFrame	-11699
▁heavenly	-11700
▁iterations	-11701
▁mi	-11702
ello	-11703
▁avo	-11704
orders	-11705
▁sober	-11706
▁carries	-11707
▁tracing	-11708
▁accomplish	-11709
▁appointment	-11710
!!	-11711
AGE	-11712
vial	-11713
▁tie	-11714
After	-11715
▁Free	-11716
▁Hold	-11717
▁Serv	-11718
preter	-11719
▁hunger	-11720
compiler	-11721
▁Austria	-11722
▁longing	-11723
▁pressing	-11724
▁representative	-11725
Up	-11726
▁2-	-11727
Comp	-11728
▁BER	-11729
bands	-11730
bered	-11731
joint	-11732
parts	-11733
▁Burn	-11734
▁FROM	-11735
▁Greg	-11736
▁chin	-11737
▁dumb	-11738
▁liable	-11739
▁remedy	-11740
▁resent	-11741
standard	-11742
▁emperor	-11743
▁yielded	-11744
▁conceived	-11745
▁testimony	-11746
▁dmp	-11747
▁tho	-11748
hered	-11749
othed	-11750
sters	-11751
▁cert	-11752
▁2048,	-11753
actions	-11754
▁monster	-11755
▁promptly	-11756
▁unnecess	-11757
▁optimizer	-11758
*,	-11759
+1	-11760
▁Eu	-11761
irts	-11762
▁Jun	-11763
▁MISS	-11764
▁buck	-11765
▁neut	-11766
liness	-11767
▁Scotch	-11768
▁purely	-11769
▁upright	-11770
uh	-11771
csr	-11772
voc	-11773
▁cs	-11774
codes	-11775
▁WARR	-11776
▁tool	-11777
▁Helen	-11778
▁dirty	-11779
▁unity	-11780
▁counts	-11781
▁pepper	-11782
▁congrat	-11783
▁districts	-11784
▁itertools	-11785
▁disappointment	-11786
eli	-11787
thr	-11788
wds	-11789
▁MAT	-11790
▁awa	-11791
ogram	-11792
riers	-11793
persed	-11794
▁wheels	-11795
▁density	-11796
▁dispute	-11797
▁revenue	-11798
▁scholars	-11799
▁Francisco	-11800
▁describes	-11801
▁AttributeError	-11802
Part	-11803
bbed	-11804
fail	-11805
▁oak	-11806
----"	-11807
terms	-11808
▁subd	-11809
▁equality	-11810
▁nonsense	-11811
▁''	-11812
▁49	-11813
First	-11814
isons	-11815
▁warned	-11816
▁counted	-11817
▁elegant	-11818
▁furious	-11819
▁omitted	-11820
▁outline	-11821
▁Presently	-11822
▁destination	-11823
KEY	-11824
▁url	-11825
Never	-11826
ormap	-11827
▁mail	-11828
▁stem	-11829
RESULT	-11830
ensely	-11831
▁Felix	-11832
▁Swift	-11833
OPERAND	-11834
▁solver	-11835
▁advised	-11836
▁hastened	-11837
sn	-11838
tab	-11839
▁Year	-11840
▁ward	-11841
enable	-11842
updates	-11843
▁dishon	-11844
▁judges	-11845
▁datetime	-11846
▁heartily	-11847
▁artillery	-11848
▁continent	-11849
▁parliament	-11850
▁sher	-11851
▁Arist	-11852
▁fails	-11853
▁stolen	-11854
▁Pacific	-11855
▁alarmed	-11856
▁164	-11857
athed	-11858
▁brick	-11859
▁steal	-11860
▁Moscow	-11861
▁ending	-11862
▁republic	-11863
▁confessed	-11864
▁governing	-11865
▁identical	-11866
32_	-11867
ASE	-11868
twas	-11869
▁tmp	-11870
▁aged	-11871
▁aren	-11872
▁perf	-11873
▁Whose	-11874
▁apple	-11875
▁Associ	-11876
▁costume	-11877
▁scandal	-11878
▁considerably	-11879
AVE	-11880
fmt	-11881
Meta	-11882
roke	-11883
▁20,	-11884
▁Lic	-11885
▁Sem	-11886
short	-11887
▁heir	-11888
▁whit	-11889
(%	-11890
▁TW	-11891
ders	-11892
same	-11893
▁fal	-11894
entine	-11895
region	-11896
▁GEORGE	-11897
▁submit	-11898
▁enclosed	-11899
▁efficient	-11900
▁surrender	-11901
▁automatically	-11902
▁:]	-11903
TAIN	-11904
athan	-11905
▁genus	-11906
▁stuck	-11907
▁steamer	-11908
constants	-11909
▁Carolina	-11910
▁extravag	-11911
▁childhood	-11912
▁temperature	-11913
▁Av	-11914
▁FA	-11915
accur	-11916
▁Hart	-11917
▁boot	-11918
neighb	-11919
▁reads	-11920
▁wheat	-11921
▁vanity	-11922
▁console	-11923
▁inplace	-11924
▁template	-11925
▁successfully	-11926
Rem	-11927
▁DO	-11928
▁Gen	-11929
Sched	-11930
aware	-11931
ervation	-11932
▁occasional	-11933
▁entertainment	-11934
')(	-11935
NOT	-11936
SIZE	-11937
rell	-11938
▁diag	-11939
▁Creek	-11940
▁cares	-11941
▁linen	-11942
▁veloc	-11943
▁correspondence	-11944
).__	-11945
eler	-11946
inus	-11947
iply	-11948
▁alo	-11949
▁haz	-11950
utter	-11951
minded	-11952
▁Press	-11953
▁unple	-11954
▁worry	-11955
▁Reform	-11956
▁trials	-11957
▁Theatre	-11958
▁Minister	-11959
▁estimated	-11960
▁indifference	-11961
utf	-11962
▁76	-11963
bird	-11964
▁Pot	-11965
▁Wed	-11966
▁Beau	-11967
▁Ohio	-11968
▁stew	-11969
▁pitch	-11970
▁sauce	-11971
▁swung	-11972
comfort	-11973
extract	-11974
▁textual	-11975
▁references	-11976
pas	-11977
pert	-11978
plus	-11979
▁gang	-11980
ifting	-11981
▁decre	-11982
ailable	-11983
▁unwill	-11984
▁admired	-11985
"]:	-11986
got	-11987
▁Cass	-11988
▁Rowe	-11989
▁flee	-11990
cester	-11991
▁...],	-11992
▁nobles	-11993
▁designs	-11994
▁disgust	-11995
▁hereafter	-11996
▁cultivation	-11997
▁generations	-11998
▁proposition	-11999
▁43	-12000
▁[12	-12001
ength	-12002
epend	-12003
major	-12004
Scalar	-12005
Perhaps	-12006
counter	-12007
Infinity	-12008
▁Commons	-12009
variables	-12010
▁ventured	-12011
▁strangely	-12012
pc	-12013
cio	-12014
mel	-12015
▁(12	-12016
hints	-12017
▁astr	-12018
▁Ville	-12019
poonful	-12020
▁rescue	-12021
▁boiling	-12022
▁Interval	-12023
10,	-12024
andy	-12025
▁Anna	-12026
cursor	-12027
▁Sally	-12028
▁liquor	-12029
▁component	-12030
▁irregular	-12031
oli	-12032
▁[10	-12033
▁mans	-12034
licted	-12035
▁shirt	-12036
▁bucket	-12037
▁bushes	-12038
▁absorbed	-12039
▁afforded	-12040
▁disagree	-12041
Jan	-12042
wed	-12043
▁"%	-12044
Args	-12045
Mult	-12046
aque	-12047
raft	-12048
▁charity	-12049
▁announce	-12050
▁compatibility	-12051
BE	-12052
▁IT	-12053
Some	-12054
WARD	-12055
▁Lamb	-12056
▁whip	-12057
mental	-12058
status	-12059
terior	-12060
License	-12061
average	-12062
▁murdered	-12063
és	-12064
het	-12065
defs	-12066
flag	-12067
▁(15	-12068
▁1):	-12069
▁Dal	-12070
▁Mir	-12071
▁nom	-12072
asets	-12073
idates	-12074
ishops	-12075
▁Babylon	-12076
▁conspic	-12077
▁journal	-12078
▁narrative	-12079
▁à	-12080
REF	-12081
unce	-12082
▁Cas	-12083
▁farmers	-12084
▁heights	-12085
▁defaults	-12086
▁transforms	-12087
▁yourselves	-12088
▁intermediate	-12089
RED	-12090
orce	-12091
▁Bru	-12092
would	-12093
▁Homer	-12094
▁ample	-12095
▁holes	-12096
patcher	-12097
▁harmon	-12098
▁invari	-12099
▁script	-12100
▁docstring	-12101
▁passengers	-12102
▁recognition	-12103
▁threatening	-12104
LU	-12105
▁Bal	-12106
arith	-12107
▁bands	-12108
▁madness	-12109
▁analysis	-12110
▁override	-12111
▁significant	-12112
FC	-12113
Her	-12114
etri	-12115
leys	-12116
utor	-12117
▁Dam	-12118
▁Jeh	-12119
▁rug	-12120
wealth	-12121
▁attrs	-12122
▁moves	-12123
▁Bridge	-12124
simplify	-12125
▁Whatever	-12126
▁Jerusalem	-12127
▁protected	-12128
▁Everything	-12129
()]	-12130
▁8),	-12131
▁Beg	-12132
▁Inn	-12133
▁mol	-12134
igher	-12135
ivals	-12136
▁subsc	-12137
▁tales	-12138
▁workmen	-12139
▁abruptly	-12140
▁producing	-12141
▁experiments	-12142
▁au	-12143
best	-12144
derr	-12145
must	-12146
▁175	-12147
▁tob	-12148
ifiers	-12149
▁Think	-12150
▁breed	-12151
▁scores	-12152
▁triton	-12153
▁Lincoln	-12154
▁monument	-12155
▁recalled	-12156
^2	-12157
mal	-12158
▁PL	-12159
▁ber	-12160
▁BOOK	-12161
▁sunk	-12162
guards	-12163
▁chron	-12164
internal	-12165
▁timeout	-12166
▁bestowed	-12167
Checkpoint	-12168
▁indicating	-12169
072,	-12170
▁vow	-12171
▁Vien	-12172
▁cass	-12173
urable	-12174
utable	-12175
▁brush	-12176
▁Palace	-12177
▁inward	-12178
▁unjust	-12179
▁concert	-12180
▁systems	-12181
▁advancing	-12182
▁purchased	-12183
▁assumptions	-12184
ATA	-12185
rah	-12186
gent	-12187
▁Ten	-12188
cliff	-12189
▁jump	-12190
▁stub	-12191
▁cryst	-12192
▁subset	-12193
▁Between	-12194
▁accused	-12195
▁reminded	-12196
▁inevitable	-12197
▁dug	-12198
▁fox	-12199
aside	-12200
atial	-12201
glass	-12202
▁Style	-12203
▁fanci	-12204
▁lemon	-12205
▁naval	-12206
codegen	-12207
▁reluct	-12208
▁shillings	-12209
ori	-12210
▁tt	-12211
diag	-12212
shaped	-12213
Dialect	-12214
issippi	-12215
▁Valley	-12216
▁status	-12217
▁printer	-12218
▁propose	-12219
▁Browning	-12220
▁conceive	-12221
▁favourable	-12222
-1,	-12223
ourt	-12224
▁Cro	-12225
ILLIC	-12226
ilson	-12227
inster	-12228
▁Words	-12229
▁wagon	-12230
address	-12231
uations	-12232
▁analog	-12233
▁punish	-12234
OPERATION	-12235
▁peaceful	-12236
bc	-12237
arc	-12238
usk	-12239
▁TE	-12240
▁Imp	-12241
▁abol	-12242
▁dates	-12243
▁checks	-12244
▁CYRILLIC	-12245
▁Imperial	-12246
▁rational	-12247
▁Bonaparte	-12248
▁consistent	-12249
▁tenderness	-12250
VAL	-12251
yll	-12252
▁Axis	-12253
▁cards	-12254
▁sadly	-12255
▁killing	-12256
▁marvell	-12257
▁painter	-12258
▁educated	-12259
▁substant	-12260
▁youthful	-12261
▁pretended	-12262
Lord	-12263
sych	-12264
▁fut	-12265
azine	-12266
ioned	-12267
riday	-12268
▁musk	-12269
integr	-12270
▁disple	-12271
▁breathing	-12272
▁confirmed	-12273
▁contented	-12274
▁righteous	-12275
oir	-12276
▁tune	-12277
▁fname	-12278
▁skull	-12279
▁tests	-12280
Version	-12281
rewrite	-12282
▁commit	-12283
▁obeyed	-12284
▁Mistress	-12285
▁dependent	-12286
▁fragments	-12287
:]	-12288
▁damp	-12289
riptor	-12290
▁angels	-12291
▁driver	-12292
▁Turkish	-12293
▁applause	-12294
▁copyright	-12295
Mul	-12296
▁46	-12297
▁Raw	-12298
ritten	-12299
▁Senate	-12300
▁mainly	-12301
▁plates	-12302
▁tranqu	-12303
▁upstairs	-12304
▁adventures	-12305
EE	-12306
▁HEN	-12307
rides	-12308
▁Expr	-12309
masked	-12310
▁Marius	-12311
▁tumult	-12312
▁Convert	-12313
▁betrayed	-12314
▁complain	-12315
▁concrete	-12316
▁Providence	-12317
vin	-12318
▁Ori	-12319
Cache	-12320
phant	-12321
▁seam	-12322
▁sque	-12323
OpView	-12324
Params	-12325
▁owned	-12326
▁realm	-12327
numeric	-12328
▁prophet	-12329
▁consisting	-12330
1.0,	-12331
wiki	-12332
▁DOR	-12333
▁Bour	-12334
▁frown	-12335
▁stats	-12336
▁organs	-12337
▁stacklevel	-12338
▁translated	-12339
nù	-12340
pip	-12341
▁ly	-12342
refs	-12343
▁hay	-12344
▁Devil	-12345
▁stole	-12346
Because	-12347
▁SECOND	-12348
▁arches	-12349
▁folded	-12350
▁sunset	-12351
▁timber	-12352
isinstance	-12353
▁impatient	-12354
▁acknowledge	-12355
)._	-12356
75*	-12357
:`\	-12358
typ	-12359
▁NO	-12360
▁Beh	-12361
▁tin	-12362
▁Doug	-12363
▁irres	-12364
▁visits	-12365
▁avoided	-12366
▁codegen	-12367
▁conquered	-12368
▁attractive	-12369
IAM	-12370
dro	-12371
quin	-12372
tang	-12373
ipper	-12374
▁Crist	-12375
▁dried	-12376
▁griev	-12377
▁pluck	-12378
▁styles	-12379
▁dealing	-12380
▁petition	-12381
▁discharge	-12382
seg	-12383
▁0.2	-12384
▁OLD	-12385
▁bron	-12386
▁purse	-12387
Manager	-12388
▁talent	-12389
▁forests	-12390
▁trusted	-12391
▁fountain	-12392
▁keepdims	-12393
▁compliance	-12394
epo	-12395
▁`~	-12396
such	-12397
▁hut	-12398
gebra	-12399
▁envy	-12400
▁gross	-12401
▁porch	-12402
▁induce	-12403
▁repair	-12404
▁destiny	-12405
▁illness	-12406
▁specimens	-12407
▁normalized	-12408
++	-12409
du	-12410
bear	-12411
hack	-12412
▁Non	-12413
▁Tal	-12414
floor	-12415
anging	-12416
retion	-12417
unpack	-12418
▁insol	-12419
perties	-12420
Abstract	-12421
▁innocence	-12422
▁artificial	-12423
[4	-12424
)}"	-12425
pot	-12426
▁"-	-12427
▁AG	-12428
Head	-12429
Mixin	-12430
ibber	-12431
▁evol	-12432
▁ment	-12433
▁reco	-12434
▁Hebrew	-12435
▁amazement	-12436
▁acknowledged	-12437
▁professional	-12438
Co	-12439
Aug	-12440
ati	-12441
owl	-12442
▁MS	-12443
▁Ath	-12444
▁Tree	-12445
▁scra	-12446
▁fence	-12447
▁monop	-12448
ometric	-12449
▁Berlin	-12450
▁gladly	-12451
▁levels	-12452
▁expenses	-12453
▁preacher	-12454
▁earnestly	-12455
▁provision	-12456
'}	-12457
81	-12458
iner	-12459
quad	-12460
seek	-12461
inous	-12462
uffle	-12463
▁lent	-12464
▁advoc	-12465
▁luxury	-12466
▁prodig	-12467
▁flashed	-12468
▁Hastings	-12469
▁agitation	-12470
▁privileges	-12471
(?:	-12472
inp	-12473
▁FO	-12474
incl	-12475
mine	-12476
onne	-12477
▁Fed	-12478
▁Hay	-12479
▁cash	-12480
Method	-12481
report	-12482
▁Short	-12483
▁siege	-12484
▁Divine	-12485
▁gravely	-12486
▁detected	-12487
▁assurance	-12488
Red	-12489
coo	-12490
xla	-12491
move	-12492
Linear	-12493
issues	-12494
pandas	-12495
▁4096,	-12496
▁Venus	-12497
▁tobacco	-12498
▁bitterly	-12499
▁correctly	-12500
▁forbidden	-12501
▁compliment	-12502
64_	-12503
▁AS	-12504
▁HIS	-12505
▁Tow	-12506
▁repl	-12507
▁RIGHT	-12508
▁gorge	-12509
Mapping	-12510
▁perish	-12511
▁Alexand	-12512
▁surpass	-12513
▁continues	-12514
▁inherited	-12515
17\	-12516
▁wo	-12517
based	-12518
▁orth	-12519
▁seal	-12520
▁thief	-12521
▁utils	-12522
nonzero	-12523
relation	-12524
▁despite	-12525
▁ordering	-12526
▁numerical	-12527
;”	-12528
hr	-12529
him	-12530
bedev	-12531
found	-12532
▁Gips	-12533
▁Merc	-12534
▁lucky	-12535
▁vital	-12536
▁lasted	-12537
▁recurs	-12538
▁promote	-12539
▁effected	-12540
▁officials	-12541
▁passionate	-12542
GB	-12543
cv	-12544
▁?	-12545
▁gi	-12546
Take	-12547
iger	-12548
urred	-12549
▁cris	-12550
culate	-12551
ingham	-12552
▁adjac	-12553
▁colonel	-12554
▁healthy	-12555
▁license	-12556
▁philosoph	-12557
▁ecclesiast	-12558
COL	-12559
gra	-12560
▁:=	-12561
Bool	-12562
▁Cab	-12563
▁lex	-12564
enery	-12565
justice	-12566
▁offers	-12567
▁wilder	-12568
▁fancied	-12569
▁abundant	-12570
recurrence	-12571
Shape	-12572
Token	-12573
pathe	-12574
▁Lang	-12575
▁Wild	-12576
▁stag	-12577
herent	-12578
▁Color	-12579
lebedev	-12580
pointer	-12581
▁learnt	-12582
extended	-12583
▁Jackson	-12584
▁ancestors	-12585
▁cathedral	-12586
▁engagement	-12587
▁resemblance	-12588
8:	-12589
25*	-12590
rive	-12591
▁Jon	-12592
jorie	-12593
▁span	-12594
▁appar	-12595
▁Peters	-12596
▁graphs	-12597
▁spaces	-12598
▁inquire	-12599
▁warriors	-12600
tu	-12601
▁Dud	-12602
▁Lis	-12603
▁YOU	-12604
ansas	-12605
delta	-12606
▁cant	-12607
▁Prussia	-12608
▁endless	-12609
▁leisure	-12610
▁mixture	-12611
▁wandered	-12612
▁searching	-12613
▁statements	-12614
8)	-12615
_!	-12616
Feb	-12617
LER	-12618
json	-12619
ovah	-12620
tery	-12621
▁Hot	-12622
▁Zeus	-12623
▁palm	-12624
rating	-12625
▁relax	-12626
environ	-12627
▁fascin	-12628
Callable	-12629
▁letting	-12630
▁introduce	-12631
dam	-12632
▁Es	-12633
Mark	-12634
uled	-12635
▁3],	-12636
▁Sac	-12637
▁Much	-12638
▁goal	-12639
▁team	-12640
lexers	-12641
▁Holmes	-12642
▁exhaust	-12643
▁accurate	-12644
▁certainty	-12645
▁preparations	-12646
(3,	-12647
OWN	-12648
ige	-12649
icon	-12650
▁GRE	-12651
▁bef	-12652
writer	-12653
▁Block	-12654
▁Early	-12655
library	-12656
▁wander	-12657
ominator	-12658
▁Chester	-12659
▁aroused	-12660
▁conject	-12661
▁indexing	-12662
▁invisible	-12663
▁XI	-12664
agne	-12665
conj	-12666
▁mypy	-12667
▁insist	-12668
▁naught	-12669
▁estates	-12670
▁refresh	-12671
▁portions	-12672
07,	-12673
cpp	-12674
gel	-12675
▁ell	-12676
hooks	-12677
quate	-12678
▁climb	-12679
▁fiery	-12680
physics	-12681
▁pockets	-12682
primitive	-12683
▁responded	-12684
▁Mississippi	-12685
-1)	-12686
aro	-12687
▁4)	-12688
([0,	-12689
▁sul	-12690
onson	-12691
▁draws	-12692
▁fairy	-12693
▁worker	-12694
▁intercourse	-12695
▁Constitution	-12696
Exp	-12697
▁75	-12698
▁Wife	-12699
▁dies	-12700
▁Texas	-12701
▁mines	-12702
▁Library	-12703
▁secrets	-12704
▁duration	-12705
ouri	-12706
▁BAS	-12707
▁fog	-12708
throw	-12709
▁rice	-12710
▁finan	-12711
▁likes	-12712
▁integral	-12713
▁relationship	-12714
SDP	-12715
blem	-12716
▁Joy	-12717
▁Try	-12718
osaic	-12719
▁wolf	-12720
▁Public	-12721
▁glasses	-12722
▁procure	-12723
▁shouting	-12724
▁thirteen	-12725
bot	-12726
▁"{	-12727
amph	-12728
tail	-12729
▁Into	-12730
▁corp	-12731
▁mamma	-12732
DEFAULT	-12733
▁Intern	-12734
▁answers	-12735
▁corners	-12736
traceback	-12737
implemented	-12738
Car	-12739
UCT	-12740
atern	-12741
▁Vill	-12742
▁brut	-12743
▁mend	-12744
Record	-12745
ansion	-12746
▁honey	-12747
▁sails	-12748
▁Curtis	-12749
▁WARRANT	-12750
▁memories	-12751
▁indicates	-12752
▁productions	-12753
.}	-12754
▁wp	-12755
▁Pop	-12756
▁gig	-12757
▁ink	-12758
▁Edith	-12759
▁Roger	-12760
▁bliss	-12761
▁jolly	-12762
▁Method	-12763
▁openly	-12764
▁towers	-12765
▁climbed	-12766
▁vertices	-12767
▁philosopher	-12768
mpf	-12769
olo	-12770
User	-12771
hast	-12772
rooms	-12773
▁Bear	-12774
▁Club	-12775
▁ster	-12776
strong	-12777
untyped	-12778
▁infant	-12779
▁regards	-12780
▁compiler	-12781
▁inserted	-12782
▁compassion	-12783
▁unnecessary	-12784
Har	-12785
Tag	-12786
why	-12787
REEK	-12788
faced	-12789
▁Rail	-12790
▁sung	-12791
ranges	-12792
▁Lower	-12793
▁Negro	-12794
▁shrew	-12795
▁condemn	-12796
▁earthly	-12797
▁fontTools	-12798
asks	-12799
cost	-12800
iary	-12801
rick	-12802
▁Aly	-12803
▁Back	-12804
▁Keep	-12805
▁fant	-12806
▁dwelt	-12807
adaptor	-12808
▁plunged	-12809
1\	-12810
▁OL	-12811
roots	-12812
▁Sing	-12813
▁agents	-12814
▁explos	-12815
▁injured	-12816
▁garments	-12817
▁extending	-12818
▁perpetual	-12819
}`	-12820
pole	-12821
▁Glo	-12822
▁goss	-12823
▁sums	-12824
simple	-12825
styles	-12826
matical	-12827
▁Contin	-12828
▁jewels	-12829
▁stages	-12830
▁wholes	-12831
▁fishing	-12832
▁wealthy	-12833
▁extremity	-12834
▁undertake	-12835
64)	-12836
MEM	-12837
[0,	-12838
were	-12839
▁Burg	-12840
▁WILL	-12841
▁goin	-12842
itives	-12843
sharded	-12844
izations	-12845
▁Country	-12846
▁motives	-12847
▁therein	-12848
▁wishing	-12849
▁Marjorie	-12850
▁promises	-12851
▁followers	-12852
rr	-12853
▁CR	-12854
orer	-12855
▁unb	-12856
INTER	-12857
uning	-12858
▁logs	-12859
Invalid	-12860
▁theater	-12861
▁peasants	-12862
▁shooting	-12863
har	-12864
sar	-12865
door	-12866
▁Ray	-12867
▁Prophe	-12868
▁presum	-12869
▁prices	-12870
▁Hamilton	-12871
▁measured	-12872
matplotlib	-12873
▁greatness	-12874
▁suspended	-12875
FR	-12876
_[	-12877
'},	-12878
LEX	-12879
▁(5	-12880
zens	-12881
▁CONT	-12882
▁Hind	-12883
▁Hist	-12884
▁Vienna	-12885
▁logical	-12886
unflatten	-12887
urrection	-12888
▁distances	-12889
▁exhibited	-12890
▁predecess	-12891
▁specially	-12892
▁declaration	-12893
▁particulars	-12894
ANS	-12895
}',	-12896
both	-12897
rodu	-12898
verb	-12899
▁awe	-12900
▁lip	-12901
align	-12902
▁Brad	-12903
▁deer	-12904
▁quot	-12905
▁thei	-12906
inline	-12907
▁rings	-12908
itively	-12909
timeout	-12910
▁hanged	-12911
▁networkx	-12912
▁Something	-12913
NY	-12914
aot	-12915
dem	-12916
away	-12917
made	-12918
▁lads	-12919
moment	-12920
ography	-12921
▁leaped	-12922
▁Krishnù	-12923
▁provides	-12924
▁publisher	-12925
AW	-12926
ugin	-12927
▁Ere	-12928
▁Kirk	-12929
▁flav	-12930
▁suck	-12931
ezvous	-12932
▁squad	-12933
▁tract	-12934
Wrapper	-12935
ressing	-12936
▁Marcus	-12937
▁degrad	-12938
subjects	-12939
▁Eastern	-12940
▁Prohack	-12941
▁breathe	-12942
▁dreamed	-12943
wikipedia	-12944
▁expectation	-12945
CP	-12946
aa	-12947
uz	-12948
**(	-12949
pit	-12950
▁UP	-12951
▁Five	-12952
▁wept	-12953
▁amused	-12954
▁suited	-12955
▁wretch	-12956
▁Atlantic	-12957
▁comrades	-12958
▁explicitly	-12959
▁quantities	-12960
ACH	-12961
Mad	-12962
lars	-12963
umble	-12964
▁Hope	-12965
▁leap	-12966
▁crushed	-12967
▁leagues	-12968
▁guardian	-12969
0.0	-12970
▁Equ	-12971
▁inp	-12972
▁eldest	-12973
▁requis	-12974
▁smoking	-12975
7*	-12976
71	-12977
nu	-12978
._;	-12979
HEN	-12980
IFE	-12981
emm	-12982
misc	-12983
▁MNE	-12984
estamp	-12985
▁Third	-12986
▁brains	-12987
▁pistol	-12988
▁Jehovah	-12989
▁deserved	-12990
▁fraction	-12991
▁products	-12992
▁expecting	-12993
▁remembrance	-12994
.')	-12995
64>	-12996
hot	-12997
rice	-12998
▁Sid	-12999
▁peak	-13000
lineno	-13001
▁adapt	-13002
▁justly	-13003
▁orient	-13004
▁eminent	-13005
▁successive	-13006
fif	-13007
Desc	-13008
coef	-13009
▁'''	-13010
▁TIM	-13011
▁shy	-13012
FIFFV	-13013
docstr	-13014
▁chase	-13015
▁sweep	-13016
▁Direct	-13017
▁aboard	-13018
▁heroic	-13019
duration	-13020
▁Journal	-13021
▁guarded	-13022
▁happily	-13023
▁lecture	-13024
▁precaut	-13025
▁Achilles	-13026
▁allowing	-13027
▁elaborate	-13028
▁traveller	-13029
lb	-13030
HAM	-13031
ULE	-13032
▁Et	-13033
()):	-13034
Tell	-13035
anth	-13036
▁bmm	-13037
▁gramm	-13038
barrier	-13039
▁Wilson	-13040
▁faults	-13041
********	-13042
▁Generic	-13043
▁upwards	-13044
▁lowering	-13045
▁stirring	-13046
▁abundance	-13047
14.	-13048
15.	-13049
?',	-13050
MAR	-13051
tem	-13052
▁Var	-13053
__.__	-13054
gered	-13055
▁irre	-13056
Cannot	-13057
ologue	-13058
▁pious	-13059
▁boiled	-13060
▁smiles	-13061
▁cruelty	-13062
▁imperfect	-13063
▁questioned	-13064
▁respecting	-13065
sync	-13066
unci	-13067
▁1.,	-13068
▁exh	-13069
unken	-13070
▁foes	-13071
▁rasc	-13072
pecial	-13073
▁niece	-13074
▁ordin	-13075
▁prick	-13076
ivering	-13077
predict	-13078
Interval	-13079
registry	-13080
▁discern	-13081
▁sessions	-13082
▁imaginary	-13083
▁moonlight	-13084
nde	-13085
.--_	-13086
eren	-13087
lyss	-13088
▁004	-13089
▁Ped	-13090
▁por	-13091
green	-13092
ranks	-13093
▁Brah	-13094
▁doom	-13095
▁drum	-13096
▁jail	-13097
▁subt	-13098
chance	-13099
▁Blake	-13100
▁baron	-13101
logical	-13102
▁calmly	-13103
▁filling	-13104
▁volunte	-13105
quantized	-13106
▁teachers	-13107
▁behaviour	-13108
.\	-13109
?\	-13110
("'	-13111
orf	-13112
oler	-13113
▁Fro	-13114
Space	-13115
grads	-13116
▁LORD	-13117
exists	-13118
▁Academ	-13119
secution	-13120
▁Admiral	-13121
▁planned	-13122
▁spectacle	-13123
XX	-13124
fw	-13125
rv	-13126
▁Tor	-13127
phone	-13128
Single	-13129
scroll	-13130
umbers	-13131
▁Square	-13132
▁copied	-13133
▁doubts	-13134
▁roused	-13135
▁flowing	-13136
▁Franklin	-13137
▁Infantry	-13138
▁invented	-13139
▁container	-13140
IntegerAttr	-13141
▁neighbours	-13142
NN	-13143
13.	-13144
▁nd	-13145
▁"--	-13146
▁[2,	-13147
▁cel	-13148
ullen	-13149
▁Lane	-13150
▁jury	-13151
states	-13152
▁Later	-13153
▁marsh	-13154
▁breadth	-13155
▁severely	-13156
▁salvation	-13157
▁hypothesis	-13158
IRD	-13159
▁54	-13160
BERT	-13161
rade	-13162
▁11.	-13163
▁papa	-13164
▁trap	-13165
epochs	-13166
▁muscle	-13167
▁Universal	-13168
▁witnesses	-13169
**4*	-13170
▁12.	-13171
ipher	-13172
▁Fake	-13173
▁morn	-13174
▁orch	-13175
ifices	-13176
▁Thank	-13177
▁Turks	-13178
▁pearl	-13179
ciences	-13180
ultural	-13181
usively	-13182
▁charges	-13183
Parameter	-13184
▁emotions	-13185
▁rotation	-13186
▁trembled	-13187
[3	-13188
▁"#	-13189
▁lb	-13190
AMES	-13191
▁Cou	-13192
▁vit	-13193
notes	-13194
▁Barn	-13195
▁Rand	-13196
▁Table	-13197
Nothing	-13198
pending	-13199
▁theirs	-13200
▁tragic	-13201
▁guessed	-13202
▁obscure	-13203
▁shallow	-13204
▁sheriff	-13205
▁courtesy	-13206
▁prevailed	-13207
▁contemporary	-13208
phi	-13209
▁Fif	-13210
▁cars	-13211
iastic	-13212
Compute	-13213
imately	-13214
▁penalty	-13215
▁sailing	-13216
▁warrior	-13217
▁landlord	-13218
▁mechanical	-13219
OB	-13220
▁',	-13221
)[0]	-13222
hole	-13223
▁Appl	-13224
▁bars	-13225
▁drag	-13226
▁gran	-13227
▁rigid	-13228
atching	-13229
▁shells	-13230
▁Children	-13231
▁decorated	-13232
▁investigation	-13233
");	-13234
asso	-13235
iser	-13236
▁CHR	-13237
▁blew	-13238
callable	-13239
▁scenery	-13240
▁typical	-13241
▁entertained	-13242
AF	-13243
vy	-13244
{\	-13245
ODE	-13246
ano	-13247
iph	-13248
▁Il	-13249
iche	-13250
▁012	-13251
▁Creat	-13252
▁Japan	-13253
▁codes	-13254
▁veins	-13255
amental	-13256
▁puzzled	-13257
▁offended	-13258
▁civilized	-13259
▁descendants	-13260
hew	-13261
▁NB	-13262
hall	-13263
▁(1)	-13264
▁Circ	-13265
▁proxy	-13266
Process	-13267
▁pickle	-13268
▁Islands	-13269
▁anguish	-13270
▁prolong	-13271
normalize	-13272
▁garrison	-13273
▁observer	-13274
▁struggling	-13275
</	-13276
UTH	-13277
▁Meg	-13278
▁Axes	-13279
▁KIND	-13280
00,000	-13281
▁vigor	-13282
▁raises	-13283
variadic	-13284
▁casting	-13285
▁formula	-13286
▁parting	-13287
▁landscape	-13288
▁Ken	-13289
▁fwd	-13290
Names	-13291
▁""",	-13292
▁Maid	-13293
▁beef	-13294
invalid	-13295
▁Gothic	-13296
▁ashore	-13297
▁facing	-13298
▁harvest	-13299
▁variance	-13300
▁decomposition	-13301
INS	-13302
Pre	-13303
eeg	-13304
icer	-13305
riet	-13306
▁Esq	-13307
ilight	-13308
fashion	-13309
▁dashed	-13310
▁pirate	-13311
00000000	-13312
interpol	-13313
▁hideous	-13314
▁conclude	-13315
▁expensive	-13316
anda	-13317
drew	-13318
lair	-13319
▁Cant	-13320
▁bapt	-13321
frozen	-13322
olated	-13323
▁consec	-13324
▁reconc	-13325
▁Footnote	-13326
▁discourse	-13327
▁hesitation	-13328
▁illustration	-13329
▁characteristics	-13330
[\	-13331
did	-13332
▁io	-13333
ilon	-13334
▁vap	-13335
ranch	-13336
ancies	-13337
inkled	-13338
▁chuck	-13339
without	-13340
▁warmth	-13341
▁sinking	-13342
▁inconven	-13343
gb	-13344
nat	-13345
IGIT	-13346
thel	-13347
▁ger	-13348
archy	-13349
atoes	-13350
▁damn	-13351
▁brows	-13352
▁couch	-13353
document	-13354
▁routine	-13355
▁threads	-13356
▁borrowed	-13357
▁festival	-13358
▁anxiously	-13359
▁WARRANTIES	-13360
CY	-13361
ONG	-13362
hin	-13363
▁ros	-13364
chers	-13365
seudo	-13366
▁(3/4	-13367
▁Bent	-13368
▁beer	-13369
▁ruff	-13370
▁sear	-13371
▁crest	-13372
▁Further	-13373
▁mothers	-13374
▁fortress	-13375
constraint	-13376
?_	-13377
wa	-13378
UND	-13379
ulc	-13380
igin	-13381
jean	-13382
ásha	-13383
Child	-13384
heart	-13385
prior	-13386
enames	-13387
▁Apache	-13388
▁income	-13389
▁receipt	-13390
▁released	-13391
▁encouraged	-13392
16.	-13393
Hen	-13394
ban	-13395
lov	-13396
▁53	-13397
Mesh	-13398
▁TOM	-13399
drawn	-13400
making	-13401
▁Maria	-13402
▁blend	-13403
because	-13404
▁epochs	-13405
▁ranges	-13406
▁attacks	-13407
▁placing	-13408
▁expanded	-13409
▁violently	-13410
▁commanding	-13411
▁compatible	-13412
▁marvellous	-13413
▁IR	-13414
hile	-13415
aired	-13416
small	-13417
▁CUDA	-13418
▁barn	-13419
▁disd	-13420
▁fors	-13421
counts	-13422
locals	-13423
▁Allen	-13424
▁afore	-13425
▁chiefs	-13426
▁tempted	-13427
▁speedily	-13428
▁enclosure	-13429
▁tolerance	-13430
▁subsequently	-13431
256	-13432
▁equip	-13433
▁globe	-13434
000,000	-13435
bedding	-13436
landers	-13437
▁Hector	-13438
▁Fortune	-13439
▁gravity	-13440
▁sentences	-13441
iol	-13442
conf	-13443
ials	-13444
▁Blo	-13445
▁Cad	-13446
▁Jen	-13447
▁Lab	-13448
Every	-13449
▁Belg	-13450
▁bomb	-13451
uesday	-13452
▁pupil	-13453
▁sends	-13454
▁advers	-13455
▁boldly	-13456
▁sketch	-13457
handlers	-13458
▁drowned	-13459
▁peoples	-13460
▁secretly	-13461
▁simplify	-13462
▁comprehens	-13463
▁respective	-13464
005	-13465
064	-13466
▁Wait	-13467
cython	-13468
▁oldest	-13469
▁ration	-13470
▁miracle	-13471
▁defeated	-13472
▁universe	-13473
concatenate	-13474
▁honourable	-13475
cr	-13476
▁Sl	-13477
ocus	-13478
▁HAR	-13479
▁lots	-13480
▁tube	-13481
spring	-13482
▁alloc	-13483
▁slices	-13484
▁profits	-13485
▁imported	-13486
▁punished	-13487
▁calculate	-13488
▁documents	-13489
▁unwilling	-13490
'"	-13491
Enc	-13492
Our	-13493
pid	-13494
inge	-13495
▁Win	-13496
▁[3,	-13497
▁spy	-13498
▁subl	-13499
origin	-13500
▁justify	-13501
▁assisted	-13502
▁diameter	-13503
▁magnitude	-13504
▁ton	-13505
great	-13506
▁tore	-13507
Struct	-13508
▁Charl	-13509
connect	-13510
▁Person	-13511
▁scales	-13512
▁flattened	-13513
+.	-13514
▁Ur	-13515
Time	-13516
▁Lor	-13517
encer	-13518
leans	-13519
▁News	-13520
▁Poet	-13521
▁chop	-13522
▁idol	-13523
▁riot	-13524
▁tops	-13525
▁Beaut	-13526
▁backs	-13527
▁skies	-13528
▁stamp	-13529
▁crisis	-13530
▁acquire	-13531
▁messages	-13532
▁fortnight	-13533
▁proportions	-13534
0;	-13535
1(	-13536
ONS	-13537
eled	-13538
osha	-13539
Alias	-13540
otism	-13541
▁pall	-13542
▁Eight	-13543
▁finite	-13544
▁enlight	-13545
▁strikes	-13546
▁monaster	-13547
+\	-13548
Tra	-13549
fqn	-13550
▁Lew	-13551
▁maj	-13552
▁Hath	-13553
▁Walk	-13554
▁brook	-13555
▁humor	-13556
▁------	-13557
▁uneasy	-13558
▁dangers	-13559
▁stately	-13560
▁reversed	-13561
▁interface	-13562
▁accordance	-13563
▁thoughtful	-13564
<4	-13565
lee	-13566
▁je	-13567
▁Hans	-13568
▁nuts	-13569
▁pint	-13570
▁worsh	-13571
contain	-13572
▁Surely	-13573
▁Marquis	-13574
▁appetite	-13575
mus	-13576
▁Pom	-13577
Transl	-13578
ivative	-13579
▁Friday	-13580
▁loudly	-13581
upported	-13582
▁divisions	-13583
▁unpleasant	-13584
▁Ut	-13585
▁Aff	-13586
about	-13587
ampled	-13588
idable	-13589
metrics	-13590
▁defect	-13591
▁morrow	-13592
▁primary	-13593
▁speaker	-13594
▁consumed	-13595
▁Catherine	-13596
▁formation	-13597
▁languages	-13598
16_	-13599
inda	-13600
▁kid	-13601
▁viz	-13602
imize	-13603
▁Pont	-13604
ressor	-13605
elihood	-13606
▁prayed	-13607
▁WITHOUT	-13608
▁descending	-13609
▁motionless	-13610
Dr	-13611
Seg	-13612
▁56	-13613
▁FIG	-13614
OTHER	-13615
inted	-13616
▁clam	-13617
ussian	-13618
▁abode	-13619
factors	-13620
▁bullet	-13621
▁clergy	-13622
▁hearth	-13623
▁longed	-13624
________	-13625
interest	-13626
▁ceiling	-13627
▁swallow	-13628
▁withdrew	-13629
▁obviously	-13630
▁sustained	-13631
▁conspicuous	-13632
Pen	-13633
▁dt	-13634
▁pt	-13635
cker	-13636
▁Gil	-13637
setup	-13638
▁blast	-13639
▁tools	-13640
▁tries	-13641
inement	-13642
▁Barbar	-13643
▁danced	-13644
▁drunken	-13645
threshold	-13646
▁feathers	-13647
▁strategy	-13648
▁Lancaster	-13649
▁gutenberg	-13650
▁transpose	-13651
GraphModule	-13652
▁coordinate	-13653
mi	-13654
Que	-13655
▁GH	-13656
Axis	-13657
Twas	-13658
ieth	-13659
inton	-13660
alling	-13661
omorph	-13662
raries	-13663
▁allies	-13664
▁dispos	-13665
▁seeming	-13666
▁cassette	-13667
2;	-13668
Ke	-13669
▁57	-13670
▁Edin	-13671
atting	-13672
▁Grant	-13673
▁faced	-13674
▁liquid	-13675
▁rushing	-13676
▁creating	-13677
processing	-13678
▁appreciate	-13679
▁influences	-13680
3-	-13681
``:	-13682
rup	-13683
Pred	-13684
acks	-13685
ario	-13686
fire	-13687
▁17,	-13688
▁Lam	-13689
Label	-13690
▁Desc	-13691
▁Kate	-13692
▁XIII	-13693
▁maps	-13694
▁games	-13695
▁piano	-13696
▁plane	-13697
▁spoon	-13698
▁Claude	-13699
▁advise	-13700
▁dismay	-13701
▁battles	-13702
▁percent	-13703
ArrayLike	-13704
annotations	-13705
▁separation	-13706
▁Netherlands	-13707
foo	-13708
addr	-13709
▁Isa	-13710
neath	-13711
▁hasn	-13712
▁quote	-13713
▁recur	-13714
▁shine	-13715
▁compact	-13716
▁category	-13717
▁conveyed	-13718
▁incapable	-13719
▁paragraph	-13720
?—	-13721
▁Os	-13722
OUNT	-13723
weak	-13724
▁XII	-13725
▁JOUR	-13726
▁analy	-13727
▁solic	-13728
Operator	-13729
▁Charlie	-13730
▁chimney	-13731
▁relieve	-13732
▁scarlet	-13733
▁treason	-13734
▁practised	-13735
▁ceremonies	-13736
/__	-13737
▁Cra	-13738
▁MAS	-13739
▁xml	-13740
▁Happ	-13741
▁shops	-13742
▁uneas	-13743
sklearn	-13744
▁Arnold	-13745
▁Indies	-13746
▁judged	-13747
optimize	-13748
▁Herbert	-13749
▁reaches	-13750
▁whither	-13751
▁approved	-13752
▁speeches	-13753
annotation	-13754
▁dataclasses	-13755
▁experiences	-13756
pd	-13757
}(	-13758
mun	-13759
▁()	-13760
lete	-13761
▁nin	-13762
▁woo	-13763
Thank	-13764
every	-13765
▁earn	-13766
escape	-13767
▁lamps	-13768
▁issues	-13769
▁nobility	-13770
▁===========	-13771
MS	-13772
iend	-13773
▁18,	-13774
▁Nov	-13775
ements	-13776
▁Lydia	-13777
▁capit	-13778
▁crowned	-13779
▁torture	-13780
ictionary	-13781
▁believing	-13782
Old	-13783
uen	-13784
utt	-13785
▁[13	-13786
▁lur	-13787
▁omn	-13788
▁Cart	-13789
▁Dean	-13790
▁Moses	-13791
▁Dudley	-13792
▁chains	-13793
▁throws	-13794
▁curtains	-13795
▁inspiration	-13796
6*	-13797
?)	-13798
`)	-13799
Apr	-13800
rics	-13801
▁(2)	-13802
▁Bos	-13803
Store	-13804
might	-13805
▁Cristo	-13806
▁haught	-13807
▁shudder	-13808
▁specimen	-13809
▁exclusive	-13810
YN	-13811
'])	-13812
ele	-13813
▁Care	-13814
bridge	-13815
▁Board	-13816
▁dilig	-13817
▁psych	-13818
▁bridges	-13819
▁handles	-13820
▁scaling	-13821
▁achieved	-13822
▁persuade	-13823
▁exercised	-13824
▁covariance	-13825
Mon	-13826
sep	-13827
▁300	-13828
▁jit	-13829
clone	-13830
iques	-13831
least	-13832
velope	-13833
▁Cibber	-13834
▁Garden	-13835
▁bestow	-13836
▁contro	-13837
▁orange	-13838
settings	-13839
▁draught	-13840
▁lowered	-13841
▁Brothers	-13842
▁Highness	-13843
▁uncommon	-13844
▁visiting	-13845
▁westward	-13846
▁injustice	-13847
(3	-13848
Neg	-13849
▁dx	-13850
)``.	-13851
Lady	-13852
annel	-13853
▁Hear	-13854
lysses	-13855
▁deleg	-13856
▁angles	-13857
▁barren	-13858
▁swords	-13859
▁wilderness	-13860
Bo	-13861
ali	-13862
▁59	-13863
ograp	-13864
▁rede	-13865
angles	-13866
holders	-13867
joining	-13868
▁Office	-13869
▁quaint	-13870
▁Douglas	-13871
▁Mapping	-13872
▁solitude	-13873
▁rendering	-13874
▁travelled	-13875
()}	-13876
ito	-13877
▁SW	-13878
▁tap	-13879
carry	-13880
impse	-13881
▁crops	-13882
▁micro	-13883
▁polic	-13884
▁Alyosha	-13885
▁Natásha	-13886
▁Valjean	-13887
▁bargain	-13888
▁glimpse	-13889
▁overhead	-13890
▁proposal	-13891
▁rejected	-13892
▁shepherd	-13893
▁traceback	-13894
▁witnessed	-13895
9999	-13896
▁19,	-13897
begin	-13898
▁inex	-13899
▁infl	-13900
ranean	-13901
▁reset	-13902
▁Device	-13903
▁Horace	-13904
▁Spring	-13905
▁Persian	-13906
▁crimson	-13907
writeline	-13908
▁literally	-13909
▁spectators	-13910
107	-13911
500	-13912
AMP	-13913
▁EL	-13914
▁SO	-13915
▁fel	-13916
chair	-13917
▁Budd	-13918
▁LEFT	-13919
▁virg	-13920
ovitch	-13921
ughter	-13922
▁scant	-13923
▁Johnny	-13924
▁radius	-13925
▁circles	-13926
▁players	-13927
▁operators	-13928
▁corresponds	-13929
▁77	-13930
▁kv	-13931
▁eth	-13932
▁piv	-13933
ernal	-13934
ituted	-13935
builder	-13936
▁patent	-13937
▁blowing	-13938
▁sergeant	-13939
▁backwards	-13940
description	-13941
14,	-13942
Cap	-13943
Cur	-13944
pars	-13945
▁0.4	-13946
▁30,	-13947
▁SHE	-13948
▁fmt	-13949
▁dazz	-13950
▁sack	-13951
▁spin	-13952
▁tast	-13953
elfare	-13954
ippers	-13955
▁bonds	-13956
▁rocky	-13957
▁Linear	-13958
▁deemed	-13959
▁breathed	-13960
▁Edinburgh	-13961
▁rebellion	-13962
05.	-13963
MNE	-13964
Thou	-13965
▁190	-13966
▁BSD	-13967
▁fab	-13968
▁Save	-13969
▁pave	-13970
▁dealt	-13971
▁troop	-13972
▁crimes	-13973
▁lookup	-13974
▁confirm	-13975
▁rightly	-13976
▁asserted	-13977
▁appearing	-13978
▁Protestant	-13979
▁eventually	-13980
_4	-13981
sf	-13982
▁Rud	-13983
▁[14	-13984
▁veh	-13985
blest	-13986
otune	-13987
▁Troj	-13988
▁semi	-13989
▁canoe	-13990
▁cycle	-13991
▁decent	-13992
▁hoping	-13993
ancellor	-13994
▁congreg	-13995
▁flushed	-13996
▁alliance	-13997
▁sufferings	-13998
▁interpreted	-13999
▁ecclesiastical	-14000
:00	-14001
▁ol	-14002
▁Bad	-14003
▁Dog	-14004
▁Kit	-14005
▁gal	-14006
▁Ball	-14007
atches	-14008
▁CONDIT	-14009
▁Taylor	-14010
▁collar	-14011
istration	-14012
selection	-14013
▁lordship	-14014
▁elevation	-14015
iæ	-14016
rod	-14017
▁'<	-14018
**2)	-14019
anna	-14020
rons	-14021
▁Dim	-14022
▁Fla	-14023
▁blown	-14024
▁bount	-14025
▁disorder	-14026
placements	-14027
▁gradients	-14028
abstractmethod	-14029
ea	-14030
(2*	-14031
Tim	-14032
_2,	-14033
oga	-14034
som	-14035
▁68	-14036
Norm	-14037
plan	-14038
▁mim	-14039
antom	-14040
▁meadow	-14041
▁melted	-14042
▁shouts	-14043
▁twilight	-14044
▁prejudice	-14045
▁illustrated	-14046
("\	-14047
+1)	-14048
1),	-14049
bec	-14050
nox	-14051
ffic	-14052
▁fug	-14053
prime	-14054
stage	-14055
▁proj	-14056
omical	-14057
▁Build	-14058
▁allied	-14059
▁ladder	-14060
▁strife	-14061
dilation	-14062
endswith	-14063
▁receives	-14064
▁resource	-14065
▁encounter	-14066
vt	-14067
xs	-14068
--”	-14069
.'"	-14070
Rel	-14071
▁Bird	-14072
▁whir	-14073
▁Santa	-14074
▁clone	-14075
▁Naples	-14076
▁horrid	-14077
▁trades	-14078
▁blossom	-14079
▁spreading	-14080
══	-14081
15,	-14082
ERR	-14083
cii	-14084
yon	-14085
()))	-14086
▁Ple	-14087
▁mov	-14088
ieves	-14089
untary	-14090
▁Works	-14091
▁horns	-14092
▁spoil	-14093
ivation	-14094
▁carved	-14095
▁totally	-14096
available	-14097
▁Licensed	-14098
▁patterns	-14099
▁treasures	-14100
td	-14101
75;	-14102
MIN	-14103
kit	-14104
tone	-14105
wich	-14106
▁Cow	-14107
▁Pel	-14108
ratic	-14109
Create	-14110
coords	-14111
wright	-14112
▁halted	-14113
▁magnet	-14114
▁Initial	-14115
▁conform	-14116
functools	-14117
▁deserves	-14118
▁sacrific	-14119
▁willingly	-14120
▁addressing	-14121
▁Ark	-14122
▁qui	-14123
▁Suff	-14124
▁herd	-14125
▁lawn	-14126
ossibly	-14127
▁execute	-14128
▁tongues	-14129
▁updated	-14130
▁separately	-14131
;[	-14132
▁ED	-14133
proc	-14134
▁bee	-14135
ometry	-14136
▁abuse	-14137
▁poles	-14138
▁whirl	-14139
▁Jewish	-14140
computed	-14141
itations	-14142
▁Himself	-14143
▁perpend	-14144
▁declined	-14145
▁vertical	-14146
▁virtuous	-14147
▁Testament	-14148
--'	-14149
MER	-14150
▁Cæ	-14151
▁Od	-14152
▁kw	-14153
folk	-14154
peak	-14155
▁Tar	-14156
plots	-14157
▁Ages	-14158
▁Blue	-14159
▁flax	-14160
▁puff	-14161
▁recon	-14162
comment	-14163
reduced	-14164
▁Daniel	-14165
▁victims	-14166
fashioned	-14167
▁awakened	-14168
▁sympathe	-14169
▁Broadcast	-14170
▁corrected	-14171
75.	-14172
Nov	-14173
wall	-14174
▁25,	-14175
▁XXV	-14176
▁aver	-14177
▁Canad	-14178
▁Tower	-14179
▁align	-14180
▁fools	-14181
▁tread	-14182
istence	-14183
▁firing	-14184
▁models	-14185
▁meetings	-14186
▁vicinity	-14187
▁formidable	-14188
AE	-14189
=""	-14190
Sec	-14191
_."	-14192
bur	-14193
iry	-14194
inel	-14195
oric	-14196
past	-14197
[0-9]	-14198
cover	-14199
▁Font	-14200
▁bury	-14201
signal	-14202
stages	-14203
▁alien	-14204
▁embro	-14205
▁cursed	-14206
▁beautifully	-14207
kh	-14208
002	-14209
Ver	-14210
hill	-14211
▁Ram	-14212
▁``"	-14213
reset	-14214
yster	-14215
▁nurs	-14216
▁padd	-14217
▁hears	-14218
▁juice	-14219
assador	-14220
▁Sister	-14221
▁preach	-14222
atically	-14223
▁Philipp	-14224
▁critics	-14225
▁Produced	-14226
▁detailed	-14227
▁disguise	-14228
▁segments	-14229
▁justified	-14230
▁supposing	-14231
▁CONDITIONS	-14232
▁attributed	-14233
▁permutation	-14234
=,	-14235
ben	-14236
seus	-14237
▁Flor	-14238
▁Road	-14239
▁BASIS	-14240
▁Obser	-14241
▁noght	-14242
▁Hamlet	-14243
▁rebels	-14244
▁velvet	-14245
▁Pericles	-14246
▁university	-14247
BO	-14248
SL	-14249
arms	-14250
beth	-14251
inea	-14252
▁soup	-14253
▁Simon	-14254
▁draft	-14255
minster	-14256
▁hearty	-14257
▁greeted	-14258
▁awaiting	-14259
▁inclination	-14260
▁transferred	-14261
▁disagreeable	-14262
▁τ	-14263
13,	-14264
amy	-14265
fac	-14266
▁gn	-14267
fied	-14268
ethinks	-14269
▁spared	-14270
▁torment	-14271
▁twisted	-14272
▁Missouri	-14273
▁successor	-14274
▁constructor	-14275
▁hospitality	-14276
itud	-14277
▁ONE	-14278
[:-1]	-14279
human	-14280
▁soci	-14281
arette	-14282
▁balls	-14283
▁cells	-14284
▁fragr	-14285
▁taxes	-14286
appings	-14287
▁Period	-14288
▁purity	-14289
▁trifle	-14290
▁install	-14291
▁refined	-14292
▁dismissed	-14293
▁sensitive	-14294
▁horizontal	-14295
▁illustrious	-14296
▁Gab	-14297
▁Hur	-14298
▁Run	-14299
([[1,	-14300
▁Educ	-14301
▁Prom	-14302
▁ratt	-14303
▁Fried	-14304
▁Leyte	-14305
uniform	-14306
aneously	-14307
▁Ulysses	-14308
▁grammar	-14309
▁imposed	-14310
▁indirect	-14311
▁latitude	-14312
▁classical	-14313
▁frightful	-14314
▁statistic	-14315
▁strongest	-14316
▁glittering	-14317
▁supporting	-14318
▁competition	-14319
▁defaultdict	-14320
[^	-14321
004	-14322
Pos	-14323
▁<<	-14324
agus	-14325
▁tunn	-14326
nesday	-14327
strous	-14328
▁engra	-14329
▁presc	-14330
dataset	-14331
▁coffin	-14332
▁ragged	-14333
▁scholar	-14334
▁murderer	-14335
▁Australia	-14336
nik	-14337
-2.0	-14338
gemm	-14339
ocks	-14340
▁23,	-14341
▁dew	-14342
filer	-14343
tagon	-14344
▁Rost	-14345
▁belt	-14346
▁bred	-14347
cached	-14348
▁LIGHT	-14349
▁swore	-14350
vectors	-14351
▁kisses	-14352
▁robbed	-14353
▁antagon	-14354
▁glowing	-14355
▁seasons	-14356
▁suggests	-14357
▁Battalion	-14358
▁variation	-14359
▁essentially	-14360
▁permissions	-14361
▁nb	-14362
▁Exp	-14363
▁jur	-14364
aines	-14365
▁moss	-14366
apache	-14367
posite	-14368
▁DIGIT	-14369
▁GREEK	-14370
▁exile	-14371
arewell	-14372
▁saints	-14373
▁benevol	-14374
▁chariot	-14375
▁slumber	-14376
▁implicit	-14377
▁observing	-14378
▁discharged	-14379
▁eighteenth	-14380
▁affectionate	-14381
▁manufactures	-14382
▁representatives	-14383
—”	-14384
cip	-14385
▁58	-14386
Axes	-14387
VENT	-14388
▁Det	-14389
▁ram	-14390
▁deaf	-14391
levels	-14392
▁Heath	-14393
aliases	-14394
cession	-14395
writing	-14396
▁riches	-14397
▁shrewd	-14398
▁circuit	-14399
▁exclaim	-14400
▁incidents	-14401
▁objective	-14402
▁possesses	-14403
▁industrial	-14404
▁invariably	-14405
▁ImportError	-14406
(0.	-14407
>`.	-14408
Bel	-14409
NaN	-14410
[-1	-14411
east	-14412
▁HEL	-14413
black	-14414
heard	-14415
▁Fire	-14416
▁dash	-14417
1,0,0,	-14418
ulties	-14419
▁awoke	-14420
▁lunch	-14421
▁mouse	-14422
optional	-14423
▁chances	-14424
▁doubted	-14425
▁gigantic	-14426
▁intercept	-14427
▁conference	-14428
▁intentions	-14429
▁optimization	-14430
0_	-14431
18.	-14432
Dat	-14433
cas	-14434
▁4:	-14435
gone	-14436
ACTER	-14437
pollo	-14438
▁kick	-14439
achine	-14440
▁8192,	-14441
▁Heart	-14442
▁comic	-14443
Default	-14444
▁awhile	-14445
▁tempest	-14446
alignment	-14447
▁Williams	-14448
▁checking	-14449
▁Extension	-14450
▁exchanged	-14451
Ge	-14452
32.	-14453
ANK	-14454
haw	-14455
▁80	-14456
▁oo	-14457
-02,	-14458
bled	-14459
send	-14460
▁Alc	-14461
▁Pla	-14462
▁dyn	-14463
accum	-14464
orney	-14465
track	-14466
▁Tenn	-14467
▁beam	-14468
▁joys	-14469
▁basin	-14470
▁drown	-14471
▁tents	-14472
LICENSE	-14473
▁wasted	-14474
▁welcom	-14475
▁CHARLES	-14476
▁traitor	-14477
▁varying	-14478
▁offensive	-14479
▁KeywordArg	-14480
2-	-14481
LIN	-14482
PAR	-14483
rude	-14484
ilful	-14485
deprec	-14486
▁relate	-14487
▁Orleans	-14488
▁amiable	-14489
▁contributed	-14490
Hel	-14491
MAX	-14492
mac	-14493
▁2]	-14494
ethe	-14495
scan	-14496
tick	-14497
adies	-14498
minus	-14499
▁Girl	-14500
▁bulk	-14501
Christ	-14502
canvas	-14503
fusion	-14504
▁stops	-14505
▁waved	-14506
▁CHRIST	-14507
▁courte	-14508
▁waving	-14509
▁torrent	-14510
mentation	-14511
▁machines	-14512
▁seventeen	-14513
▁categories	-14514
jp	-14515
ALE	-14516
EEN	-14517
▁kin	-14518
oughs	-14519
except	-14520
ouched	-14521
▁Above	-14522
▁penny	-14523
▁amazed	-14524
▁plague	-14525
▁sermon	-14526
▁TypeVar	-14527
▁bending	-14528
numerable	-14529
▁fallback	-14530
▁regularly	-14531
Instruction	-14532
▁derivative	-14533
▁interpretation	-14534
boat	-14535
smem	-14536
▁cla	-14537
ATHAN	-14538
Multi	-14539
atist	-14540
▁Need	-14541
▁RICH	-14542
▁wits	-14543
▁compr	-14544
▁dated	-14545
▁decis	-14546
▁eagle	-14547
▁Scottish	-14548
▁hesitate	-14549
▁marching	-14550
▁protocol	-14551
▁sickness	-14552
▁Frenchman	-14553
▁interfere	-14554
▁neighbouring	-14555
▁illustrations	-14556
REM	-14557
Uns	-14558
rof	-14559
lymp	-14560
oubt	-14561
rene	-14562
▁Bou	-14563
▁din	-14564
chars	-14565
▁Bull	-14566
▁Real	-14567
▁bows	-14568
▁elbow	-14569
▁Cometh	-14570
floating	-14571
▁dropping	-14572
("_	-14573
AIN	-14574
TLE	-14575
▁01	-14576
▁cf	-14577
▁Kid	-14578
▁fib	-14579
▁tons	-14580
compar	-14581
upiter	-14582
▁ambit	-14583
▁crazy	-14584
▁gleam	-14585
running	-14586
▁Luther	-14587
▁aggreg	-14588
▁impart	-14589
▁shaken	-14590
▁tyrant	-14591
▁Charmian	-14592
ographical	-14593
▁curiously	-14594
▁interpolation	-14595
Br	-14596
Me	-14597
PY	-14598
rf	-14599
Dep	-14600
mma	-14601
uzz	-14602
▁0.6	-14603
▁168	-14604
▁DAN	-14605
ribes	-14606
pallas	-14607
▁calam	-14608
romwell	-14609
▁Winter	-14610
▁merits	-14611
▁sticks	-14612
▁occurrence	-14613
mn	-14614
)])	-14615
06.	-14616
64.	-14617
say	-14618
▁il	-14619
▁CPU	-14620
▁jer	-14621
▁Sinc	-14622
▁User	-14623
▁View	-14624
▁carp	-14625
period	-14626
ursday	-14627
▁Eaton	-14628
▁Honor	-14629
▁Horse	-14630
▁paste	-14631
inplace	-14632
licenses	-14633
▁buffers	-14634
▁knights	-14635
▁serving	-14636
▁sections	-14637
Translator	-14638
▁eloquence	-14639
▁superiority	-14640
lr	-14641
yme	-14642
[1:]	-14643
opal	-14644
▁haw	-14645
▁File	-14646
▁Publ	-14647
▁alph	-14648
▁Sweet	-14649
qconfig	-14650
▁PyTree	-14651
▁harbour	-14652
▁proceeds	-14653
▁solemnly	-14654
▁impatience	-14655
.{	-14656
NS	-14657
."[	-14658
cmd	-14659
▁KN	-14660
NING	-14661
▁21,	-14662
▁28,	-14663
▁Sic	-14664
Style	-14665
▁Stop	-14666
▁Thee	-14667
▁ther	-14668
rality	-14669
termin	-14670
▁Natur	-14671
▁Tyler	-14672
▁deput	-14673
express	-14674
▁insign	-14675
▁titles	-14676
▁convuls	-14677
claration	-14678
1',	-14679
pts	-14680
▁bi	-14681
argo	-14682
cers	-14683
▁Lim	-14684
▁Alan	-14685
▁PHIL	-14686
▁pert	-14687
▁Object	-14688
▁bundle	-14689
▁pillow	-14690
▁Dorothy	-14691
▁heathen	-14692
▁complaint	-14693
▁excellence	-14694
-10	-14695
2',	-14696
dog	-14697
cycl	-14698
▁0.7	-14699
▁PER	-14700
elity	-14701
▁Code	-14702
▁dine	-14703
Please	-14704
▁swell	-14705
▁assass	-14706
▁tricks	-14707
diagonal	-14708
▁lantern	-14709
▁infinitely	-14710
▁temptation	-14711
▁convenience	-14712
."]	-14713
quo	-14714
▁::	-14715
▁{{	-14716
▁rod	-14717
▁fath	-14718
▁dares	-14719
▁Turkey	-14720
▁comprom	-14721
▁partner	-14722
▁Remember	-14723
▁carriages	-14724
▁Attributes	-14725
-5	-14726
ete	-14727
▁"<	-14728
riel	-14729
task	-14730
▁dru	-14731
▁Carr	-14732
▁flex	-14733
▁clerg	-14734
▁wrest	-14735
mutable	-14736
▁refers	-14737
ceptible	-14738
▁applies	-14739
▁indexer	-14740
▁pulling	-14741
▁envelope	-14742
▁Villefort	-14743
▁footsteps	-14744
▁attachment	-14745
▁countrymen	-14746
▁impressions	-14747
▁'-	-14748
ultan	-14749
▁MARK	-14750
▁trop	-14751
▁mustn	-14752
▁beggar	-14753
▁schema	-14754
▁Science	-14755
▁statues	-14756
▁adjoining	-14757
▁suspicious	-14758
▁inheritance	-14759
MM	-14760
Fil	-14761
aun	-14762
LECT	-14763
OMAN	-14764
bbox	-14765
dark	-14766
help	-14767
meas	-14768
▁Dur	-14769
▁PAT	-14770
▁cyl	-14771
ogene	-14772
organ	-14773
▁vile	-14774
dinand	-14775
▁Ralph	-14776
▁faded	-14777
▁ardent	-14778
▁corrid	-14779
▁decree	-14780
▁losses	-14781
▁flatten	-14782
▁tremble	-14783
▁Comethup	-14784
▁catching	-14785
▁imitation	-14786
▁controvers	-14787
▁HT	-14788
aria	-14789
ripp	-14790
▁Too	-14791
▁dun	-14792
istle	-14793
▁Heav	-14794
▁chast	-14795
▁16384,	-14796
▁aliases	-14797
▁valiant	-14798
▁infantry	-14799
▁Charlotte	-14800
▁ambitious	-14801
▁Constantin	-14802
Distribution	-14803
cb	-14804
xe	-14805
▁Cf	-14806
llvm	-14807
▁-1)	-14808
▁CIR	-14809
ugate	-14810
▁Dant	-14811
▁Jess	-14812
▁Open	-14813
▁abst	-14814
▁sire	-14815
▁susp	-14816
pretty	-14817
▁Given	-14818
▁brisk	-14819
sympify	-14820
▁Custom	-14821
▁dislike	-14822
▁deprived	-14823
▁preached	-14824
▁corruption	-14825
+)	-14826
cf	-14827
▁22,	-14828
▁JOIN	-14829
▁dome	-14830
▁tile	-14831
compare	-14832
mounted	-14833
▁Tuesday	-14834
▁grouped	-14835
▁kernels	-14836
▁desirous	-14837
"}	-14838
9*	-14839
Pe	-14840
17.	-14841
sex	-14842
ELIA	-14843
arks	-14844
nant	-14845
ogon	-14846
▁Tib	-14847
quest	-14848
▁Beth	-14849
▁Penn	-14850
▁Toby	-14851
▁cows	-14852
antine	-14853
olesky	-14854
▁stray	-14855
▁Apollo	-14856
▁frames	-14857
▁Religion	-14858
▁foremost	-14859
▁versions	-14860
▁Valentine	-14861
El	-14862
chi	-14863
said	-14864
▁MEL	-14865
idden	-14866
▁Dion	-14867
▁foli	-14868
mitted	-14869
▁brute	-14870
▁modes	-14871
▁sworn	-14872
itimate	-14873
request	-14874
▁harder	-14875
▁deceive	-14876
▁deepest	-14877
▁holiday	-14878
▁nowhere	-14879
▁traffic	-14880
▁inferred	-14881
▁likeness	-14882
▁unworthy	-14883
▁meanwhile	-14884
▁monstrous	-14885
▁describing	-14886
▁discretion	-14887
RAY	-14888
zar	-14889
ñor	-14890
▁SA	-14891
amis	-14892
into	-14893
these	-14894
▁moan	-14895
square	-14896
▁sandy	-14897
▁Others	-14898
▁Suppose	-14899
Scheduler	-14900
▁sunlight	-14901
▁hurriedly	-14902
▁positively	-14903
▁superintend	-14904
▁Fr	-14905
itia	-14906
▁24,	-14907
▁3),	-14908
▁Age	-14909
▁Ale	-14910
▁Bud	-14911
▁END	-14912
seven	-14913
▁glim	-14914
▁ripe	-14915
levant	-14916
▁Truth	-14917
▁flank	-14918
▁welfare	-14919
▁settings	-14920
▁providing	-14921
▁profitable	-14922
▁opportunities	-14923
▁unfortunately	-14924
▁[0	-14925
VERS	-14926
ropy	-14927
atics	-14928
Logger	-14929
legend	-14930
matmul	-14931
screen	-14932
▁stake	-14933
Segment	-14934
▁brandy	-14935
▁chunks	-14936
▁proves	-14937
▁loyalty	-14938
▁tribute	-14939
▁trifling	-14940
▁inquiries	-14941
iens	-14942
▁Alf	-14943
▁Grey	-14944
▁anat	-14945
▁hymn	-14946
broken	-14947
▁bunch	-14948
▁debts	-14949
▁murmur	-14950
▁ninety	-14951
▁setattr	-14952
▁sublime	-14953
▁Sinclair	-14954
▁confront	-14955
▁irresist	-14956
▁Cathedral	-14957
▁depending	-14958
▁affections	-14959
▁undertaking	-14960
▁Sn	-14961
▁Big	-14962
maker	-14963
▁shew	-14964
London	-14965
▁Shree	-14966
▁Trace	-14967
▁Output	-14968
LikeType	-14969
▁grandeur	-14970
▁consented	-14971
▁attempting	-14972
=%	-14973
Mat	-14974
▁SIM	-14975
fetch	-14976
units	-14977
▁Pick	-14978
decomp	-14979
▁Mayor	-14980
accuracy	-14981
▁insects	-14982
▁pillars	-14983
▁approval	-14984
▁CHARACTER	-14985
▁allowance	-14986
▁deliberately	-14987
7;	-14988
odd	-14989
▁70	-14990
000*	-14991
blue	-14992
▁Clo	-14993
▁Hud	-14994
▁SUB	-14995
▁rej	-14996
issub	-14997
▁Bapt	-14998
▁Hung	-14999
▁merr	-15000
engine	-15001
scaled	-15002
scores	-15003
tables	-15004
ismatch	-15005
visible	-15006
▁resort	-15007
▁lifting	-15008
▁precise	-15009
arguments	-15010
▁disabled	-15011
▁assertion	-15012
▁relatives	-15013
▁Explanation	-15014
8*	-15015
Art	-15016
▁nu	-15017
▁Gord	-15018
Widget	-15019
policy	-15020
▁captive	-15021
▁crosses	-15022
stablehlo	-15023
▁childish	-15024
▁perished	-15025
▁procured	-15026
▁dedicated	-15027
▁ornaments	-15028
▁sixteenth	-15029
▁persistent	-15030
▁Constantinople	-15031
▁NOR	-15032
▁wig	-15033
ulent	-15034
▁Gram	-15035
▁Past	-15036
▁gilt	-15037
▁Olymp	-15038
▁explo	-15039
▁wreat	-15040
boolean	-15041
▁covers	-15042
▁Anderson	-15043
▁enjoying	-15044
▁Ferdinand	-15045
▁attending	-15046
▁recollect	-15047
▁attraction	-15048
▁EEG	-15049
glyphs	-15050
▁cellar	-15051
▁incess	-15052
Argument	-15053
elements	-15054
▁talents	-15055
▁tyranny	-15056
▁elevated	-15057
▁Gentlemen	-15058
▁challenge	-15059
▁fashionable	-15060
▁appreciation	-15061
cub	-15062
▁Bol	-15063
▁GPU	-15064
▁lace	-15065
▁coinc	-15066
▁lovel	-15067
▁hammer	-15068
▁awaited	-15069
▁fatigue	-15070
▁prevail	-15071
▁director	-15072
▁protested	-15073
RL	-15074
bw	-15075
arum	-15076
neys	-15077
▁Eth	-15078
▁Way	-15079
▁unp	-15080
grily	-15081
▁Aven	-15082
▁duly	-15083
lation	-15084
▁Fleet	-15085
▁Excell	-15086
▁embark	-15087
defaults	-15088
▁Augustus	-15089
▁personality	-15090
(3)	-15091
15]	-15092
UFF	-15093
ilia	-15094
relu	-15095
▁Thor	-15096
▁Years	-15097
▁meets	-15098
▁Jonson	-15099
▁visual	-15100
▁adorned	-15101
▁illumin	-15102
▁rounded	-15103
ordinates	-15104
Constraint	-15105
ARS	-15106
bage	-15107
▁14.	-15108
▁SAL	-15109
▁cha	-15110
▁rash	-15111
ometer	-15112
▁Might	-15113
▁Norah	-15114
▁slack	-15115
▁reveal	-15116
▁awfully	-15117
▁caution	-15118
▁shorter	-15119
▁financial	-15120
▁Archbishop	-15121
▁variations	-15122
ALD	-15123
)}")	-15124
ORCH	-15125
THER	-15126
▁13.	-15127
▁sap	-15128
Found	-15129
▁Phys	-15130
▁Song	-15131
▁Speak	-15132
▁adopt	-15133
▁repet	-15134
▁sheer	-15135
ouncing	-15136
pection	-15137
session	-15138
▁arrows	-15139
▁expects	-15140
▁radiant	-15141
▁partners	-15142
▁staircase	-15143
▁Cumberland	-15144
▁complicated	-15145
iel	-15146
▁Abs	-15147
These	-15148
tools	-15149
▁Vers	-15150
▁besee	-15151
▁posts	-15152
▁Better	-15153
▁League	-15154
▁consol	-15155
fastmath	-15156
▁briefly	-15157
▁preceded	-15158
▁admission	-15159
▁canonical	-15160
▁dignified	-15161
▁inference	-15162
▁innumerable	-15163
(4,	-15164
Sim	-15165
ibl	-15166
}')	-15167
mill	-15168
wixt	-15169
eting	-15170
▁Beat	-15171
▁Ever	-15172
▁clut	-15173
▁enqu	-15174
▁evils	-15175
▁impet	-15176
▁saith	-15177
▁Museum	-15178
▁joyous	-15179
▁poetic	-15180
▁revolt	-15181
Integral	-15182
▁prudent	-15183
▁exported	-15184
▁obedient	-15185
▁terribly	-15186
▁phenomena	-15187
▁recognise	-15188
CD	-15189
ja	-15190
PWH	-15191
▁MO	-15192
---+	-15193
WELL	-15194
isen	-15195
▁Cel	-15196
▁Got	-15197
annah	-15198
insum	-15199
slots	-15200
vance	-15201
▁Dang	-15202
rusted	-15203
▁canal	-15204
▁trous	-15205
▁astron	-15206
▁whites	-15207
▁economy	-15208
▁sequences	-15209
▁succeeding	-15210
ths	-15211
abet	-15212
gain	-15213
wart	-15214
▁CUR	-15215
▁vib	-15216
ATHER	-15217
arers	-15218
button	-15219
▁CONTR	-15220
▁Leave	-15221
vertices	-15222
▁Academy	-15223
▁appoint	-15224
▁fragment	-15225
▁relating	-15226
▁FieldSpec	-15227
▁computing	-15228
▁fundamental	-15229
PI	-15230
eye	-15231
bold	-15232
iere	-15233
ilda	-15234
isle	-15235
mhlo	-15236
▁Doc	-15237
▁Gas	-15238
saved	-15239
▁Grim	-15240
▁cake	-15241
▁plac	-15242
orient	-15243
▁clasped	-15244
▁handful	-15245
▁dreaming	-15246
▁husbands	-15247
▁missionary	-15248
▁apprehension	-15249
[{	-15250
bys	-15251
nty	-15252
()``	-15253
ando	-15254
doct	-15255
oirs	-15256
push	-15257
▁Amy	-15258
Place	-15259
acked	-15260
actor	-15261
smith	-15262
▁Balt	-15263
▁Scar	-15264
▁cush	-15265
shared	-15266
▁Ghost	-15267
▁SymPy	-15268
ashable	-15269
▁boards	-15270
▁imagin	-15271
backends	-15272
▁Jupiter	-15273
▁banquet	-15274
▁helping	-15275
▁suppress	-15276
▁boundaries	-15277
▁Association	-15278
▁inscription	-15279
▁polynomials	-15280
+------------	-15281
▁[8	-15282
Prot	-15283
▁Bid	-15284
▁Cyr	-15285
▁bru	-15286
▁fir	-15287
▁forc	-15288
rances	-15289
▁Civil	-15290
▁didst	-15291
▁mouths	-15292
▁DTensor	-15293
▁concerns	-15294
▁exciting	-15295
▁residual	-15296
▁blessings	-15297
▁professor	-15298
agh	-15299
avg	-15300
rag	-15301
tre	-15302
▁cu	-15303
▁DON	-15304
▁Pil	-15305
▁ray	-15306
layer	-15307
▁Juan	-15308
unched	-15309
▁mirth	-15310
▁wears	-15311
▁balcon	-15312
▁errand	-15313
▁volcan	-15314
▁answering	-15315
dataclasses	-15316
03.	-15317
▁JE	-15318
hour	-15319
inch	-15320
▁DAV	-15321
▁Fau	-15322
▁vir	-15323
grown	-15324
randn	-15325
▁Diff	-15326
▁Pemb	-15327
▁meek	-15328
▁peer	-15329
▁Apost	-15330
▁Torch	-15331
lengths	-15332
▁unpack	-15333
▁Grecian	-15334
▁conserv	-15335
▁Victoria	-15336
▁allusion	-15337
expression	-15338
▁attendant	-15339
▁submitted	-15340
▁Englishmen	-15341
Di	-15342
”;	-15343
▁Kn	-15344
000.	-15345
▁Moor	-15346
▁eman	-15347
▁pomp	-15348
▁prow	-15349
▁Price	-15350
History	-15351
iations	-15352
maximum	-15353
ropolis	-15354
▁accent	-15355
▁modify	-15356
▁serves	-15357
▁lengths	-15358
▁weighted	-15359
▁personally	-15360
▁enthusiastic	-15361
mk	-15362
-15	-15363
MAP	-15364
eded	-15365
Entry	-15366
▁Cler	-15367
▁sket	-15368
▁slay	-15369
▁Georg	-15370
▁costs	-15371
Convert	-15372
▁Almost	-15373
▁polite	-15374
▁Cosette	-15375
▁generic	-15376
▁savages	-15377
▁occasioned	-15378
▁substitute	-15379
▁coefficient	-15380
bd	-15381
11,	-15382
LAY	-15383
▁/,	-15384
Phil	-15385
itur	-15386
izers	-15387
▁Plant	-15388
▁cigar	-15389
▁symmet	-15390
▁OSError	-15391
▁Saviour	-15392
▁metrics	-15393
▁presume	-15394
▁selling	-15395
▁advances	-15396
▁disaster	-15397
▁settlers	-15398
▁mandatory	-15399
▁whatsoever	-15400
▁recollection	-15401
▁considerations	-15402
<3	-15403
(__	-15404
uli	-15405
ATED	-15406
Grad	-15407
ifer	-15408
coord	-15409
ighed	-15410
▁bins	-15411
▁bite	-15412
verend	-15413
▁exult	-15414
▁Thanks	-15415
▁proofs	-15416
▁shades	-15417
untarily	-15418
neighbors	-15419
▁removing	-15420
distribution	-15421
4:	-15422
ulum	-15423
▁JUL	-15424
▁agg	-15425
▁hats	-15426
▁scan	-15427
▁Phill	-15428
▁users	-15429
▁barely	-15430
▁guided	-15431
quantize	-15432
▁Liberty	-15433
▁Robinson	-15434
▁convince	-15435
collective	-15436
▁offspring	-15437
▁partially	-15438
▁triumphant	-15439
▁ultimately	-15440
▁anticipated	-15441
▁possessions	-15442
′-	-15443
16]	-15444
RIB	-15445
VEL	-15446
[1,	-15447
[3]	-15448
adj	-15449
rac	-15450
uly	-15451
wen	-15452
▁tf	-15453
3333	-15454
acre	-15455
rane	-15456
▁Cru	-15457
emale	-15458
ulator	-15459
▁fraud	-15460
▁merge	-15461
display	-15462
▁shower	-15463
▁unfold	-15464
gradient	-15465
▁honours	-15466
▁massive	-15467
▁thanked	-15468
▁Russians	-15469
▁reaction	-15470
▁studying	-15471
categories	-15472
▁expansion	-15473
▁bitterness	-15474
▁encouragement	-15475
__",	-15476
▁gru	-15477
warps	-15478
▁fist	-15479
giving	-15480
ispens	-15481
▁Ellen	-15482
▁Small	-15483
▁Stone	-15484
▁destro	-15485
▁shrink	-15486
▁superf	-15487
▁tossed	-15488
▁Process	-15489
[...]
