<pad>	0
<s>	0
</s>	0
<unk>	0
▁t	-0
he	-1
▁a	-2
▁s	-3
ou	-4
▁m	-5
in	-6
▁w	-7
ha	-8
re	-9
▁b	-10
nd	-11
▁the	-12
is	-13
ll	-14
er	-15
▁I	-16
▁f	-17
▁l	-18
it	-19
▁d	-20
or	-21
on	-22
▁th	-23
ar	-24
▁n	-25
▁c	-26
ve	-27
▁T	-28
me	-29
hat	-30
▁to	-31
▁A	-32
▁he	-33
▁o	-34
▁h	-35
st	-36
ot	-37
an	-38
▁and	-39
▁y	-40
▁p	-41
et	-42
en	-43
se	-44
ing	-45
▁g	-46
ow	-47
▁be	-48
▁you	-49
▁of	-50
▁W	-51
at	-52
ome	-53
ay	-54
▁R	-55
▁in	-56
le	-57
▁C	-58
▁me	-59
▁my	-60
gh	-61
▁S	-62
▁M	-63
ith	-64
ce	-65
▁is	-66
ad	-67
ut	-68
ch	-69
▁ha	-70
▁B	-71
ld	-72
▁that	-73
es	-74
▁not	-75
▁thou	-76
oo	-77
▁e	-78
ght	-79
ri	-80
ill	-81
▁with	-82
▁N	-83
▁O	-84
▁And	-85
ir	-86
▁F	-87
nt	-88
ET	-89
ur	-90
UL	-91
▁L	-92
ul	-93
▁for	-94
▁li	-95
▁de	-96
▁J	-97
▁st	-98
ove	-99
▁u	-100
▁H	-101
al	-102
ke	-103
▁P	-104
▁it	-105
▁we	-106
id	-107
▁this	-108
ed	-109
om	-110
our	-111
EO	-112
OM	-113
OMEO	-114
▁ROMEO	-115
▁so	-116
▁her	-117
▁thy	-118
ain	-119
ly	-120
ck	-121
omeo	-122
one	-123
ight	-124
▁love	-125
▁Romeo	-126
EN	-127
▁as	-128
▁The	-129
ent	-130
her	-131
▁G	-132
as	-133
▁will	-134
im	-135
ver	-136
▁thee	-137
ore	-138
▁Th	-139
▁sha	-140
ood	-141
▁k	-142
▁fa	-143
ell	-144
▁his	-145
ould	-146
IO	-147
ra	-148
[_	-149
_]	-150
▁[_	-151
._]	-152
IET	-153
▁an	-154
▁JUL	-155
▁JULIET	-156
ear	-157
hi	-158
▁have	-159
RS	-160
ea	-161
ath	-162
art	-163
▁re	-164
▁him	-165
▁she	-166
if	-167
▁What	-168
▁E	-169
▁LA	-170
ag	-171
AR	-172
▁sh	-173
▁su	-174
ru	-175
▁but	-176
AP	-177
▁do	-178
APUL	-179
APULET	-180
▁CAPULET	-181
ake	-182
▁man	-183
▁your	-184
ER	-185
ord	-186
il	-187
▁ne	-188
▁shall	-189
▁on	-190
▁se	-191
ap	-192
▁no	-193
▁up	-194
RSE	-195
ant	-196
rom	-197
▁NU	-198
▁NURSE	-199
▁all	-200
▁mu	-201
out	-202
▁v	-203
▁by	-204
▁come	-205
▁To	-206
▁sp	-207
▁But	-208
oth	-209
nter	-210
ady	-211
▁That	-212
▁from	-213
ous	-214
ter	-215
alt	-216
han	-217
▁night	-218
RI	-219
ho	-220
ame	-221
ine	-222
all	-223
ive	-224
iet	-225
▁at	-226
▁D	-227
▁sw	-228
▁Cap	-229
▁hat	-230
▁Enter	-231
CE	-232
am	-233
ro	-234
row	-235
▁ar	-236
ep	-237
ie	-238
ast	-239
ind	-240
▁kn	-241
ulet	-242
▁whe	-243
▁Capulet	-244
ion	-245
ort	-246
uliet	-247
▁here	-248
▁death	-249
▁am	-250
▁go	-251
▁Juliet	-252
ss	-253
▁can	-254
▁good	-255
Ex	-256
OL	-257
▁what	-258
ue	-259
ack	-260
▁there	-261
ENV	-262
OLIO	-263
▁For	-264
▁BENV	-265
▁BENVOLIO	-266
CU	-267
yb	-268
CUT	-269
and	-270
sel	-271
hich	-272
▁MER	-273
▁are	-274
▁say	-275
CUTIO	-276
ybalt	-277
▁MERCUTIO	-278
urse	-279
▁Tybalt	-280
RIAR	-281
ound	-282
▁FRIAR	-283
ry	-284
ave	-285
▁day	-286
qu	-287
ong	-288
ook	-289
▁more	-290
ard	-291
nce	-292
▁Go	-293
▁our	-294
ge	-295
us	-296
ate	-297
▁bl	-298
▁ho	-299
▁now	-300
▁sir	-301
WR	-302
aw	-303
ime	-304
ont	-305
ure	-306
▁if	-307
ENCE	-308
▁let	-309
▁LAWR	-310
▁LAWRENCE	-311
mb	-312
▁Y	-313
are	-314
ers	-315
▁too	-316
▁then	-317
▁Nurse	-318
ak	-319
▁hath	-320
▁would	-321
au	-322
pp	-323
th	-324
▁’	-325
▁My	-326
▁art	-327
▁mar	-328
▁some	-329
ic	-330
io	-331
▁j	-332
fore	-333
DY	-334
▁ey	-335
▁lo	-336
ouse	-337
self	-338
▁one	-339
▁dead	-340
fe	-341
hy	-342
rie	-343
▁He	-344
▁out	-345
▁LADY	-346
▁Whe	-347
▁was	-348
▁than	-349
▁pr	-350
▁see	-351
▁know	-352
▁their	-353
▁should	-354
eet	-355
▁or	-356
▁sl	-357
▁mad	-358
▁fair	-359
▁lady	-360
ON	-361
▁r	-362
ble	-363
▁may	-364
▁Thou	-365
ful	-366
riar	-367
▁con	-368
▁they	-369
ng	-370
aid	-371
ess	-372
ink	-373
▁po	-374
▁dis	-375
entle	-376
▁them	-377
▁well	-378
▁Friar	-379
▁un	-380
▁wor	-381
▁This	-382
el	-383
▁ag	-384
▁al	-385
▁qu	-386
▁hast	-387
▁such	-388
▁Is	-389
ontag	-390
▁time	-391
age	-392
est	-393
unt	-394
▁pl	-395
ince	-396
very	-397
▁did	-398
▁yet	-399
other	-400
▁hand	-401
▁must	-402
▁tell	-403
▁Montag	-404
ct	-405
▁V	-406
ise	-407
ish	-408
▁As	-409
▁pre	-410
▁Come	-411
▁give	-412
▁light	-413
oy	-414
erc	-415
ire	-416
man	-417
▁It	-418
aris	-419
▁tru	-420
▁upon	-421
▁when	-422
▁Paris	-423
▁sweet	-424
▁gentle	-425
os	-426
▁en	-427
▁like	-428
▁make	-429
▁much	-430
▁these	-431
de	-432
eak	-433
ies	-434
ears	-435
▁com	-436
▁ear	-437
▁doth	-438
▁word	-439
▁again	-440
AN	-441
ps	-442
Exe	-443
ite	-444
orn	-445
urn	-446
▁Be	-447
▁Pr	-448
▁ab	-449
▁wo	-450
▁bre	-451
orrow	-452
▁look	-453
Exeunt	-454
▁heart	-455
ide	-456
ilt	-457
▁In	-458
▁So	-459
ment	-460
ather	-461
▁gone	-462
▁live	-463
▁were	-464
▁Montague	-465
AL	-466
▁co	-467
▁ex	-468
Exit	-469
atch	-470
▁How	-471
▁mis	-472
▁back	-473
▁Where	-474
▁where	-475
em	-476
▁‘	-477
ALT	-478
▁By	-479
▁Or	-480
▁cl	-481
▁tw	-482
▁us	-483
aven	-484
▁Why	-485
▁new	-486
▁who	-487
▁With	-488
▁take	-489
▁Which	-490
▁which	-491
▁heaven	-492
▁No	-493
▁fl	-494
▁fo	-495
ither	-496
▁call	-497
▁eyes	-498
▁name	-499
▁part	-500
▁marri	-501
▁speak	-502
ig	-503
un	-504
hed	-505
ose	-506
▁Of	-507
▁St	-508
rave	-509
▁men	-510
ol	-511
▁U	-512
per	-513
▁If	-514
▁We	-515
▁aw	-516
ance	-517
ount	-518
ther	-519
▁God	-520
▁You	-521
▁ban	-522
▁old	-523
▁Then	-524
▁There	-525
▁house	-526
,—	-527
AM	-528
pe	-529
ans	-530
ene	-531
ife	-532
raw	-533
▁Sc	-534
▁br	-535
▁mo	-536
nder	-537
ving	-538
▁how	-539
aught	-540
rence	-541
▁dear	-542
▁mine	-543
▁comes	-544
ick	-545
ity	-546
own	-547
tis	-548
▁An	-549
▁Ay	-550
▁ch	-551
▁sc	-552
ence	-553
ings	-554
▁Law	-555
▁bed	-556
▁Merc	-557
▁true	-558
▁Prince	-559
▁Lawrence	-560
CEN	-561
ace	-562
ale	-563
ins	-564
▁ru	-565
CENE	-566
mber	-567
utio	-568
▁Now	-569
▁hear	-570
▁SCENE	-571
▁other	-572
▁stand	-573
▁Mercutio	-574
IS	-575
dd	-576
day	-577
les	-578
▁II	-579
ARIS	-580
able	-581
aint	-582
ough	-583
well	-584
▁Here	-585
▁Lady	-586
▁find	-587
▁hour	-588
▁lord	-589
▁stay	-590
▁very	-591
▁wilt	-592
▁PARIS	-593
▁Scene	-594
▁blood	-595
▁father	-596
te	-597
IRS	-598
ark	-599
ice	-600
ven	-601
▁ke	-602
▁wr	-603
IRST	-604
▁She	-605
▁die	-606
▁dre	-607
▁gre	-608
▁wit	-609
▁life	-610
▁FIRST	-611
▁hence	-612
US	-613
ft	-614
oud	-615
urs	-616
▁af	-617
▁le	-618
ious	-619
ower	-620
rief	-621
▁Who	-622
▁chi	-623
▁des	-624
▁had	-625
▁lie	-626
riend	-627
▁cann	-628
▁fear	-629
▁head	-630
▁long	-631
▁maid	-632
PS	-633
wn	-634
alk	-635
oom	-636
oul	-637
▁Do	-638
▁ri	-639
AMPS	-640
arth	-641
▁Sha	-642
▁beg	-643
▁cha	-644
▁joy	-645
ished	-646
▁face	-647
▁keep	-648
▁made	-649
▁stre	-650
AMPSON	-651
▁child	-652
▁young	-653
aughter	-654
▁cannot	-655
▁friend	-656
▁SAMPSON	-657
OR	-658
ty	-659
ANT	-660
ERV	-661
ger	-662
igh	-663
itt	-664
old	-665
ows	-666
ree	-667
leep	-668
less	-669
ress	-670
▁any	-671
▁bid	-672
▁eye	-673
▁lea	-674
▁ser	-675
▁woe	-676
▁SERV	-677
▁been	-678
▁pray	-679
▁earth	-680
▁tears	-681
▁think	-682
▁letter	-683
▁SERVANT	-684
AG	-685
dy	-686
lp	-687
ile	-688
men	-689
ull	-690
▁On	-691
eace	-692
urch	-693
▁Thy	-694
▁bet	-695
▁bri	-696
▁son	-697
ousin	-698
▁Good	-699
▁Well	-700
▁away	-701
▁both	-702
▁holy	-703
▁dream	-704
▁grave	-705
▁world	-706
▁before	-707
▁cousin	-708
▁married	-709
YB	-710
op	-711
ary	-712
ase	-713
der	-714
ock	-715
ses	-716
▁ro	-717
akes	-718
eter	-719
ison	-720
vant	-721
▁TYB	-722
▁Ver	-723
▁che	-724
▁pro	-725
▁put	-726
ounty	-727
▁down	-728
▁fall	-729
▁need	-730
illain	-731
▁sound	-732
▁TYBALT	-733
ek	-734
iv	-735
mp	-736
sw	-737
ua	-738
USI	-739
ars	-740
ass	-741
aut	-742
iss	-743
rel	-744
vol	-745
fort	-746
hing	-747
▁end	-748
▁own	-749
▁run	-750
▁sun	-751
▁war	-752
▁hate	-753
▁kill	-754
▁kins	-755
▁lies	-756
▁lips	-757
▁rest	-758
▁weep	-759
▁wife	-760
▁beaut	-761
▁never	-762
▁slain	-763
▁County	-764
▁breath	-765
▁mother	-766
▁banished	-767
▁daughter	-768
EG	-769
UE	-770
cc	-771
NCE	-772
ORY	-773
REG	-774
ign	-775
int	-776
led	-777
ran	-778
red	-779
▁ad	-780
arry	-781
ient	-782
vers	-783
▁Ben	-784
▁Let	-785
▁Not	-786
▁PRI	-787
▁ere	-788
▁ill	-789
antua	-790
▁GREG	-791
▁cour	-792
▁move	-793
▁soul	-794
▁Shall	-795
▁early	-796
▁Mantua	-797
▁PRINCE	-798
▁GREGORY	-799
av	-800
Tis	-801
ier	-802
ona	-803
ond	-804
ust	-805
▁Al	-806
▁bo	-807
▁fe	-808
ause	-809
band	-810
ords	-811
rant	-812
▁Mad	-813
▁cou	-814
▁mur	-815
▁off	-816
▁two	-817
▁unt	-818
▁use	-819
aster	-820
volio	-821
▁When	-822
▁help	-823
▁same	-824
▁till	-825
onight	-826
▁Peter	-827
▁peace	-828
▁those	-829
▁Verona	-830
▁church	-831
▁villain	-832
▁Benvolio	-833
▁gentleman	-834
CI	-835
EC	-836
ms	-837
pt	-838
ONT	-839
ool	-840
ppy	-841
▁Re	-842
▁bu	-843
▁sm	-844
▁tr	-845
AGUE	-846
CIAN	-847
ETER	-848
ward	-849
▁Nay	-850
▁hus	-851
▁sin	-852
▁tor	-853
asure	-854
ought	-855
▁Give	-856
▁MONT	-857
▁MUSI	-858
▁Some	-859
▁best	-860
▁cell	-861
▁cons	-862
▁ever	-863
▁morn	-864
▁news	-865
▁none	-866
▁quar	-867
▁soon	-868
▁talk	-869
ursday	-870
▁Being	-871
▁PETER	-872
▁alone	-873
▁could	-874
▁faith	-875
▁grief	-876
▁hands	-877
▁haste	-878
▁leave	-879
▁lives	-880
▁place	-881
▁myself	-882
▁husband	-883
▁nothing	-884
▁tonight	-885
▁MONTAGUE	-886
▁MUSICIAN	-887
▁Thursday	-888
AS	-889
HAS	-890
hes	-891
ied	-892
imp	-893
lse	-894
pen	-895
sic	-896
ult	-897
une	-898
▁Ah	-899
▁Un	-900
▁ra	-901
▁wh	-902
▁ye	-903
llow	-904
▁All	-905
▁Her	-906
▁int	-907
▁tom	-908
HASAR	-909
ament	-910
ardon	-911
ittle	-912
▁BALT	-913
▁Your	-914
▁comp	-915
▁late	-916
▁many	-917
▁mist	-918
▁most	-919
▁poor	-920
▁said	-921
▁send	-922
▁Madam	-923
▁sleep	-924
▁still	-925
▁thine	-926
▁thing	-927
▁watch	-928
▁little	-929
▁master	-930
▁another	-931
▁kinsman	-932
▁tomorrow	-933
▁BALTHASAR	-934
.—	-935
ab	-936
lt	-937
ub	-938
up	-939
ail	-940
ask	-941
ats	-942
get	-943
ist	-944
umb	-945
ains	-946
fect	-947
hile	-948
ling	-949
ness	-950
oose	-951
tend	-952
▁III	-953
▁Ser	-954
▁app	-955
▁law	-956
▁mer	-957
▁per	-958
▁set	-959
▁ste	-960
▁tre	-961
▁way	-962
aking	-963
onour	-964
ument	-965
▁Doth	-966
▁Fare	-967
▁Hold	-968
▁Will	-969
▁bear	-970
▁chan	-971
▁conf	-972
▁disc	-973
▁dost	-974
▁draw	-975
▁heav	-976
▁pres	-977
▁tong	-978
▁wall	-979
▁wind	-980
▁House	-981
▁Marry	-982
▁being	-983
▁cheek	-984
▁forth	-985
▁happy	-986
▁music	-987
▁years	-988
▁better	-989
▁hither	-990
▁poison	-991
▁Servant	-992
▁Farewell	-993
▁Therefore	-994
!—	-995
ff	-996
xt	-997
ike	-998
ret	-999
▁gr	-1000
irst	-1001
ning	-1002
▁lay	-1003
▁mon	-1004
▁nor	-1005
▁pri	-1006
atter	-1007
▁Than	-1008
▁body	-1009
▁fool	-1010
▁pass	-1011
▁play	-1012
▁reme	-1013
▁turn	-1014
▁about	-1015
▁bring	-1016
▁every	-1017
▁great	-1018
▁makes	-1019
▁shame	-1020
▁thank	-1021
▁whose	-1022
▁beauty	-1023
▁pardon	-1024
▁tongue	-1025
▁comfort	-1026
▁morning	-1027
▁quarrel	-1028
▁thought	-1029
▁warrant	-1030
▁without	-1031
▁marriage	-1032
▁therefore	-1033
CT	-1034
lf	-1035
OND	-1036
ade	-1037
ial	-1038
its	-1039
lic	-1040
oke	-1041
ory	-1042
ost	-1043
ues	-1044
urt	-1045
▁At	-1046
▁IV	-1047
▁Se	-1048
▁Sp	-1049
▁hu	-1050
▁jo	-1051
▁te	-1052
▁va	-1053
▁ve	-1054
come	-1055
enty	-1056
hold	-1057
ones	-1058
osal	-1059
rows	-1060
swer	-1061
▁ACT	-1062
▁One	-1063
▁SEC	-1064
▁air	-1065
▁boy	-1066
▁min	-1067
▁nat	-1068
▁ple	-1069
▁pur	-1070
▁sad	-1071
▁saw	-1072
▁sec	-1073
▁sil	-1074
ation	-1075
cause	-1076
onest	-1077
▁Hath	-1078
▁Have	-1079
▁They	-1080
▁cont	-1081
▁coun	-1082
▁dare	-1083
▁dist	-1084
▁done	-1085
▁ears	-1086
▁else	-1087
▁even	-1088
▁fell	-1089
▁hide	-1090
▁high	-1091
▁kind	-1092
▁kiss	-1093
▁mind	-1094
▁once	-1095
▁pale	-1096
▁rich	-1097
▁says	-1098
▁stir	-1099
▁stra	-1100
perate	-1101
▁Rosal	-1102
▁black	-1103
▁bound	-1104
▁bride	-1105
▁calls	-1106
▁first	-1107
▁heavy	-1108
▁madam	-1109
▁shalt	-1110
▁SECOND	-1111
▁flower	-1112
▁honour	-1113
▁sorrow	-1114
▁twenty	-1115
▁within	-1116
▁himself	-1117
▁Rosaline	-1118
▁straight	-1119
▁desperate	-1120
az	-1121
be	-1122
cu	-1123
gs	-1124
ach	-1125
ens	-1126
for	-1127
sed	-1128
ury	-1129
▁du	-1130
▁gl	-1131
ason	-1132
ians	-1133
oman	-1134
ouds	-1135
race	-1136
reet	-1137
rown	-1138
uest	-1139
yard	-1140
▁Nor	-1141
▁arm	-1142
▁bel	-1143
▁del	-1144
▁dev	-1145
▁ent	-1146
▁fie	-1147
▁res	-1148
▁thr	-1149
▁tri	-1150
cient	-1151
thing	-1152
▁Take	-1153
▁came	-1154
▁case	-1155
▁days	-1156
▁fare	-1157
▁flow	-1158
▁foot	-1159
▁full	-1160
▁gold	-1161
▁last	-1162
▁lear	-1163
▁mean	-1164
▁meet	-1165
▁only	-1166
▁open	-1167
▁show	-1168
▁wise	-1169
▁writ	-1170
▁above	-1171
▁fight	-1172
▁marry	-1173
▁means	-1174
▁noble	-1175
▁serve	-1176
▁swear	-1177
▁torch	-1178
▁vault	-1179
▁youth	-1180
▁banish	-1181
▁forget	-1182
▁ground	-1183
▁murder	-1184
▁others	-1185
▁against	-1186
▁mistress	-1187
▁monument	-1188
AT	-1189
CH	-1190
ac	-1191
iz	-1192
sh	-1193
any	-1194
den	-1195
ech	-1196
eed	-1197
hip	-1198
ild	-1199
ned	-1200
▁Sh	-1201
▁Up	-1202
ATCH	-1203
aith	-1204
atis	-1205
east	-1206
ench	-1207
ents	-1208
etch	-1209
oice	-1210
osom	-1211
reat	-1212
ries	-1213
vent	-1214
▁Did	-1215
▁Yet	-1216
▁bir	-1217
▁har	-1218
▁opp	-1219
▁pil	-1220
▁rep	-1221
▁sea	-1222
arden	-1223
iness	-1224
ortal	-1225
▁Cell	-1226
▁Look	-1227
▁Stay	-1228
▁bese	-1229
▁bite	-1230
▁book	-1231
▁dark	-1232
▁disp	-1233
▁doom	-1234
▁enem	-1235
▁feel	-1236
▁fire	-1237
▁four	-1238
▁into	-1239
▁less	-1240
▁merc	-1241
▁over	-1242
▁past	-1243
▁sing	-1244
▁tomb	-1245
▁want	-1246
▁wast	-1247
▁woes	-1248
▁Hence	-1249
▁WATCH	-1250
▁bones	-1251
▁bosom	-1252
▁court	-1253
▁feast	-1254
▁found	-1255
▁merry	-1256
▁might	-1257
▁short	-1258
▁sight	-1259
▁stran	-1260
▁sword	-1261
▁times	-1262
fection	-1263
▁Garden	-1264
▁Street	-1265
▁answer	-1266
▁clouds	-1267
▁follow	-1268
▁lament	-1269
▁silver	-1270
▁though	-1271
▁ancient	-1272
▁chamber	-1273
▁confess	-1274
▁counsel	-1275
▁Capulets	-1276
▁farewell	-1277
▁churchyard	-1278
ls	-1279
The	-1280
alm	-1281
ber	-1282
dge	-1283
eth	-1284
irt	-1285
ray	-1286
rer	-1287
way	-1288
▁Ar	-1289
▁Ch	-1290
▁Po	-1291
▁Su	-1292
dden	-1293
deed	-1294
eath	-1295
fied	-1296
hood	-1297
lesh	-1298
orse	-1299
pare	-1300
pect	-1301
ried	-1302
rift	-1303
rink	-1304
road	-1305
sand	-1306
usic	-1307
▁Cha	-1308
▁His	-1309
▁Out	-1310
▁Too	-1311
▁Was	-1312
▁acc	-1313
▁aff	-1314
▁bit	-1315
▁dag	-1316
▁dru	-1317
▁get	-1318
▁gir	-1319
▁hit	-1320
▁hot	-1321
▁pat	-1322
▁ran	-1323
▁rem	-1324
▁sit	-1325
▁str	-1326
▁sub	-1327
emper	-1328
otion	-1329
▁Call	-1330
▁Lord	-1331
▁More	-1332
▁Page	-1333
▁Till	-1334
▁Turn	-1335
▁burn	-1336
▁care	-1337
▁cold	-1338
▁fing	-1339
▁fort	-1340
▁home	-1341
▁jest	-1342
▁mark	-1343
▁near	-1344
▁next	-1345
▁pret	-1346
▁sick	-1347
▁simp	-1348
▁sole	-1349
▁stri	-1350
▁supp	-1351
▁vile	-1352
▁wedd	-1353
▁wret	-1354
▁Alack	-1355
▁after	-1356
▁canst	-1357
▁close	-1358
▁corse	-1359
▁flesh	-1360
▁hours	-1361
▁looks	-1362
▁prove	-1363
▁quick	-1364
▁shows	-1365
▁since	-1366
▁stars	-1367
▁under	-1368
▁words	-1369
▁behold	-1370
▁bloody	-1371
▁dagger	-1372
▁enough	-1373
▁honest	-1374
▁indeed	-1375
▁lovers	-1376
▁loving	-1377
▁sudden	-1378
▁tender	-1379
▁woeful	-1380
▁because	-1381
▁beseech	-1382
▁fearful	-1383
▁measure	-1384
▁through	-1385
▁thyself	-1386
▁remember	-1387
▁thousand	-1388
▁gentlemen	-1389
BR	-1390
Go	-1391
bt	-1392
gu	-1393
nk	-1394
tw	-1395
att	-1396
bed	-1397
cle	-1398
eds	-1399
ert	-1400
ets	-1401
hal	-1402
has	-1403
hec	-1404
lew	-1405
nds	-1406
ons	-1407
oof	-1408
pot	-1409
rah	-1410
ren	-1411
uck	-1412
uff	-1413
ush	-1414
ute	-1415
▁Sw	-1416
▁sk	-1417
▁yo	-1418
BRAM	-1419
alth	-1420
ants	-1421
cher	-1422
ging	-1423
here	-1424
itiz	-1425
mend	-1426
ners	-1427
ngth	-1428
omen	-1429
ross	-1430
teen	-1431
▁Can	-1432
▁Hie	-1433
▁May	-1434
▁act	-1435
▁age	-1436
▁ask	-1437
▁bow	-1438
▁cho	-1439
▁cry	-1440
▁cut	-1441
▁dan	-1442
▁dep	-1443
▁dog	-1444
▁dou	-1445
▁emp	-1446
▁env	-1447
▁foe	-1448
▁imp	-1449
▁kne	-1450
▁lad	-1451
▁nay	-1452
▁oft	-1453
▁pen	-1454
▁ret	-1455
▁sum	-1456
▁val	-1457
▁vow	-1458
▁why	-1459
▁woo	-1460
aring	-1461
enter	-1462
hasar	-1463
ister	-1464
stant	-1465
vance	-1466
▁Balt	-1467
▁From	-1468
▁Hall	-1469
▁Love	-1470
▁Room	-1471
▁conj	-1472
▁deep	-1473
▁door	-1474
▁excu	-1475
▁gall	-1476
▁girl	-1477
▁hang	-1478
▁hoar	-1479
▁hurt	-1480
▁lark	-1481
▁mask	-1482
▁read	-1483
▁seen	-1484
▁side	-1485
▁sigh	-1486
▁slay	-1487
▁slew	-1488
▁slow	-1489
▁tale	-1490
▁unto	-1491
▁wish	-1492
hecary	-1493
▁ABRAM	-1494
▁Saint	-1495
▁These	-1496
▁Watch	-1497
▁break	-1498
▁cords	-1499
▁count	-1500
▁enemy	-1501
▁exile	-1502
▁fetch	-1503
▁goose	-1504
▁joint	-1505
▁maids	-1506
▁match	-1507
▁moved	-1508
▁noise	-1509
▁point	-1510
▁power	-1511
▁saint	-1512
▁satis	-1513
▁spoke	-1514
▁three	-1515
▁thumb	-1516
▁voice	-1517
▁while	-1518
▁wound	-1519
itizens	-1520
▁attend	-1521
▁bitter	-1522
▁breast	-1523
▁bright	-1524
▁cheeks	-1525
▁having	-1526
▁itself	-1527
▁maiden	-1528
▁matter	-1529
▁morrow	-1530
▁nature	-1531
▁reason	-1532
▁second	-1533
▁speaks	-1534
▁yonder	-1535
▁Chamber	-1536
▁brother	-1537
▁company	-1538
▁envious	-1539
▁flowers	-1540
▁herself	-1541
▁present	-1542
▁servant	-1543
pothecary	-1544
▁Servants	-1545
▁fourteen	-1546
▁strength	-1547
▁Balthasar	-1548
▁Montagues	-1549
▁banishment	-1550
,’	-1551
HN	-1552
af	-1553
bs	-1554
cl	-1555
gr	-1556
hn	-1557
ip	-1558
mn	-1559
ud	-1560
wo	-1561
AGE	-1562
God	-1563
OHN	-1564
agg	-1565
air	-1566
con	-1567
dom	-1568
ery	-1569
gri	-1570
ift	-1571
ily	-1572
ked	-1573
ken	-1574
ner	-1575
nes	-1576
ohn	-1577
ram	-1578
tre	-1579
ump	-1580
▁Am	-1581
▁Bl	-1582
▁Ha	-1583
▁Me	-1584
▁Pl	-1585
▁TH	-1586
▁im	-1587
▁wa	-1588
They	-1589
With	-1590
aken	-1591
chan	-1592
ched	-1593
head	-1594
host	-1595
iece	-1596
iful	-1597
ires	-1598
iron	-1599
ivil	-1600
ming	-1601
mour	-1602
over	-1603
ring	-1604
rust	-1605
ship	-1606
time	-1607
ting	-1608
upid	-1609
▁Com	-1610
▁Ere	-1611
▁Get	-1612
▁Our	-1613
▁See	-1614
▁Sir	-1615
▁Two	-1616
▁bur	-1617
▁dam	-1618
▁def	-1619
▁den	-1620
▁dew	-1621
▁div	-1622
▁far	-1623
▁gro	-1624
▁lam	-1625
▁met	-1626
▁pub	-1627
▁sen	-1628
▁ter	-1629
▁vis	-1630
cious	-1631
ickle	-1632
ience	-1633
imely	-1634
ining	-1635
ition	-1636
itten	-1637
lling	-1638
ready	-1639
ustom	-1640
▁Alas	-1641
▁Anon	-1642
▁JOHN	-1643
▁John	-1644
▁Like	-1645
▁Poor	-1646
▁Such	-1647
▁Tell	-1648
▁Upon	-1649
▁Wilt	-1650
▁begg	-1651
▁bles	-1652
▁braw	-1653
▁char	-1654
▁cond	-1655
▁crow	-1656
▁desp	-1657
▁dove	-1658
▁ease	-1659
▁exce	-1660
▁five	-1661
▁fore	-1662
▁form	-1663
▁hair	-1664
▁half	-1665
▁hare	-1666
▁heir	-1667
▁hell	-1668
▁hold	-1669
▁hope	-1670
▁laid	-1671
▁lead	-1672
▁moon	-1673
▁nine	-1674
▁prom	-1675
▁ring	-1676
▁rude	-1677
▁seek	-1678
▁sent	-1679
▁soft	-1680
▁spir	-1681
▁tear	-1682
▁thus	-1683
▁took	-1684
▁tort	-1685
▁wake	-1686
▁walk	-1687
▁weak	-1688
▁wild	-1689
▁wits	-1690
Within	-1691
iteous	-1692
stance	-1693
▁Could	-1694
▁Cupid	-1695
▁Death	-1696
▁Speak	-1697
▁Sweet	-1698
▁Young	-1699
▁anger	-1700
▁begin	-1701
▁brief	-1702
▁cause	-1703
▁chide	-1704
▁civil	-1705
▁dance	-1706
▁didst	-1707
▁drink	-1708
▁ghost	-1709
▁gives	-1710
▁guest	-1711
▁hadst	-1712
▁heads	-1713
▁knave	-1714
▁knock	-1715
▁learn	-1716
▁quoth	-1717
▁rough	-1718
▁scorn	-1719
▁shape	-1720
▁sighs	-1721
▁state	-1722
▁trust	-1723
▁wench	-1724
▁wings	-1725
▁woman	-1726
▁Gentle	-1727
▁asleep	-1728
▁awhile	-1729
▁change	-1730
▁dreams	-1731
▁either	-1732
▁excuse	-1733
▁fellow	-1734
▁houses	-1735
▁joyful	-1736
▁ladies	-1737
▁living	-1738
▁longer	-1739
▁mortal	-1740
▁pilgri	-1741
▁pretty	-1742
▁public	-1743
▁return	-1744
▁shrift	-1745
▁simple	-1746
▁swords	-1747
▁things	-1748
▁toward	-1749
▁withal	-1750
▁already	-1751
▁blessed	-1752
▁consent	-1753
▁consort	-1754
▁delight	-1755
▁fingers	-1756
▁fortune	-1757
▁letters	-1758
▁quickly	-1759
▁strange	-1760
▁wedding	-1761
▁written	-1762
▁pleasure	-1763
▁untimely	-1764
▁yourself	-1765
▁musicians	-1766
▁satisfied	-1767
▁honourable	-1768
▁lamentable	-1769
.’	-1770
?’	-1771
Ay	-1772
Kn	-1773
OT	-1774
ix	-1775
no	-1776
pl	-1777
sp	-1778
we	-1779
ARY	-1780
HEC	-1781
HOR	-1782
POT	-1783
Ret	-1784
ang	-1785
ash	-1786
aze	-1787
cha	-1788
che	-1789
cis	-1790
cks	-1791
eal	-1792
els	-1793
ern	-1794
ieu	-1795
iol	-1796
ior	-1797
len	-1798
mit	-1799
omb	-1800
rew	-1801
uly	-1802
ume	-1803
uth	-1804
uts	-1805
ves	-1806
▁Ab	-1807
▁Ne	-1808
▁Wh	-1809
▁ay	-1810
▁ty	-1811
▁ur	-1812
Hear	-1813
atal	-1814
ates	-1815
augh	-1816
ches	-1817
cing	-1818
each	-1819
feit	-1820
gain	-1821
give	-1822
ieve	-1823
inks	-1824
ised	-1825
kest	-1826
lest	-1827
llen	-1828
most	-1829
oney	-1830
ouch	-1831
pier	-1832
ping	-1833
read	-1834
seem	-1835
some	-1836
wort	-1837
▁Art	-1838
▁Gre	-1839
▁Had	-1840
▁Sus	-1841
▁Tut	-1842
▁Wel	-1843
▁ass	-1844
▁bad	-1845
▁baw	-1846
▁big	-1847
▁bus	-1848
▁car	-1849
▁cir	-1850
▁coz	-1851
▁cru	-1852
▁din	-1853
▁dri	-1854
▁dry	-1855
▁fal	-1856
▁gra	-1857
▁lov	-1858
▁occ	-1859
▁odd	-1860
▁orn	-1861
▁pay	-1862
▁shr	-1863
▁sme	-1864
▁unl	-1865
▁wel	-1866
▁wis	-1867
HORUS	-1868
Heart	-1869
Knock	-1870
ately	-1871
earch	-1872
eding	-1873
ering	-1874
faith	-1875
groom	-1876
isses	-1877
light	-1878
ments	-1879
ounds	-1880
right	-1881
roach	-1882
sworn	-1883
venge	-1884
woman	-1885
▁APOT	-1886
▁Away	-1887
▁Both	-1888
▁Came	-1889
▁Draw	-1890
▁Fort	-1891
▁Fran	-1892
▁Hast	-1893
▁Make	-1894
▁PAGE	-1895
▁Thus	-1896
▁Were	-1897
▁bare	-1898
▁beat	-1899
▁bird	-1900
▁bold	-1901
▁born	-1902
▁brow	-1903
▁bury	-1904
▁city	-1905
▁clos	-1906
▁cure	-1907
▁curt	-1908
▁date	-1909
▁dece	-1910
▁dies	-1911
▁east	-1912
▁fain	-1913
▁fart	-1914
▁fier	-1915
▁fine	-1916
▁forb	-1917
▁foul	-1918
▁fray	-1919
▁gave	-1920
▁glad	-1921
▁goss	-1922
▁grey	-1923
▁hard	-1924
▁hers	-1925
▁iron	-1926
▁	-1927
e	-1928
t	-1929
o	-1930
a	-1931
h	-1932
s	-1933
n	-1934
i	-1935
r	-1936
l	-1937
d	-1938
u	-1939
m	-1940
,	-1941
.	-1942
y	-1943
w	-1944
c	-1945
f	-1946
g	-1947
b	-1948
I	-1949
p	-1950
E	-1951
T	-1952
v	-1953
A	-1954
’	-1955
O	-1956
R	-1957
k	-1958
L	-1959
C	-1960
S	-1961
M	-1962
N	-1963
W	-1964
U	-1965
?	-1966
P	-1967
;	-1968
B	-1969
F	-1970
_	-1971
!	-1972
H	-1973
J	-1974
G	-1975
Y	-1976
D	-1977
V	-1978
x	-1979
-	-1980
[	-1981
]	-1982
j	-1983
:	-1984
—	-1985
q	-1986
‘	-1987
z	-1988
K	-1989
Z	-1990
&	-1991
Q	-1992
æ	-1993
“	-1994
”	-1995
